<unk>	0
<s>	0
</s>	0
[ZH]	0
[EN]	0
[YI]	0
󲜐	0
󲜑	0
󲜒	0
󲜓	0
󲜔	0
󲜕	0
󲜖	0
󲜗	0
󲜘	0
󲜙	0
󲜚	0
󲜛	0
󲜜	0
󲜝	0
󲜞	0
󲜟	0
󲜠	0
󲜡	0
󲜢	0
󲜣	0
󲜤	0
󲜥	0
󲜦	0
󲜧	0
󲜨	0
󲜩	0
󲜪	0
󲜫	0
󲜬	0
󲜭	0
󲜮	0
󲜯	0
󲜰	0
󲜱	0
󲜲	0
󲜳	0
󲜴	0
󲜵	0
󲜶	0
󲜷	0
󲜸	0
󲜹	0
󲜺	0
󲜻	0
󲜼	0
󲜽	0
󲜾	0
󲜿	0
󲝀	0
󲝁	0
󲝂	0
󲝃	0
󲝄	0
󲝅	0
󲝆	0
󲝇	0
󲝈	0
󲝉	0
󲝊	0
󲝋	0
󲝌	0
󲝍	0
󲝎	0
󲝏	0
󲝐	0
󲝑	0
󲝒	0
󲝓	0
󲝔	0
󲝕	0
󲝖	0
󲝗	0
󲝘	0
󲝙	0
󲝚	0
󲝛	0
󲝜	0
󲝝	0
󲝞	0
󲝟	0
󲝠	0
󲝡	0
󲝢	0
󲝣	0
󲝤	0
󲝥	0
󲝦	0
󲝧	0
󲝨	0
󲝩	0
󲝪	0
󲝫	0
󲝬	0
󲝭	0
󲝮	0
󲝯	0
󲝰	0
󲝱	0
󲝲	0
󲝳	0
󲝴	0
󲝵	0
󲝶	0
󲝷	0
󲝸	0
󲝹	0
󲝺	0
󲝻	0
󲝼	0
󲝽	0
󲝾	0
󲝿	0
󲞀	0
󲞁	0
󲞂	0
󲞃	0
󲞄	0
󲞅	0
󲞆	0
󲞇	0
󲞈	0
󲞉	0
󲞊	0
󲞋	0
󲞌	0
󲞍	0
󲞎	0
󲞏	0
󲞐	0
󲞑	0
󲞒	0
󲞓	0
󲞔	0
󲞕	0
󲞖	0
󲞗	0
󲞘	0
󲞙	0
󲞚	0
󲞛	0
󲞜	0
󲞝	0
󲞞	0
󲞟	0
󲞠	0
󲞡	0
󲞢	0
󲞣	0
󲞤	0
󲞥	0
󲞦	0
󲞧	0
󲞨	0
󲞩	0
󲞪	0
󲞫	0
󲞬	0
󲞭	0
󲞮	0
󲞯	0
󲞰	0
󲞱	0
󲞲	0
󲞳	0
󲞴	0
󲞵	0
󲞶	0
󲞷	0
󲞸	0
󲞹	0
󲞺	0
󲞻	0
󲞼	0
󲞽	0
󲞾	0
󲞿	0
󲟀	0
󲟁	0
󲟂	0
󲟃	0
󲟄	0
󲟅	0
󲟆	0
󲟇	0
󲟈	0
󲟉	0
󲟊	0
󲟋	0
󲟌	0
󲟍	0
󲟎	0
󲟏	0
󲟐	0
󲟑	0
󲟒	0
󲟓	0
󲟔	0
󲟕	0
󲟖	0
󲟗	0
󲟘	0
󲟙	0
󲟚	0
󲟛	0
󲟜	0
󲟝	0
󲟞	0
󲟟	0
󲟠	0
󲟡	0
󲟢	0
󲟣	0
󲟤	0
󲟥	0
󲟦	0
󲟧	0
󲟨	0
󲟩	0
󲟪	0
󲟫	0
󲟬	0
󲟭	0
󲟮	0
󲟯	0
󲟰	0
󲟱	0
󲟲	0
󲟳	0
󲟴	0
󲟵	0
󲟶	0
󲟷	0
󲟸	0
󲟹	0
󲟺	0
󲟻	0
󲟼	0
󲟽	0
󲟾	0
󲟿	0
󲠀	0
󲠁	0
󲠂	0
󲠃	0
󲠄	0
󲠅	0
󲠆	0
󲠇	0
󲠈	0
󲠉	0
󲠊	0
󲠋	0
󲠌	0
󲠍	0
󲠎	0
󲠏	0
󲠐	0
󲠑	0
󲠒	0
󲠓	0
󲠔	0
󲠕	0
󲠖	0
󲠗	0
󲠘	0
󲠙	0
󲠚	0
󲠛	0
󲠜	0
󲠝	0
󲠞	0
󲠟	0
󲠠	0
󲠡	0
󲠢	0
󲠣	0
󲠤	0
󲠥	0
󲠦	0
󲠧	0
󲠨	0
󲠩	0
󲠪	0
󲠫	0
󲠬	0
󲠭	0
󲠮	0
󲠯	0
󲠰	0
󲠱	0
󲠲	0
󲠳	0
󲠴	0
󲠵	0
󲠶	0
󲠷	0
󲠸	0
󲠹	0
󲠺	0
󲠻	0
󲠼	0
󲠽	0
󲠾	0
󲠿	0
󲡀	0
󲡁	0
󲡂	0
󲡃	0
󲡄	0
󲡅	0
󲡆	0
󲡇	0
󲡈	0
󲡉	0
󲡊	0
󲡋	0
󲡌	0
󲡍	0
󲡎	0
󲡏	0
󲡐	0
󲡑	0
󲡒	0
󲡓	0
󲡔	0
󲡕	0
󲡖	0
󲡗	0
󲡘	0
󲡙	0
󲡚	0
󲡛	0
󲡜	0
󲡝	0
󲡞	0
󲡟	0
󲡠	0
󲡡	0
󲡢	0
󲡣	0
󲡤	0
󲡥	0
󲡦	0
󲡧	0
󲡨	0
󲡩	0
󲡪	0
󲡫	0
󲡬	0
󲡭	0
󲡮	0
󲡯	0
󲡰	0
󲡱	0
󲡲	0
󲡳	0
󲡴	0
󲡵	0
󲡶	0
󲡷	0
󲡸	0
󲡹	0
󲡺	0
󲡻	0
󲡼	0
󲡽	0
󲡾	0
󲡿	0
󲢀	0
󲢁	0
󲢂	0
󲢃	0
󲢄	0
󲢅	0
󲢆	0
󲢇	0
󲢈	0
󲢉	0
󲢊	0
󲢋	0
󲢌	0
󲢍	0
󲢎	0
󲢏	0
󲢐	0
󲢑	0
󲢒	0
󲢓	0
󲢔	0
󲢕	0
󲢖	0
󲢗	0
󲢘	0
󲢙	0
󲢚	0
󲢛	0
󲢜	0
󲢝	0
󲢞	0
󲢟	0
󲢠	0
󲢡	0
󲢢	0
󲢣	0
󲢤	0
󲢥	0
󲢦	0
󲢧	0
󲢨	0
󲢩	0
󲢪	0
󲢫	0
󲢬	0
󲢭	0
󲢮	0
󲢯	0
󲢰	0
󲢱	0
󲢲	0
󲢳	0
󲢴	0
󲢵	0
󲢶	0
󲢷	0
󲢸	0
󲢹	0
󲢺	0
󲢻	0
󲢼	0
󲢽	0
󲢾	0
󲢿	0
󲣀	0
󲣁	0
󲣂	0
󲣃	0
󲣄	0
󲣅	0
󲣆	0
󲣇	0
󲣈	0
󲣉	0
󲣊	0
󲣋	0
󲣌	0
󲣍	0
󲣎	0
󲣏	0
󲣐	0
󲣑	0
󲣒	0
󲣓	0
󲣔	0
󲣕	0
󲣖	0
󲣗	0
󲣘	0
󲣙	0
󲣚	0
󲣛	0
󲣜	0
󲣝	0
󲣞	0
󲣟	0
󲣠	0
󲣡	0
󲣢	0
󲣣	0
󲣤	0
󲣥	0
󲣦	0
󲣧	0
󲣨	0
󲣩	0
󲣪	0
󲣫	0
󲣬	0
󲣭	0
󲣮	0
󲣯	0
󲣰	0
󲣱	0
󲣲	0
󲣳	0
󲣴	0
󲣵	0
󲣶	0
󲣷	0
󲣸	0
󲣹	0
󲣺	0
󲣻	0
󲣼	0
󲣽	0
󲣾	0
󲣿	0
󲤀	0
󲤁	0
󲤂	0
󲤃	0
󲤄	0
󲤅	0
󲤆	0
󲤇	0
󲤈	0
󲤉	0
󲤊	0
󲤋	0
󲤌	0
󲤍	0
󲤎	0
󲤏	0
󲤐	0
󲤑	0
󲤒	0
󲤓	0
󲤔	0
󲤕	0
󲤖	0
󲤗	0
󲤘	0
󲤙	0
󲤚	0
󲤛	0
󲤜	0
󲤝	0
󲤞	0
󲤟	0
󲤠	0
󲤡	0
󲤢	0
󲤣	0
󲤤	0
󲤥	0
󲤦	0
󲤧	0
󲤨	0
󲤩	0
󲤪	0
󲤫	0
󲤬	0
󲤭	0
󲤮	0
󲤯	0
󲤰	0
󲤱	0
󲤲	0
󲤳	0
󲤴	0
󲤵	0
󲤶	0
󲤷	0
󲤸	0
󲤹	0
󲤺	0
󲤻	0
󲤼	0
󲤽	0
󲤾	0
󲤿	0
󲥀	0
󲥁	0
󲥂	0
󲥃	0
󲥄	0
󲥅	0
󲥆	0
󲥇	0
󲥈	0
󲥉	0
󲥊	0
󲥋	0
󲥌	0
󲥍	0
󲥎	0
󲥏	0
󲥐	0
󲥑	0
󲥒	0
󲥓	0
󲥔	0
󲥕	0
󲥖	0
󲥗	0
󲥘	0
󲥙	0
󲥚	0
󲥛	0
󲥜	0
󲥝	0
󲥞	0
󲥟	0
󲥠	0
󲥡	0
󲥢	0
󲥣	0
󲥤	0
󲥥	0
󲥦	0
󲥧	0
󲥨	0
󲥩	0
󲥪	0
󲥫	0
󲥬	0
󲥭	0
󲥮	0
󲥯	0
󲥰	0
󲥱	0
󲥲	0
󲥳	0
󲥴	0
󲥵	0
󲥶	0
󲥷	0
󲥸	0
󲥹	0
󲥺	0
󲥻	0
󲥼	0
󲥽	0
󲥾	0
󲥿	0
󲦀	0
󲦁	0
󲦂	0
󲦃	0
󲦄	0
󲦅	0
󲦆	0
󲦇	0
󲦈	0
󲦉	0
󲦊	0
󲦋	0
󲦌	0
󲦍	0
󲦎	0
󲦏	0
󲦐	0
󲦑	0
󲦒	0
󲦓	0
󲦔	0
󲦕	0
󲦖	0
󲦗	0
󲦘	0
󲦙	0
󲦚	0
󲦛	0
󲦜	0
󲦝	0
󲦞	0
󲦟	0
󲦠	0
󲦡	0
󲦢	0
󲦣	0
󲦤	0
󲦥	0
󲦦	0
󲦧	0
󲦨	0
󲦩	0
󲦪	0
󲦫	0
󲦬	0
󲦭	0
󲦮	0
󲦯	0
󲦰	0
󲦱	0
󲦲	0
󲦳	0
󲦴	0
󲦵	0
󲦶	0
󲦷	0
󲦸	0
󲦹	0
󲦺	0
󲦻	0
󲦼	0
󲦽	0
󲦾	0
󲦿	0
󲧀	0
󲧁	0
󲧂	0
󲧃	0
󲧄	0
󲧅	0
󲧆	0
󲧇	0
󲧈	0
󲧉	0
󲧊	0
󲧋	0
󲧌	0
󲧍	0
󲧎	0
󲧏	0
󲧐	0
󲧑	0
󲧒	0
󲧓	0
󲧔	0
󲧕	0
󲧖	0
󲧗	0
󲧘	0
󲧙	0
󲧚	0
󲧛	0
󲧜	0
󲧝	0
󲧞	0
󲧟	0
󲧠	0
󲧡	0
󲧢	0
󲧣	0
󲧤	0
󲧥	0
󲧦	0
󲧧	0
󲧨	0
󲧩	0
󲧪	0
󲧫	0
󲧬	0
󲧭	0
󲧮	0
󲧯	0
󲧰	0
󲧱	0
󲧲	0
󲧳	0
󲧴	0
󲧵	0
󲧶	0
󲧷	0
󲧸	0
󲧹	0
󲧺	0
󲧻	0
󲧼	0
󲧽	0
󲧾	0
󲧿	0
󲨀	0
󲨁	0
󲨂	0
󲨃	0
󲨄	0
󲨅	0
󲨆	0
󲨇	0
󲨈	0
󲨉	0
󲨊	0
󲨋	0
󲨌	0
󲨍	0
󲨎	0
󲨏	0
󲨐	0
󲨑	0
󲨒	0
󲨓	0
󲨔	0
󲨕	0
󲨖	0
󲨗	0
󲨘	0
󲨙	0
󲨚	0
󲨛	0
󲨜	0
󲨝	0
󲨞	0
󲨟	0
󲨠	0
󲨡	0
󲨢	0
󲨣	0
󲨤	0
󲨥	0
󲨦	0
󲨧	0
󲨨	0
󲨩	0
󲨪	0
󲨫	0
󲨬	0
󲨭	0
󲨮	0
󲨯	0
󲨰	0
󲨱	0
󲨲	0
󲨳	0
󲨴	0
󲨵	0
󲨶	0
󲨷	0
󲨸	0
󲨹	0
󲨺	0
󲨻	0
󲨼	0
󲨽	0
󲨾	0
󲨿	0
󲩀	0
󲩁	0
󲩂	0
󲩃	0
󲩄	0
󲩅	0
󲩆	0
󲩇	0
󲩈	0
󲩉	0
󲩊	0
󲩋	0
󲩌	0
󲩍	0
󲩎	0
󲩏	0
󲩐	0
󲩑	0
󲩒	0
󲩓	0
󲩔	0
󲩕	0
󲩖	0
󲩗	0
󲩘	0
󲩙	0
󲩚	0
󲩛	0
󲩜	0
󲩝	0
󲩞	0
󲩟	0
󲩠	0
󲩡	0
󲩢	0
󲩣	0
󲩤	0
󲩥	0
󲩦	0
󲩧	0
󲩨	0
󲩩	0
󲩪	0
󲩫	0
󲩬	0
󲩭	0
󲩮	0
󲩯	0
󲩰	0
󲩱	0
󲩲	0
󲩳	0
󲩴	0
󲩵	0
󲩶	0
󲩷	0
󲩸	0
󲩹	0
󲩺	0
󲩻	0
󲩼	0
󲩽	0
󲩾	0
󲩿	0
󲪀	0
󲪁	0
󲪂	0
󲪃	0
󲪄	0
󲪅	0
󲪆	0
󲪇	0
󲪈	0
󲪉	0
󲪊	0
󲪋	0
󲪌	0
󲪍	0
󲪎	0
󲪏	0
󲪐	0
󲪑	0
󲪒	0
󲪓	0
󲪔	0
󲪕	0
󲪖	0
󲪗	0
󲪘	0
󲪙	0
󲪚	0
󲪛	0
󲪜	0
󲪝	0
󲪞	0
󲪟	0
󲪠	0
󲪡	0
󲪢	0
󲪣	0
󲪤	0
󲪥	0
󲪦	0
󲪧	0
󲪨	0
󲪩	0
󲪪	0
󲪫	0
󲪬	0
󲪭	0
󲪮	0
󲪯	0
󲪰	0
󲪱	0
󲪲	0
󲪳	0
󲪴	0
󲪵	0
󲪶	0
󲪷	0
󲪸	0
󲪹	0
󲪺	0
󲪻	0
󲪼	0
󲪽	0
󲪾	0
󲪿	0
󲫀	0
󲫁	0
󲫂	0
󲫃	0
󲫄	0
󲫅	0
󲫆	0
󲫇	0
󲫈	0
󲫉	0
󲫊	0
󲫋	0
󲫌	0
󲫍	0
󲫎	0
󲫏	0
󲫐	0
󲫑	0
󲫒	0
󲫓	0
󲫔	0
󲫕	0
󲫖	0
󲫗	0
󲫘	0
󲫙	0
󲫚	0
󲫛	0
󲫜	0
󲫝	0
󲫞	0
󲫟	0
󲫠	0
󲫡	0
󲫢	0
󲫣	0
󲫤	0
󲫥	0
󲫦	0
󲫧	0
󲫨	0
󲫩	0
󲫪	0
󲫫	0
󲫬	0
󲫭	0
󲫮	0
󲫯	0
󲫰	0
󲫱	0
󲫲	0
󲫳	0
󲫴	0
󲫵	0
󲫶	0
󲫷	0
󲫸	0
󲫹	0
󲫺	0
󲫻	0
󲫼	0
󲫽	0
󲫾	0
󲫿	0
󲬀	0
󲬁	0
󲬂	0
󲬃	0
󲬄	0
󲬅	0
󲬆	0
󲬇	0
󲬈	0
󲬉	0
󲬊	0
󲬋	0
󲬌	0
󲬍	0
󲬎	0
󲬏	0
󲬐	0
󲬑	0
󲬒	0
󲬓	0
󲬔	0
󲬕	0
󲬖	0
󲬗	0
󲬘	0
󲬙	0
󲬚	0
󲬛	0
󲬜	0
󲬝	0
󲬞	0
󲬟	0
󲬠	0
󲬡	0
󲬢	0
󲬣	0
󲬤	0
󲬥	0
󲬦	0
󲬧	0
󲬨	0
󲬩	0
󲬪	0
󲬫	0
󲬬	0
󲬭	0
󲬮	0
󲬯	0
󲬰	0
󲬱	0
󲬲	0
󲬳	0
󲬴	0
󲬵	0
󲬶	0
󲬷	0
󲬸	0
󲬹	0
󲬺	0
󲬻	0
󲬼	0
󲬽	0
󲬾	0
󲬿	0
󲭀	0
󲭁	0
󲭂	0
󲭃	0
󲭄	0
󲭅	0
󲭆	0
󲭇	0
󲭈	0
󲭉	0
󲭊	0
󲭋	0
󲭌	0
󲭍	0
󲭎	0
󲭏	0
󲭐	0
󲭑	0
󲭒	0
󲭓	0
󲭔	0
󲭕	0
󲭖	0
󲭗	0
󲭘	0
󲭙	0
󲭚	0
󲭛	0
󲭜	0
󲭝	0
󲭞	0
󲭟	0
󲭠	0
󲭡	0
󲭢	0
󲭣	0
󲭤	0
󲭥	0
󲭦	0
󲭧	0
󲭨	0
󲭩	0
󲭪	0
󲭫	0
󲭬	0
󲭭	0
󲭮	0
󲭯	0
󲭰	0
󲭱	0
󲭲	0
󲭳	0
󲭴	0
󲭵	0
󲭶	0
󲭷	0
󲭸	0
󲭹	0
󲭺	0
󲭻	0
󲭼	0
󲭽	0
󲭾	0
󲭿	0
󲮀	0
󲮁	0
󲮂	0
󲮃	0
󲮄	0
󲮅	0
󲮆	0
󲮇	0
󲮈	0
󲮉	0
󲮊	0
󲮋	0
󲮌	0
󲮍	0
󲮎	0
󲮏	0
󲮐	0
󲮑	0
󲮒	0
󲮓	0
󲮔	0
󲮕	0
󲮖	0
󲮗	0
󲮘	0
󲮙	0
󲮚	0
󲮛	0
󲮜	0
󲮝	0
󲮞	0
󲮟	0
󲮠	0
󲮡	0
󲮢	0
󲮣	0
󲮤	0
󲮥	0
󲮦	0
󲮧	0
󲮨	0
󲮩	0
󲮪	0
󲮫	0
󲮬	0
󲮭	0
󲮮	0
󲮯	0
󲮰	0
󲮱	0
󲮲	0
󲮳	0
󲮴	0
󲮵	0
󲮶	0
󲮷	0
󲮸	0
󲮹	0
󲮺	0
󲮻	0
󲮼	0
󲮽	0
󲮾	0
󲮿	0
󲯀	0
󲯁	0
󲯂	0
󲯃	0
󲯄	0
󲯅	0
󲯆	0
󲯇	0
󲯈	0
󲯉	0
󲯊	0
󲯋	0
󲯌	0
󲯍	0
󲯎	0
󲯏	0
󲯐	0
󲯑	0
󲯒	0
󲯓	0
󲯔	0
󲯕	0
󲯖	0
󲯗	0
󲯘	0
󲯙	0
󲯚	0
󲯛	0
󲯜	0
󲯝	0
󲯞	0
󲯟	0
󲯠	0
󲯡	0
󲯢	0
󲯣	0
󲯤	0
󲯥	0
󲯦	0
󲯧	0
󲯨	0
󲯩	0
󲯪	0
󲯫	0
󲯬	0
󲯭	0
󲯮	0
󲯯	0
󲯰	0
󲯱	0
󲯲	0
󲯳	0
󲯴	0
󲯵	0
󲯶	0
󲯷	0
󲯸	0
󲯹	0
󲯺	0
󲯻	0
󲯼	0
󲯽	0
󲯾	0
󲯿	0
󲰀	0
󲰁	0
󲰂	0
󲰃	0
󲰄	0
󲰅	0
󲰆	0
󲰇	0
󲰈	0
󲰉	0
󲰊	0
󲰋	0
󲰌	0
󲰍	0
󲰎	0
󲰏	0
󲰐	0
󲰑	0
󲰒	0
󲰓	0
󲰔	0
󲰕	0
󲰖	0
󲰗	0
󲰘	0
󲰙	0
󲰚	0
󲰛	0
󲰜	0
󲰝	0
󲰞	0
󲰟	0
󲰠	0
󲰡	0
󲰢	0
󲰣	0
󲰤	0
󲰥	0
󲰦	0
󲰧	0
󲰨	0
󲰩	0
󲰪	0
󲰫	0
󲰬	0
󲰭	0
󲰮	0
󲰯	0
󲰰	0
󲰱	0
󲰲	0
󲰳	0
󲰴	0
󲰵	0
󲰶	0
󲰷	0
󲰸	0
󲰹	0
󲰺	0
󲰻	0
󲰼	0
󲰽	0
󲰾	0
󲰿	0
󲱀	0
󲱁	0
󲱂	0
󲱃	0
󲱄	0
󲱅	0
󲱆	0
󲱇	0
󲱈	0
󲱉	0
󲱊	0
󲱋	0
󲱌	0
󲱍	0
󲱎	0
󲱏	0
󲱐	0
󲱑	0
󲱒	0
󲱓	0
󲱔	0
󲱕	0
󲱖	0
󲱗	0
󲱘	0
󲱙	0
󲱚	0
󲱛	0
󲱜	0
󲱝	0
󲱞	0
󲱟	0
󲱠	0
󲱡	0
󲱢	0
󲱣	0
󲱤	0
󲱥	0
󲱦	0
󲱧	0
󲱨	0
󲱩	0
󲱪	0
󲱫	0
󲱬	0
󲱭	0
󲱮	0
󲱯	0
󲱰	0
󲱱	0
󲱲	0
󲱳	0
󲱴	0
󲱵	0
󲱶	0
󲱷	0
󲱸	0
󲱹	0
󲱺	0
󲱻	0
󲱼	0
󲱽	0
󲱾	0
󲱿	0
󲲀	0
󲲁	0
󲲂	0
󲲃	0
󲲄	0
󲲅	0
󲲆	0
󲲇	0
󲲈	0
󲲉	0
󲲊	0
󲲋	0
󲲌	0
󲲍	0
󲲎	0
󲲏	0
󲲐	0
󲲑	0
󲲒	0
󲲓	0
󲲔	0
󲲕	0
󲲖	0
󲲗	0
󲲘	0
󲲙	0
󲲚	0
󲲛	0
󲲜	0
󲲝	0
󲲞	0
󲲟	0
󲲠	0
󲲡	0
󲲢	0
󲲣	0
󲲤	0
󲲥	0
󲲦	0
󲲧	0
󲲨	0
󲲩	0
󲲪	0
󲲫	0
󲲬	0
󲲭	0
󲲮	0
󲲯	0
󲲰	0
󲲱	0
󲲲	0
󲲳	0
󲲴	0
󲲵	0
󲲶	0
󲲷	0
󲲸	0
󲲹	0
󲲺	0
󲲻	0
󲲼	0
󲲽	0
󲲾	0
󲲿	0
󲳀	0
󲳁	0
󲳂	0
󲳃	0
󲳄	0
󲳅	0
󲳆	0
󲳇	0
󲳈	0
󲳉	0
󲳊	0
󲳋	0
󲳌	0
󲳍	0
󲳎	0
󲳏	0
󲳐	0
󲳑	0
󲳒	0
󲳓	0
󲳔	0
󲳕	0
󲳖	0
󲳗	0
󲳘	0
󲳙	0
󲳚	0
󲳛	0
󲳜	0
󲳝	0
󲳞	0
󲳟	0
󲳠	0
󲳡	0
󲳢	0
󲳣	0
󲳤	0
󲳥	0
󲳦	0
󲳧	0
󲳨	0
󲳩	0
󲳪	0
󲳫	0
󲳬	0
󲳭	0
󲳮	0
󲳯	0
󲳰	0
󲳱	0
󲳲	0
󲳳	0
󲳴	0
󲳵	0
󲳶	0
󲳷	0
󲳸	0
󲳹	0
󲳺	0
󲳻	0
󲳼	0
󲳽	0
󲳾	0
󲳿	0
󲴀	0
󲴁	0
󲴂	0
󲴃	0
󲴄	0
󲴅	0
󲴆	0
󲴇	0
󲴈	0
󲴉	0
󲴊	0
󲴋	0
󲴌	0
󲴍	0
󲴎	0
󲴏	0
󲴐	0
󲴑	0
󲴒	0
󲴓	0
󲴔	0
󲴕	0
󲴖	0
󲴗	0
󲴘	0
󲴙	0
󲴚	0
󲴛	0
󲴜	0
󲴝	0
󲴞	0
󲴟	0
󲴠	0
󲴡	0
󲴢	0
󲴣	0
󲴤	0
󲴥	0
󲴦	0
󲴧	0
󲴨	0
󲴩	0
󲴪	0
󲴫	0
󲴬	0
󲴭	0
󲴮	0
󲴯	0
󲴰	0
󲴱	0
󲴲	0
󲴳	0
󲴴	0
󲴵	0
󲴶	0
󲴷	0
󲴸	0
󲴹	0
󲴺	0
󲴻	0
󲴼	0
󲴽	0
󲴾	0
󲴿	0
󲵀	0
󲵁	0
󲵂	0
󲵃	0
󲵄	0
󲵅	0
󲵆	0
󲵇	0
󲵈	0
󲵉	0
󲵊	0
󲵋	0
󲵌	0
󲵍	0
󲵎	0
󲵏	0
󲵐	0
󲵑	0
󲵒	0
󲵓	0
󲵔	0
󲵕	0
󲵖	0
󲵗	0
󲵘	0
󲵙	0
󲵚	0
󲵛	0
󲵜	0
󲵝	0
󲵞	0
󲵟	0
󲵠	0
󲵡	0
󲵢	0
󲵣	0
󲵤	0
󲵥	0
󲵦	0
󲵧	0
󲵨	0
󲵩	0
󲵪	0
󲵫	0
󲵬	0
󲵭	0
󲵮	0
󲵯	0
󲵰	0
󲵱	0
󲵲	0
󲵳	0
󲵴	0
󲵵	0
󲵶	0
󲵷	0
󲵸	0
󲵹	0
󲵺	0
󲵻	0
󲵼	0
󲵽	0
󲵾	0
󲵿	0
󲶀	0
󲶁	0
󲶂	0
󲶃	0
󲶄	0
󲶅	0
󲶆	0
󲶇	0
󲶈	0
󲶉	0
󲶊	0
󲶋	0
󲶌	0
󲶍	0
󲶎	0
󲶏	0
󲶐	0
󲶑	0
󲶒	0
󲶓	0
󲶔	0
󲶕	0
󲶖	0
󲶗	0
󲶘	0
󲶙	0
󲶚	0
󲶛	0
󲶜	0
󲶝	0
󲶞	0
󲶟	0
󲶠	0
󲶡	0
󲶢	0
󲶣	0
󲶤	0
󲶥	0
󲶦	0
󲶧	0
󲶨	0
󲶩	0
󲶪	0
󲶫	0
󲶬	0
󲶭	0
󲶮	0
󲶯	0
󲶰	0
󲶱	0
󲶲	0
󲶳	0
󲶴	0
󲶵	0
󲶶	0
󲶷	0
󲶸	0
󲶹	0
󲶺	0
󲶻	0
󲶼	0
󲶽	0
󲶾	0
󲶿	0
󲷀	0
󲷁	0
󲷂	0
󲷃	0
󲷄	0
󲷅	0
󲷆	0
󲷇	0
󲷈	0
󲷉	0
󲷊	0
󲷋	0
󲷌	0
󲷍	0
󲷎	0
󲷏	0
󲷐	0
󲷑	0
󲷒	0
󲷓	0
󲷔	0
󲷕	0
󲷖	0
󲷗	0
󲷘	0
󲷙	0
󲷚	0
󲷛	0
󲷜	0
󲷝	0
󲷞	0
󲷟	0
󲷠	0
󲷡	0
󲷢	0
󲷣	0
󲷤	0
󲷥	0
󲷦	0
󲷧	0
󲷨	0
󲷩	0
󲷪	0
󲷫	0
󲷬	0
󲷭	0
󲷮	0
󲷯	0
󲷰	0
󲷱	0
󲷲	0
󲷳	0
󲷴	0
󲷵	0
󲷶	0
󲷷	0
󲷸	0
󲷹	0
󲷺	0
󲷻	0
󲷼	0
󲷽	0
󲷾	0
󲷿	0
󲸀	0
󲸁	0
󲸂	0
󲸃	0
󲸄	0
󲸅	0
󲸆	0
󲸇	0
󲸈	0
󲸉	0
󲸊	0
󲸋	0
󲸌	0
󲸍	0
󲸎	0
󲸏	0
󲸐	0
󲸑	0
󲸒	0
󲸓	0
󲸔	0
󲸕	0
󲸖	0
󲸗	0
󲸘	0
󲸙	0
󲸚	0
󲸛	0
󲸜	0
󲸝	0
󲸞	0
󲸟	0
󲸠	0
󲸡	0
󲸢	0
󲸣	0
󲸤	0
󲸥	0
󲸦	0
󲸧	0
󲸨	0
󲸩	0
󲸪	0
󲸫	0
󲸬	0
󲸭	0
󲸮	0
󲸯	0
󲸰	0
󲸱	0
󲸲	0
󲸳	0
󲸴	0
󲸵	0
󲸶	0
󲸷	0
󲸸	0
󲸹	0
󲸺	0
󲸻	0
󲸼	0
󲸽	0
󲸾	0
󲸿	0
󲹀	0
󲹁	0
󲹂	0
󲹃	0
󲹄	0
󲹅	0
󲹆	0
󲹇	0
󲹈	0
󲹉	0
󲹊	0
󲹋	0
󲹌	0
󲹍	0
󲹎	0
󲹏	0
󲹐	0
󲹑	0
󲹒	0
󲹓	0
󲹔	0
󲹕	0
󲹖	0
󲹗	0
󲹘	0
󲹙	0
󲹚	0
󲹛	0
󲹜	0
󲹝	0
󲹞	0
󲹟	0
󲹠	0
󲹡	0
󲹢	0
󲹣	0
󲹤	0
󲹥	0
󲹦	0
󲹧	0
󲹨	0
󲹩	0
󲹪	0
󲹫	0
󲹬	0
󲹭	0
󲹮	0
󲹯	0
󲹰	0
󲹱	0
󲹲	0
󲹳	0
󲹴	0
󲹵	0
󲹶	0
󲹷	0
󲹸	0
󲹹	0
󲹺	0
󲹻	0
󲹼	0
󲹽	0
󲹾	0
󲹿	0
󲺀	0
󲺁	0
󲺂	0
󲺃	0
󲺄	0
󲺅	0
󲺆	0
󲺇	0
󲺈	0
󲺉	0
󲺊	0
󲺋	0
󲺌	0
󲺍	0
󲺎	0
󲺏	0
󲺐	0
󲺑	0
󲺒	0
󲺓	0
󲺔	0
󲺕	0
󲺖	0
󲺗	0
󲺘	0
󲺙	0
󲺚	0
󲺛	0
󲺜	0
󲺝	0
󲺞	0
󲺟	0
󲺠	0
󲺡	0
󲺢	0
󲺣	0
󲺤	0
󲺥	0
󲺦	0
󲺧	0
󲺨	0
󲺩	0
󲺪	0
󲺫	0
󲺬	0
󲺭	0
󲺮	0
󲺯	0
󲺰	0
󲺱	0
󲺲	0
󲺳	0
󲺴	0
󲺵	0
󲺶	0
󲺷	0
󲺸	0
󲺹	0
󲺺	0
󲺻	0
󲺼	0
󲺽	0
󲺾	0
󲺿	0
󲻀	0
󲻁	0
󲻂	0
󲻃	0
󲻄	0
󲻅	0
󲻆	0
󲻇	0
󲻈	0
󲻉	0
󲻊	0
󲻋	0
󲻌	0
󲻍	0
󲻎	0
󲻏	0
󲻐	0
󲻑	0
󲻒	0
󲻓	0
󲻔	0
󲻕	0
󲻖	0
󲻗	0
󲻘	0
󲻙	0
󲻚	0
󲻛	0
󲻜	0
󲻝	0
󲻞	0
󲻟	0
󲻠	0
󲻡	0
󲻢	0
󲻣	0
󲻤	0
󲻥	0
󲻦	0
󲻧	0
󲻨	0
󲻩	0
󲻪	0
󲻫	0
󲻬	0
󲻭	0
󲻮	0
󲻯	0
󲻰	0
󲻱	0
󲻲	0
󲻳	0
󲻴	0
󲻵	0
󲻶	0
󲻷	0
󲻸	0
󲻹	0
󲻺	0
󲻻	0
󲻼	0
󲻽	0
󲻾	0
󲻿	0
󲼀	0
󲼁	0
󲼂	0
󲼃	0
󲼄	0
󲼅	0
󲼆	0
󲼇	0
󲼈	0
󲼉	0
󲼊	0
󲼋	0
󲼌	0
󲼍	0
󲼎	0
󲼏	0
󲼐	0
󲼑	0
󲼒	0
󲼓	0
󲼔	0
󲼕	0
󲼖	0
󲼗	0
󲼘	0
󲼙	0
󲼚	0
󲼛	0
󲼜	0
󲼝	0
󲼞	0
󲼟	0
󲼠	0
󲼡	0
󲼢	0
󲼣	0
󲼤	0
󲼥	0
󲼦	0
󲼧	0
󲼨	0
󲼩	0
󲼪	0
󲼫	0
󲼬	0
󲼭	0
󲼮	0
󲼯	0
󲼰	0
󲼱	0
󲼲	0
󲼳	0
󲼴	0
󲼵	0
󲼶	0
󲼷	0
󲼸	0
󲼹	0
󲼺	0
󲼻	0
󲼼	0
󲼽	0
󲼾	0
󲼿	0
󲽀	0
󲽁	0
󲽂	0
󲽃	0
󲽄	0
󲽅	0
󲽆	0
󲽇	0
󲽈	0
󲽉	0
󲽊	0
󲽋	0
󲽌	0
󲽍	0
󲽎	0
󲽏	0
󲽐	0
󲽑	0
󲽒	0
󲽓	0
󲽔	0
󲽕	0
󲽖	0
󲽗	0
󲽘	0
󲽙	0
󲽚	0
󲽛	0
󲽜	0
󲽝	0
󲽞	0
󲽟	0
󲽠	0
󲽡	0
󲽢	0
󲽣	0
󲽤	0
󲽥	0
󲽦	0
󲽧	0
󲽨	0
󲽩	0
󲽪	0
󲽫	0
󲽬	0
󲽭	0
󲽮	0
󲽯	0
󲽰	0
󲽱	0
󲽲	0
󲽳	0
󲽴	0
󲽵	0
󲽶	0
󲽷	0
󲽸	0
󲽹	0
󲽺	0
󲽻	0
󲽼	0
󲽽	0
󲽾	0
󲽿	0
󲾀	0
󲾁	0
󲾂	0
󲾃	0
󲾄	0
󲾅	0
󲾆	0
󲾇	0
󲾈	0
󲾉	0
󲾊	0
󲾋	0
󲾌	0
󲾍	0
󲾎	0
󲾏	0
󲾐	0
󲾑	0
󲾒	0
󲾓	0
󲾔	0
󲾕	0
󲾖	0
󲾗	0
󲾘	0
󲾙	0
󲾚	0
󲾛	0
󲾜	0
󲾝	0
󲾞	0
󲾟	0
󲾠	0
󲾡	0
󲾢	0
󲾣	0
󲾤	0
󲾥	0
󲾦	0
󲾧	0
󲾨	0
󲾩	0
󲾪	0
󲾫	0
󲾬	0
󲾭	0
󲾮	0
󲾯	0
󲾰	0
󲾱	0
󲾲	0
󲾳	0
󲾴	0
󲾵	0
󲾶	0
󲾷	0
󲾸	0
󲾹	0
󲾺	0
󲾻	0
󲾼	0
󲾽	0
󲾾	0
󲾿	0
󲿀	0
󲿁	0
󲿂	0
󲿃	0
󲿄	0
󲿅	0
󲿆	0
󲿇	0
󲿈	0
󲿉	0
󲿊	0
󲿋	0
󲿌	0
󲿍	0
󲿎	0
󲿏	0
󲿐	0
󲿑	0
󲿒	0
󲿓	0
󲿔	0
󲿕	0
󲿖	0
󲿗	0
󲿘	0
󲿙	0
󲿚	0
󲿛	0
󲿜	0
󲿝	0
󲿞	0
󲿟	0
󲿠	0
󲿡	0
󲿢	0
󲿣	0
󲿤	0
󲿥	0
󲿦	0
󲿧	0
󲿨	0
󲿩	0
󲿪	0
󲿫	0
󲿬	0
󲿭	0
󲿮	0
󲿯	0
󲿰	0
󲿱	0
󲿲	0
󲿳	0
󲿴	0
󲿵	0
󲿶	0
󲿷	0
󲿸	0
󲿹	0
󲿺	0
󲿻	0
󲿼	0
󲿽	0
󲿾	0
󲿿	0
󳀀	0
󳀁	0
󳀂	0
󳀃	0
󳀄	0
󳀅	0
󳀆	0
󳀇	0
󳀈	0
󳀉	0
󳀊	0
󳀋	0
󳀌	0
󳀍	0
󳀎	0
󳀏	0
󳀐	0
󳀑	0
󳀒	0
󳀓	0
󳀔	0
󳀕	0
󳀖	0
󳀗	0
󳀘	0
󳀙	0
󳀚	0
󳀛	0
󳀜	0
󳀝	0
󳀞	0
󳀟	0
󳀠	0
󳀡	0
󳀢	0
󳀣	0
󳀤	0
󳀥	0
󳀦	0
󳀧	0
󳀨	0
󳀩	0
󳀪	0
󳀫	0
󳀬	0
󳀭	0
󳀮	0
󳀯	0
󳀰	0
󳀱	0
󳀲	0
󳀳	0
󳀴	0
󳀵	0
󳀶	0
󳀷	0
󳀸	0
󳀹	0
󳀺	0
󳀻	0
󳀼	0
󳀽	0
󳀾	0
󳀿	0
󳁀	0
󳁁	0
󳁂	0
󳁃	0
󳁄	0
󳁅	0
󳁆	0
󳁇	0
󳁈	0
󳁉	0
󳁊	0
󳁋	0
󳁌	0
󳁍	0
󳁎	0
󳁏	0
󳁐	0
󳁑	0
󳁒	0
󳁓	0
󳁔	0
󳁕	0
󳁖	0
󳁗	0
󳁘	0
󳁙	0
󳁚	0
󳁛	0
󳁜	0
󳁝	0
󳁞	0
󳁟	0
󳁠	0
󳁡	0
󳁢	0
󳁣	0
󳁤	0
󳁥	0
󳁦	0
󳁧	0
󳁨	0
󳁩	0
󳁪	0
󳁫	0
󳁬	0
󳁭	0
󳁮	0
󳁯	0
󳁰	0
󳁱	0
󳁲	0
󳁳	0
󳁴	0
󳁵	0
󳁶	0
󳁷	0
󳁸	0
󳁹	0
󳁺	0
󳁻	0
󳁼	0
󳁽	0
󳁾	0
󳁿	0
󳂀	0
󳂁	0
󳂂	0
󳂃	0
󳂄	0
󳂅	0
󳂆	0
󳂇	0
󳂈	0
󳂉	0
󳂊	0
󳂋	0
󳂌	0
󳂍	0
󳂎	0
󳂏	0
󳂐	0
󳂑	0
󳂒	0
󳂓	0
󳂔	0
󳂕	0
󳂖	0
󳂗	0
󳂘	0
󳂙	0
󳂚	0
󳂛	0
󳂜	0
󳂝	0
󳂞	0
󳂟	0
󳂠	0
󳂡	0
󳂢	0
󳂣	0
󳂤	0
󳂥	0
󳂦	0
󳂧	0
󳂨	0
󳂩	0
󳂪	0
󳂫	0
󳂬	0
󳂭	0
󳂮	0
󳂯	0
󳂰	0
󳂱	0
󳂲	0
󳂳	0
󳂴	0
󳂵	0
󳂶	0
󳂷	0
󳂸	0
󳂹	0
󳂺	0
󳂻	0
󳂼	0
󳂽	0
󳂾	0
󳂿	0
󳃀	0
󳃁	0
󳃂	0
󳃃	0
󳃄	0
󳃅	0
󳃆	0
󳃇	0
󳃈	0
󳃉	0
󳃊	0
󳃋	0
󳃌	0
󳃍	0
󳃎	0
󳃏	0
󳃐	0
󳃑	0
󳃒	0
󳃓	0
󳃔	0
󳃕	0
󳃖	0
󳃗	0
󳃘	0
󳃙	0
󳃚	0
󳃛	0
󳃜	0
󳃝	0
󳃞	0
󳃟	0
󳃠	0
󳃡	0
󳃢	0
󳃣	0
󳃤	0
󳃥	0
󳃦	0
󳃧	0
󳃨	0
󳃩	0
󳃪	0
󳃫	0
󳃬	0
󳃭	0
󳃮	0
󳃯	0
󳃰	0
󳃱	0
󳃲	0
󳃳	0
󳃴	0
󳃵	0
󳃶	0
󳃷	0
󳃸	0
󳃹	0
󳃺	0
󳃻	0
󳃼	0
󳃽	0
󳃾	0
󳃿	0
󳄀	0
󳄁	0
󳄂	0
󳄃	0
󳄄	0
󳄅	0
󳄆	0
󳄇	0
󳄈	0
󳄉	0
󳄊	0
󳄋	0
󳄌	0
󳄍	0
󳄎	0
󳄏	0
󳄐	0
󳄑	0
󳄒	0
󳄓	0
󳄔	0
󳄕	0
󳄖	0
󳄗	0
󳄘	0
󳄙	0
󳄚	0
󳄛	0
󳄜	0
󳄝	0
󳄞	0
󳄟	0
󳄠	0
󳄡	0
󳄢	0
󳄣	0
󳄤	0
󳄥	0
󳄦	0
󳄧	0
󳄨	0
󳄩	0
󳄪	0
󳄫	0
󳄬	0
󳄭	0
󳄮	0
󳄯	0
󳄰	0
󳄱	0
󳄲	0
󳄳	0
󳄴	0
󳄵	0
󳄶	0
󳄷	0
󳄸	0
󳄹	0
󳄺	0
󳄻	0
󳄼	0
󳄽	0
󳄾	0
󳄿	0
󳅀	0
󳅁	0
󳅂	0
󳅃	0
󳅄	0
󳅅	0
󳅆	0
󳅇	0
󳅈	0
󳅉	0
󳅊	0
󳅋	0
󳅌	0
󳅍	0
󳅎	0
󳅏	0
󳅐	0
󳅑	0
󳅒	0
󳅓	0
󳅔	0
󳅕	0
󳅖	0
󳅗	0
󳅘	0
󳅙	0
󳅚	0
󳅛	0
󳅜	0
󳅝	0
󳅞	0
󳅟	0
󳅠	0
󳅡	0
󳅢	0
󳅣	0
󳅤	0
󳅥	0
󳅦	0
󳅧	0
󳅨	0
󳅩	0
󳅪	0
󳅫	0
󳅬	0
󳅭	0
󳅮	0
󳅯	0
󳅰	0
󳅱	0
󳅲	0
󳅳	0
󳅴	0
󳅵	0
󳅶	0
󳅷	0
󳅸	0
󳅹	0
󳅺	0
󳅻	0
󳅼	0
󳅽	0
󳅾	0
󳅿	0
󳆀	0
󳆁	0
󳆂	0
󳆃	0
󳆄	0
󳆅	0
󳆆	0
󳆇	0
󳆈	0
󳆉	0
󳆊	0
󳆋	0
󳆌	0
󳆍	0
󳆎	0
󳆏	0
󳆐	0
󳆑	0
󳆒	0
󳆓	0
󳆔	0
󳆕	0
󳆖	0
󳆗	0
󳆘	0
󳆙	0
󳆚	0
󳆛	0
󳆜	0
󳆝	0
󳆞	0
󳆟	0
󳆠	0
󳆡	0
󳆢	0
󳆣	0
󳆤	0
󳆥	0
󳆦	0
󳆧	0
󳆨	0
󳆩	0
󳆪	0
󳆫	0
󳆬	0
󳆭	0
󳆮	0
󳆯	0
󳆰	0
󳆱	0
󳆲	0
󳆳	0
󳆴	0
󳆵	0
󳆶	0
󳆷	0
󳆸	0
󳆹	0
󳆺	0
󳆻	0
󳆼	0
󳆽	0
󳆾	0
󳆿	0
󳇀	0
󳇁	0
󳇂	0
󳇃	0
󳇄	0
󳇅	0
󳇆	0
󳇇	0
󳇈	0
󳇉	0
󳇊	0
󳇋	0
󳇌	0
󳇍	0
󳇎	0
󳇏	0
󳇐	0
󳇑	0
󳇒	0
󳇓	0
󳇔	0
󳇕	0
󳇖	0
󳇗	0
󳇘	0
󳇙	0
󳇚	0
󳇛	0
󳇜	0
󳇝	0
󳇞	0
󳇟	0
󳇠	0
󳇡	0
󳇢	0
󳇣	0
󳇤	0
󳇥	0
󳇦	0
󳇧	0
󳇨	0
󳇩	0
󳇪	0
󳇫	0
󳇬	0
󳇭	0
󳇮	0
󳇯	0
󳇰	0
󳇱	0
󳇲	0
󳇳	0
󳇴	0
󳇵	0
󳇶	0
󳇷	0
󳇸	0
󳇹	0
󳇺	0
󳇻	0
󳇼	0
󳇽	0
󳇾	0
󳇿	0
󳈀	0
󳈁	0
󳈂	0
󳈃	0
󳈄	0
󳈅	0
󳈆	0
󳈇	0
󳈈	0
󳈉	0
󳈊	0
󳈋	0
󳈌	0
󳈍	0
󳈎	0
󳈏	0
󳈐	0
󳈑	0
󳈒	0
󳈓	0
󳈔	0
󳈕	0
󳈖	0
󳈗	0
󳈘	0
󳈙	0
󳈚	0
󳈛	0
󳈜	0
󳈝	0
󳈞	0
󳈟	0
󳈠	0
󳈡	0
󳈢	0
󳈣	0
󳈤	0
󳈥	0
󳈦	0
󳈧	0
󳈨	0
󳈩	0
󳈪	0
󳈫	0
󳈬	0
󳈭	0
󳈮	0
󳈯	0
󳈰	0
󳈱	0
󳈲	0
󳈳	0
󳈴	0
󳈵	0
󳈶	0
󳈷	0
󳈸	0
󳈹	0
󳈺	0
󳈻	0
󳈼	0
󳈽	0
󳈾	0
󳈿	0
󳉀	0
󳉁	0
󳉂	0
󳉃	0
󳉄	0
󳉅	0
󳉆	0
󳉇	0
󳉈	0
󳉉	0
󳉊	0
󳉋	0
󳉌	0
󳉍	0
󳉎	0
󳉏	0
󳉐	0
󳉑	0
󳉒	0
󳉓	0
󳉔	0
󳉕	0
󳉖	0
󳉗	0
󳉘	0
󳉙	0
󳉚	0
󳉛	0
󳉜	0
󳉝	0
󳉞	0
󳉟	0
󳉠	0
󳉡	0
󳉢	0
󳉣	0
󳉤	0
󳉥	0
󳉦	0
󳉧	0
󳉨	0
󳉩	0
󳉪	0
󳉫	0
󳉬	0
󳉭	0
󳉮	0
󳉯	0
󳉰	0
󳉱	0
󳉲	0
󳉳	0
󳉴	0
󳉵	0
󳉶	0
󳉷	0
󳉸	0
󳉹	0
󳉺	0
󳉻	0
󳉼	0
󳉽	0
󳉾	0
󳉿	0
󳊀	0
󳊁	0
󳊂	0
󳊃	0
󳊄	0
󳊅	0
󳊆	0
󳊇	0
󳊈	0
󳊉	0
󳊊	0
󳊋	0
󳊌	0
󳊍	0
󳊎	0
󳊏	0
󳊐	0
󳊑	0
󳊒	0
󳊓	0
󳊔	0
󳊕	0
󳊖	0
󳊗	0
󳊘	0
󳊙	0
󳊚	0
󳊛	0
󳊜	0
󳊝	0
󳊞	0
󳊟	0
󳊠	0
󳊡	0
󳊢	0
󳊣	0
󳊤	0
󳊥	0
󳊦	0
󳊧	0
󳊨	0
󳊩	0
󳊪	0
󳊫	0
󳊬	0
󳊭	0
󳊮	0
󳊯	0
󳊰	0
󳊱	0
󳊲	0
󳊳	0
󳊴	0
󳊵	0
󳊶	0
󳊷	0
󳊸	0
󳊹	0
󳊺	0
󳊻	0
󳊼	0
󳊽	0
󳊾	0
󳊿	0
󳋀	0
󳋁	0
󳋂	0
󳋃	0
󳋄	0
󳋅	0
󳋆	0
󳋇	0
󳋈	0
󳋉	0
󳋊	0
󳋋	0
󳋌	0
󳋍	0
󳋎	0
󳋏	0
󳋐	0
󳋑	0
󳋒	0
󳋓	0
󳋔	0
󳋕	0
󳋖	0
󳋗	0
󳋘	0
󳋙	0
󳋚	0
󳋛	0
󳋜	0
󳋝	0
󳋞	0
󳋟	0
󳋠	0
󳋡	0
󳋢	0
󳋣	0
󳋤	0
󳋥	0
󳋦	0
󳋧	0
󳋨	0
󳋩	0
󳋪	0
󳋫	0
󳋬	0
󳋭	0
󳋮	0
󳋯	0
󳋰	0
󳋱	0
󳋲	0
󳋳	0
󳋴	0
󳋵	0
󳋶	0
󳋷	0
󳋸	0
󳋹	0
󳋺	0
󳋻	0
󳋼	0
󳋽	0
󳋾	0
󳋿	0
󳌀	0
󳌁	0
󳌂	0
󳌃	0
󳌄	0
󳌅	0
󳌆	0
󳌇	0
󳌈	0
󳌉	0
󳌊	0
󳌋	0
󳌌	0
󳌍	0
󳌎	0
󳌏	0
󳌐	0
󳌑	0
󳌒	0
󳌓	0
󳌔	0
󳌕	0
󳌖	0
󳌗	0
󳌘	0
󳌙	0
󳌚	0
󳌛	0
󳌜	0
󳌝	0
󳌞	0
󳌟	0
󳌠	0
󳌡	0
󳌢	0
󳌣	0
󳌤	0
󳌥	0
󳌦	0
󳌧	0
󳌨	0
󳌩	0
󳌪	0
󳌫	0
󳌬	0
󳌭	0
󳌮	0
󳌯	0
󳌰	0
󳌱	0
󳌲	0
󳌳	0
󳌴	0
󳌵	0
󳌶	0
󳌷	0
󳌸	0
󳌹	0
󳌺	0
󳌻	0
󳌼	0
󳌽	0
󳌾	0
󳌿	0
󳍀	0
󳍁	0
󳍂	0
󳍃	0
󳍄	0
󳍅	0
󳍆	0
󳍇	0
󳍈	0
󳍉	0
󳍊	0
󳍋	0
󳍌	0
󳍍	0
󳍎	0
󳍏	0
󳍐	0
󳍑	0
󳍒	0
󳍓	0
󳍔	0
󳍕	0
󳍖	0
󳍗	0
󳍘	0
󳍙	0
󳍚	0
󳍛	0
󳍜	0
󳍝	0
󳍞	0
󳍟	0
󳍠	0
󳍡	0
󳍢	0
󳍣	0
󳍤	0
󳍥	0
󳍦	0
󳍧	0
󳍨	0
󳍩	0
󳍪	0
󳍫	0
󳍬	0
󳍭	0
󳍮	0
󳍯	0
󳍰	0
󳍱	0
󳍲	0
󳍳	0
󳍴	0
󳍵	0
󳍶	0
󳍷	0
󳍸	0
󳍹	0
󳍺	0
󳍻	0
󳍼	0
󳍽	0
󳍾	0
󳍿	0
󳎀	0
󳎁	0
󳎂	0
󳎃	0
󳎄	0
󳎅	0
󳎆	0
󳎇	0
󳎈	0
󳎉	0
󳎊	0
󳎋	0
󳎌	0
󳎍	0
󳎎	0
󳎏	0
󳎐	0
󳎑	0
󳎒	0
󳎓	0
󳎔	0
󳎕	0
󳎖	0
󳎗	0
󳎘	0
󳎙	0
󳎚	0
󳎛	0
󳎜	0
󳎝	0
󳎞	0
󳎟	0
󳎠	0
󳎡	0
󳎢	0
󳎣	0
󳎤	0
󳎥	0
󳎦	0
󳎧	0
󳎨	0
󳎩	0
󳎪	0
󳎫	0
󳎬	0
󳎭	0
󳎮	0
󳎯	0
󳎰	0
󳎱	0
󳎲	0
󳎳	0
󳎴	0
󳎵	0
󳎶	0
󳎷	0
󳎸	0
󳎹	0
󳎺	0
󳎻	0
󳎼	0
󳎽	0
󳎾	0
󳎿	0
󳏀	0
󳏁	0
󳏂	0
󳏃	0
󳏄	0
󳏅	0
󳏆	0
󳏇	0
󳏈	0
󳏉	0
󳏊	0
󳏋	0
󳏌	0
󳏍	0
󳏎	0
󳏏	0
󳏐	0
󳏑	0
󳏒	0
󳏓	0
󳏔	0
󳏕	0
󳏖	0
󳏗	0
󳏘	0
󳏙	0
󳏚	0
󳏛	0
󳏜	0
󳏝	0
󳏞	0
󳏟	0
󳏠	0
󳏡	0
󳏢	0
󳏣	0
󳏤	0
󳏥	0
󳏦	0
󳏧	0
󳏨	0
󳏩	0
󳏪	0
󳏫	0
󳏬	0
󳏭	0
󳏮	0
󳏯	0
󳏰	0
󳏱	0
󳏲	0
󳏳	0
󳏴	0
󳏵	0
󳏶	0
󳏷	0
󳏸	0
󳏹	0
󳏺	0
󳏻	0
󳏼	0
󳏽	0
󳏾	0
󳏿	0
󳐀	0
󳐁	0
󳐂	0
󳐃	0
󳐄	0
󳐅	0
󳐆	0
󳐇	0
󳐈	0
󳐉	0
󳐊	0
󳐋	0
󳐌	0
󳐍	0
󳐎	0
󳐏	0
󳐐	0
󳐑	0
󳐒	0
󳐓	0
󳐔	0
󳐕	0
󳐖	0
󳐗	0
󳐘	0
󳐙	0
󳐚	0
󳐛	0
󳐜	0
󳐝	0
󳐞	0
󳐟	0
󳐠	0
󳐡	0
󳐢	0
󳐣	0
󳐤	0
󳐥	0
󳐦	0
󳐧	0
󳐨	0
󳐩	0
󳐪	0
󳐫	0
󳐬	0
󳐭	0
󳐮	0
󳐯	0
󳐰	0
󳐱	0
󳐲	0
󳐳	0
󳐴	0
󳐵	0
󳐶	0
󳐷	0
󳐸	0
󳐹	0
󳐺	0
󳐻	0
󳐼	0
󳐽	0
󳐾	0
󳐿	0
󳑀	0
󳑁	0
󳑂	0
󳑃	0
󳑄	0
󳑅	0
󳑆	0
󳑇	0
󳑈	0
󳑉	0
󳑊	0
󳑋	0
󳑌	0
󳑍	0
󳑎	0
󳑏	0
󳑐	0
󳑑	0
󳑒	0
󳑓	0
󳑔	0
󳑕	0
󳑖	0
󳑗	0
󳑘	0
󳑙	0
󳑚	0
󳑛	0
󳑜	0
󳑝	0
󳑞	0
󳑟	0
󳑠	0
󳑡	0
󳑢	0
󳑣	0
󳑤	0
󳑥	0
󳑦	0
󳑧	0
󳑨	0
󳑩	0
󳑪	0
󳑫	0
󳑬	0
󳑭	0
󳑮	0
󳑯	0
󳑰	0
󳑱	0
󳑲	0
󳑳	0
󳑴	0
󳑵	0
󳑶	0
󳑷	0
󳑸	0
󳑹	0
󳑺	0
󳑻	0
󳑼	0
󳑽	0
󳑾	0
󳑿	0
󳒀	0
󳒁	0
󳒂	0
󳒃	0
󳒄	0
󳒅	0
󳒆	0
󳒇	0
󳒈	0
󳒉	0
󳒊	0
󳒋	0
󳒌	0
󳒍	0
󳒎	0
󳒏	0
󳒐	0
󳒑	0
󳒒	0
󳒓	0
󳒔	0
󳒕	0
󳒖	0
󳒗	0
󳒘	0
󳒙	0
󳒚	0
󳒛	0
󳒜	0
󳒝	0
󳒞	0
󳒟	0
󳒠	0
󳒡	0
󳒢	0
󳒣	0
󳒤	0
󳒥	0
󳒦	0
󳒧	0
󳒨	0
󳒩	0
󳒪	0
󳒫	0
󳒬	0
󳒭	0
󳒮	0
󳒯	0
󳒰	0
󳒱	0
󳒲	0
󳒳	0
󳒴	0
󳒵	0
󳒶	0
󳒷	0
󳒸	0
󳒹	0
󳒺	0
󳒻	0
󳒼	0
󳒽	0
󳒾	0
󳒿	0
󳓀	0
󳓁	0
󳓂	0
󳓃	0
󳓄	0
󳓅	0
󳓆	0
󳓇	0
󳓈	0
󳓉	0
󳓊	0
󳓋	0
󳓌	0
󳓍	0
󳓎	0
󳓏	0
󳓐	0
󳓑	0
󳓒	0
󳓓	0
󳓔	0
󳓕	0
󳓖	0
󳓗	0
󳓘	0
󳓙	0
󳓚	0
󳓛	0
󳓜	0
󳓝	0
󳓞	0
󳓟	0
󳓠	0
󳓡	0
󳓢	0
󳓣	0
󳓤	0
󳓥	0
󳓦	0
󳓧	0
󳓨	0
󳓩	0
󳓪	0
󳓫	0
󳓬	0
󳓭	0
󳓮	0
󳓯	0
󳓰	0
󳓱	0
󳓲	0
󳓳	0
󳓴	0
󳓵	0
󳓶	0
󳓷	0
󳓸	0
󳓹	0
󳓺	0
󳓻	0
󳓼	0
󳓽	0
󳓾	0
󳓿	0
󳔀	0
󳔁	0
󳔂	0
󳔃	0
󳔄	0
󳔅	0
󳔆	0
󳔇	0
󳔈	0
󳔉	0
󳔊	0
󳔋	0
󳔌	0
󳔍	0
󳔎	0
󳔏	0
󳔐	0
󳔑	0
󳔒	0
󳔓	0
󳔔	0
󳔕	0
󳔖	0
󳔗	0
󳔘	0
󳔙	0
󳔚	0
󳔛	0
󳔜	0
󳔝	0
󳔞	0
󳔟	0
󳔠	0
󳔡	0
󳔢	0
󳔣	0
󳔤	0
󳔥	0
󳔦	0
󳔧	0
󳔨	0
󳔩	0
󳔪	0
󳔫	0
󳔬	0
󳔭	0
󳔮	0
󳔯	0
󳔰	0
󳔱	0
󳔲	0
󳔳	0
󳔴	0
󳔵	0
󳔶	0
󳔷	0
󳔸	0
󳔹	0
󳔺	0
󳔻	0
󳔼	0
󳔽	0
󳔾	0
󳔿	0
󳕀	0
󳕁	0
󳕂	0
󳕃	0
󳕄	0
󳕅	0
󳕆	0
󳕇	0
󳕈	0
󳕉	0
󳕊	0
󳕋	0
󳕌	0
󳕍	0
󳕎	0
󳕏	0
󳕐	0
󳕑	0
󳕒	0
󳕓	0
󳕔	0
󳕕	0
󳕖	0
󳕗	0
󳕘	0
󳕙	0
󳕚	0
󳕛	0
󳕜	0
󳕝	0
󳕞	0
󳕟	0
󳕠	0
󳕡	0
󳕢	0
󳕣	0
󳕤	0
󳕥	0
󳕦	0
󳕧	0
󳕨	0
󳕩	0
󳕪	0
󳕫	0
󳕬	0
󳕭	0
󳕮	0
󳕯	0
󳕰	0
󳕱	0
󳕲	0
󳕳	0
󳕴	0
󳕵	0
󳕶	0
󳕷	0
󳕸	0
󳕹	0
󳕺	0
󳕻	0
󳕼	0
󳕽	0
󳕾	0
󳕿	0
󳖀	0
󳖁	0
󳖂	0
󳖃	0
󳖄	0
󳖅	0
󳖆	0
󳖇	0
󳖈	0
󳖉	0
󳖊	0
󳖋	0
󳖌	0
󳖍	0
󳖎	0
󳖏	0
󳖐	0
󳖑	0
󳖒	0
󳖓	0
󳖔	0
󳖕	0
󳖖	0
󳖗	0
󳖘	0
󳖙	0
󳖚	0
󳖛	0
󳖜	0
󳖝	0
󳖞	0
󳖟	0
󳖠	0
󳖡	0
󳖢	0
󳖣	0
󳖤	0
󳖥	0
󳖦	0
󳖧	0
󳖨	0
󳖩	0
󳖪	0
󳖫	0
󳖬	0
󳖭	0
󳖮	0
󳖯	0
󳖰	0
󳖱	0
󳖲	0
󳖳	0
󳖴	0
󳖵	0
󳖶	0
󳖷	0
󳖸	0
󳖹	0
󳖺	0
󳖻	0
󳖼	0
󳖽	0
󳖾	0
󳖿	0
󳗀	0
󳗁	0
󳗂	0
󳗃	0
󳗄	0
󳗅	0
󳗆	0
󳗇	0
󳗈	0
󳗉	0
󳗊	0
󳗋	0
󳗌	0
󳗍	0
󳗎	0
󳗏	0
󳗐	0
󳗑	0
󳗒	0
󳗓	0
󳗔	0
󳗕	0
󳗖	0
󳗗	0
󳗘	0
󳗙	0
󳗚	0
󳗛	0
󳗜	0
󳗝	0
󳗞	0
󳗟	0
󳗠	0
󳗡	0
󳗢	0
󳗣	0
󳗤	0
󳗥	0
󳗦	0
󳗧	0
󳗨	0
󳗩	0
󳗪	0
󳗫	0
󳗬	0
󳗭	0
󳗮	0
󳗯	0
󳗰	0
󳗱	0
󳗲	0
󳗳	0
󳗴	0
󳗵	0
󳗶	0
󳗷	0
󳗸	0
󳗹	0
󳗺	0
󳗻	0
󳗼	0
󳗽	0
󳗾	0
󳗿	0
󳘀	0
󳘁	0
󳘂	0
󳘃	0
󳘄	0
󳘅	0
󳘆	0
󳘇	0
󳘈	0
󳘉	0
󳘊	0
󳘋	0
󳘌	0
󳘍	0
󳘎	0
󳘏	0
󳘐	0
󳘑	0
󳘒	0
󳘓	0
󳘔	0
󳘕	0
󳘖	0
󳘗	0
󳘘	0
󳘙	0
󳘚	0
󳘛	0
󳘜	0
󳘝	0
󳘞	0
󳘟	0
󳘠	0
󳘡	0
󳘢	0
󳘣	0
󳘤	0
󳘥	0
󳘦	0
󳘧	0
󳘨	0
󳘩	0
󳘪	0
󳘫	0
󳘬	0
󳘭	0
󳘮	0
󳘯	0
󳘰	0
󳘱	0
󳘲	0
󳘳	0
󳘴	0
󳘵	0
󳘶	0
󳘷	0
󳘸	0
󳘹	0
󳘺	0
󳘻	0
󳘼	0
󳘽	0
󳘾	0
󳘿	0
󳙀	0
󳙁	0
󳙂	0
󳙃	0
󳙄	0
󳙅	0
󳙆	0
󳙇	0
󳙈	0
󳙉	0
󳙊	0
󳙋	0
󳙌	0
󳙍	0
󳙎	0
󳙏	0
󳙐	0
󳙑	0
󳙒	0
󳙓	0
󳙔	0
󳙕	0
󳙖	0
󳙗	0
󳙘	0
󳙙	0
󳙚	0
󳙛	0
󳙜	0
󳙝	0
󳙞	0
󳙟	0
󳙠	0
󳙡	0
󳙢	0
󳙣	0
󳙤	0
󳙥	0
󳙦	0
󳙧	0
󳙨	0
󳙩	0
󳙪	0
󳙫	0
󳙬	0
󳙭	0
󳙮	0
󳙯	0
󳙰	0
󳙱	0
󳙲	0
󳙳	0
󳙴	0
󳙵	0
󳙶	0
󳙷	0
󳙸	0
󳙹	0
󳙺	0
󳙻	0
󳙼	0
󳙽	0
󳙾	0
󳙿	0
󳚀	0
󳚁	0
󳚂	0
󳚃	0
󳚄	0
󳚅	0
󳚆	0
󳚇	0
󳚈	0
󳚉	0
󳚊	0
󳚋	0
󳚌	0
󳚍	0
󳚎	0
󳚏	0
󳚐	0
󳚑	0
󳚒	0
󳚓	0
󳚔	0
󳚕	0
󳚖	0
󳚗	0
󳚘	0
󳚙	0
󳚚	0
󳚛	0
󳚜	0
󳚝	0
󳚞	0
󳚟	0
󳚠	0
󳚡	0
󳚢	0
󳚣	0
󳚤	0
󳚥	0
󳚦	0
󳚧	0
󳚨	0
󳚩	0
󳚪	0
󳚫	0
󳚬	0
󳚭	0
󳚮	0
󳚯	0
󳚰	0
󳚱	0
󳚲	0
󳚳	0
󳚴	0
󳚵	0
󳚶	0
󳚷	0
󳚸	0
󳚹	0
󳚺	0
󳚻	0
󳚼	0
󳚽	0
󳚾	0
󳚿	0
󳛀	0
󳛁	0
󳛂	0
󳛃	0
󳛄	0
󳛅	0
󳛆	0
󳛇	0
󳛈	0
󳛉	0
󳛊	0
󳛋	0
󳛌	0
󳛍	0
󳛎	0
󳛏	0
󳛐	0
󳛑	0
󳛒	0
󳛓	0
󳛔	0
󳛕	0
󳛖	0
󳛗	0
󳛘	0
󳛙	0
󳛚	0
󳛛	0
󳛜	0
󳛝	0
󳛞	0
󳛟	0
󳛠	0
󳛡	0
󳛢	0
󳛣	0
󳛤	0
󳛥	0
󳛦	0
󳛧	0
󳛨	0
󳛩	0
󳛪	0
󳛫	0
󳛬	0
󳛭	0
󳛮	0
󳛯	0
󳛰	0
󳛱	0
󳛲	0
󳛳	0
󳛴	0
󳛵	0
󳛶	0
󳛷	0
󳛸	0
󳛹	0
󳛺	0
󳛻	0
󳛼	0
󳛽	0
󳛾	0
󳛿	0
󳜀	0
󳜁	0
󳜂	0
󳜃	0
󳜄	0
󳜅	0
󳜆	0
󳜇	0
󳜈	0
󳜉	0
󳜊	0
󳜋	0
󳜌	0
󳜍	0
󳜎	0
󳜏	0
󳜐	0
󳜑	0
󳜒	0
󳜓	0
󳜔	0
󳜕	0
󳜖	0
󳜗	0
󳜘	0
󳜙	0
󳜚	0
󳜛	0
󳜜	0
󳜝	0
󳜞	0
󳜟	0
󳜠	0
󳜡	0
󳜢	0
󳜣	0
󳜤	0
󳜥	0
󳜦	0
󳜧	0
<0x00>	0
<0x01>	0
<0x02>	0
<0x03>	0
<0x04>	0
<0x05>	0
<0x06>	0
<0x07>	0
<0x08>	0
<0x09>	0
<0x0A>	0
<0x0B>	0
<0x0C>	0
<0x0D>	0
<0x0E>	0
<0x0F>	0
<0x10>	0
<0x11>	0
<0x12>	0
<0x13>	0
<0x14>	0
<0x15>	0
<0x16>	0
<0x17>	0
<0x18>	0
<0x19>	0
<0x1A>	0
<0x1B>	0
<0x1C>	0
<0x1D>	0
<0x1E>	0
<0x1F>	0
<0x20>	0
<0x21>	0
<0x22>	0
<0x23>	0
<0x24>	0
<0x25>	0
<0x26>	0
<0x27>	0
<0x28>	0
<0x29>	0
<0x2A>	0
<0x2B>	0
<0x2C>	0
<0x2D>	0
<0x2E>	0
<0x2F>	0
<0x30>	0
<0x31>	0
<0x32>	0
<0x33>	0
<0x34>	0
<0x35>	0
<0x36>	0
<0x37>	0
<0x38>	0
<0x39>	0
<0x3A>	0
<0x3B>	0
<0x3C>	0
<0x3D>	0
<0x3E>	0
<0x3F>	0
<0x40>	0
<0x41>	0
<0x42>	0
<0x43>	0
<0x44>	0
<0x45>	0
<0x46>	0
<0x47>	0
<0x48>	0
<0x49>	0
<0x4A>	0
<0x4B>	0
<0x4C>	0
<0x4D>	0
<0x4E>	0
<0x4F>	0
<0x50>	0
<0x51>	0
<0x52>	0
<0x53>	0
<0x54>	0
<0x55>	0
<0x56>	0
<0x57>	0
<0x58>	0
<0x59>	0
<0x5A>	0
<0x5B>	0
<0x5C>	0
<0x5D>	0
<0x5E>	0
<0x5F>	0
<0x60>	0
<0x61>	0
<0x62>	0
<0x63>	0
<0x64>	0
<0x65>	0
<0x66>	0
<0x67>	0
<0x68>	0
<0x69>	0
<0x6A>	0
<0x6B>	0
<0x6C>	0
<0x6D>	0
<0x6E>	0
<0x6F>	0
<0x70>	0
<0x71>	0
<0x72>	0
<0x73>	0
<0x74>	0
<0x75>	0
<0x76>	0
<0x77>	0
<0x78>	0
<0x79>	0
<0x7A>	0
<0x7B>	0
<0x7C>	0
<0x7D>	0
<0x7E>	0
<0x7F>	0
<0x80>	0
<0x81>	0
<0x82>	0
<0x83>	0
<0x84>	0
<0x85>	0
<0x86>	0
<0x87>	0
<0x88>	0
<0x89>	0
<0x8A>	0
<0x8B>	0
<0x8C>	0
<0x8D>	0
<0x8E>	0
<0x8F>	0
<0x90>	0
<0x91>	0
<0x92>	0
<0x93>	0
<0x94>	0
<0x95>	0
<0x96>	0
<0x97>	0
<0x98>	0
<0x99>	0
<0x9A>	0
<0x9B>	0
<0x9C>	0
<0x9D>	0
<0x9E>	0
<0x9F>	0
<0xA0>	0
<0xA1>	0
<0xA2>	0
<0xA3>	0
<0xA4>	0
<0xA5>	0
<0xA6>	0
<0xA7>	0
<0xA8>	0
<0xA9>	0
<0xAA>	0
<0xAB>	0
<0xAC>	0
<0xAD>	0
<0xAE>	0
<0xAF>	0
<0xB0>	0
<0xB1>	0
<0xB2>	0
<0xB3>	0
<0xB4>	0
<0xB5>	0
<0xB6>	0
<0xB7>	0
<0xB8>	0
<0xB9>	0
<0xBA>	0
<0xBB>	0
<0xBC>	0
<0xBD>	0
<0xBE>	0
<0xBF>	0
<0xC0>	0
<0xC1>	0
<0xC2>	0
<0xC3>	0
<0xC4>	0
<0xC5>	0
<0xC6>	0
<0xC7>	0
<0xC8>	0
<0xC9>	0
<0xCA>	0
<0xCB>	0
<0xCC>	0
<0xCD>	0
<0xCE>	0
<0xCF>	0
<0xD0>	0
<0xD1>	0
<0xD2>	0
<0xD3>	0
<0xD4>	0
<0xD5>	0
<0xD6>	0
<0xD7>	0
<0xD8>	0
<0xD9>	0
<0xDA>	0
<0xDB>	0
<0xDC>	0
<0xDD>	0
<0xDE>	0
<0xDF>	0
<0xE0>	0
<0xE1>	0
<0xE2>	0
<0xE3>	0
<0xE4>	0
<0xE5>	0
<0xE6>	0
<0xE7>	0
<0xE8>	0
<0xE9>	0
<0xEA>	0
<0xEB>	0
<0xEC>	0
<0xED>	0
<0xEE>	0
<0xEF>	0
<0xF0>	0
<0xF1>	0
<0xF2>	0
<0xF3>	0
<0xF4>	0
<0xF5>	0
<0xF6>	0
<0xF7>	0
<0xF8>	0
<0xF9>	0
<0xFA>	0
<0xFB>	0
<0xFC>	0
<0xFD>	0
<0xFE>	0
<0xFF>	0
▁t	-0
▁i	-1
▁s	-2
he	-3
▁a	-4
in	-5
an	-6
▁to	-7
re	-8
▁w	-9
ou	-10
▁m	-11
at	-12
▁the	-13
▁c	-14
on	-15
彝文	-16
er	-17
▁is	-18
ri	-19
▁b	-20
▁(	-21
▁f	-22
▁in	-23
es	-24
▁h	-25
or	-26
▁d	-27
▁y	-28
en	-29
▁l	-30
▁Y	-31
▁sc	-32
▁p	-33
ing	-34
pt	-35
is	-36
ript	-37
▁script	-38
▁Yi	-39
▁you	-40
▁T	-41
字符	-42
ar	-43
ay	-44
as	-45
ow	-46
▁I	-47
ed	-48
▁th	-49
彝文字符	-50
▁o	-51
ll	-52
▁我	-53
文是	-54
▁这	-55
▁g	-56
ans	-57
▁n	-58
ve	-59
om	-60
▁这是	-61
▁he	-62
it	-63
ic	-64
ate	-65
le	-66
xf	-67
▁H	-68
什么	-69
▁e	-70
▁of	-71
▁an	-72
ot	-73
▁me	-74
▁这是彝文字符	-75
rans	-76
al	-77
的英	-78
的英文是	-79
late	-80
▁'	-81
ranslate	-82
et	-83
▁for	-84
un	-85
编号	-86
▁Translate	-87
ver	-88
hin	-89
ion	-90
).	-91
us	-92
▁ha	-93
翻译	-94
oo	-95
ese	-96
ke	-97
▁st	-98
hinese	-99
ld	-100
ent	-101
▁be	-102
▁The	-103
▁say	-104
▁re	-105
▁How	-106
▁li	-107
用彝文	-108
im	-109
▁do	-110
ac	-111
▁C	-112
ter	-113
▁on	-114
▁we	-115
▁|	-116
gh	-117
▁翻译	-118
▁and	-119
de	-120
▁你	-121
▁this	-122
ro	-123
▁it	-124
▁他	-125
▁are	-126
▁Chinese	-127
st	-128
ra	-129
▁have	-130
中文是	-131
的英文是什么	-132
▁at	-133
▁请	-134
▁my	-135
▁It	-136
id	-137
her	-138
▁was	-139
▁wh	-140
ut	-141
ct	-142
se	-143
am	-144
ch	-145
▁彝文	-146
▁can	-147
▁W	-148
very	-149
ce	-150
ill	-151
ir	-152
ly	-153
ght	-154
ome	-155
▁go	-156
▁your	-157
怎么	-158
ith	-159
▁with	-160
ad	-161
ant	-162
ur	-163
all	-164
▁not	-165
▁ne	-166
▁He	-167
▁that	-168
ation	-169
ore	-170
▁means	-171
▁k	-172
out	-173
表示	-174
通用彝文	-175
写作	-176
▁as	-177
▁like	-178
▁un	-179
ge	-180
▁se	-181
▁his	-182
ul	-183
'.	-184
ook	-185
」。	-186
用通用彝文	-187
用通用彝文写作	-188
th	-189
▁请问	-190
▁sh	-191
);	-192
怎么表示	-193
用彝文怎么表示	-194
qu	-195
ode	-196
pe	-197
对应	-198
up	-199
▁wor	-200
)).	-201
▁te	-202
ould	-203
ak	-204
il	-205
icode	-206
▁编号	-207
um	-208
▁very	-209
oun	-210
▁ch	-211
ain	-212
op	-213
est	-214
day	-215
▁j	-216
是什么	-217
)'	-218
ast	-219
one	-220
ish	-221
ase	-222
ood	-223
ol	-224
▁am	-225
▁com	-226
▁pl	-227
and	-228
ong	-229
▁en	-230
▁le	-231
ake	-232
▁than	-233
▁will	-234
、(	-235
彝族	-236
▁ex	-237
▁fr	-238
▁has	-239
个彝文字符	-240
▁us	-241
▁him	-242
▁ab	-243
if	-244
▁de	-245
▁((	-246
ry	-247
ive	-248
ure	-249
pp	-250
▁al	-251
▁r	-252
),	-253
)。	-254
our	-255
end	-256
组合	-257
分别	-258
ust	-259
的组合	-260
▁这是两	-261
个彝文字符的组合	-262
▁这是两个彝文字符的组合	-263
分别是	-264
和编号	-265
分别是编号	-266
now	-267
▁M	-268
▁by	-269
▁from	-270
▁up	-271
▁ri	-272
▁so	-273
ess	-274
lease	-275
▁what	-276
ud	-277
ort	-278
▁whe	-279
▁don	-280
▁con	-281
ard	-282
▁tim	-283
ap	-284
▁'(	-285
ble	-286
▁chinese	-287
ers	-288
▁want	-289
ight	-290
▁more	-291
ist	-292
fe	-293
▁there	-294
art	-295
▁know	-296
▁no	-297
▁man	-298
等于	-299
▁cl	-300
▁Th	-301
▁A	-302
os	-303
▁pro	-304
▁tra	-305
▁did	-306
ang	-307
are	-308
ig	-309
ass	-310
ity	-311
▁You	-312
▁v	-313
ind	-314
▁get	-315
▁book	-316
▁彝文字	-317
gl	-318
▁all	-319
res	-320
mp	-321
量词	-322
ool	-323
▁co	-324
▁time	-325
ine	-326
ame	-327
te	-328
▁qu	-329
▁pe	-330
▁We	-331
ree	-332
▁通	-333
▁spe	-334
:(	-335
▁D	-336
ack	-337
▁yi	-338
ous	-339
文化	-340
▁wat	-341
▁fe	-342
▁這	-343
▁Wh	-344
▁her	-345
der	-346
▁how	-347
▁please	-348
▁S	-349
ning	-350
▁mo	-351
▁work	-352
glish	-353
▁she	-354
▁out	-355
ather	-356
▁good	-357
▁one	-358
用彝文字符	-359
▁unicode	-360
用彝文字符集	-361
unicode	-362
▁通用彝文字符集	-363
▁stud	-364
ck	-365
▁day	-366
什么彝文	-367
对应什么彝文	-368
对应彝文字符	-369
▁tw	-370
▁ra	-371
ars	-372
ire	-373
ound	-374
ep	-375
▁su	-376
喜欢	-377
em	-378
▁about	-379
ie	-380
▁ro	-381
▁comp	-382
▁lo	-383
▁sp	-384
中文	-385
▁had	-386
▁ar	-387
ult	-388
▁here	-389
▁af	-390
▁or	-391
ven	-392
ave	-393
▁ac	-394
ople	-395
▁ye	-396
▁字符	-397
▁play	-398
▁too	-399
ary	-400
▁people	-401
▁come	-402
other	-403
▁translate	-404
▁any	-405
ace	-406
ount	-407
▁sch	-408
ren	-409
alk	-410
▁bo	-411
▁我们	-412
ice	-413
el	-414
iv	-415
▁home	-416
ild	-417
ink	-418
▁car	-419
▁;	-420
own	-421
age	-422
etter	-423
▁school	-424
▁every	-425
way	-426
ci	-427
▁J	-428
▁This	-429
可以	-430
▁ma	-431
翻译成	-432
▁last	-433
我的	-434
▁ag	-435
▁long	-436
▁sm	-437
ment	-438
▁E	-439
▁eat	-440
多少	-441
▁sa	-442
ies	-443
ect	-444
▁when	-445
▁fl	-446
▁br	-447
▁should	-448
▁new	-449
hing	-450
▁see	-451
▁look	-452
ark	-453
▁bus	-454
▁speak	-455
▁ad	-456
▁some	-457
▁but	-458
uch	-459
ough	-460
▁hel	-461
▁gr	-462
▁ten	-463
▁ear	-464
▁pr	-465
▁我們	-466
ester	-467
rit	-468
▁read	-469
▁imp	-470
▁today	-471
一个	-472
ition	-473
文字	-474
ag	-475
▁bl	-476
apan	-477
▁help	-478
▁two	-479
▁take	-480
你的	-481
▁请把	-482
▁off	-483
esterday	-484
ob	-485
ick	-486
▁tom	-487
reat	-488
▁yesterday	-489
▁P	-490
重要	-491
▁does	-492
翻译成中文	-493
red	-494
▁请把彝文	-495
▁must	-496
▁exp	-497
▁rain	-498
▁many	-499
▁were	-500
lf	-501
▁teac	-502
▁got	-503
▁going	-504
▁我不	-505
▁now	-506
▁would	-507
▁child	-508
ory	-509
▁po	-510
hed	-511
▁What	-512
▁tr	-513
ence	-514
▁My	-515
ance	-516
▁old	-517
▁english	-518
▁happ	-519
ally	-520
▁who	-521
▁lear	-522
▁much	-523
动词	-524
彝语	-525
able	-526
▁water	-527
▁sw	-528
▁after	-529
ved	-530
需要	-531
▁bu	-532
ab	-533
ue	-534
▁op	-535
▁been	-536
▁went	-537
ought	-538
▁over	-539
▁L	-540
今天	-541
iz	-542
▁if	-543
意思	-544
▁我想	-545
ouse	-546
▁fri	-547
▁那	-548
▁made	-549
▁think	-550
ty	-551
▁app	-552
▁where	-553
row	-554
urn	-555
▁ke	-556
les	-557
ves	-558
ving	-559
▁make	-560
▁acc	-561
act	-562
▁res	-563
od	-564
og	-565
▁她	-566
▁three	-567
ide	-568
▁our	-569
等于多少	-570
ork	-571
▁ph	-572
ress	-573
▁dif	-574
▁int	-575
▁need	-576
▁call	-577
▁part	-578
fic	-579
ond	-580
▁dis	-581
▁house	-582
als	-583
▁may	-584
oney	-585
▁better	-586
▁mat	-587
cl	-588
一個	-589
知道	-590
vel	-591
ther	-592
▁friend	-593
▁B	-594
▁they	-595
体系	-596
含义	-597
工作	-598
▁不	-599
▁hard	-600
▁train	-601
mer	-602
▁down	-603
▁teacher	-604
▁"	-605
▁我的	-606
ions	-607
ten	-608
▁There	-609
▁money	-610
ings	-611
▁back	-612
▁N	-613
not	-614
他的	-615
ber	-616
ile	-617
ical	-618
▁walk	-619
ky	-620
▁En	-621
▁well	-622
xt	-623
沒有	-624
的彝文	-625
ways	-626
▁let	-627
ite	-628
▁cannot	-629
量子	-630
ict	-631
▁years	-632
▁room	-633
▁inte	-634
▁always	-635
▁Do	-636
dition	-637
▁under	-638
ose	-639
self	-640
▁dog	-641
omet	-642
▁could	-643
▁str	-644
▁student	-645
);'	-646
▁pre	-647
我们	-648
▁mor	-649
▁right	-650
fore	-651
▁dri	-652
在彝族	-653
中的	-654
angu	-655
ft	-656
▁mus	-657
itt	-658
ip	-659
▁cat	-660
▁langu	-661
▁night	-662
▁sy	-663
akes	-664
▁give	-665
ock	-666
▁English	-667
▁world	-668
ix	-669
▁just	-670
▁morning	-671
什麼	-672
hes	-673
▁sun	-674
▁mon	-675
▁sup	-676
了一	-677
▁des	-678
ctor	-679
▁lar	-680
▁other	-681
ise	-682
▁feel	-683
▁fam	-684
▁tell	-685
▁use	-686
▁study	-687
▁before	-688
▁bec	-689
ach	-690
work	-691
▁never	-692
irst	-693
▁import	-694
之一	-695
ily	-696
port	-697
▁way	-698
▁into	-699
▁stay	-700
▁K	-701
▁彝族	-702
世界	-703
▁la	-704
orrow	-705
▁life	-706
▁ho	-707
cle	-708
rest	-709
喜歡	-710
▁run	-711
▁soon	-712
色的	-713
▁dr	-714
▁ask	-715
昨天	-716
▁bre	-717
▁lik	-718
中国	-719
ters	-720
..	-721
语言	-722
air	-723
▁thr	-724
▁talk	-725
我們	-726
▁fin	-727
▁late	-728
ek	-729
孩子	-730
ange	-731
ng	-732
aut	-733
▁only	-734
▁swim	-735
▁count	-736
学习	-737
orm	-738
▁came	-739
▁mount	-740
▁beaut	-741
ffe	-742
ich	-743
▁doctor	-744
alth	-745
▁air	-746
▁year	-747
▁through	-748
ds	-749
erson	-750
thing	-751
ural	-752
▁lot	-753
▁live	-754
▁Whe	-755
▁rem	-756
ction	-757
▁cold	-758
▁week	-759
▁again	-760
▁put	-761
▁five	-762
▁river	-763
▁Please	-764
ens	-765
▁watch	-766
▁language	-767
▁father	-768
▁tradition	-769
▁fo	-770
▁music	-771
use	-772
ting	-773
▁next	-774
▁weather	-775
anc	-776
▁bel	-777
▁che	-778
▁meet	-779
▁mind	-780
▁請	-781
▁plan	-782
字详	-783
erm	-784
▁wa	-785
字详解	-786
▁boy	-787
▁japan	-788
▁F	-789
▁didn	-790
du	-791
朋友	-792
▁彝语	-793
cess	-794
▁hot	-795
▁first	-796
▁mountain	-797
▁important	-798
get	-799
ied	-800
▁cle	-801
▁brother	-802
ts	-803
很多	-804
▁comm	-805
表意	-806
▁我在	-807
▁war	-808
▁class	-809
自己	-810
▁likes	-811
民族	-812
表达	-813
▁pass	-814
没有	-815
ject	-816
▁flow	-817
▁beautif	-818
传统	-819
av	-820
oh	-821
▁把	-822
llow	-823
stem	-824
▁Tom	-825
▁pri	-826
▁beautiful	-827
oss	-828
▁keep	-829
這個	-830
ank	-831
ired	-832
▁beg	-833
▁Japan	-834
▁great	-835
ful	-836
ian	-837
ign	-838
▁ca	-839
blem	-840
▁我喜欢	-841
文字体系	-842
ittle	-843
▁station	-844
ia	-845
ph	-846
▁gl	-847
▁big	-848
▁far	-849
▁somet	-850
▁letter	-851
▁problem	-852
▁wr	-853
▁little	-854
▁tomorrow	-855
wer	-856
▁gir	-857
▁sur	-858
ident	-859
▁health	-860
▁cont	-861
▁wait	-862
▁这个	-863
▁six	-864
antum	-865
古老	-866
可能	-867
的文化	-868
▁care	-869
▁interest	-870
▁G	-871
iss	-872
▁cult	-873
到了	-874
rite	-875
▁That	-876
考虑	-877
▁今天	-878
▁left	-879
▁writ	-880
▁learn	-881
▁these	-882
pl	-883
▁有	-884
ics	-885
古老的	-886
ated	-887
▁rec	-888
▁took	-889
不是	-890
▁won	-891
▁break	-892
ok	-893
日本	-894
▁lun	-895
▁彝文中	-896
▁turn	-897
▁found	-898
地位	-899
read	-900
▁used	-901
ficult	-902
▁earth	-903
▁difficult	-904
不仅	-905
的彝文翻译	-906
▁while	-907
▁bought	-908
▁children	-909
智慧	-910
ates	-911
▁tall	-912
ations	-913
ried	-914
▁month	-915
▁一	-916
形容	-917
igh	-918
▁gu	-919
▁min	-920
▁girl	-921
no	-922
▁O	-923
ody	-924
oth	-925
▁name	-926
在彝族文化	-927
▁leave	-928
▁young	-929
▁ele	-930
▁ans	-931
▁bir	-932
▁sing	-933
▁happy	-934
▁underst	-935
▁在	-936
ros	-937
olog	-938
▁hour	-939
▁light	-940
▁often	-941
▁system	-942
▁equ	-943
▁love	-944
英文	-945
▁hun	-946
▁pol	-947
▁gave	-948
▁said	-949
ual	-950
▁他的	-951
▁start	-952
▁sl	-953
▁door	-954
▁quantum	-955
mb	-956
使动	-957
▁fish	-958
▁rest	-959
ne	-960
记录	-961
▁eas	-962
▁reg	-963
▁learning	-964
一下	-965
int	-966
led	-967
▁large	-968
正在	-969
leep	-970
vent	-971
▁pen	-972
历史	-973
ull	-974
▁park	-975
是最	-976
nis	-977
ature	-978
▁mother	-979
we	-980
▁Don	-981
ail	-982
▁per	-983
▁rel	-984
▁days	-985
本书	-986
自然	-987
form	-988
▁open	-989
▁pres	-990
cation	-991
▁quest	-992
▁med	-993
aking	-994
▁fast	-995
▁show	-996
▁understand	-997
ream	-998
ries	-999
▁best	-1000
▁even	-1001
▁food	-1002
▁most	-1003
▁wind	-1004
▁如	-1005
这个	-1006
要考虑	-1007
ffee	-1008
▁why	-1009
▁four	-1010
▁hand	-1011
▁tennis	-1012
时候	-1013
▁num	-1014
▁saw	-1015
;'	-1016
非常	-1017
▁att	-1018
▁fire	-1019
ub	-1020
ces	-1021
▁sum	-1022
▁coffee	-1023
▁mar	-1024
▁vis	-1025
社会	-1026
▁bed	-1027
▁met	-1028
ner	-1029
pect	-1030
▁lost	-1031
)(	-1032
ane	-1033
▁sk	-1034
▁His	-1035
▁bro	-1036
▁buy	-1037
▁dist	-1038
▁nothing	-1039
ished	-1040
oy	-1041
名词	-1042
▁arri	-1043
▁compu	-1044
▁您	-1045
有一	-1046
ath	-1047
ial	-1048
▁bet	-1049
▁hum	-1050
注意	-1051
ric	-1052
▁sis	-1053
▁country	-1054
▁accident	-1055
▁adv	-1056
▁drink	-1057
▁which	-1058
ible	-1059
ited	-1060
ross	-1061
▁lunch	-1062
▁answer	-1063
每个	-1064
ohn	-1065
▁什么	-1066
▁fore	-1067
▁once	-1068
▁pict	-1069
是中国	-1070
cial	-1071
▁sec	-1072
▁away	-1073
▁picture	-1074
▁fun	-1075
▁suc	-1076
▁city	-1077
是一	-1078
ious	-1079
▁dec	-1080
▁tea	-1081
▁still	-1082
▁friends	-1083
很好	-1084
body	-1085
tern	-1086
▁cor	-1087
▁busy	-1088
▁expl	-1089
▁doesn	-1090
不会	-1091
在哪	-1092
aint	-1093
iver	-1094
▁Can	-1095
▁cons	-1096
▁stop	-1097
▁books	-1098
▁tired	-1099
▁around	-1100
词缀	-1101
cer	-1102
ons	-1103
ball	-1104
▁early	-1105
▁traditional	-1106
▁mov	-1107
▁list	-1108
▁eight	-1109
▁their	-1110
使用	-1111
的人	-1112
▁我要	-1113
fast	-1114
ital	-1115
▁win	-1116
▁family	-1117
▁something	-1118
▁things	-1119
ye	-1120
時候	-1121
ris	-1122
▁such	-1123
onom	-1124
orse	-1125
▁Let	-1126
▁sleep	-1127
▁small	-1128
▁reading	-1129
▁breakfast	-1130
br	-1131
▁老	-1132
每天	-1133
问题	-1134
▁yet	-1135
▁times	-1136
▁without	-1137
天气	-1138
any	-1139
hina	-1140
▁playing	-1141
▁你的	-1142
▁mean	-1143
▁如果	-1144
face	-1145
ming	-1146
ular	-1147
ience	-1148
▁wish	-1149
▁summer	-1150
▁anything	-1151
ousand	-1152
▁minut	-1153
房子	-1154
▁ind	-1155
estiv	-1156
▁ever	-1157
▁free	-1158
为什么	-1159
▁ser	-1160
▁什么是	-1161
▁char	-1162
▁act	-1163
▁pat	-1164
▁write	-1165
▁homework	-1166
▁我很	-1167
▁bas	-1168
湯姆	-1169
ife	-1170
▁ap	-1171
ient	-1172
▁tele	-1173
▁trans	-1174
▁festiv	-1175
都有	-1176
▁ce	-1177
世界上	-1178
▁rep	-1179
▁belie	-1180
▁thing	-1181
▁sister	-1182
▁afterno	-1183
▁thousand	-1184
计算	-1185
orry	-1186
feren	-1187
ys	-1188
属于	-1189
的最	-1190
▁不要	-1191
ened	-1192
▁aut	-1193
▁bad	-1194
iness	-1195
▁chang	-1196
▁follow	-1197
▁person	-1198
▁afternoon	-1199
ier	-1200
ord	-1201
ple	-1202
▁gen	-1203
▁strong	-1204
so	-1205
▁火	-1206
城市	-1207
现在	-1208
▁;.	-1209
▁job	-1210
▁high	-1211
任何	-1212
早上	-1213
时间	-1214
night	-1215
▁china	-1216
ff	-1217
太阳	-1218
已經	-1219
独立	-1220
ors	-1221
ific	-1222
ween	-1223
▁sol	-1224
▁drive	-1225
▁party	-1226
."	-1227
▁這個	-1228
▁disc	-1229
▁asked	-1230
ike	-1231
▁hist	-1232
去了	-1233
▁ob	-1234
ring	-1235
▁art	-1236
▁bri	-1237
▁sub	-1238
▁kind	-1239
▁Where	-1240
▁heard	-1241
▁story	-1242
▁yourself	-1243
介绍	-1244
学生	-1245
應該	-1246
衣服	-1247
rop	-1248
▁miss	-1249
▁mist	-1250
▁students	-1251
年的	-1252
▁gre	-1253
▁red	-1254
▁sim	-1255
ember	-1256
▁cook	-1257
故事	-1258
是我	-1259
gry	-1260
▁他在	-1261
▁sal	-1262
ondon	-1263
▁each	-1264
▁them	-1265
▁wrong	-1266
▁大	-1267
▁end	-1268
rench	-1269
多个	-1270
明天	-1271
星期	-1272
ram	-1273
▁Is	-1274
有什么	-1275
ause	-1276
▁cut	-1277
▁inv	-1278
ility	-1279
ledge	-1280
▁find	-1281
▁road	-1282
mo	-1283
医生	-1284
意义	-1285
▁ed	-1286
▁dep	-1287
▁sky	-1288
▁fall	-1289
▁seen	-1290
▁between	-1291
▁looking	-1292
io	-1293
健康	-1294
大的	-1295
iet	-1296
kyo	-1297
oes	-1298
▁ent	-1299
▁form	-1300
▁looks	-1301
▁table	-1302
东西	-1303
▁few	-1304
▁hear	-1305
▁being	-1306
▁finished	-1307
游泳	-1308
icy	-1309
▁im	-1310
▁介绍	-1311
▁near	-1312
▁oper	-1313
▁change	-1314
▁commun	-1315
▁matter	-1316
▁writing	-1317
gg	-1318
精神	-1319
给我	-1320
its	-1321
oud	-1322
ater	-1323
▁seem	-1324
▁sorry	-1325
gr	-1326
mon	-1327
▁量子	-1328
ness	-1329
▁law	-1330
ually	-1331
▁snow	-1332
▁stand	-1333
▁others	-1334
传承	-1335
咖啡	-1336
应该	-1337
lic	-1338
uck	-1339
▁Who	-1340
uring	-1341
▁dark	-1342
▁differen	-1343
▁knowledge	-1344
下午	-1345
漂亮	-1346
給我	-1347
英語	-1348
ared	-1349
▁Are	-1350
▁its	-1351
▁mil	-1352
▁comes	-1353
▁because	-1354
独立的	-1355
enty	-1356
▁add	-1357
▁din	-1358
▁pop	-1359
属于表意	-1360
cient	-1361
▁easy	-1362
彝文属于表意	-1363
▁winter	-1364
ib	-1365
▁)	-1366
实践	-1367
▁你在	-1368
的传统	-1369
aven	-1370
▁isn	-1371
▁try	-1372
ities	-1373
▁less	-1374
▁news	-1375
▁true	-1376
▁phone	-1377
▁place	-1378
▁travel	-1379
▁window	-1380
▁meeting	-1381
彝文属于表意文字体系	-1382
ax	-1383
字形	-1384
▁cam	-1385
▁own	-1386
字符都有	-1387
▁clim	-1388
是什么意思	-1389
独立的含义	-1390
每个字符都有	-1391
▁remember	-1392
每个字符都有独立的含义	-1393
一起	-1394
ote	-1395
aper	-1396
▁bag	-1397
▁tri	-1398
ready	-1399
▁lives	-1400
▁already	-1401
▁上	-1402
系统	-1403
英语	-1404
ology	-1405
▁told	-1406
▁grand	-1407
▁human	-1408
▁makes	-1409
▁medic	-1410
▁getting	-1411
成功	-1412
运动	-1413
ins	-1414
▁To	-1415
ffic	-1416
▁ide	-1417
▁incl	-1418
▁called	-1419
▁another	-1420
▁festival	-1421
gy	-1422
住在	-1423
ason	-1424
raid	-1425
ating	-1426
▁both	-1427
▁deep	-1428
▁dream	-1429
▁afraid	-1430
▁history	-1431
▁question	-1432
▁天	-1433
問題	-1434
字是	-1435
直接	-1436
era	-1437
oke	-1438
per	-1439
彝文的	-1440
彝族人	-1441
▁ago	-1442
▁exam	-1443
▁clean	-1444
▁wants	-1445
希望	-1446
ude	-1447
▁ec	-1448
ents	-1449
▁desk	-1450
▁doing	-1451
▁enough	-1452
回家	-1453
pos	-1454
▁他们	-1455
cept	-1456
clock	-1457
iction	-1458
▁black	-1459
▁broke	-1460
▁evening	-1461
下雨	-1462
▁他是	-1463
▁湯姆	-1464
▁abs	-1465
▁pay	-1466
▁ret	-1467
▁Have	-1468
▁full	-1469
▁word	-1470
▁build	-1471
▁dinner	-1472
▁working	-1473
cy	-1474
准确	-1475
特性	-1476
语气	-1477
str	-1478
▁pa	-1479
ince	-1480
oking	-1481
▁also	-1482
▁across	-1483
▁culture	-1484
be	-1485
▁da	-1486
对应的	-1487
fect	-1488
▁Did	-1489
需要注意	-1490
▁equals	-1491
▁believe	-1492
▁medicine	-1493
▁人	-1494
工具	-1495
手机	-1496
拥有	-1497
盖了	-1498
ism	-1499
▁孩子	-1500
千年的	-1501
语言的	-1502
ward	-1503
▁ref	-1504
▁thir	-1505
▁movie	-1506
▁explain	-1507
▁flowers	-1508
▁minutes	-1509
))	-1510
▁水	-1511
在彝	-1512
我很	-1513
所有	-1514
現在	-1515
甚麼	-1516
生活	-1517
erc	-1518
▁这朵	-1519
和准确	-1520
在彝汉	-1521
实践中	-1522
▁gra	-1523
▁hur	-1524
▁sil	-1525
是最直接	-1526
表意特性	-1527
arket	-1528
▁anim	-1529
▁dire	-1530
▁goes	-1531
▁requ	-1532
在彝汉翻译	-1533
对应的字是	-1534
的彝文表达	-1535
▁alone	-1536
▁seven	-1537
▁uncle	-1538
的彝文翻译是	-1539
彝文的表意特性	-1540
是最直接和准确	-1541
在彝汉翻译实践中	-1542
需要注意彝文的表意特性	-1543
是最直接和准确的彝文表达	-1544
音乐	-1545
chn	-1546
joy	-1547
▁Ken	-1548
▁hope	-1549
person	-1550
▁social	-1551
▁interesting	-1552
好的	-1553
学校	-1554
▁When	-1555
▁hours	-1556
▁pract	-1557
▁short	-1558
▁thank	-1559
▁R	-1560
不要	-1561
休息	-1562
作为	-1563
每一	-1564
美丽	-1565
ove	-1566
ages	-1567
▁sat	-1568
▁wom	-1569
anger	-1570
▁coll	-1571
▁usually	-1572
▁是	-1573
仅是	-1574
她的	-1575
完整	-1576
层面	-1577
通过	-1578
遗产	-1579
▁An	-1580
▁ran	-1581
▁stre	-1582
古老的文字	-1583
翻译成彝文	-1584
▁techn	-1585
▁words	-1586
▁charac	-1587
▁spring	-1588
▁arrived	-1589
az	-1590
占有	-1591
地球	-1592
ets	-1593
ugh	-1594
体系中	-1595
ense	-1596
▁exc	-1597
▁rad	-1598
中的地位	-1599
ution	-1600
▁done	-1601
▁forg	-1602
▁enjoy	-1603
▁heaven	-1604
▁listen	-1605
努力	-1606
hip	-1607
ica	-1608
uth	-1609
涵盖了	-1610
等多个	-1611
aren	-1612
▁Why	-1613
占有重要	-1614
▁bank	-1615
▁line	-1616
▁pian	-1617
▁rich	-1618
涵盖了自然	-1619
等多个层面	-1620
▁those	-1621
占有重要地位	-1622
彝族文字体系	-1623
▁apples	-1624
▁forget	-1625
精神等多个层面	-1626
在彝族文化体系中	-1627
彝族文字体系完整	-1628
在彝族文化中的地位	-1629
在彝族文化体系中占有重要地位	-1630
?"	-1631
很快	-1632
東西	-1633
灿烂	-1634
载体	-1635
開始	-1636
rect	-1637
不仅仅是	-1638
aster	-1639
velop	-1640
▁clot	-1641
▁prot	-1642
的文化遗产	-1643
▁Would	-1644
▁exerc	-1645
ossible	-1646
▁camera	-1647
古老的文字之一	-1648
▁computer	-1649
怎麼	-1650
承载	-1651
晚上	-1652
更是	-1653
高兴	-1654
▁你不	-1655
承载着	-1656
有很多	-1657
的意义	-1658
的载体	-1659
dred	-1660
outh	-1661
▁mac	-1662
▁swe	-1663
彝族人民	-1664
数千年的	-1665
民族之一	-1666
quare	-1667
▁fail	-1668
▁gener	-1669
▁coming	-1670
▁longer	-1671
▁partic	-1672
川黔	-1673
orn	-1674
滇川黔	-1675
ires	-1676
ught	-1677
▁same	-1678
▁elect	-1679
▁truth	-1680
仍在	-1681
内涵	-1682
就是	-1683
意为	-1684
irt	-1685
ize	-1686
和历史	-1687
记录了	-1688
▁May	-1689
▁inc	-1690
中的一个	-1691
仍在使用	-1692
民族智慧	-1693
都承载着	-1694
▁ener	-1695
▁sign	-1696
的传统文化	-1697
的文化内涵	-1698
仍在使用的最	-1699
▁twenty	-1700
古老的民族之一	-1701
世界上仍在使用的最	-1702
世界上仍在使用的最古老的文字之一	-1703
昨晚	-1704
深厚	-1705
ger	-1706
hine	-1707
▁har	-1708
▁lea	-1709
▁nat	-1710
彝文作为	-1711
拥有灿烂	-1712
滇川黔贵	-1713
▁bicy	-1714
▁gard	-1715
▁prov	-1716
▁介绍彝文	-1717
彝族是中国	-1718
智慧和历史	-1719
▁lived	-1720
传承民族智慧	-1721
都承载着深厚	-1722
▁office	-1723
▁univer	-1724
每一个彝文字符	-1725
记录了彝族人民	-1726
▁diction	-1727
▁hundred	-1728
▁surface	-1729
滇川黔贵通用彝文	-1730
▁watching	-1731
拥有灿烂的文化遗产	-1732
数千年的智慧和历史	-1733
▁dictionary	-1734
都承载着深厚的文化内涵	-1735
彝族是中国古老的民族之一	-1736
记录了彝族人民数千年的智慧和历史	-1737
容易	-1738
男孩	-1739
那个	-1740
ret	-1741
其含义	-1742
orts	-1743
▁edu	-1744
其含义为	-1745
重要字符	-1746
illed	-1747
▁mine	-1748
▁then	-1749
记录语言的	-1750
▁horse	-1751
文字不仅仅是	-1752
的传统文化中	-1753
▁during	-1754
记录语言的工具	-1755
▁present	-1756
中的一个重要字符	-1757
更是传承民族智慧	-1758
▁happened	-1759
在彝族的传统文化中	-1760
是滇川黔贵通用彝文	-1761
更是传承民族智慧的载体	-1762
文字不仅仅是记录语言的工具	-1763
ug	-1764
关系	-1765
hen	-1766
uss	-1767
▁你想	-1768
▁box	-1769
▁ken	-1770
▁game	-1771
▁prom	-1772
▁green	-1773
▁comple	-1774
▁garden	-1775
▁rather	-1776
▁really	-1777
▁saying	-1778
▁develop	-1779
▁married	-1780
▁support	-1781
▁tonight	-1782
▁different	-1783
地方	-1784
开始	-1785
来了	-1786
用词	-1787
ash	-1788
ced	-1789
osp	-1790
oto	-1791
oup	-1792
在彝文	-1793
cend	-1794
rees	-1795
在彝文中	-1796
▁doll	-1797
▁inform	-1798
▁airport	-1799
▁bicycle	-1800
去上	-1801
名字	-1802
告诉	-1803
字面	-1804
背景	-1805
ott	-1806
▁ox	-1807
时不仅	-1808
ided	-1809
road	-1810
字面意思	-1811
怎么表达	-1812
文化背景	-1813
还要考虑	-1814
▁base	-1815
▁grow	-1816
▁warm	-1817
翻译时不仅	-1818
▁inter	-1819
▁point	-1820
▁since	-1821
在彝文中写作	-1822
要考虑字面意思	-1823
还要考虑文化背景	-1824
翻译时不仅要考虑字面意思	-1825
;.	-1826
的事	-1827
聪明	-1828
▁em	-1829
side	-1830
▁cap	-1831
▁ste	-1832
ision	-1833
▁song	-1834
▁energy	-1835
▁correct	-1836
▁japanese	-1837
▁education	-1838
了我	-1839
助词	-1840
午饭	-1841
本書	-1842
fer	-1843
▁dat	-1844
▁det	-1845
▁你可以	-1846
▁nice	-1847
▁prog	-1848
▁wife	-1849
▁shoes	-1850
▁teleph	-1851
▁protect	-1852
▁success	-1853
▁cultural	-1854
cc	-1855
夏天	-1856
的時候	-1857
ains	-1858
▁set	-1859
形容词缀	-1860
▁amer	-1861
▁moon	-1862
▁temp	-1863
▁piano	-1864
▁quite	-1865
▁forgot	-1866
▁street	-1867
▁smoking	-1868
▁彝文中怎么表达	-1869
▁z	-1870
一點	-1871
冬天	-1872
古语	-1873
感到	-1874
起來	-1875
这里	-1876
ert	-1877
hem	-1878
▁你们	-1879
ceed	-1880
▁emp	-1881
ental	-1882
▁milk	-1883
▁numb	-1884
▁slow	-1885
▁sure	-1886
▁running	-1887
▁business	-1888
不同	-1889
人名	-1890
做了	-1891
回答	-1892
电影	-1893
ell	-1894
iqu	-1895
umb	-1896
ched	-1897
nect	-1898
oint	-1899
place	-1900
▁Your	-1901
▁hair	-1902
▁agree	-1903
▁moder	-1904
▁seems	-1905
▁danger	-1906
▁location	-1907
▁studying	-1908
這裡	-1909
ari	-1910
▁In	-1911
▁你有	-1912
▁老师	-1913
▁bra	-1914
▁son	-1915
asure	-1916
▁John	-1917
▁idea	-1918
▁tick	-1919
▁tree	-1920
arents	-1921
▁Every	-1922
▁began	-1923
▁abroad	-1924
▁number	-1925
▁everything	-1926
lt	-1927
▁中	-1928
走了	-1929
▁你能	-1930
▁我會	-1931
ancy	-1932
most	-1933
▁hon	-1934
brary	-1935
▁glass	-1936
▁hotel	-1937
▁order	-1938
▁worth	-1939
▁wrote	-1940
▁library	-1941
▁process	-1942
▁talking	-1943
▁Japanese	-1944
▁everyone	-1945
▁用	-1946
很有	-1947
房間	-1948
的基	-1949
真的	-1950
erv	-1951
uct	-1952
▁昨天	-1953
▁ext	-1954
▁tow	-1955
ments	-1956
ouble	-1957
▁along	-1958
▁birth	-1959
▁visit	-1960
▁wonder	-1961
ai	-1962
最好	-1963
火车	-1964
▁医生	-1965
自己的	-1966
▁cal	-1967
▁sit	-1968
▁Mary	-1969
▁able	-1970
▁catch	-1971
▁creat	-1972
▁smart	-1973
▁living	-1974
▁发	-1975
女孩	-1976
完成	-1977
已经	-1978
必须	-1979
模型	-1980
land	-1981
▁cup	-1982
▁mary	-1983
▁redu	-1984
▁sick	-1985
▁dress	-1986
▁heart	-1987
▁nature	-1988
▁machine	-1989
▁parents	-1990
▁waiting	-1991
▁swimming	-1992
▁direction	-1993
▁information	-1994
)、	-1995
▁生	-1996
一定	-1997
一直	-1998
因为	-1999
必須	-2000
相信	-2001
起来	-2002
....	-2003
here	-2004
▁pur	-2005
▁Amer	-2006
▁drop	-2007
▁head	-2008
▁hold	-2009
▁radio	-2010
▁operate	-2011
▁exercise	-2012
▁山	-2013
一次	-2014
不會	-2015
app	-2016
的时候	-2017
ides	-2018
ower	-2019
▁col	-2020
▁dra	-2021
▁mom	-2022
▁cent	-2023
▁data	-2024
▁nine	-2025
▁speed	-2026
▁caught	-2027
▁expens	-2028
▁changed	-2029
▁natural	-2030
▁baseball	-2031
fl	-2032
▁小	-2033
▁花	-2034
不能	-2035
叠加	-2036
告訴	-2037
数词	-2038
知识	-2039
電話	-2040
ped	-2041
▁If	-2042
less	-2043
▁All	-2044
▁gone	-2045
▁shop	-2046
▁team	-2047
ention	-2048
▁bring	-2049
▁climb	-2050
▁impro	-2051
▁almost	-2052
▁famous	-2053
▁taking	-2054
二十	-2055
决定	-2056
ety	-2057
eye	-2058
yes	-2059
的意思	-2060
语气词	-2061
▁fif	-2062
▁unt	-2063
ination	-2064
▁connect	-2065
▁raining	-2066
▁telephone	-2067
▁好	-2068
一点	-2069
多久	-2070
安全	-2071
得很	-2072
数学	-2073
gest	-2074
yoto	-2075
▁hat	-2076
▁cars	-2077
▁john	-2078
▁wear	-2079
▁helps	-2080
▁white	-2081
▁modern	-2082
▁myself	-2083
▁police	-2084
▁sunday	-2085
▁thought	-2086
▁requires	-2087
bb	-2088
以前	-2089
会儿	-2090
把节	-2091
电脑	-2092
苹果	-2093
une	-2094
▁tv	-2095
▁我会	-2096
▁opp	-2097
hemat	-2098
▁blue	-2099
▁face	-2100
▁hosp	-2101
▁rice	-2102
▁side	-2103
▁eating	-2104
▁flower	-2105
公园	-2106
帮助	-2107
lla	-2108
new	-2109
ral	-2110
ized	-2111
lect	-2112
▁yen	-2113
▁为什么	-2114
▁bill	-2115
▁dogs	-2116
▁fact	-2117
ational	-2118
▁succeed	-2119
▁traffic	-2120
ef	-2121
之间	-2122
人的	-2123
但是	-2124
十分	-2125
學校	-2126
改变	-2127
睡觉	-2128
ior	-2129
rib	-2130
umn	-2131
计算机	-2132
used	-2133
▁Our	-2134
▁She	-2135
▁fav	-2136
▁net	-2137
▁你喜欢	-2138
▁appe	-2139
▁conf	-2140
▁paper	-2141
▁hospital	-2142
▁computers	-2143
ny	-2144
保护	-2145
時間	-2146
智能	-2147
理解	-2148
udd	-2149
▁Ne	-2150
▁No	-2151
在哪里	-2152
ases	-2153
sity	-2154
▁Sun	-2155
▁Will	-2156
▁wall	-2157
▁begin	-2158
▁known	-2159
▁quiet	-2160
▁yours	-2161
▁Sunday	-2162
▁intell	-2163
▁return	-2164
ze	-2165
声词	-2166
小时	-2167
旅行	-2168
ime	-2169
▁你是	-2170
▁我有	-2171
▁這是	-2172
象声词	-2173
ised	-2174
▁bab	-2175
▁emb	-2176
▁leg	-2177
▁翻译成	-2178
grass	-2179
▁wood	-2180
▁我不喜欢	-2181
▁angry	-2182
▁chair	-2183
▁check	-2184
▁exper	-2185
▁making	-2186
▁against	-2187
▁company	-2188
▁driving	-2189
▁猫	-2190
技术	-2191
的一	-2192
说话	-2193
cil	-2194
iew	-2195
▁kn	-2196
▁学生	-2197
▁我是	-2198
ones	-2199
rity	-2200
▁age	-2201
▁ill	-2202
▁pie	-2203
▁umb	-2204
▁vac	-2205
▁我可以	-2206
ative	-2207
▁cost	-2208
▁felt	-2209
▁pain	-2210
▁sent	-2211
▁我不知道	-2212
gether	-2213
▁close	-2214
▁novel	-2215
▁umbre	-2216
erature	-2217
▁expect	-2218
▁pencil	-2219
▁second	-2220
▁seeing	-2221
▁theory	-2222
▁address	-2223
▁network	-2224
▁building	-2225
▁together	-2226
me	-2227
nt	-2228
上了	-2229
好了	-2230
如何	-2231
發生	-2232
看看	-2233
uan	-2234
ues	-2235
ives	-2236
▁bit	-2237
▁tax	-2238
▁我今天	-2239
▁baby	-2240
▁born	-2241
▁opin	-2242
▁pret	-2243
▁prin	-2244
▁quick	-2245
▁advice	-2246
▁depend	-2247
▁econom	-2248
▁discuss	-2249
▁learned	-2250
▁pattern	-2251
▁umbrella	-2252
▁questions	-2253
▁,	-2254
数据	-2255
總是	-2256
舒服	-2257
谢谢	-2258
都是	-2259
rap	-2260
▁他很	-2261
▁我看	-2262
fort	-2263
ines	-2264
ware	-2265
▁cry	-2266
▁div	-2267
▁surp	-2268
▁town	-2269
▁trip	-2270
▁wool	-2271
object	-2272
▁haven	-2273
▁knows	-2274
▁翻译成英文	-2275
▁french	-2276
▁london	-2277
▁foreign	-2278
▁mistake	-2279
▁interested	-2280
▁q	-2281
▁最	-2282
价格	-2283
保持	-2284
先生	-2285
到你	-2286
在家	-2287
學生	-2288
▁Mr	-2289
▁mr	-2290
叠加态	-2291
▁cats	-2292
▁suit	-2293
▁apple	-2294
▁clear	-2295
▁cloud	-2296
▁older	-2297
ization	-2298
ulation	-2299
了他	-2300
电话	-2301
食物	-2302
dge	-2303
hind	-2304
▁fly	-2305
▁imm	-2306
▁sea	-2307
▁这本书	-2308
的意思是	-2309
▁cake	-2310
▁case	-2311
▁pick	-2312
ainted	-2313
▁tokyo	-2314
▁until	-2315
▁autumn	-2316
▁behind	-2317
▁sports	-2318
▁ticket	-2319
▁clothes	-2320
▁dollars	-2321
▁mathemat	-2322
▁expensive	-2323
▁mountains	-2324
ca	-2325
dy	-2326
▁Q	-2327
▁过	-2328
一些	-2329
上的	-2330
不起	-2331
了嗎	-2332
早饭	-2333
解释	-2334
amp	-2335
▁cy	-2336
▁ty	-2337
了我的	-2338
room	-2339
▁env	-2340
▁spi	-2341
heart	-2342
▁They	-2343
▁eyes	-2344
▁jack	-2345
▁real	-2346
father	-2347
▁Could	-2348
▁hands	-2349
▁maint	-2350
▁needs	-2351
▁store	-2352
▁London	-2353
▁become	-2354
▁includ	-2355
▁silver	-2356
▁states	-2357
▁thirty	-2358
▁written	-2359
做的	-2360
叔叔	-2361
唱歌	-2362
房间	-2363
父親	-2364
爸爸	-2365
ute	-2366
ract	-2367
rive	-2368
▁eng	-2369
▁flo	-2370
▁mem	-2371
▁我们在	-2372
ustom	-2373
▁card	-2374
▁glad	-2375
▁resp	-2376
▁grass	-2377
▁sound	-2378
▁whole	-2379
▁French	-2380
▁honest	-2381
▁played	-2382
▁spirit	-2383
▁decided	-2384
▁largest	-2385
▁respect	-2386
▁systems	-2387
▁birthday	-2388
▁patterns	-2389
▁thinking	-2390
帽子	-2391
明白	-2392
春天	-2393
無法	-2394
还是	-2395
那么	-2396
man	-2397
ush	-2398
▁Ch	-2399
▁St	-2400
為什麼	-2401
amed	-2402
hand	-2403
▁bal	-2404
▁beh	-2405
▁hal	-2406
▁sad	-2407
▁val	-2408
▁Jane	-2409
▁heav	-2410
▁seat	-2411
▁Tokyo	-2412
▁later	-2413
▁touch	-2414
▁treat	-2415
▁woman	-2416
▁concer	-2417
▁having	-2418
▁moment	-2419
▁animals	-2420
▁started	-2421
co	-2422
▁叫	-2423
▁放	-2424
了吗	-2425
方式	-2426
核心	-2427
毕摩	-2428
汤姆	-2429
纠缠	-2430
觉得	-2431
让我	-2432
起床	-2433
附近	-2434
ech	-2435
▁TV	-2436
▁我把	-2437
ames	-2438
ican	-2439
rist	-2440
▁adm	-2441
▁mag	-2442
▁tor	-2443
▁你應該	-2444
ables	-2445
horse	-2446
▁bath	-2447
▁danc	-2448
▁died	-2449
▁fool	-2450
▁lend	-2451
▁poor	-2452
▁test	-2453
▁comput	-2454
▁hungry	-2455
▁reason	-2456
ji	-2457
▁只	-2458
▁比	-2459
▁要	-2460
▁讓	-2461
想吃	-2462
灵活	-2463
ery	-2464
ilt	-2465
ont	-2466
▁As	-2467
▁ev	-2468
ants	-2469
ived	-2470
odel	-2471
wood	-2472
▁dry	-2473
▁key	-2474
▁kil	-2475
▁mid	-2476
▁par	-2477
ffect	-2478
remon	-2479
▁land	-2480
▁luck	-2481
▁phys	-2482
▁salt	-2483
▁tast	-2484
▁vill	-2485
ancient	-2486
▁speaks	-2487
▁ceremon	-2488
▁himself	-2489
▁opinion	-2490
▁intellig	-2491
hy	-2492
▁前	-2493
人都	-2494
件事	-2495
发展	-2496
想要	-2497
方法	-2498
桌子	-2499
身体	-2500
col	-2501
▁日本	-2502
为彝文	-2503
怎么说	-2504
aken	-2505
ique	-2506
▁ate	-2507
▁他喜欢	-2508
▁我希望	-2509
▁翻译为彝文	-2510
▁effect	-2511
▁passed	-2512
▁repres	-2513
▁speech	-2514
▁brought	-2515
▁healthy	-2516
▁watched	-2517
▁problems	-2518
SM	-2519
ko	-2520
oe	-2521
▁别	-2522
买了	-2523
人类	-2524
吃了	-2525
所以	-2526
消息	-2527
男人	-2528
第二	-2529
覺得	-2530
那裡	-2531
cow	-2532
gen	-2533
▁你要	-2534
▁那个	-2535
一会儿	-2536
是一個	-2537
是我的	-2538
fire	-2539
pped	-2540
ured	-2541
▁Bob	-2542
▁cur	-2543
▁bird	-2544
▁fell	-2545
▁noon	-2546
▁sweet	-2547
▁invent	-2548
▁superm	-2549
▁express	-2550
▁possible	-2551
▁speaking	-2552
▁grandfather	-2553
dd	-2554
ec	-2555
▁很	-2556
▁肯	-2557
一样	-2558
宇宙	-2559
完全	-2560
是誰	-2561
瑪麗	-2562
研究	-2563
突然	-2564
网络	-2565
美國	-2566
节日	-2567
认为	-2568
音樂	-2569
dam	-2570
has	-2571
▁di	-2572
raph	-2573
▁ple	-2574
▁fine	-2575
▁gray	-2576
▁lake	-2577
▁past	-2578
▁poet	-2579
▁birds	-2580
▁death	-2581
▁mouth	-2582
▁ready	-2583
▁works	-2584
▁accept	-2585
▁couldn	-2586
▁forest	-2587
▁looked	-2588
▁walked	-2589
▁wanted	-2590
▁trouble	-2591
▁walking	-2592
▁technology	-2593
af	-2594
eb	-2595
▁多	-2596
▁太	-2597
会说	-2598
公司	-2599
▁pi	-2600
▁他把	-2601
怎么样	-2602
ding	-2603
imes	-2604
▁men	-2605
▁bott	-2606
▁guit	-2607
▁move	-2608
▁runs	-2609
▁text	-2610
▁produ	-2611
▁smoke	-2612
▁became	-2613
▁belong	-2614
▁common	-2615
▁contin	-2616
▁emphas	-2617
▁intern	-2618
▁prefer	-2619
▁popular	-2620
▁vacation	-2621
▁supermarket	-2622
,(	-2623
妹妹	-2624
电视	-2625
离开	-2626
ada	-2627
ket	-2628
ned	-2629
omp	-2630
用中文	-2631
iron	-2632
izes	-2633
oice	-2634
▁cra	-2635
▁fut	-2636
▁ski	-2637
ained	-2638
udden	-2639
▁foot	-2640
▁gold	-2641
▁jane	-2642
▁send	-2643
atever	-2644
▁noise	-2645
▁arrive	-2646
▁fundam	-2647
▁stayed	-2648
position	-2649
▁environ	-2650
▁program	-2651
▁regular	-2652
▁pictures	-2653
▁dangerous	-2654
▁sometimes	-2655
by	-2656
▁下	-2657
▁今	-2658
去年	-2659
相对	-2660
網球	-2661
電視	-2662
ton	-2663
ule	-2664
▁ve	-2665
osed	-2666
▁aff	-2667
▁egg	-2668
▁我昨天	-2669
▁Some	-2670
▁crow	-2671
▁dead	-2672
▁among	-2673
▁cross	-2674
▁model	-2675
▁basket	-2676
▁future	-2677
▁guitar	-2678
▁ancient	-2679
▁serious	-2680
▁someone	-2681
▁mistakes	-2682
▁practice	-2683
▁“	-2684
便宜	-2685
出了	-2686
出去	-2687
勇敢	-2688
帮我	-2689
常常	-2690
影响	-2691
提供	-2692
教育	-2693
无法	-2694
是个	-2695
父母	-2696
秋天	-2697
老师	-2698
自行	-2699
鞋子	-2700
;).	-2701
des	-2702
▁他不	-2703
▁夏天	-2704
▁我能	-2705
▁火车	-2706
得很好	-2707
ilos	-2708
jing	-2709
ored	-2710
vers	-2711
▁arm	-2712
▁她喜欢	-2713
▁half	-2714
▁inst	-2715
▁math	-2716
▁till	-2717
ilosop	-2718
▁These	-2719
▁dance	-2720
▁incre	-2721
▁sight	-2722
▁object	-2723
▁result	-2724
▁slowly	-2725
▁capital	-2726
▁subject	-2727
▁philosop	-2728
▁listening	-2729
▁fundamental	-2730
▁U	-2731
▁三	-2732
▁它	-2733
两个	-2734
也不	-2735
信息	-2736
哥哥	-2737
完了	-2738
幸福	-2739
汽车	-2740
用的	-2741
的話	-2742
通常	-2743
形容词	-2744
ices	-2745
rise	-2746
▁ben	-2747
▁sus	-2748
▁top	-2749
ately	-2750
drive	-2751
▁earl	-2752
▁kept	-2753
itting	-2754
▁carry	-2755
▁fifty	-2756
▁laugh	-2757
▁attend	-2758
▁bridge	-2759
▁pretty	-2760
▁season	-2761
▁secret	-2762
▁single	-2763
▁america	-2764
▁respons	-2765
▁character	-2766
ee	-2767
▁谁	-2768
事故	-2769
云南	-2770
值得	-2771
准备	-2772
同意	-2773
处理	-2774
散步	-2775
科学	-2776
跳舞	-2777
imo	-2778
▁汤姆	-2779
▁沒有	-2780
部电影	-2781
ests	-2782
ully	-2783
▁maj	-2784
▁我想要	-2785
▁我要去	-2786
用中文说	-2787
gland	-2788
▁boat	-2789
▁infl	-2790
▁lead	-2791
▁plus	-2792
▁rece	-2793
▁star	-2794
aining	-2795
▁compl	-2796
▁exist	-2797
▁power	-2798
▁sense	-2799
▁super	-2800
▁waste	-2801
▁worry	-2802
▁请用中文说	-2803
▁action	-2804
▁finish	-2805
▁include	-2806
▁meaning	-2807
▁studies	-2808
▁younger	-2809
▁electric	-2810
sh	-2811
▁快	-2812
▁打	-2813
▁空	-2814
▁走	-2815
▁越	-2816
一天	-2817
也许	-2818
动物	-2819
哪里	-2820
小時	-2821
折磨	-2822
是個	-2823
机器	-2824
来的	-2825
疾病	-2826
答案	-2827
经常	-2828
银行	-2829
sky	-2830
urb	-2831
▁他們	-2832
▁他有	-2833
是彝族	-2834
hood	-2835
▁cou	-2836
▁deg	-2837
▁hol	-2838
▁ins	-2839
什么时候	-2840
veral	-2841
▁bimo	-2842
▁favo	-2843
▁meat	-2844
▁mult	-2845
▁wrap	-2846
▁above	-2847
▁crowd	-2848
▁price	-2849
▁shall	-2850
▁takes	-2851
▁faster	-2852
▁leaves	-2853
▁market	-2854
▁months	-2855
▁movies	-2856
▁taller	-2857
▁collect	-2858
▁prevent	-2859
▁visited	-2860
▁computing	-2861
▁characters	-2862
▁temperature	-2863
zy	-2864
▁半	-2865
▁能	-2866
作业	-2867
北京	-2868
同时	-2869
姐姐	-2870
导致	-2871
年轻	-2872
强调	-2873
忘了	-2874
能力	-2875
认识	-2876
這麼	-2877
eng	-2878
ken	-2879
▁el	-2880
▁es	-2881
▁id	-2882
▁中国	-2883
▁每天	-2884
看起來	-2885
重要的	-2886
aces	-2887
ccer	-2888
ency	-2889
ping	-2890
▁eff	-2891
▁lie	-2892
▁ris	-2893
▁wis	-2894
ently	-2895
iling	-2896
istic	-2897
where	-2898
▁body	-2899
▁chem	-2900
▁held	-2901
▁prof	-2902
ential	-2903
▁group	-2904
▁stone	-2905
▁trees	-2906
▁struct	-2907
▁sudden	-2908
▁earthqu	-2909
▁several	-2910
▁singing	-2911
▁complete	-2912
▁favorite	-2913
▁countries	-2914
▁languages	-2915
▁environment	-2916
▁mathematics	-2917
▁intelligence	-2918
▁从	-2919
▁月	-2920
▁说	-2921
兄弟	-2922
国家	-2923
虽然	-2924
足球	-2925
这儿	-2926
重字	-2927
aur	-2928
coh	-2929
ows	-2930
▁bi	-2931
▁她在	-2932
▁现在	-2933
了一個	-2934
工智能	-2935
的核心	-2936
cent	-2937
hair	-2938
lebr	-2939
oose	-2940
thod	-2941
▁bei	-2942
▁cir	-2943
▁def	-2944
▁occ	-2945
cohol	-2946
icate	-2947
▁club	-2948
▁wine	-2949
square	-2950
▁offer	-2951
▁celebr	-2952
▁easily	-2953
▁harder	-2954
▁princi	-2955
▁resour	-2956
▁trains	-2957
▁yellow	-2958
▁beijing	-2959
▁forward	-2960
▁science	-2961
▁village	-2962
▁whether	-2963
▁whatever	-2964
▁泡	-2965
之前	-2966
化学	-2967
回來	-2968
声音	-2969
好嗎	-2970
封信	-2971
弟弟	-2972
总是	-2973
放在	-2974
早餐	-2975
清楚	-2976
火車	-2977
牛奶	-2978
警察	-2979
部分	-2980
點鐘	-2981
isf	-2982
ori	-2983
▁cr	-2984
airs	-2985
ined	-2986
ures	-2987
▁bob	-2988
▁ess	-2989
ality	-2990
erman	-2991
fully	-2992
▁knew	-2993
▁post	-2994
▁safe	-2995
▁step	-2996
▁taxi	-2997
▁uses	-2998
aurant	-2999
vision	-3000
▁hurry	-3001
▁plane	-3002
▁plays	-3003
▁round	-3004
▁method	-3005
▁soccer	-3006
▁square	-3007
▁alcohol	-3008
▁stopped	-3009
▁strange	-3010
▁community	-3011
▁everybody	-3012
▁restaurant	-3013
▁television	-3014
▁雨	-3015
上有	-3016
发生	-3017
吃饭	-3018
妈妈	-3019
威胁	-3020
小孩	-3021
有趣	-3022
植物	-3023
看到	-3024
醫生	-3025
ays	-3026
big	-3027
dom	-3028
omm	-3029
uro	-3030
▁太阳	-3031
做什么	-3032
在哪裡	-3033
ache	-3034
ever	-3035
head	-3036
hest	-3037
oken	-3038
pose	-3039
▁eye	-3040
▁oil	-3041
▁pos	-3042
人名用词	-3043
angle	-3044
▁core	-3045
▁memb	-3046
▁says	-3047
▁solve	-3048
▁America	-3049
▁perform	-3050
▁quickly	-3051
▁reflect	-3052
▁staying	-3053
▁surpris	-3054
▁universe	-3055
fa	-3056
▁分	-3057
▁安	-3058
▁对	-3059
不可	-3060
主要	-3061
了那	-3062
事情	-3063
口袋	-3064
可惜	-3065
合作	-3066
唠叨	-3067
感觉	-3068
成的	-3069
来越	-3070
的话	-3071
经济	-3072
老師	-3073
连接	-3074
风箱	-3075
))'	-3076
son	-3077
▁可以	-3078
▁怎么	-3079
了他的	-3080
ling	-3081
▁die	-3082
▁ice	-3083
▁kit	-3084
▁pub	-3085
▁你知道	-3086
ivity	-3087
urope	-3088
▁cool	-3089
▁sour	-3090
▁eaten	-3091
▁heavy	-3092
▁skill	-3093
▁space	-3094
▁stamp	-3095
▁conven	-3096
▁grandm	-3097
▁player	-3098
▁proper	-3099
▁satisf	-3100
▁turned	-3101
▁worked	-3102
▁earlier	-3103
▁members	-3104
▁attention	-3105
;。	-3106
da	-3107
▁再	-3108
▁祝	-3109
▁长	-3110
公車	-3111
出生	-3112
发现	-3113
变化	-3114
派對	-3115
缀词	-3116
跟我	-3117
里的	-3118
gar	-3119
▁你会	-3120
▁我对	-3121
做什麼	-3122
很快就	-3123
有多少	-3124
的重要	-3125
这本书	-3126
aged	-3127
hemp	-3128
ying	-3129
▁New	-3130
▁ass	-3131
▁我需要	-3132
▁acqu	-3133
▁ball	-3134
▁draw	-3135
▁glob	-3136
▁self	-3137
▁behav	-3138
▁daugh	-3139
▁front	-3140
▁state	-3141
▁affect	-3142
▁excuse	-3143
ological	-3144
▁population	-3145
▁development	-3146
bc	-3147
bs	-3148
dc	-3149
na	-3150
▁和	-3151
▁地	-3152
▁第	-3153
▁自	-3154
。”	-3155
不如	-3156
丰富	-3157
主义	-3158
力学	-3159
可爱	-3160
干净	-3161
强壮	-3162
您的	-3163
方便	-3164
死了	-3165
照片	-3166
給你	-3167
美国	-3168
艺术	-3169
距离	-3170
▁晚上	-3171
cket	-3172
resh	-3173
▁del	-3174
▁lit	-3175
▁nor	-3176
▁我想去	-3177
ither	-3178
▁boys	-3179
▁desc	-3180
▁gets	-3181
▁ship	-3182
▁Nancy	-3183
▁brave	-3184
▁peace	-3185
▁polic	-3186
▁taken	-3187
▁trust	-3188
▁twice	-3189
▁veget	-3190
ibility	-3191
▁absent	-3192
▁memory	-3193
▁minute	-3194
▁comfort	-3195
▁enjoyed	-3196
▁feeling	-3197
▁perfect	-3198
▁studied	-3199
▁distance	-3200
▁happiness	-3201
▁relations	-3202
ho	-3203
ks	-3204
▁光	-3205
▁收	-3206
▁无	-3207
一种	-3208
中最	-3209
交通	-3210
伤口	-3211
幫我	-3212
想念	-3213
每個	-3214
比特	-3215
温暖	-3216
約翰	-3217
考试	-3218
計劃	-3219
词头	-3220
走路	-3221
電影	-3222
thm	-3223
ube	-3224
▁Sh	-3225
▁我對	-3226
▁春天	-3227
在這裡	-3228
所有的	-3229
chan	-3230
ches	-3231
fall	-3232
ivil	-3233
reed	-3234
▁lay	-3235
▁rev	-3236
▁wit	-3237
itive	-3238
urity	-3239
▁Mike	-3240
▁bear	-3241
▁deal	-3242
▁dise	-3243
▁eggs	-3244
▁phot	-3245
▁prep	-3246
▁term	-3247
▁Which	-3248
▁built	-3249
▁event	-3250
▁girls	-3251
▁least	-3252
▁stars	-3253
▁torch	-3254
ificial	-3255
▁calend	-3256
▁engine	-3257
▁master	-3258
▁spoken	-3259
ervation	-3260
▁cooking	-3261
▁outside	-3262
▁behavior	-3263
▁sleeping	-3264
▁surprised	-3265
▁convenient	-3266
▁understanding	-3267
▁十	-3268
▁吸	-3269
▁家	-3270
▁對	-3271
▁茶	-3272
不好	-3273
他們	-3274
全球	-3275
利用	-3276
和你	-3277
和我	-3278
学了	-3279
操作	-3280
新的	-3281
机场	-3282
棒球	-3283
母親	-3284
比我	-3285
污染	-3286
状态	-3287
结构	-3288
要去	-3289
读书	-3290
贵州	-3291
超市	-3292
这么	-3293
離開	-3294
骄傲	-3295
ief	-3296
mas	-3297
oub	-3298
pic	-3299
ron	-3300
▁下午	-3301
不知道	-3302
ists	-3303
olen	-3304
▁Jim	-3305
▁dro	-3306
▁mot	-3307
▁ori	-3308
▁pot	-3309
▁如果你	-3310
▁coat	-3311
▁emot	-3312
▁inno	-3313
▁loss	-3314
▁mike	-3315
▁pron	-3316
▁soci	-3317
▁basic	-3318
▁blood	-3319
▁civil	-3320
▁magaz	-3321
▁women	-3322
olution	-3323
ristmas	-3324
▁animal	-3325
▁borrow	-3326
▁orange	-3327
▁stolen	-3328
▁fishing	-3329
▁glasses	-3330
▁policem	-3331
▁networks	-3332
▁impossible	-3333
▁traditions	-3334
▁superposition	-3335
;,	-3336
他们	-3337
打算	-3338
有多	-3339
理论	-3340
發現	-3341
蘋果	-3342
解决	-3343
說話	-3344
豆腐	-3345
aly	-3346
irm	-3347
llo	-3348
nic	-3349
▁fa	-3350
▁我听	-3351
▁我從	-3352
▁早上	-3353
▁这些	-3354
告訴我	-3355
最大的	-3356
火把节	-3357
的基本	-3358
▁ann	-3359
▁jud	-3360
▁obs	-3361
▁vol	-3362
▁你最好	-3363
ances	-3364
▁Bill	-3365
▁area	-3366
▁paid	-3367
▁pers	-3368
▁rang	-3369
▁shar	-3370
▁sugg	-3371
......	-3372
ograph	-3373
ommend	-3374
▁bread	-3375
▁fresh	-3376
▁gover	-3377
▁ought	-3378
▁smell	-3379
ication	-3380
ometers	-3381
▁begins	-3382
▁broken	-3383
▁compet	-3384
▁determ	-3385
▁filled	-3386
▁global	-3387
▁propos	-3388
▁simple	-3389
▁stream	-3390
▁measure	-3391
▁project	-3392
▁physical	-3393
▁recommend	-3394
▁別	-3395
▁模	-3396
一杯	-3397
为了	-3398
兩個	-3399
原因	-3400
很大	-3401
昆明	-3402
東京	-3403
比赛	-3404
而且	-3405
蛋糕	-3406
这条	-3407
還是	-3408
aka	-3409
ale	-3410
bit	-3411
ney	-3412
unt	-3413
▁er	-3414
▁ge	-3415
▁冬天	-3416
▁地球	-3417
告诉我	-3418
我們的	-3419
打網球	-3420
是量子	-3421
自行车	-3422
erve	-3423
ighb	-3424
▁due	-3425
▁hig	-3426
▁oce	-3427
▁我喜歡	-3428
color	-3429
ences	-3430
lling	-3431
▁hurt	-3432
▁mill	-3433
▁pipe	-3434
▁rise	-3435
▁wasn	-3436
▁york	-3437
ertain	-3438
▁appro	-3439
▁const	-3440
▁famil	-3441
▁polit	-3442
▁whose	-3443
descend	-3444
▁anyone	-3445
▁helped	-3446
▁killed	-3447
▁mechan	-3448
▁meters	-3449
▁neighb	-3450
▁ability	-3451
▁degrees	-3452
▁improve	-3453
▁painted	-3454
▁midnight	-3455
▁artificial	-3456
▁emphasizes	-3457
▁philosophy	-3458
▁grandmother	-3459
sm	-3460
▁因	-3461
▁明	-3462
▁海	-3463
习惯	-3464
來說	-3465
侍从	-3466
倫敦	-3467
叶子	-3468
年了	-3469
建议	-3470
确定	-3471
简单	-3472
粮食	-3473
螳螂	-3474
记得	-3475
诚实	-3476
跑步	-3477
));	-3478
mit	-3479
oin	-3480
oof	-3481
uit	-3482
unn	-3483
▁Pa	-3484
▁中午	-3485
▁明天	-3486
▁瑪麗	-3487
吃早饭	-3488
很重要	-3489
是一种	-3490
angh	-3491
atop	-3492
mbol	-3493
oeia	-3494
reme	-3495
reng	-3496
yond	-3497
▁Not	-3498
▁anx	-3499
▁cri	-3500
▁dig	-3501
▁enc	-3502
▁hob	-3503
▁inj	-3504
▁tas	-3505
▁ter	-3506
▁讓我們	-3507
cious	-3508
ering	-3509
▁Give	-3510
▁beer	-3511
▁cast	-3512
▁cour	-3513
▁sold	-3514
▁wash	-3515
anghai	-3516
▁Kyoto	-3517
▁blame	-3518
▁drank	-3519
▁floor	-3520
▁influ	-3521
▁instr	-3522
▁keeps	-3523
▁kyoto	-3524
▁spent	-3525
▁sugar	-3526
▁third	-3527
itation	-3528
▁phones	-3529
▁streng	-3530
▁symbol	-3531
atopoeia	-3532
▁climate	-3533
▁condition	-3534
▁satisfied	-3535
▁basketball	-3536
▁foundation	-3537
▁kilometers	-3538
▁comfortable	-3539
ao	-3540
ba	-3541
gn	-3542
▁书	-3543
▁但	-3544
▁修	-3545
▁关	-3546
▁去	-3547
▁狗	-3548
▁盖	-3549
▁看	-3550
▁等	-3551
▁细	-3552
▁飞	-3553
一樣	-3554
下來	-3555
了這	-3556
农村	-3557
周围	-3558
很难	-3559
忘记	-3560
我就	-3561
找到	-3562
收音	-3563
更好	-3564
测量	-3565
液体	-3566
物理	-3567
环境	-3568
生物	-3569
砂锅	-3570
网球	-3571
美元	-3572
芋头	-3573
葡萄	-3574
行动	-3575
開車	-3576
高的	-3577
高興	-3578
ade	-3579
ead	-3580
eum	-3581
gan	-3582
let	-3583
oms	-3584
▁hy	-3585
去上班	-3586
的地方	-3587
ator	-3588
line	-3589
orge	-3590
over	-3591
pend	-3592
urch	-3593
▁ach	-3594
▁eld	-3595
▁tie	-3596
▁我們在	-3597
▁我知道	-3598
olute	-3599
under	-3600
▁Jack	-3601
▁heat	-3602
▁imag	-3603
▁king	-3604
▁save	-3605
▁soup	-3606
ustral	-3607
▁cause	-3608
▁cheap	-3609
▁daily	-3610
▁holid	-3611
▁ident	-3612
▁ocean	-3613
▁press	-3614
▁shows	-3615
▁solar	-3616
▁using	-3617
▁beyond	-3618
▁clever	-3619
▁custom	-3620
▁museum	-3621
▁account	-3622
▁continu	-3623
▁dancing	-3624
▁leaving	-3625
▁washing	-3626
▁shopping	-3627
▁teaching	-3628
▁policeman	-3629
▁experience	-3630
onomatopoeia	-3631
▁relationship	-3632
▁学	-3633
▁点	-3634
▁珍	-3635
▁當	-3636
▁的	-3637
▁鸟	-3638
乐器	-3639
你们	-3640
兴趣	-3641
别人	-3642
坐在	-3643
坚持	-3644
大利	-3645
天氣	-3646
子的	-3647
學習	-3648
巴黎	-3649
年前	-3650
彩虹	-3651
意外	-3652
感冒	-3653
成為	-3654
我不	-3655
是谁	-3656
现代	-3657
的是	-3658
祭祀	-3659
裙子	-3660
osy	-3661
ots	-3662
▁sn	-3663
▁這些	-3664
去上学	-3665
很聪明	-3666
case	-3667
come	-3668
inct	-3669
mand	-3670
uses	-3671
vest	-3672
▁bar	-3673
▁bat	-3674
▁eth	-3675
▁rit	-3676
▁rul	-3677
▁用英文	-3678
什麼時候	-3679
ached	-3680
class	-3681
point	-3682
▁Take	-3683
▁York	-3684
▁golf	-3685
▁hasn	-3686
▁inde	-3687
▁view	-3688
▁virt	-3689
休息一会儿	-3690
though	-3691
▁Thank	-3692
▁apply	-3693
▁breat	-3694
▁moved	-3695
▁piece	-3696
ability	-3697
▁church	-3698
▁demand	-3699
▁ground	-3700
▁multip	-3701
▁promot	-3702
▁certain	-3703
▁climbed	-3704
▁weekend	-3705
▁indicate	-3706
▁provides	-3707
▁shanghai	-3708
▁spiritual	-3709
aw	-3710
my	-3711
▁出	-3712
▁吉	-3713
▁马	-3714
上學	-3715
五十	-3716
住了	-3717
体育	-3718
公里	-3719
凉爽	-3720
到他	-3721
味道	-3722
太多	-3723
失败	-3724
害怕	-3725
椅子	-3726
浪费	-3727
瞄准	-3728
矮小	-3729
神经	-3730
米饭	-3731
结果	-3732
行为	-3733
规律	-3734
認識	-3735
计划	-3736
质量	-3737
車站	-3738
速度	-3739
apt	-3740
cum	-3741
tle	-3742
ury	-3743
▁fu	-3744
▁請你	-3745
之间的	-3746
打電話	-3747
更重要	-3748
irty	-3749
▁flu	-3750
▁fro	-3751
▁jim	-3752
▁loc	-3753
▁mis	-3754
▁sto	-3755
▁火把节	-3756
oming	-3757
ortun	-3758
urday	-3759
▁main	-3760
▁orig	-3761
▁race	-3762
ompany	-3763
▁achie	-3764
▁bound	-3765
▁brown	-3766
▁clock	-3767
▁equal	-3768
▁fight	-3769
▁major	-3770
▁paris	-3771
▁rains	-3772
▁sheep	-3773
▁south	-3774
▁manage	-3775
▁necess	-3776
▁nobody	-3777
▁reduce	-3778
▁remind	-3779
▁changes	-3780
▁concert	-3781
▁opportun	-3782
▁shoulder	-3783
▁resources	-3784
▁communication	-3785
aa	-3786
db	-3787
wo	-3788
▁做	-3789
▁回	-3790
▁融	-3791
▁道	-3792
▁风	-3793
不到	-3794
人们	-3795
人在	-3796
伦敦	-3797
分布	-3798
動物	-3799
去看	-3800
否定	-3801
和他	-3802
哪裡	-3803
困难	-3804
市场	-3805
幾乎	-3806
我是	-3807
日元	-3808
永遠	-3809
生日	-3810
相機	-3811
石头	-3812
移动	-3813
组成	-3814
肚子	-3815
跑得	-3816
辛苦	-3817
鋼琴	-3818
陶瓷	-3819
顺利	-3820
饮食	-3821
鸡蛋	-3822
cel	-3823
▁中文	-3824
▁你們	-3825
▁你很	-3826
▁我用	-3827
▁没有	-3828
不可能	-3829
吃午饭	-3830
彝语指	-3831
漂亮的	-3832
abor	-3833
ered	-3834
eter	-3835
ingu	-3836
time	-3837
▁map	-3838
▁彝族的	-3839
light	-3840
▁boss	-3841
▁fair	-3842
▁join	-3843
▁lies	-3844
▁ripe	-3845
▁soft	-3846
thread	-3847
▁block	-3848
▁embro	-3849
▁knife	-3850
▁nancy	-3851
▁occur	-3852
▁organ	-3853
▁simil	-3854
▁applic	-3855
▁choose	-3856
▁corner	-3857
▁invest	-3858
▁public	-3859
▁weight	-3860
▁wisdom	-3861
ustralia	-3862
▁suggest	-3863
▁calendar	-3864
▁clothing	-3865
▁decision	-3866
▁particle	-3867
▁progress	-3868
▁university	-3869
▁vegetables	-3870
((	-3871
df	-3872
▁心	-3873
▁知	-3874
▁除	-3875
万物	-3876
三十	-3877
东京	-3878
乘以	-3879
京都	-3880
传说	-3881
副词	-3882
包括	-3883
去過	-3884
參加	-3885
國家	-3886
地名	-3887
堵塞	-3888
妻子	-3889
年輕	-3890
庄稼	-3891
开车	-3892
才能	-3893
接受	-3894
決定	-3895
父亲	-3896
玉米	-3897
疲倦	-3898
继续	-3899
见面	-3900
許多	-3901
讓我	-3902
责任	-3903
资源	-3904
跟你	-3905
這些	-3906
這樣	-3907
那個	-3908
饱满	-3909
amb	-3910
dle	-3911
ged	-3912
nam	-3913
ony	-3914
rew	-3915
riz	-3916
zen	-3917
▁Sm	-3918
▁je	-3919
▁半夜	-3920
▁城市	-3921
▁秋天	-3922
很美丽	-3923
比冬天	-3924
的基础	-3925
的東西	-3926
bits	-3927
chen	-3928
▁Ann	-3929
▁fix	-3930
▁fle	-3931
▁hit	-3932
▁你今天	-3933
语气助词	-3934
iting	-3935
omach	-3936
owder	-3937
▁Look	-3938
▁cute	-3939
▁dest	-3940
▁diet	-3941
▁east	-3942
▁tong	-3943
▁你為什麼	-3944
overed	-3945
▁allow	-3946
▁hobby	-3947
▁neare	-3948
▁rainy	-3949
▁relax	-3950
▁spend	-3951
▁tried	-3952
▁worse	-3953
▁neural	-3954
▁report	-3955
▁scient	-3956
▁subway	-3957
▁talked	-3958
▁useful	-3959
▁用英文怎么说	-3960
iversity	-3961
▁descend	-3962
▁failure	-3963
▁follows	-3964
▁kitchen	-3965
▁patient	-3966
▁pronoun	-3967
▁provide	-3968
▁shouldn	-3969
▁similar	-3970
▁daughter	-3971
▁received	-3972
▁classroom	-3973
,"	-3974
▁抽	-3975
▁牛	-3976
▁破	-3977
▁祖	-3978
▁结	-3979
▁里	-3980
▁黑	-3981
书馆	-3982
他是	-3983
佩服	-3984
公交	-3985
减少	-3986
几点	-3987
古代	-3988
只是	-3989
字典	-3990
存在	-3991
小心	-3992
幫助	-3993
很忙	-3994
很远	-3995
得了	-3996
得到	-3997
成为	-3998
成了	-3999
时态	-4000
星星	-4001
晚餐	-4002
月琴	-4003
森林	-4004
渐渐	-4005
滑雪	-4006
睡覺	-4007
篱笆	-4008
训练	-4009
许多	-4010
选择	-4011
钓鱼	-4012
ama	-4013
ems	-4014
eth	-4015
iko	-4016
mpt	-4017
obe	-4018
oon	-4019
ses	-4020
▁Ke	-4021
▁av	-4022
▁你會	-4023
▁那個	-4024
图书馆	-4025
在一起	-4026
在这里	-4027
ivid	-4028
rodu	-4029
wine	-4030
▁ash	-4031
▁nar	-4032
▁火车比	-4033
▁这是一	-4034
acing	-4035
ional	-4036
▁Tell	-4037
▁aren	-4038
▁comb	-4039
▁doub	-4040
▁farm	-4041
▁fill	-4042
▁gent	-4043
▁rent	-4044
▁rule	-4045
▁scen	-4046
▁serv	-4047
▁spec	-4048
▁vari	-4049
ichuan	-4050
ission	-4051
▁fruit	-4052
▁gradu	-4053
▁invol	-4054
▁mater	-4055
▁shirt	-4056
artment	-4057
▁apolog	-4058
▁button	-4059
▁gather	-4060
▁opened	-4061
▁skiing	-4062
▁thirst	-4063
▁careful	-4064
▁content	-4065
▁excited	-4066
▁extreme	-4067
▁finally	-4068
▁sitting	-4069
▁although	-4070
▁distinct	-4071
▁listened	-4072
▁suddenly	-4073
▁classical	-4074
▁including	-4075
ea	-4076
▁挑	-4077
▁正	-4078
▁法	-4079
▁烧	-4080
▁真	-4081
▁睡	-4082
三个	-4083
严重	-4084
了解	-4085
今晚	-4086
做饭	-4087
公室	-4088
几乎	-4089
咽喉	-4090
安静	-4091
家人	-4092
家支	-4093
很累	-4094
必要	-4095
文明	-4096
更多	-4097
比那	-4098
牲畜	-4099
的第	-4100
神位	-4101
算了	-4102
虐待	-4103
被子	-4104
车站	-4105
辆车	-4106
遗传	-4107
野生	-4108
iar	-4109
old	-4110
▁Af	-4111
▁At	-4112
▁Un	-4113
▁約翰	-4114
一起去	-4115
了一个	-4116
做午饭	-4117
前缀词	-4118
打电话	-4119
arch	-4120
gori	-4121
omen	-4122
oned	-4123
rict	-4124
saka	-4125
▁fil	-4126
▁我不能	-4127
antly	-4128
itude	-4129
ouses	-4130
▁Does	-4131
▁Many	-4132
▁bell	-4133
▁crit	-4134
▁meal	-4135
▁none	-4136
▁pack	-4137
▁ride	-4138
▁seas	-4139
▁size	-4140
▁我不喜歡	-4141
▁alive	-4142
▁fault	-4143
▁level	-4144
▁appear	-4145
▁caused	-4146
▁failed	-4147
▁flight	-4148
▁gentle	-4149
▁govern	-4150
▁tongue	-4151
▁nearest	-4152
▁purpose	-4153
▁stomach	-4154
▁american	-4155
▁chemical	-4156
▁drinking	-4157
▁pressure	-4158
▁signific	-4159
▁carefully	-4160
▁represent	-4161
▁earthquake	-4162
bf	-4163
bi	-4164
▁两	-4165
▁加	-4166
▁喝	-4167
▁圆	-4168
▁工	-4169
▁拌	-4170
▁灵	-4171
▁种	-4172
▁编	-4173
▁菜	-4174
▁调	-4175
▁还	-4176
▁雪	-4177
▁鱼	-4178
下了	-4179
下来	-4180
主意	-4181
似乎	-4182
儿语	-4183
医院	-4184
喝了	-4185
坟墓	-4186
好像	-4187
实现	-4188
开了	-4189
支系	-4190
是在	-4191
更快	-4192
最近	-4193
狮子	-4194
眼睛	-4195
礼节	-4196
立即	-4197
路上	-4198
过程	-4199
饲养	-4200
QSM	-4201
can	-4202
ogn	-4203
▁).	-4204
▁On	-4205
▁因为	-4206
▁我找	-4207
▁猫比	-4208
下雨了	-4209
我们的	-4210
改变了	-4211
白色的	-4212
說英語	-4213
elve	-4214
itch	-4215
rage	-4216
▁cow	-4217
▁dev	-4218
▁gas	-4219
▁nin	-4220
▁nur	-4221
▁sha	-4222
▁tig	-4223
▁wet	-4224
▁我覺得	-4225
anted	-4226
lcome	-4227
▁Kate	-4228
▁Keep	-4229
▁chat	-4230
▁clan	-4231
▁dare	-4232
▁grav	-4233
▁lock	-4234
▁rock	-4235
▁shut	-4236
ricult	-4237
▁beach	-4238
▁colle	-4239
▁lunar	-4240
▁named	-4241
▁proud	-4242
▁relig	-4243
▁afford	-4244
▁asleep	-4245
▁chance	-4246
▁colors	-4247
▁consum	-4248
▁dishes	-4249
▁effort	-4250
▁flying	-4251
▁harmon	-4252
▁houses	-4253
▁missed	-4254
▁poetry	-4255
▁sevent	-4256
▁stamps	-4257
▁stress	-4258
▁twelve	-4259
▁wealth	-4260
▁balance	-4261
▁complex	-4262
▁distrib	-4263
▁feature	-4264
▁happens	-4265
▁profess	-4266
▁sichuan	-4267
▁society	-4268
▁teaches	-4269
▁invented	-4270
▁neighbor	-4271
▁sentence	-4272
bd	-4273
cf	-4274
▁台	-4275
▁后	-4276
▁哪	-4277
▁张	-4278
▁從	-4279
▁慢	-4280
▁撮	-4281
▁早	-4282
▁深	-4283
▁祭	-4284
▁行	-4285
▁誰	-4286
▁金	-4287
▁闪	-4288
▁间	-4289
一名	-4290
上去	-4291
上海	-4292
乌鸦	-4293
价值	-4294
供养	-4295
個月	-4296
傣族	-4297
先民	-4298
关于	-4299
出发	-4300
四川	-4301
回来	-4302
夭折	-4303
女人	-4304
姐妹	-4305
家庭	-4306
家都	-4307
巴士	-4308
康复	-4309
感谢	-4310
旁边	-4311
是由	-4312
来说	-4313
榫头	-4314
活动	-4315
滿了	-4316
爷爷	-4317
生气	-4318
祖父	-4319
窝棚	-4320
粗糙	-4321
罢了	-4322
肮脏	-4323
胎子	-4324
自动	-4325
認為	-4326
過了	-4327
那里	-4328
鼻子	-4329
...	-4330
acy	-4331
cul	-4332
hou	-4333
ply	-4334
rat	-4335
▁gi	-4336
▁你好	-4337
▁有人	-4338
▁苹果	-4339
不是嗎	-4340
了這個	-4341
唠叨叨	-4342
是多少	-4343
越来越	-4344
ased	-4345
entl	-4346
ield	-4347
uary	-4348
ygen	-4349
▁Bet	-4350
▁One	-4351
▁QSM	-4352
▁bur	-4353
▁dut	-4354
▁lad	-4355
▁tou	-4356
▁zoo	-4357
▁我們的	-4358
▁我有一	-4359
▁我每天	-4360
唠唠叨叨	-4361
ounds	-4362
▁Come	-4363
▁arch	-4364
▁aunt	-4365
▁bags	-4366
▁capt	-4367
▁jour	-4368
▁lack	-4369
▁loud	-4370
▁mess	-4371
▁situ	-4372
idence	-4373
▁Paris	-4374
▁field	-4375
▁forty	-4376
▁games	-4377
▁guess	-4378
▁might	-4379
▁nurse	-4380
▁reach	-4381
▁bright	-4382
▁butter	-4383
▁cancer	-4384
▁jacket	-4385
▁monday	-4386
▁recogn	-4387
▁threat	-4388
▁transl	-4389
▁unique	-4390
▁advance	-4391
▁depends	-4392
▁england	-4393
▁injured	-4394
▁quality	-4395
▁American	-4396
▁agricult	-4397
▁football	-4398
▁patience	-4399
▁pleasure	-4400
▁returned	-4401
▁specific	-4402
▁accompany	-4403
▁festivals	-4404
▁thousands	-4405
▁represents	-4406
▁countryside	-4407
cb	-4408
ey	-4409
gu	-4410
li	-4411
▁依	-4412
▁可	-4413
▁吃	-4414
▁想	-4415
▁搭	-4416
▁约	-4417
▁背	-4418
下一	-4419
來了	-4420
免疫	-4421
地址	-4422
寒冷	-4423
幽默	-4424
建筑	-4425
开心	-4426
引力	-4427
快乐	-4428
悲恸	-4429
描述	-4430
放弃	-4431
會議	-4432
有空	-4433
服务	-4434
法语	-4435
生病	-4436
稍微	-4437
给你	-4438
能够	-4439
蔬菜	-4440
起了	-4441
足够	-4442
開心	-4443
etr	-4444
ium	-4445
put	-4446
▁Be	-4447
▁vi	-4448
▁北京	-4449
▁手机	-4450
▁虽然	-4451
▁这条	-4452
一个人	-4453
多少钱	-4454
很强壮	-4455
最喜歡	-4456
比昨天	-4457
cest	-4458
etic	-4459
pack	-4460
star	-4461
▁low	-4462
▁mur	-4463
▁wed	-4464
▁我已經	-4465
▁我昨晚	-4466
▁這本書	-4467
idery	-4468
ified	-4469
inite	-4470
rance	-4471
▁boil	-4472
▁burn	-4473
▁cott	-4474
▁film	-4475
▁kate	-4476
▁poll	-4477
▁repe	-4478
▁ring	-4479
▁rude	-4480
▁type	-4481
vation	-4482
▁activ	-4483
▁delic	-4484
▁liked	-4485
▁newsp	-4486
▁share	-4487
▁sixty	-4488
▁songs	-4489
▁voice	-4490
gorithm	-4491
▁ancest	-4492
▁bottle	-4493
▁eighty	-4494
▁eleven	-4495
▁indust	-4496
▁island	-4497
▁oxygen	-4498
▁penetr	-4499
▁prison	-4500
▁rights	-4501
▁slight	-4502
▁spread	-4503
▁tastes	-4504
▁courage	-4505
▁crowded	-4506
▁digital	-4507
▁individ	-4508
▁special	-4509
▁changing	-4510
▁elements	-4511
▁entangle	-4512
▁includes	-4513
▁independ	-4514
▁internet	-4515
▁maintain	-4516
▁proposal	-4517
▁security	-4518
▁algorithm	-4519
▁essential	-4520
▁particles	-4521
▁ceremonies	-4522
▁embroidery	-4523
;(	-4524
ex	-4525
uā	-4526
▁$	-4527
▁与	-4528
▁切	-4529
▁听	-4530
▁周	-4531
▁就	-4532
▁沉	-4533
▁消	-4534
▁清	-4535
▁白	-4536
▁相	-4537
▁积	-4538
▁软	-4539
▁门	-4540
下雪	-4541
不多	-4542
书包	-4543
任务	-4544
但我	-4545
儿子	-4546
六月	-4547
写字	-4548
农历	-4549
出现	-4550
制度	-4551
十二	-4552
参加	-4553
发音	-4554
吉他	-4555
善良	-4556
基本	-4557
外面	-4558
座山	-4559
忘記	-4560
快速	-4561
想去	-4562
感覺	-4563
掉了	-4564
根本	-4565
欢迎	-4566
比賽	-4567
气候	-4568
水果	-4569
法語	-4570
準備	-4571
目标	-4572
祈求	-4573
稻子	-4574
耳环	-4575
蜥蜴	-4576
見過	-4577
见过	-4578
踪迹	-4579
过分	-4580
进行	-4581
那儿	-4582
都会	-4583
错误	-4584
预备	-4585
首歌	-4586
arm	-4587
bon	-4588
ula	-4589
ump	-4590
upt	-4591
uān	-4592
▁Al	-4593
▁Sp	-4594
▁ai	-4595
▁lu	-4596
▁ow	-4597
▁我没	-4598
▁谢谢	-4599
▁這條	-4600
公交车	-4601
含义是	-4602
是一个	-4603
毕摩的	-4604
看電視	-4605
蓝色的	-4606
cape	-4607
inal	-4608
ldom	-4609
ouds	-4610
rica	-4611
teen	-4612
uals	-4613
▁aud	-4614
▁fog	-4615
▁neg	-4616
▁rum	-4617
▁我买了	-4618
▁我们很	-4619
比冬天更	-4620
aling	-4621
itect	-4622
pping	-4623
unnan	-4624
vered	-4625
▁eats	-4626
▁fear	-4627
▁feed	-4628
▁fond	-4629
▁lazy	-4630
▁mark	-4631
▁mass	-4632
▁pity	-4633
▁reve	-4634
▁vase	-4635
▁adapt	-4636
▁chall	-4637
▁color	-4638
▁decis	-4639
▁fever	-4640
▁gives	-4641
▁hello	-4642
▁judge	-4643
▁prize	-4644
▁qentl	-4645
▁rules	-4646
▁schol	-4647
▁serve	-4648
▁tasks	-4649
▁teach	-4650
▁truck	-4651
▁usual	-4652
ustomed	-4653
▁access	-4654
▁clouds	-4655
▁happen	-4656
▁stands	-4657
▁waited	-4658
▁within	-4659
▁appears	-4660
▁autonom	-4661
▁college	-4662
▁covered	-4663
▁introdu	-4664
▁invited	-4665
▁managed	-4666
▁missing	-4667
▁stories	-4668
▁tallest	-4669
▁absolute	-4670
▁creating	-4671
▁suitcase	-4672
▁Everybody	-4673
▁architect	-4674
▁structure	-4675
▁traveling	-4676
▁wonderful	-4677
▁accustomed	-4678
▁discovered	-4679
▁management	-4680
▁responsibility	-4681
bo	-4682
cd	-4683
▁伤	-4684
▁即	-4685
▁差	-4686
▁河	-4687
▁画	-4688
▁磨	-4689
▁节	-4690
▁转	-4691
▁香	-4692
一位	-4693
一切	-4694
不了	-4695
丑陋	-4696
介意	-4697
依靠	-4698
写了	-4699
原子	-4700
原理	-4701
反应	-4702
变成	-4703
和平	-4704
哲学	-4705
在這	-4706
地区	-4707
奉养	-4708
娇气	-4709
婚了	-4710
嫉妒	-4711
定律	-4712
對的	-4713
小說	-4714
就要	-4715
很冷	-4716
想法	-4717
愿意	-4718
战争	-4719
打仗	-4720
提高	-4721
摔跤	-4722
方面	-4723
日期	-4724
母畜	-4725
無論	-4726
物质	-4727
的书	-4728
看了	-4729
箱子	-4730
绞痛	-4731
老虎	-4732
聽到	-4733
臭味	-4734
興趣	-4735
英國	-4736
菠萝	-4737
要求	-4738
謝謝	-4739
赡养	-4740
间的	-4741
aro	-4742
een	-4743
pty	-4744
the	-4745
▁ju	-4746
▁她很	-4747
▁学习	-4748
▁英语	-4749
▁量词	-4750
彝族的	-4751
怎麼樣	-4752
星期天	-4753
是你的	-4754
這本書	-4755
anch	-4756
cing	-4757
edge	-4758
ider	-4759
lves	-4760
uted	-4761
▁Put	-4762
▁cre	-4763
▁den	-4764
▁gar	-4765
▁inf	-4766
▁iss	-4767
▁non	-4768
▁sew	-4769
▁ver	-4770
▁他们在	-4771
▁我不会	-4772
▁我忘了	-4773
▁我現在	-4774
是世界上	-4775
anced	-4776
astic	-4777
ciate	-4778
dered	-4779
ierce	-4780
ising	-4781
ooked	-4782
▁Turn	-4783
▁code	-4784
▁duty	-4785
▁enem	-4786
▁hole	-4787
▁kill	-4788
▁mail	-4789
▁quar	-4790
▁surv	-4791
▁tool	-4792
▁wide	-4793
▁人工智能	-4794
▁这是我的	-4795
▁ahead	-4796
▁below	-4797
▁conte	-4798
▁doubt	-4799
▁effic	-4800
▁empty	-4801
▁stick	-4802
▁teeth	-4803
▁unity	-4804
▁amount	-4805
▁artist	-4806
▁choice	-4807
▁closed	-4808
▁contro	-4809
▁direct	-4810
▁double	-4811
▁either	-4812
▁europe	-4813
▁models	-4814
▁rained	-4815
▁salary	-4816
▁seldom	-4817
▁showed	-4818
▁volcan	-4819
▁advised	-4820
▁concept	-4821
▁elected	-4822
▁harmony	-4823
▁harvest	-4824
▁hearing	-4825
▁highest	-4826
▁instead	-4827
▁methods	-4828
▁million	-4829
▁regions	-4830
▁sisters	-4831
▁smaller	-4832
▁wearing	-4833
▁addition	-4834
▁consists	-4835
▁economic	-4836
▁multiple	-4837
▁personal	-4838
▁position	-4839
▁standard	-4840
▁delicious	-4841
▁autonomous	-4842
▁completely	-4843
▁protection	-4844
▁communities	-4845
▁examination	-4846
▁generations	-4847
▁difficulties	-4848
▁entanglement	-4849
▁relationships	-4850
VO	-4851
eg	-4852
fb	-4853
fc	-4854
fd	-4855
oc	-4856
▁云	-4857
▁会	-4858
▁先	-4859
▁印	-4860
▁嫩	-4861
▁成	-4862
▁搅	-4863
▁来	-4864
▁热	-4865
▁牵	-4866
▁理	-4867
▁由	-4868
▁电	-4869
▁肉	-4870
▁让	-4871
▁钱	-4872
▁问	-4873
▁鮑	-4874
▁麻	-4875
个月	-4876
代表	-4877
促进	-4878
兒子	-4879
公園	-4880
六祖	-4881
分钟	-4882
到达	-4883
到達	-4884
勾引	-4885
去过	-4886
呕吐	-4887
小声	-4888
小腿	-4889
布谷	-4890
当然	-4891
思考	-4892
愉快	-4893
我也	-4894
抱歉	-4895
担心	-4896
持续	-4897
摆摆	-4898
摇摇	-4899
斗笠	-4900
是用	-4901
晚饭	-4902
有人	-4903
服饰	-4904
期待	-4905
根据	-4906
气味	-4907
特的	-4908
皇帝	-4909
祖宗	-4910
经过	-4911
给了	-4912
老鼠	-4913
耽搁	-4914
能源	-4915
英国	-4916
螃蟹	-4917
说明	-4918
起源	-4919
跑了	-4920
避免	-4921
都很	-4922
项目	-4923
飛機	-4924
鸣叫	-4925
ear	-4926
ift	-4927
ths	-4928
▁cu	-4929
▁ta	-4930
▁不好	-4931
▁請把	-4932
▁请你	-4933
▁这里	-4934
也沒有	-4935
份工作	-4936
十分钟	-4937
小腿肚	-4938
布谷鸟	-4939
比中文	-4940
發生了	-4941
說的話	-4942
这条路	-4943
ials	-4944
like	-4945
omes	-4946
ords	-4947
▁blo	-4948
▁cho	-4949
▁dam	-4950
▁exh	-4951
▁fat	-4952
▁log	-4953
▁mad	-4954
▁mic	-4955
▁sou	-4956
▁tre	-4957
▁zer	-4958
▁他不会	-4959
▁你应该	-4960
▁她不会	-4961
▁孩子在	-4962
▁我不想	-4963
▁我们的	-4964
▁我要回	-4965
▁请给我	-4966
摇摇摆摆	-4967
anges	-4968
anish	-4969
asing	-4970
▁amaz	-4971
▁exch	-4972
▁hemp	-4973
▁oral	-4974
▁phen	-4975
▁quit	-4976
▁rese	-4977
▁roof	-4978
▁stat	-4979
▁sust	-4980
▁tube	-4981
▁今天天气	-4982
reedom	-4983
▁board	-4984
▁cards	-4985
▁chose	-4986
▁ecosy	-4987
▁forms	-4988
▁holds	-4989
▁oppos	-4990
▁relat	-4991
▁sharp	-4992
▁tooth	-4993
▁turns	-4994
▁attack	-4995
▁branch	-4996
▁carbon	-4997
▁crying	-4998
▁except	-4999
▁france	-5000
▁mental	-5001
▁plants	-5002
▁regret	-5003
▁skills	-5004
▁sounds	-5005
▁washed	-5006
▁yunnan	-5007
ointment	-5008
▁anxious	-5009
▁control	-5010
▁economy	-5011
▁foolish	-5012
▁thirsty	-5013
▁Everyone	-5014
▁diseases	-5015
▁magazine	-5016
▁phenomen	-5017
▁software	-5018
▁wherever	-5019
▁beginning	-5020
▁ecosystem	-5021
▁necessary	-5022
▁penetrate	-5023
▁principle	-5024
▁situation	-5025
▁acquainted	-5026
▁international	-5027
NA	-5028
ae	-5029
ns	-5030
▁五	-5031
▁到	-5032
▁刺	-5033
▁合	-5034
▁头	-5035
▁扒	-5036
▁折	-5037
▁松	-5038
▁温	-5039
▁答	-5040
一般	-5041
上班	-5042
不但	-5043
俏皮	-5044
修理	-5045
停止	-5046
关键	-5047
其他	-5048
凝结	-5049
出的	-5050
叫声	-5051
和谐	-5052
唯一	-5053
喧哗	-5054
地震	-5055
多样	-5056
天干	-5057
娃娃	-5058
就能	-5059
崽的	-5060
很難	-5061
得不	-5062
得多	-5063
忠厚	-5064
悄悄	-5065
惊讶	-5066
我去	-5067
拿大	-5068
文件	-5069
方向	-5070
晚飯	-5071
架子	-5072
死亡	-5073
毡子	-5074
沸腾	-5075
爽快	-5076
狗更	-5077
玛丽	-5078
生命	-5079
的書	-5080
的词	-5081
监狱	-5082
真相	-5083
祖先	-5084
立刻	-5085
管理	-5086
繁衍	-5087
纽约	-5088
群众	-5089
耐心	-5090
耳朵	-5091
聊天	-5092
苦荞	-5093
藤子	-5094
蚂蝗	-5095
解決	-5096
认错	-5097
说了	-5098
这样	-5099
这种	-5100
通知	-5101
週日	-5102
重叠	-5103
钥匙	-5104
顽皮	-5105
香油	-5106
edi	-5107
for	-5108
oll	-5109
▁Mt	-5110
▁dy	-5111
▁mt	-5112
▁只有	-5113
▁我从	-5114
▁現在	-5115
一定要	-5116
很容易	-5117
很有趣	-5118
比农村	-5119
的一种	-5120
看起来	-5121
給了我	-5122
見到你	-5123
黑色的	-5124
aped	-5125
book	-5126
ging	-5127
ises	-5128
omed	-5129
onds	-5130
ples	-5131
▁ant	-5132
▁deb	-5133
▁hid	-5134
▁kid	-5135
▁mer	-5136
▁rap	-5137
▁raw	-5138
▁sho	-5139
▁yes	-5140
▁孩子们	-5141
▁我想吃	-5142
▁我正在	-5143
▁我没有	-5144
▁苹果比	-5145
▁请解释	-5146
有什么特	-5147
這個問題	-5148
allel	-5149
orter	-5150
overy	-5151
ughed	-5152
▁Good	-5153
▁hate	-5154
▁pole	-5155
▁pond	-5156
▁priv	-5157
▁sell	-5158
▁stra	-5159
▁zero	-5160
▁介绍一下	-5161
其含义为是	-5162
powder	-5163
selves	-5164
▁Those	-5165
▁airpl	-5166
▁enter	-5167
▁ideas	-5168
▁match	-5169
▁miles	-5170
▁monke	-5171
▁storm	-5172
▁tower	-5173
▁什么是量子	-5174
▁今天比昨天	-5175
underst	-5176
▁beauty	-5177
▁causes	-5178
▁compos	-5179
▁desert	-5180
▁disapp	-5181
▁ethnic	-5182
▁german	-5183
▁record	-5184
▁regard	-5185
▁sooner	-5186
▁united	-5187
▁wallet	-5188
▁wouldn	-5189
▁created	-5190
▁dropped	-5191
▁freedom	-5192
▁laughed	-5193
▁reached	-5194
▁welcome	-5195
▁ceremony	-5196
▁compared	-5197
▁headache	-5198
▁increase	-5199
▁painting	-5200
▁parallel	-5201
▁passport	-5202
▁somebody	-5203
▁apologize	-5204
▁transform	-5205
▁activities	-5206
▁difference	-5207
▁electricity	-5208
▁maintaining	-5209
OV	-5210
ev	-5211
fo	-5212
▁传	-5213
▁向	-5214
▁块	-5215
▁堆	-5216
▁手	-5217
▁抖	-5218
▁挂	-5219
▁推	-5220
▁教	-5221
▁板	-5222
▁滴	-5223
▁直	-5224
▁腰	-5225
▁蒸	-5226
▁进	-5227
中心	-5228
云雀	-5229
人口	-5230
偿还	-5231
全部	-5232
兴奋	-5233
功課	-5234
危險	-5235
只有	-5236
哪儿	-5237
喷水	-5238
大学	-5239
奇怪	-5240
尊敬	-5241
平安	-5242
怀孕	-5243
怎樣	-5244
性的	-5245
惩治	-5246
手錶	-5247
支持	-5248
文学	-5249
新年	-5250
是不	-5251
更加	-5252
模式	-5253
模样	-5254
比你	-5255
比較	-5256
洞房	-5257
流行	-5258
潮湿	-5259
爬山	-5260
狐狸	-5261
生态	-5262
生意	-5263
砚台	-5264
种子	-5265
稠密	-5266
紐約	-5267
累了	-5268
红色	-5269
美的	-5270
習慣	-5271
臭虫	-5272
舞蹈	-5273
見了	-5274
议论	-5275
赔偿	-5276
适合	-5277
遇到	-5278
遲到	-5279
都不	-5280
都會	-5281
錯誤	-5282
锋利	-5283
锤子	-5284
SVO	-5285
hat	-5286
loy	-5287
osm	-5288
set	-5289
▁他会	-5290
▁他去	-5291
▁他被	-5292
▁我一	-5293
▁所有	-5294
▁教育	-5295
▁昨晚	-5296
▁最近	-5297
▁英語	-5298
▁那是	-5299
喷水枪	-5300
感到很	-5301
收音機	-5302
是真的	-5303
有沒有	-5304
比上海	-5305
看上去	-5306
红色的	-5307
ians	-5308
ilet	-5309
nast	-5310
odal	-5311
ptim	-5312
upid	-5313
vert	-5314
▁coo	-5315
▁ens	-5316
▁god	-5317
▁urb	-5318
▁wri	-5319
▁你必须	-5320
▁学生在	-5321
▁我去了	-5322
▁我觉得	-5323
▁老师在	-5324
人工智能	-5325
我很高兴	-5326
那个故事	-5327
重叠词缀	-5328
amboo	-5329
ended	-5330
imate	-5331
inary	-5332
▁appl	-5333
▁cosm	-5334
▁dece	-5335
▁drun	-5336
▁ears	-5337
▁grew	-5338
▁hang	-5339
▁hill	-5340
▁laws	-5341
▁perm	-5342
▁rack	-5343
▁rate	-5344
▁roll	-5345
▁viol	-5346
▁wake	-5347
▁我们不会	-5348
▁我想离开	-5349
▁这是一只	-5350
idered	-5351
ritain	-5352
▁based	-5353
▁crazy	-5354
▁feels	-5355
▁local	-5356
▁lucky	-5357
▁optim	-5358
▁renew	-5359
▁rumor	-5360
▁stock	-5361
▁talks	-5362
▁thief	-5363
▁urban	-5364
▁woods	-5365
▁北京比上海	-5366
▁这本书比那	-5367
ography	-5368
▁active	-5369
▁advant	-5370
▁asking	-5371
▁assist	-5372
▁bamboo	-5373
▁cooper	-5374
▁deeply	-5375
▁dreams	-5376
▁driver	-5377
▁itself	-5378
▁rivers	-5379
▁source	-5380
▁stupid	-5381
▁toilet	-5382
▁toward	-5383
▁warmer	-5384
▁England	-5385
▁ashamed	-5386
▁belongs	-5387
▁carried	-5388
▁disturb	-5389
▁letters	-5390
▁ordered	-5391
▁worried	-5392
▁airplane	-5393
▁anywhere	-5394
▁standing	-5395
▁visiting	-5396
▁childhood	-5397
▁effective	-5398
▁influence	-5399
▁president	-5400
▁processing	-5401
▁appointment	-5402
▁neighborhood	-5403
▁environmental	-5404
xi	-5405
▁作	-5406
▁入	-5407
▁写	-5408
▁凱	-5409
▁动	-5410
▁卡	-5411
▁叠	-5412
▁坏	-5413
▁定	-5414
▁少	-5415
▁带	-5416
▁扳	-5417
▁树	-5418
▁没	-5419
▁漂	-5420
▁片	-5421
▁盛	-5422
▁贫	-5423
▁高	-5424
上学	-5425
你好	-5426
偷了	-5427
再生	-5428
几个	-5429
分析	-5430
唢呐	-5431
啤酒	-5432
壁虎	-5433
外套	-5434
将要	-5435
對我	-5436
平衡	-5437
幽幽	-5438
庆祝	-5439
建造	-5440
慎重	-5441
懂得	-5442
我会	-5443
抱怨	-5444
政治	-5445
族名	-5446
會來	-5447
汉语	-5448
泥泞	-5449
海洋	-5450
清晰	-5451
生氣	-5452
的大	-5453
禁忌	-5454
算法	-5455
糟糕	-5456
经典	-5457
老实	-5458
葫芦	-5459
蟋蟀	-5460
讀書	-5461
讨论	-5462
诽谤	-5463
货币	-5464
赘婿	-5465
钢琴	-5466
阅读	-5467
隐瞒	-5468
飞机	-5469
SOV	-5470
ara	-5471
con	-5472
dry	-5473
rel	-5474
ror	-5475
uge	-5476
xim	-5477
yle	-5478
▁ok	-5479
▁上午	-5480
▁他一	-5481
▁我家	-5482
▁数学	-5483
▁爸爸	-5484
▁老師	-5485
一個人	-5486
了一些	-5487
很可爱	-5488
把你的	-5489
有一個	-5490
的生活	-5491
青幽幽	-5492
agle	-5493
cise	-5494
irts	-5495
ners	-5496
pens	-5497
rame	-5498
tain	-5499
▁'((	-5500
▁But	-5501
▁Mon	-5502
▁foc	-5503
▁gun	-5504
▁ign	-5505
▁jog	-5506
▁los	-5507
▁pic	-5508
▁你不会	-5509
▁医生在	-5510
▁我们会	-5511
▁我做了	-5512
▁我明天	-5513
▁我無法	-5514
▁我相信	-5515
了一本书	-5516
彝族先民	-5517
彝族家支	-5518
机器学习	-5519
每個人都	-5520
atoes	-5521
ipped	-5522
iques	-5523
istry	-5524
izing	-5525
uries	-5526
wered	-5527
▁Here	-5528
▁else	-5529
▁firm	-5530
▁flat	-5531
▁fort	-5532
▁lion	-5533
▁reap	-5534
▁rope	-5535
▁smil	-5536
▁wise	-5537
叠加态模型	-5538
cooked	-5539
▁Never	-5540
▁elder	-5541
▁enemy	-5542
▁exact	-5543
▁flood	-5544
▁liang	-5545
▁loves	-5546
▁scale	-5547
▁sched	-5548
▁smile	-5549
▁城市比农村	-5550
▁火车比汽车	-5551
actions	-5552
working	-5553
▁accord	-5554
▁breath	-5555
▁canada	-5556
▁castle	-5557
▁cloudy	-5558
▁course	-5559
▁hardly	-5560
▁immedi	-5561
▁larger	-5562
▁likely	-5563
▁mainly	-5564
▁planet	-5565
▁plenty	-5566
▁writes	-5567
▁customs	-5568
▁describ	-5569
▁example	-5570
▁matters	-5571
▁accepted	-5572
▁answered	-5573
▁families	-5574
▁followed	-5575
▁humanity	-5576
▁identity	-5577
▁reflects	-5578
▁sunlight	-5579
▁christmas	-5580
▁pollution	-5581
▁discussion	-5582
▁complaining	-5583
▁agricultural	-5584
?”	-5585
lp	-5586
▁—	-5587
▁倒	-5588
▁创	-5589
▁取	-5590
▁史	-5591
▁客	-5592
▁布	-5593
▁开	-5594
▁拍	-5595
▁挣	-5596
▁捆	-5597
▁撕	-5598
▁数	-5599
▁本	-5600
▁洗	-5601
▁游	-5602
▁烙	-5603
▁神	-5604
▁觉	-5605
▁辣	-5606
▁远	-5607
▁银	-5608
一百	-5609
他会	-5610
作業	-5611
作物	-5612
傑克	-5613
先前	-5614
到底	-5615
到我	-5616
北斗	-5617
区别	-5618
半夏	-5619
卧倒	-5620
发明	-5621
叙述	-5622
另外	-5623
名的	-5624
商店	-5625
国际	-5626
在跑	-5627
地上	-5628
增加	-5629
媽媽	-5630
寫信	-5631
左右	-5632
巴豆	-5633
建議	-5634
怎样	-5635
打開	-5636
拐杖	-5637
掺和	-5638
教室	-5639
斑鸠	-5640
昆虫	-5641
普及	-5642
曾經	-5643
有个	-5644
有效	-5645
有益	-5646
材料	-5647
杜鹃	-5648
果子	-5649
桌上	-5650
概念	-5651
模仿	-5652
泥鳅	-5653
流利	-5654
用手	-5655
画画	-5656
的小	-5657
的首	-5658
盒子	-5659
繁殖	-5660
荸荠	-5661
虚词	-5662
裡的	-5663
触动	-5664
討論	-5665
讓他	-5666
車子	-5667
进步	-5668
運動	-5669
邁克	-5670
酒店	-5671
锻炼	-5672
隻狗	-5673
駕駛	-5674
aii	-5675
ako	-5676
ats	-5677
han	-5678
nes	-5679
ope	-5680
ray	-5681
uko	-5682
▁);	-5683
▁Qu	-5684
▁aw	-5685
▁ur	-5686
▁但願	-5687
▁天空	-5688
▁我和	-5689
▁我被	-5690
▁折磨	-5691
▁月亮	-5692
▁茶比	-5693
▁警察	-5694
▁讓我	-5695
了很多	-5696
叫什么	-5697
多样性	-5698
天干第	-5699
完成了	-5700
彈鋼琴	-5701
形容嚼	-5702
我可以	-5703
新手机	-5704
比下午	-5705
比电脑	-5706
的英語	-5707
看电视	-5708
绿色的	-5709
迟到了	-5710
hess	-5711
rent	-5712
umpl	-5713
view	-5714
▁Nob	-5715
▁dao	-5716
▁est	-5717
▁fit	-5718
▁owe	-5719
▁pun	-5720
▁sac	-5721
▁squ	-5722
▁你想吃	-5723
▁對不起	-5724
▁我哥哥	-5725
▁我打算	-5726
▁我沒有	-5727
▁我非常	-5728
▁现在是	-5729
传说中的	-5730
是彝族最	-5731
比中文更	-5732
甚麼時候	-5733
这个问题	-5734
量子比特	-5735
chest	-5736
cling	-5737
hered	-5738
hesis	-5739
ining	-5740
itary	-5741
modal	-5742
oring	-5743
peare	-5744
ption	-5745
rible	-5746
riend	-5747
umped	-5748
uster	-5749
▁astr	-5750
▁auth	-5751
▁memo	-5752
▁poss	-5753
▁prob	-5754
▁sort	-5755
▁typh	-5756
▁whom	-5757
▁wild	-5758
▁苹果比梨	-5759
▁茶比咖啡	-5760
action	-5761
thirty	-5762
verest	-5763
▁brain	-5764
▁chess	-5765
▁chick	-5766
▁dumpl	-5767
▁given	-5768
▁limit	-5769
▁pears	-5770
▁poems	-5771
▁shock	-5772
▁smith	-5773
▁spoke	-5774
▁sunny	-5775
▁tears	-5776
▁tiger	-5777
▁trade	-5778
▁wound	-5779
▁上午比下午	-5780
▁手机比电脑	-5781
▁Canada	-5782
▁German	-5783
▁brings	-5784
▁charge	-5785
▁commit	-5786
▁drives	-5787
▁dynast	-5788
▁ninety	-5789
▁pierce	-5790
▁prover	-5791
▁scared	-5792
▁supply	-5793
▁though	-5794
▁allowed	-5795
▁cheaper	-5796
▁factory	-5797
▁holiday	-5798
▁instrum	-5799
▁percent	-5800
▁remains	-5801
▁sustain	-5802
▁treated	-5803
▁这本书比那本书	-5804
akespeare	-5805
▁audience	-5806
▁expected	-5807
▁national	-5808
▁opposite	-5809
▁promotes	-5810
▁surprise	-5811
▁advantage	-5812
▁decisions	-5813
▁describes	-5814
▁materials	-5815
▁mechanics	-5816
▁somewhere	-5817
▁collecting	-5818
▁difficulty	-5819
▁importance	-5820
▁investment	-5821
▁misunderst	-5822
▁particular	-5823
▁educational	-5824
▁civilization	-5825
;)	-5826
pa	-5827
ui	-5828
▁保	-5829
▁六	-5830
▁南	-5831
▁尽	-5832
▁强	-5833
▁微	-5834
▁扯	-5835
▁拉	-5836
▁撒	-5837
▁整	-5838
▁每	-5839
▁肥	-5840
▁认	-5841
▁讨	-5842
▁野	-5843
▁青	-5844
。"	-5845
传播	-5846
位词	-5847
你了	-5848
健壮	-5849
共同	-5850
关节	-5851
凝固	-5852
分鐘	-5853
刺竹	-5854
助于	-5855
博物	-5856
合一	-5857
哪个	-5858
四十	-5859
囤箩	-5860
土坎	-5861
大了	-5862
大量	-5863
姑父	-5864
密斯	-5865
就会	-5866
平方	-5867
年紀	-5868
弹琴	-5869
很高	-5870
意见	-5871
投资	-5872
招赘	-5873
挑箩	-5874
收到	-5875
是很	-5876
更能	-5877
最后	-5878
木板	-5879
柴刀	-5880
歡迎	-5881
洗澡	-5882
灰尘	-5883
犁板	-5884
留在	-5885
疤痕	-5886
石榴	-5887
砧板	-5888
祷告	-5889
稀烂	-5890
粒子	-5891
給他	-5892
结合	-5893
脾气	-5894
臀部	-5895
舌头	-5896
薄荷	-5897
蝴蝶	-5898
融化	-5899
行李	-5900
诙谐	-5901
费用	-5902
赶紧	-5903
跟他	-5904
那些	-5905
铅笔	-5906
阴茎	-5907
随便	-5908
鲸鱼	-5909
:((	-5910
Ent	-5911
eds	-5912
gon	-5913
ico	-5914
iny	-5915
pes	-5916
pot	-5917
▁今晚	-5918
▁他從	-5919
▁只要	-5920
▁我叫	-5921
▁我買	-5922
▁無論	-5923
▁那些	-5924
▁重字	-5925
不喜欢	-5926
把我的	-5927
的朋友	-5928
相对论	-5929
砍柴刀	-5930
种语言	-5931
EntL	-5932
ales	-5933
alse	-5934
cies	-5935
ooth	-5936
pper	-5937
ster	-5938
▁Get	-5939
▁adj	-5940
▁cru	-5941
▁hyd	-5942
▁mel	-5943
▁pan	-5944
▁shy	-5945
▁他昨天	-5946
▁你怎么	-5947
▁大家都	-5948
▁我吃了	-5949
▁請給我	-5950
▁这朵花	-5951
很快就會	-5952
看起來很	-5953
神经网络	-5954
itted	-5955
orary	-5956
▁asso	-5957
▁bike	-5958
▁cash	-5959
▁cred	-5960
▁date	-5961
▁fash	-5962
▁mole	-5963
▁pair	-5964
▁path	-5965
▁pink	-5966
▁prim	-5967
▁rare	-5968
▁scar	-5969
▁sens	-5970
▁shed	-5971
▁soul	-5972
▁tend	-5973
▁vide	-5974
▁west	-5975
▁不好意思	-5976
cially	-5977
ointed	-5978
▁Betty	-5979
▁Smith	-5980
▁Whose	-5981
▁appre	-5982
▁blind	-5983
▁bored	-5984
▁eleph	-5985
▁false	-5986
▁histo	-5987
▁knock	-5988
▁marri	-5989
▁ornam	-5990
▁rainb	-5991
▁sport	-5992
▁steam	-5993
▁thick	-5994
▁Europe	-5995
▁Nobody	-5996
▁circle	-5997
▁constr	-5998
▁couple	-5999
▁design	-6000
▁growth	-6001
▁lately	-6002
▁oldest	-6003
▁origin	-6004
▁pieces	-6005
▁places	-6006
▁repair	-6007
▁silent	-6008
▁singer	-6009
▁values	-6010
▁affects	-6011
▁anybody	-6012
▁bottles	-6013
▁contemp	-6014
▁efforts	-6015
▁fashion	-6016
▁general	-6017
▁physics	-6018
▁snowing	-6019
▁tickets	-6020
▁willing	-6021
▁becoming	-6022
▁emotions	-6023
▁exchange	-6024
▁features	-6025
▁function	-6026
▁improves	-6027
▁kindness	-6028
▁saturday	-6029
▁Christmas	-6030
▁dumplings	-6031
▁newspaper	-6032
▁operating	-6033
▁practical	-6034
▁connection	-6035
▁individual	-6036
▁literature	-6037
▁revolution	-6038
▁techniques	-6039
▁cooperation	-6040
▁architecture	-6041
au	-6042
▁冰	-6043
▁凿	-6044
▁刨	-6045
▁古	-6046
▁同	-6047
▁塞	-6048
▁女	-6049
▁巴	-6050
▁平	-6051
▁愈	-6052
▁拾	-6053
▁挡	-6054
▁捂	-6055
▁接	-6056
▁摆	-6057
▁散	-6058
▁暴	-6059
▁次	-6060
▁烟	-6061
▁爱	-6062
▁端	-6063
▁简	-6064
▁给	-6065
▁脚	-6066
▁西	-6067
▁语	-6068
▁超	-6069
▁闭	-6070
▁面	-6071
下周	-6072
不想	-6073
举行	-6074
习俗	-6075
交付	-6076
产生	-6077
今年	-6078
他有	-6079
位置	-6080
作用	-6081
你去	-6082
來的	-6083
做完	-6084
公共	-6085
农民	-6086
制造	-6087
办法	-6088
勺子	-6089
区块	-6090
口水	-6091
吉利	-6092
名称	-6093
向神	-6094
哪些	-6095
喝茶	-6096
囫囵	-6097
圖書	-6098
在一	-6099
地支	-6100
基因	-6101
处于	-6102
大學	-6103
婴儿	-6104
宗教	-6105
家具	-6106
容器	-6107
山羊	-6108
幾個	-6109
底下	-6110
引述	-6111
彻底	-6112
德行	-6113
怪味	-6114
惦念	-6115
意识	-6116
或者	-6117
打破	-6118
拼搏	-6119
换了	-6120
排行	-6121
擅長	-6122
效应	-6123
效率	-6124
整天	-6125
断定	-6126
日语	-6127
早起	-6128
是你	-6129
更难	-6130
有五	-6131
有四	-6132
未曾	-6133
梦想	-6134
機場	-6135
正確	-6136
死板	-6137
永远	-6138
浑浊	-6139
清明	-6140
点儿	-6141
物体	-6142
物品	-6143
现象	-6144
用品	-6145
相机	-6146
祭牲	-6147
禮物	-6148
租车	-6149
程序	-6150
窗戶	-6151
织布	-6152
考試	-6153
而不	-6154
联网	-6155
肯定	-6156
胡椒	-6157
自由	-6158
花园	-6159
蓑衣	-6160
行星	-6161
要做	-6162
語言	-6163
讽刺	-6164
过了	-6165
连累	-6166
韭菜	-6167
餐具	-6168
餐厅	-6169
鸽子	-6170
鼻涕	-6171
ago	-6172
ato	-6173
ges	-6174
iod	-6175
lly	-6176
ril	-6177
sts	-6178
top	-6179
ued	-6180
val	-6181
▁一百	-6182
▁可能	-6183
▁妈妈	-6184
▁很多	-6185
▁我读	-6186
▁我选	-6187
▁我還	-6188
▁无论	-6189
▁每个	-6190
▁比爾	-6191
▁这种	-6192
▁這裏	-6193
▁银行	-6194
不灵活	-6195
办公室	-6196
区块链	-6197
圖書館	-6198
在这儿	-6199
很勇敢	-6200
很高兴	-6201
感兴趣	-6202
是人类	-6203
有助于	-6204
棕色的	-6205
灰色的	-6206
的气味	-6207
第一次	-6208
aced	-6209
atic	-6210
enth	-6211
ison	-6212
rops	-6213
shan	-6214
town	-6215
▁Meg	-6216
▁aim	-6217
▁avo	-6218
▁bow	-6219
▁cab	-6220
▁cop	-6221
▁dna	-6222
▁gro	-6223
▁sle	-6224
▁tot	-6225
▁wol	-6226
▁你不能	-6227
▁你必須	-6228
▁你昨天	-6229
▁我妹妹	-6230
▁我走了	-6231
▁昨天我	-6232
主要分布	-6233
可以同时	-6234
aired	-6235
board	-6236
icago	-6237
iving	-6238
izhou	-6239
lique	-6240
ously	-6241
▁Life	-6242
▁acid	-6243
▁asia	-6244
▁bite	-6245
▁clos	-6246
▁dent	-6247
▁dish	-6248
▁goal	-6249
▁legs	-6250
▁pull	-6251
▁upon	-6252
▁彝族传统	-6253
▁猫比狗更	-6254
follow	-6255
fortun	-6256
omeday	-6257
▁After	-6258
▁broad	-6259
▁calls	-6260
▁cover	-6261
▁cream	-6262
▁delay	-6263
▁finan	-6264
▁force	-6265
▁frame	-6266
▁freez	-6267
▁goods	-6268
▁parts	-6269
▁passw	-6270
▁rapid	-6271
▁roses	-6272
▁sides	-6273
▁simpl	-6274
▁threw	-6275
▁track	-6276
▁value	-6277
▁weeks	-6278
▁worst	-6279
▁量子计算机	-6280
ilities	-6281
inguish	-6282
▁Monday	-6283
▁admire	-6284
▁bucket	-6285
▁center	-6286
▁drinks	-6287
▁escape	-6288
▁friday	-6289
▁groups	-6290
▁inside	-6291
▁member	-6292
▁moving	-6293
▁murder	-6294
▁period	-6295
▁prices	-6296
▁racket	-6297
▁shower	-6298
▁stitch	-6299
▁thread	-6300
▁transm	-6301
▁trying	-6302
▁worker	-6303
▁achieve	-6304
▁boiling	-6305
▁carries	-6306
▁central	-6307
▁contact	-6308
▁dentist	-6309
▁divided	-6310
▁drawing	-6311
▁enables	-6312
▁illness	-6313
▁longest	-6314
▁medical	-6315
▁message	-6316
▁oranges	-6317
▁persist	-6318
▁plastic	-6319
▁records	-6320
▁reminds	-6321
▁rituals	-6322
▁slanted	-6323
▁astronom	-6324
▁brothers	-6325
▁explains	-6326
▁feelings	-6327
▁greatest	-6328
▁historic	-6329
▁overtime	-6330
▁promised	-6331
▁recently	-6332
▁repaired	-6333
▁textbook	-6334
▁australia	-6335
▁chemistry	-6336
▁liangshan	-6337
▁ornaments	-6338
▁renewable	-6339
▁principles	-6340
▁composition	-6341
▁earthquakes	-6342
▁immediately	-6343
▁opportunities	-6344
gs	-6345
to	-6346
▁万	-6347
▁也	-6348
▁二	-6349
▁住	-6350
▁全	-6351
▁冲	-6352
▁四	-6353
▁寻	-6354
▁弹	-6355
▁归	-6356
▁急	-6357
▁恶	-6358
▁感	-6359
▁抢	-6360
▁拱	-6361
▁既	-6362
▁沙	-6363
▁油	-6364
▁滚	-6365
▁漏	-6366
▁珠	-6367
▁砍	-6368
▁竹	-6369
▁羊	-6370
▁跳	-6371
▁酸	-6372
▁饭	-6373
不在	-6374
不用	-6375
不錯	-6376
並不	-6377
为主	-6378
争吵	-6379
仍然	-6380
决策	-6381
刀子	-6382
前面	-6383
力量	-6384
午餐	-6385
去世	-6386
发炎	-6387
取消	-6388
受了	-6389
只猫	-6390
吓跳	-6391
和水	-6392
喜鹊	-6393
喷嚏	-6394
噪音	-6395
嚎叫	-6396
坏了	-6397
嬰兒	-6398
容量	-6399
山上	-6400
工程	-6401
平均	-6402
应用	-6403
心情	-6404
思想	-6405
恐怕	-6406
恐惧	-6407
意見	-6408
我會	-6409
投掷	-6410
拳头	-6411
控制	-6412
揭示	-6413
摔倒	-6414
旅館	-6415
明子	-6416
来自	-6417
树叶	-6418
母亲	-6419
沉沉	-6420
治疗	-6421
法国	-6422
派对	-6423
满了	-6424
漆器	-6425
火把	-6426
理由	-6427
生长	-6428
百姓	-6429
皮肤	-6430
看法	-6431
礼物	-6432
祖母	-6433
秘密	-6434
称呼	-6435
笑了	-6436
筲箕	-6437
精力	-6438
绳子	-6439
绵绵	-6440
聰明	-6441
花了	-6442
茨菇	-6443
虚拟	-6444
表明	-6445
规矩	-6446
语法	-6447
诱惑	-6448
赌咒	-6449
道歉	-6450
都在	-6451
银饰	-6452
长度	-6453
集中	-6454
電腦	-6455
额头	-6456
骑马	-6457
高中	-6458
bra	-6459
cks	-6460
cut	-6461
ien	-6462
liv	-6463
▁Ex	-6464
▁Fu	-6465
▁Mo	-6466
▁Pe	-6467
▁ut	-6468
▁他會	-6469
▁他说	-6470
▁你该	-6471
▁她会	-6472
▁我也	-6473
▁把是	-6474
▁朋友	-6475
▁漂亮	-6476
▁让我	-6477
▁這本	-6478
加拿大	-6479
吃完了	-6480
度学习	-6481
很善良	-6482
是一種	-6483
最高的	-6484
有一些	-6485
火车站	-6486
的名字	-6487
的女孩	-6488
的房子	-6489
的故事	-6490
的男人	-6491
的英文	-6492
解释了	-6493
金色的	-6494
))).	-6495
ager	-6496
duct	-6497
iest	-6498
ival	-6499
riel	-6500
roat	-6501
rupt	-6502
ship	-6503
tail	-6504
ties	-6505
vere	-6506
▁Any	-6507
▁dia	-6508
▁meg	-6509
▁mut	-6510
▁你喜歡	-6511
▁你觉得	-6512
▁我叔叔	-6513
▁我听了	-6514
▁我喝了	-6515
▁我弟弟	-6516
▁我必須	-6517
▁我来了	-6518
▁我用了	-6519
▁我看了	-6520
▁我给了	-6521
▁我说了	-6522
▁这是我	-6523
我很舒服	-6524
生态系统	-6525
那部电影	-6526
alian	-6527
apers	-6528
apped	-6529
asant	-6530
ebook	-6531
eorge	-6532
usted	-6533
▁beat	-6534
▁calm	-6535
▁cous	-6536
▁edge	-6537
▁evil	-6538
▁feet	-6539
▁gift	-6540
▁joke	-6541
▁june	-6542
▁load	-6543
▁lone	-6544
▁mend	-6545
▁mood	-6546
▁neck	-6547
▁nerv	-6548
▁pred	-6549
▁rabb	-6550
▁rely	-6551
▁repl	-6552
▁rome	-6553
▁root	-6554
▁rose	-6555
▁wolf	-6556
▁yang	-6557
▁为什么要	-6558
▁今天早上	-6559
▁他是我的	-6560
▁彝文中是	-6561
了那部电影	-6562
有什么区别	-6563
engers	-6564
ermany	-6565
ressed	-6566
uiriel	-6567
ussian	-6568
▁Water	-6569
▁areas	-6570
▁betty	-6571
▁bless	-6572
▁bride	-6573
▁ended	-6574
▁favor	-6575
▁flies	-6576
▁flows	-6577
▁guang	-6578
▁march	-6579
▁marry	-6580
▁relie	-6581
▁shape	-6582
▁taste	-6583
▁texts	-6584
▁tools	-6585
▁walks	-6586
▁彝族有什么	-6587
oblique	-6588
▁agreed	-6589
▁author	-6590
▁cheese	-6591
▁cities	-6592
▁classm	-6593
▁credit	-6594
▁critic	-6595
▁dragon	-6596
▁excess	-6597
▁farmer	-6598
▁income	-6599
▁integr	-6600
▁myster	-6601
▁nearly	-6602
▁online	-6603
▁pocket	-6604
▁preser	-6605
▁purple	-6606
▁ritual	-6607
▁starts	-6608
▁taught	-6609
▁thanks	-6610
▁throat	-6611
▁unless	-6612
▁violin	-6613
▁writer	-6614
▁今天比昨天更	-6615
▁夏天比冬天更	-6616
▁英语比中文更	-6617
▁attract	-6618
▁classes	-6619
▁cluster	-6620
▁dialect	-6621
▁disease	-6622
▁dynasty	-6623
▁fortune	-6624
▁journey	-6625
▁nervous	-6626
▁priests	-6627
▁promise	-6628
▁service	-6629
▁seventy	-6630
▁various	-6631
▁challeng	-6632
▁complain	-6633
▁consider	-6634
▁contains	-6635
▁contract	-6636
▁engineer	-6637
▁familiar	-6638
▁notebook	-6639
▁planning	-6640
▁positive	-6641
▁prisoner	-6642
▁schedule	-6643
▁training	-6644
▁buildings	-6645
▁discussed	-6646
▁pronounce	-6647
▁transport	-6648
▁innovation	-6649
▁passengers	-6650
▁successful	-6651
▁hardworking	-6652
▁independent	-6653
▁responsible	-6654
▁translation	-6655
▁contemporary	-6656
▁disappointed	-6657
ka	-6658
rm	-6659
▁u	-6660
▁丝	-6661
▁丢	-6662
▁八	-6663
▁又	-6664
▁吵	-6665
▁哄	-6666
▁啊	-6667
▁团	-6668
▁土	-6669
▁壶	-6670
▁富	-6671
▁当	-6672
▁护	-6673
▁拿	-6674
▁掩	-6675
▁擦	-6676
▁新	-6677
▁穿	-6678
▁笔	-6679
▁米	-6680
▁绿	-6681
▁罩	-6682
▁草	-6683
▁蒙	-6684
▁貝	-6685
▁败	-6686
▁零	-6687
▁领	-6688
▁黄	-6689
」,	-6690
一张	-6691
一本	-6692
一班	-6693
三次	-6694
上面	-6695
下的	-6696
不耐	-6697
中有	-6698
串串	-6699
为你	-6700
主动	-6701
了个	-6702
亲家	-6703
人是	-6704
人生	-6705
优惠	-6706
你會	-6707
侄子	-6708
债务	-6709
傍晚	-6710
傻子	-6711
出門	-6712
函数	-6713
分子	-6714
创造	-6715
刮风	-6716
医学	-6717
午飯	-6718
只狗	-6719
后天	-6720
吝啬	-6721
呼吸	-6722
嗜好	-6723
嘴里	-6724
困難	-6725
图案	-6726
墨水	-6727
复杂	-6728
奶奶	-6729
好好	-6730
子弹	-6731
密码	-6732
对我	-6733
对神	-6734
屋檐	-6735
帮子	-6736
幫忙	-6737
广西	-6738
很久	-6739
很少	-6740
很热	-6741
很美	-6742
思维	-6743
恩情	-6744
拥挤	-6745
损失	-6746
掌握	-6747
控告	-6748
提前	-6749
撒娇	-6750
敬称	-6751
數學	-6752
斗殴	-6753
旋转	-6754
无力	-6755
日子	-6756
日語	-6757
昌盛	-6758
明年	-6759
杨梅	-6760
枯萎	-6761
栖息	-6762
梭子	-6763
概率	-6764
正常	-6765
汽車	-6766
泥土	-6767
渡槽	-6768
满意	-6769
然后	-6770
燕麦	-6771
生的	-6772
男子	-6773
的地	-6774
看书	-6775
看過	-6776
真正	-6777
睾丸	-6778
称为	-6779
稀疏	-6780
空气	-6781
篮球	-6782
组装	-6783
绘画	-6784
群体	-6785
老人	-6786
耳语	-6787
联系	-6788
芒果	-6789
茯苓	-6790
蛆虫	-6791
裡有	-6792
解说	-6793
证明	-6794
词典	-6795
词素	-6796
象征	-6797
赠送	-6798
輛車	-6799
轻轻	-6800
辨别	-6801
这些	-6802
这是	-6803
远古	-6804
這裏	-6805
遗留	-6806
那樣	-6807
錯了	-6808
锦鸡	-6809
阳光	-6810
震动	-6811
面前	-6812
面积	-6813
预防	-6814
馈赠	-6815
馬上	-6816
黑色	-6817
abl	-6818
bum	-6819
bye	-6820
els	-6821
ido	-6822
ify	-6823
ipe	-6824
itz	-6825
izz	-6826
▁Fe	-6827
▁pm	-6828
▁一个	-6829
▁吉姆	-6830
▁因為	-6831
▁祝你	-6832
▁突然	-6833
▁给我	-6834
▁通知	-6835
▁音乐	-6836
二十四	-6837
什麼事	-6838
在中国	-6839
在哪裏	-6840
天气热	-6841
孩子们	-6842
就好了	-6843
彝语说	-6844
意大利	-6845
我很懒	-6846
打棒球	-6847
打网球	-6848
星期一	-6849
是世界	-6850
是现代	-6851
最喜欢	-6852
松明子	-6853
橙色的	-6854
的关键	-6855
的发音	-6856
粉色的	-6857
紫色的	-6858
腮帮子	-6859
见到你	-6860
踢足球	-6861
部族名	-6862
黄色的	-6863
abet	-6864
cast	-6865
cell	-6866
ibet	-6867
iche	-6868
ints	-6869
mosp	-6870
ribe	-6871
sing	-6872
tube	-6873
▁Car	-6874
▁God	-6875
▁Two	-6876
▁bun	-6877
▁esc	-6878
▁fre	-6879
▁han	-6880
▁haw	-6881
▁rid	-6882
▁他沒有	-6883
▁他總是	-6884
▁如果我	-6885
▁我写了	-6886
▁我学了	-6887
▁我找了	-6888
▁我换了	-6889
▁我期待	-6890
▁我读了	-6891
▁我跑了	-6892
▁我选了	-6893
▁请帮我	-6894
▁越来越	-6895
▁這是一	-6896
休息一下	-6897
传统节日	-6898
再生能源	-6899
农历六月	-6900
天气凉爽	-6901
天气寒冷	-6902
天气温暖	-6903
我很兴奋	-6904
时态助词	-6905
是最好的	-6906
是白色的	-6907
是蓝色的	-6908
ayama	-6909
iency	-6910
itzer	-6911
kaido	-6912
rizon	-6913
rogen	-6914
ushed	-6915
▁Fuji	-6916
▁Tony	-6917
▁Were	-6918
▁biod	-6919
▁carp	-6920
▁cell	-6921
▁conv	-6922
▁diam	-6923
▁exha	-6924
▁fuji	-6925
▁furn	-6926
▁iron	-6927
▁kick	-6928
▁lady	-6929
▁lots	-6930
▁norm	-6931
▁sequ	-6932
▁suff	-6933
▁wave	-6934
▁weak	-6935
colate	-6936
ildren	-6937
monstr	-6938
uction	-6939
▁album	-6940
▁anger	-6941
▁avoid	-6942
▁costs	-6943
▁cough	-6944
▁crime	-6945
▁diary	-6946
▁docum	-6947
▁dozen	-6948
▁drunk	-6949
▁fence	-6950
▁funny	-6951
▁habit	-6952
▁leads	-6953
▁plant	-6954
▁rises	-6955
▁snake	-6956
▁spicy	-6957
▁tibet	-6958
▁你什麼時候	-6959
▁苹果比梨更	-6960
▁茶比咖啡更	-6961
▁量子叠加态	-6962
ichever	-6963
igation	-6964
▁France	-6965
▁George	-6966
▁atmosp	-6967
▁bigger	-6968
▁circum	-6969
▁differ	-6970
▁entire	-6971
▁establ	-6972
▁formal	-6973
▁george	-6974
▁humans	-6975
▁lasted	-6976
▁picked	-6977
▁picnic	-6978
▁polite	-6979
▁repeat	-6980
▁smiled	-6981
▁smooth	-6982
▁suspic	-6983
▁theore	-6984
▁上午比下午更	-6985
▁北京比上海更	-6986
▁城市比农村更	-6987
▁手机比电脑更	-6988
▁火车比汽车更	-6989
▁applied	-6990
▁chicken	-6991
▁contain	-6992
▁convers	-6993
▁finding	-6994
▁founded	-6995
▁guizhou	-6996
▁however	-6997
▁objects	-6998
▁reality	-6999
▁seaside	-7000
▁someday	-7001
▁stained	-7002
▁virtual	-7003
▁wedding	-7004
itzerland	-7005
▁Children	-7006
▁believed	-7007
▁demonstr	-7008
▁downtown	-7009
▁holidays	-7010
▁infinite	-7011
▁movement	-7012
▁particip	-7013
▁password	-7014
▁precious	-7015
▁property	-7016
▁teachers	-7017
▁terrible	-7018
▁treasure	-7019
▁whenever	-7020
▁这本书比那本书更	-7021
▁ancestors	-7022
▁apartment	-7023
▁celebrate	-7024
▁centuries	-7025
▁emotional	-7026
▁financial	-7027
▁gentleman	-7028
▁magazines	-7029
▁perfectly	-7030
▁political	-7031
▁suffering	-7032
▁considered	-7033
▁properties	-7034
▁protecting	-7035
▁application	-7036
▁distinctive	-7037
▁distinguish	-7038
▁imagination	-7039
▁opportunity	-7040
ox	-7041
sy	-7042
ym	-7043
▁x	-7044
▁「	-7045
▁了	-7046
▁代	-7047
▁们	-7048
▁件	-7049
▁凑	-7050
▁凸	-7051
▁刀	-7052
▁划	-7053
▁千	-7054
▁反	-7055
▁口	-7056
▁哈	-7057
▁围	-7058
▁圈	-7059
▁坐	-7060
▁情	-7061
▁愛	-7062
▁戏	-7063
▁承	-7064
▁抚	-7065
▁按	-7066
▁换	-7067
▁梯	-7068
▁浓	-7069
▁熊	-7070
▁燃	-7071
▁碰	-7072
▁站	-7073
▁红	-7074
▁绝	-7075
▁缺	-7076
▁胸	-7077
▁荡	-7078
▁蜷	-7079
▁装	-7080
▁话	-7081
▁逗	-7082
▁闲	-7083
▁鸡	-7084
▁齐	-7085
。」	-7086
一份	-7087
一家	-7088
三点	-7089
上升	-7090
个人	-7091
交流	-7092
他了	-7093
他會	-7094
你在	-7095
倒霉	-7096
公平	-7097
六十	-7098
六点	-7099
凉山	-7100
分之	-7101
剛剛	-7102
加入	-7103
加速	-7104
劳累	-7105
单位	-7106
危险	-7107
历法	-7108
压力	-7109
只能	-7110
叫我	-7111
叹词	-7112
向前	-7113
喝酒	-7114
回到	-7115
在天	-7116
士山	-7117
复活	-7118
天地	-7119
太太	-7120
夫球	-7121
季节	-7122
守卫	-7123
家谱	-7124
小的	-7125
少数	-7126
屋顶	-7127
山楂	-7128
山谷	-7129
帘子	-7130
忍受	-7131
情感	-7132
我家	-7133
我要	-7134
房前	-7135
打柴	-7136
打猎	-7137
拍照	-7138
拘禁	-7139
挑战	-7140
推动	-7141
撒遍	-7142
放松	-7143
旅馆	-7144
无限	-7145
显然	-7146
月亮	-7147
本质	-7148
村寨	-7149
村庄	-7150
松脂	-7151
果吉	-7152
枷锁	-7153
树木	-7154
歌曲	-7155
每年	-7156
水蒸	-7157
池塘	-7158
法帽	-7159
活结	-7160
混合	-7161
溶化	-7162
炫示	-7163
猫头	-7164
猴子	-7165
班牙	-7166
生产	-7167
电子	-7168
發明	-7169
的主	-7170
目前	-7171
看我	-7172
看见	-7173
真理	-7174
眼鏡	-7175
禁止	-7176
空间	-7177
竞争	-7178
章节	-7179
笼罩	-7180
簡單	-7181
糊糊	-7182
結婚	-7183
結束	-7184
經常	-7185
纽襻	-7186
绵羊	-7187
羡慕	-7188
聘请	-7189
舒畅	-7190
节约	-7191
芦苇	-7192
苍蝇	-7193
药水	-7194
蘑菇	-7195
规则	-7196
記得	-7197
說得	-7198
记忆	-7199
记载	-7200
语序	-7201
语系	-7202
语音	-7203
贿赂	-7204
软件	-7205
迁徙	-7206
还有	-7207
连续	-7208
迟到	-7209
逝世	-7210
進了	-7211
部位	-7212
鉛筆	-7213
锄头	-7214
锅庄	-7215
长的	-7216
頭髮	-7217
饭盆	-7218
饺子	-7219
香肠	-7220
马上	-7221
魔鬼	-7222
黄果	-7223
The	-7224
ded	-7225
iao	-7226
iro	-7227
ius	-7228
len	-7229
rom	-7230
uci	-7231
urs	-7232
▁Go	-7233
▁不用	-7234
▁不管	-7235
▁与其	-7236
▁天氣	-7237
▁彩虹	-7238
▁我沒	-7239
▁我為	-7240
▁我聽	-7241
▁我請	-7242
▁时间	-7243
▁有些	-7244
▁正在	-7245
▁玛丽	-7246
▁當我	-7247
▁移动	-7248
▁网络	-7249
▁美丽	-7250
▁美國	-7251
▁语言	-7252
▁这道	-7253
一直在	-7254
不耐烦	-7255
乐器的	-7256
來沒有	-7257
吃早餐	-7258
在哪儿	-7259
太多了	-7260
小孩子	-7261
就是我	-7262
排行第	-7263
是不是	-7264
是怎么	-7265
是老师	-7266
最好的	-7267
未曾生	-7268
生病了	-7269
的一个	-7270
的第二	-7271
英文是	-7272
表示是	-7273
说英语	-7274
alys	-7275
athy	-7276
cles	-7277
fers	-7278
fety	-7279
heat	-7280
hens	-7281
hern	-7282
king	-7283
more	-7284
omic	-7285
reek	-7286
resp	-7287
▁Sat	-7288
▁Spe	-7289
▁Was	-7290
▁aug	-7291
▁ble	-7292
▁bom	-7293
▁dad	-7294
▁led	-7295
▁rob	-7296
▁spl	-7297
▁une	-7298
▁今天是	-7299
▁他不是	-7300
▁他们很	-7301
▁他喜歡	-7302
▁他想吃	-7303
▁他是个	-7304
▁你介意	-7305
▁她想吃	-7306
▁彝族有	-7307
▁我现在	-7308
▁我看见	-7309
▁这辆车	-7310
▁银行在	-7311
否定副词	-7312
對我來說	-7313
形容嚼食	-7314
操作系统	-7315
ardon	-7316
aries	-7317
celer	-7318
chain	-7319
ggage	-7320
iment	-7321
order	-7322
orean	-7323
▁Kobe	-7324
▁bene	-7325
▁bull	-7326
▁decl	-7327
▁earn	-7328
▁fare	-7329
▁fart	-7330
▁grat	-7331
▁keys	-7332
▁kobe	-7333
▁lean	-7334
▁okay	-7335
▁page	-7336
▁rele	-7337
▁risk	-7338
▁shin	-7339
▁shot	-7340
▁我们想吃	-7341
▁用彝语说	-7342
彝族家支名	-7343
有什么特点	-7344
毕摩的法帽	-7345
alysis	-7346
estern	-7347
ground	-7348
ritage	-7349
▁Osaka	-7350
▁Sorry	-7351
▁absor	-7352
▁actor	-7353
▁aller	-7354
▁aware	-7355
▁basis	-7356
▁bloom	-7357
▁brush	-7358
▁loved	-7359
▁north	-7360
▁osaka	-7361
▁paint	-7362
▁quant	-7363
▁regul	-7364
▁salad	-7365
▁skirt	-7366
▁stops	-7367
▁terms	-7368
▁therm	-7369
▁whale	-7370
ference	-7371
itution	-7372
nthesis	-7373
stances	-7374
▁breaks	-7375
▁calcul	-7376
▁colder	-7377
▁cooked	-7378
▁cotton	-7379
▁destro	-7380
▁detail	-7381
▁facing	-7382
▁handle	-7383
▁lonely	-7384
▁monkey	-7385
▁prepar	-7386
▁region	-7387
▁safety	-7388
▁strict	-7389
▁Quantum	-7390
▁Someone	-7391
▁absence	-7392
▁acceler	-7393
▁clearly	-7394
▁confuci	-7395
▁consist	-7396
▁cycling	-7397
▁genetic	-7398
▁knowing	-7399
▁luggage	-7400
▁numbers	-7401
▁product	-7402
▁reveals	-7403
▁squared	-7404
▁strengt	-7405
▁telling	-7406
▁typhoon	-7407
▁Saturday	-7408
▁activity	-7409
▁cultures	-7410
▁discount	-7411
▁heritage	-7412
▁marriage	-7413
▁preserve	-7414
▁weekends	-7415
▁Australia	-7416
▁chocolate	-7417
▁continued	-7418
▁explained	-7419
▁extremely	-7420
▁following	-7421
▁generally	-7422
▁regularly	-7423
▁whichever	-7424
▁department	-7425
▁ecosystems	-7426
▁efficiency	-7427
▁government	-7428
▁meditation	-7429
▁relativity	-7430
▁understood	-7431
▁distributed	-7432
▁performance	-7433
▁biodiversity	-7434
▁conversation	-7435
!"	-7436
ma	-7437
sk	-7438
ǒu	-7439
▁七	-7440
▁乳	-7441
▁伙	-7442
▁偷	-7443
▁刻	-7444
▁变	-7445
▁吹	-7446
▁帮	-7447
▁往	-7448
▁扇	-7449
▁批	-7450
▁挺	-7451
▁春	-7452
▁欠	-7453
▁气	-7454
▁炸	-7455
▁牢	-7456
▁犁	-7457
▁狠	-7458
▁猪	-7459
▁甩	-7460
▁窝	-7461
▁笨	-7462
▁纸	-7463
▁船	-7464
▁贪	-7465
▁跨	-7466
▁路	-7467
▁锁	-7468
▁鹿	-7469
▁鼓	-7470
一張	-7471
一步	-7472
丈夫	-7473
上级	-7474
不上	-7475
不去	-7476
不懂	-7477
乍鸟	-7478
乱叫	-7479
争抢	-7480
仇怨	-7481
他做	-7482
估计	-7483
估量	-7484
伶俐	-7485
作家	-7486
你会	-7487
侄儿	-7488
來自	-7489
俗称	-7490
信号	-7491
儴解	-7492
元素	-7493
公斤	-7494
关注	-7495
写的	-7496
冻菌	-7497
出殡	-7498
出發	-7499
刀霍	-7500
分为	-7501
分支	-7502
匆匆	-7503
医治	-7504
卫生	-7505
危及	-7506
变得	-7507
叽叽	-7508
吆喝	-7509
后面	-7510
吩咐	-7511
含化	-7512
吸煙	-7513
呲牙	-7514
响声	-7515
哨棚	-7516
哼哈	-7517
喳喳	-7518
嘶叫	-7519
垃圾	-7520
填塞	-7521
壞了	-7522
声调	-7523
多了	-7524
多的	-7525
大阪	-7526
失望	-7527
夸口	-7528
女生	-7529
婆家	-7530
婚配	-7531
媳妇	-7532
嫂子	-7533
实际	-7534
寄生	-7535
小而	-7536
小饼	-7537
尖的	-7538
山茶	-7539
帮你	-7540
庇护	-7541
建盖	-7542
形式	-7543
微观	-7544
快樂	-7545
怜悯	-7546
慢慢	-7547
我都	-7548
戰爭	-7549
手表	-7550
报纸	-7551
捣衣	-7552
措施	-7553
摆夷	-7554
摆艺	-7555
收集	-7556
改善	-7557
敬爱	-7558
斑纹	-7559
时代	-7560
旺盛	-7561
明亮	-7562
是主	-7563
晌午	-7564
曾祖	-7565
未来	-7566
机制	-7567
杏子	-7568
柏松	-7569
柜子	-7570
案件	-7571
梨子	-7572
椿树	-7573
楼枕	-7574
模拟	-7575
欢喜	-7576
欧洲	-7577
欺骗	-7578
止沸	-7579
毛发	-7580
水瓢	-7581
河流	-7582
沽湖	-7583
法律	-7584
泛称	-7585
洞口	-7586
派遣	-7587
消失	-7588
清洁	-7589
準時	-7590
灶孔	-7591
烟杆	-7592
焦虑	-7593
然你	-7594
照顧	-7595
爱好	-7596
猖獗	-7597
玫瑰	-7598
珠子	-7599
瓜子	-7600
生生	-7601
用嘴	-7602
申报	-7603
畜牲	-7604
病魔	-7605
的屁	-7606
皮聂	-7607
监牢	-7608
相互	-7609
真是	-7610
石油	-7611
砰砰	-7612
礼仪	-7613
祝告	-7614
禀报	-7615
福禄	-7616
种地	-7617
窗户	-7618
笛子	-7619
篾丝	-7620
簧片	-7621
类型	-7622
終於	-7623
繼續	-7624
纵阅	-7625
结婚	-7626
缩口	-7627
群鸦	-7628
聖誕	-7629
肋骨	-7630
背扇	-7631
胡琴	-7632
胡须	-7633
脑勺	-7634
脖子	-7635
腿跨	-7636
膀胱	-7637
舅娘	-7638
舅舅	-7639
舍得	-7640
芫荽	-7641
花園	-7642
花生	-7643
苗族	-7644
荣华	-7645
菌子	-7646
菜刀	-7647
虾子	-7648
衣裳	-7649
袜子	-7650
被盖	-7651
襯衫	-7652
見面	-7653
角落	-7654
解釋	-7655
買了	-7656
超过	-7657
蹒跚	-7658
身上	-7659
身材	-7660
轿子	-7661
较量	-7662
过量	-7663
迟缓	-7664
迷路	-7665
适应	-7666
邀請	-7667
金银	-7668
铃铛	-7669
铜等	-7670
铺盖	-7671
镊子	-7672
镶牙	-7673
防备	-7674
除了	-7675
隐痛	-7676
隨時	-7677
雄伟	-7678
食品	-7679
饭谷	-7680
首长	-7681
骨头	-7682
鳝鱼	-7683
鸡胗	-7684
麒麟	-7685
黄瓜	-7686
ckw	-7687
ein	-7688
ifi	-7689
liu	-7690
par	-7691
tee	-7692
ums	-7693
ups	-7694
ura	-7695
yed	-7696
▁Se	-7697
▁Sw	-7698
▁pu	-7699
▁世界	-7700
▁周末	-7701
▁堵塞	-7702
▁天气	-7703
▁工作	-7704
▁男孩	-7705
▁英文	-7706
▁謝謝	-7707
▁运动	-7708
▁這張	-7709
▁顺利	-7710
▁飞机	-7711
▁饱满	-7712
不是吗	-7713
互联网	-7714
什么都	-7715
但是我	-7716
值得一	-7717
刀霍霍	-7718
去學校	-7719
受欢迎	-7720
另一个	-7721
可能會	-7722
合作用	-7723
多久了	-7724
多少錢	-7725
好朋友	-7726
妖魔鬼	-7727
寄生茶	-7728
富士山	-7729
山乍鸟	-7730
当然了	-7731
往嘴里	-7732
感冒了	-7733
捣衣棍	-7734
提供了	-7735
揭示了	-7736
收音机	-7737
文化的	-7738
无响声	-7739
昏沉沉	-7740
星期六	-7741
是宇宙	-7742
是誰的	-7743
每天都	-7744
法自然	-7745
注意力	-7746
泸沽湖	-7747
独特的	-7748
理健康	-7749
用风箱	-7750
白生生	-7751
百分之	-7752
的英语	-7753
美丽的	-7754
自行車	-7755
被液体	-7756
这件事	-7757
香椿树	-7758
黏糊糊	-7759
asts	-7760
cuān	-7761
four	-7762
iced	-7763
inda	-7764
izza	-7765
lymp	-7766
mber	-7767
ores	-7768
quer	-7769
rial	-7770
ucle	-7771
▁DNA	-7772
▁Man	-7773
▁Sch	-7774
▁Yes	-7775
▁fed	-7776
▁ink	-7777
▁jun	-7778
▁lat	-7779
▁nav	-7780
▁pig	-7781
▁tal	-7782
▁ult	-7783
▁你想要	-7784
▁区块链	-7785
▁我父親	-7786
▁让我们	-7787
▁這隻狗	-7788
叽叽喳喳	-7789
妖魔鬼怪	-7790
小而尖的	-7791
斗笠胎子	-7792
是中国最	-7793
磨刀霍霍	-7794
金银铜等	-7795
集中精力	-7796
饮食过量	-7797
aches	-7798
erary	-7799
gebra	-7800
itate	-7801
stein	-7802
▁Even	-7803
▁band	-7804
▁crim	-7805
▁espe	-7806
▁flex	-7807
▁hats	-7808
▁inch	-7809
▁lift	-7810
▁liqu	-7811
▁pray	-7812
▁purs	-7813
▁rail	-7814
▁skin	-7815
▁stri	-7816
▁thin	-7817
▁thor	-7818
▁tony	-7819
▁unif	-7820
▁孩子们在	-7821
▁量子纠缠	-7822
无响声的屁	-7823
aching	-7824
anuary	-7825
bruary	-7826
ctions	-7827
estock	-7828
former	-7829
ispens	-7830
rested	-7831
stairs	-7832
uesday	-7833
ultane	-7834
▁Bring	-7835
▁China	-7836
▁Somet	-7837
▁autom	-7838
▁bloss	-7839
▁buckw	-7840
▁coins	-7841
▁dirty	-7842
▁focus	-7843
▁girlf	-7844
▁ignor	-7845
▁lines	-7846
▁lying	-7847
▁mayor	-7848
▁moral	-7849
▁plans	-7850
▁saved	-7851
▁scold	-7852
▁shelf	-7853
▁shout	-7854
▁slept	-7855
▁style	-7856
▁sympt	-7857
▁tells	-7858
▁throw	-7859
▁total	-7860
▁wears	-7861
▁你什么时候	-7862
可以同时处于	-7863
小而尖的鼻子	-7864
形容嚼食动词	-7865
▁School	-7866
▁United	-7867
▁africa	-7868
▁bitter	-7869
▁cultiv	-7870
▁detect	-7871
▁earned	-7872
▁events	-7873
▁explan	-7874
▁immune	-7875
▁intend	-7876
▁jumped	-7877
▁lesson	-7878
▁needed	-7879
▁passes	-7880
▁policy	-7881
▁resist	-7882
▁sacred	-7883
▁saving	-7884
▁severe	-7885
▁strate	-7886
▁supper	-7887
▁virtue	-7888
▁anymore	-7889
▁conduct	-7890
▁creates	-7891
▁escaped	-7892
▁forever	-7893
▁gravity	-7894
▁horizon	-7895
▁players	-7896
▁precise	-7897
▁primary	-7898
▁rainbow	-7899
▁reduces	-7900
▁resting	-7901
▁shorter	-7902
▁suspect	-7903
▁theater	-7904
▁theorem	-7905
▁volcano	-7906
▁workers	-7907
livestock	-7908
▁arrested	-7909
▁attended	-7910
▁cleaning	-7911
▁document	-7912
▁laughing	-7913
▁proverbs	-7914
▁recovery	-7915
▁scholars	-7916
▁services	-7917
▁stranger	-7918
▁suitable	-7919
▁thorough	-7920
▁triangle	-7921
ispensable	-7922
▁buckwheat	-7923
▁committee	-7924
▁concerned	-7925
▁excessive	-7926
▁invention	-7927
▁practices	-7928
▁prevented	-7929
▁scientist	-7930
▁simultane	-7931
▁suggested	-7932
▁treatment	-7933
fortunately	-7934
▁algorithms	-7935
▁appearance	-7936
▁blockchain	-7937
▁challenges	-7938
▁classmates	-7939
▁connecting	-7940
▁especially	-7941
▁generation	-7942
▁girlfriend	-7943
▁celebration	-7944
▁programming	-7945
▁reservation	-7946
▁sustainable	-7947
▁indispensable	-7948
ls	-7949
oi	-7950
pr	-7951
uo	-7952
▁亲	-7953
▁剔	-7954
▁北	-7955
▁哎	-7956
▁喬	-7957
▁孝	-7958
▁射	-7959
▁年	-7960
▁押	-7961
▁排	-7962
▁撞	-7963
▁晚	-7964
▁服	-7965
▁枪	-7966
▁查	-7967
▁桌	-7968
▁梅	-7969
▁烦	-7970
▁特	-7971
▁瓢	-7972
▁碎	-7973
▁离	-7974
▁签	-7975
▁罐	-7976
▁群	-7977
▁腌	-7978
▁腻	-7979
▁舂	-7980
▁蓝	-7981
▁贵	-7982
▁阿	-7983
▁隔	-7984
▁雾	-7985
▁露	-7986
一年	-7987
一支	-7988
一条	-7989
三個	-7990
三天	-7991
上床	-7992
不断	-7993
丢失	-7994
个子	-7995
中午	-7996
之後	-7997
乒乒	-7998
也會	-7999
事件	-8000
事物	-8001
他人	-8002
代码	-8003
任意	-8004
何時	-8005
修改	-8006
停了	-8007
再次	-8008
出來	-8009
出席	-8010
出门	-8011
利益	-8012
到老	-8013
动作	-8014
勝過	-8015
勾连	-8016
化为	-8017
千年	-8018
厌恶	-8019
县城	-8020
反映	-8021
向你	-8022
听到	-8023
呈现	-8024
哭了	-8025
嘎寺	-8026
土地	-8027
均衡	-8028
坍缩	-8029
培养	-8030
塑料	-8031
士比	-8032
壮实	-8033
夢想	-8034
大家	-8035
天空	-8036
好吗	-8037
宫殿	-8038
对的	-8039
对话	-8040
尊重	-8041
就會	-8042
平等	-8043
年龄	-8044
幾天	-8045
建立	-8046
德国	-8047
怀疑	-8048
性质	-8049
悠久	-8050
情况	-8051
想起	-8052
打扫	-8053
托尼	-8054
执行	-8055
拿着	-8056
操场	-8057
擔心	-8058
收入	-8059
敏捷	-8060
是嗎	-8061
暖和	-8062
會兒	-8063
有点	-8064
有用	-8065
木头	-8066
板栗	-8067
根源	-8068
梧桐	-8069
機會	-8070
步行	-8071
歷史	-8072
每秒	-8073
水井	-8074
泸西	-8075
海边	-8076
消瘦	-8077
满足	-8078
煎炸	-8079
玩具	-8080
玩耍	-8081
生成	-8082
生血	-8083
用水	-8084
疑问	-8085
的吗	-8086
的成	-8087
相同	-8088
睡眠	-8089
祈祷	-8090
祭献	-8091
程度	-8092
等了	-8093
等待	-8094
纪念	-8095
结实	-8096
结束	-8097
给他	-8098
美食	-8099
美麗	-8100
节省	-8101
讨厌	-8102
讲述	-8103
财富	-8104
过的	-8105
迎接	-8106
运行	-8107
还没	-8108
遵守	-8109
郵票	-8110
里面	-8111
需求	-8112
非洲	-8113
面包	-8114
麻煩	-8115
黑暗	-8116
;」,	-8117
agn	-8118
aki	-8119
aps	-8120
bel	-8121
che	-8122
gle	-8123
ils	-8124
mal	-8125
moc	-8126
onf	-8127
sǒu	-8128
ted	-8129
ume	-8130
▁So	-8131
▁ir	-8132
▁py	-8133
▁ru	-8134
▁事故	-8135
▁今年	-8136
▁体育	-8137
▁供养	-8138
▁光速	-8139
▁公司	-8140
▁凱特	-8141
▁南希	-8142
▁即使	-8143
▁去年	-8144
▁威胁	-8145
▁我上	-8146
▁我去	-8147
▁我受	-8148
▁我该	-8149
▁我跟	-8150
▁毕摩	-8151
▁渐渐	-8152
▁窝棚	-8153
▁约翰	-8154
▁绞痛	-8155
▁考试	-8156
▁貝蒂	-8157
▁赡养	-8158
▁这件	-8159
▁预备	-8160
不同的	-8161
做了一	-8162
十年了	-8163
去上學	-8164
去学校	-8165
吃什么	-8166
和广西	-8167
嘎寺福	-8168
在日本	-8169
在那裡	-8170
地里的	-8171
学英语	-8172
很漂亮	-8173
房子是	-8174
所以我	-8175
把他的	-8176
是一名	-8177
是對的	-8178
是日本	-8179
桌子上	-8180
玩得很	-8181
的事情	-8182
的工作	-8183
的時間	-8184
的根本	-8185
的男孩	-8186
真的很	-8187
給我們	-8188
莎士比	-8189
該怎麼	-8190
abul	-8191
appe	-8192
dequ	-8193
gles	-8194
iety	-8195
oner	-8196
orit	-8197
rams	-8198
usan	-8199
▁For	-8200
▁See	-8201
▁arg	-8202
▁bes	-8203
▁fig	-8204
▁fox	-8205
▁fur	-8206
▁joy	-8207
▁lac	-8208
▁mod	-8209
▁ord	-8210
▁pac	-8211
▁pup	-8212
▁san	-8213
▁sem	-8214
▁spr	-8215
▁toy	-8216
▁voc	-8217
▁今天的	-8218
▁他常常	-8219
▁对不起	-8220
▁我住在	-8221
▁我完全	-8222
▁我必须	-8223
▁我无法	-8224
▁我通常	-8225
▁把你的	-8226
一杯咖啡	-8227
乒乒砰砰	-8228
任何東西	-8229
努力工作	-8230
名词用词	-8231
地名用词	-8232
很有意思	-8233
成為一名	-8234
泸西县城	-8235
的发音是	-8236
里有很多	-8237
aving	-8238
house	-8239
ician	-8240
ouder	-8241
range	-8242
raphy	-8243
ulate	-8244
usion	-8245
vious	-8246
works	-8247
▁Both	-8248
▁Only	-8249
▁Rome	-8250
▁acts	-8251
▁cand	-8252
▁dust	-8253
▁elev	-8254
▁epic	-8255
▁file	-8256
▁gain	-8257
▁gate	-8258
▁hall	-8259
▁harm	-8260
▁hero	-8261
▁laid	-8262
▁male	-8263
▁nose	-8264
▁sand	-8265
▁sets	-8266
▁silk	-8267
▁sofa	-8268
▁soil	-8269
▁syll	-8270
▁vict	-8271
▁yard	-8272
▁你为什么	-8273
▁我们必须	-8274
▁我们需要	-8275
▁我把我的	-8276
▁我有一个	-8277
▁我的房間	-8278
▁每個人都	-8279
是中国传统	-8280
贵州和广西	-8281
apping	-8282
ficial	-8283
iation	-8284
iences	-8285
ounter	-8286
ternal	-8287
▁Susan	-8288
▁adequ	-8289
▁badly	-8290
▁bonds	-8291
▁buses	-8292
▁craft	-8293
▁democ	-8294
▁diver	-8295
▁grown	-8296
▁humor	-8297
▁italy	-8298
▁juice	-8299
▁kilog	-8300
▁labor	-8301
▁meals	-8302
▁media	-8303
▁names	-8304
▁pizza	-8305
▁separ	-8306
▁socks	-8307
▁spell	-8308
▁susan	-8309
▁swims	-8310
▁video	-8311
▁我今天早上	-8312
▁银行在超市	-8313
ciation	-8314
igraphy	-8315
instein	-8316
lection	-8317
onerise	-8318
uctions	-8319
▁People	-8320
▁absorb	-8321
▁adding	-8322
▁atomic	-8323
▁cousin	-8324
▁depart	-8325
▁easier	-8326
▁elders	-8327
▁employ	-8328
▁fourth	-8329
▁frozen	-8330
▁giving	-8331
▁guests	-8332
▁higher	-8333
▁lively	-8334
▁middle	-8335
▁mutual	-8336
▁narrow	-8337
▁nation	-8338
▁nearby	-8339
▁novels	-8340
▁rabbit	-8341
▁remote	-8342
▁review	-8343
▁riding	-8344
▁southw	-8345
▁temple	-8346
▁wishes	-8347
querware	-8348
▁Smoking	-8349
▁Sundays	-8350
▁actions	-8351
▁algebra	-8352
▁anxiety	-8353
▁beating	-8354
▁confirm	-8355
▁disappe	-8356
▁entered	-8357
▁farther	-8358
▁further	-8359
▁greater	-8360
▁helping	-8361
▁honesty	-8362
▁jogging	-8363
▁manager	-8364
▁neither	-8365
▁opening	-8366
▁planets	-8367
▁prepare	-8368
▁reduced	-8369
▁scenery	-8370
▁sundays	-8371
▁sweater	-8372
▁univers	-8373
▁western	-8374
ciousness	-8375
▁adequate	-8376
▁concepts	-8377
▁connects	-8378
▁creation	-8379
▁critical	-8380
▁dripping	-8381
▁elephant	-8382
▁expenses	-8383
▁hydrogen	-8384
▁perspect	-8385
▁pleasant	-8386
▁politics	-8387
▁prepared	-8388
▁printing	-8389
▁profound	-8390
▁programs	-8391
▁resource	-8392
▁solution	-8393
▁Something	-8394
▁according	-8395
▁gardening	-8396
▁graduated	-8397
▁introduce	-8398
▁absolutely	-8399
▁appreciate	-8400
▁atmosphere	-8401
▁ecological	-8402
▁electrical	-8403
▁expression	-8404
▁introduced	-8405
▁pronounced	-8406
▁reasonable	-8407
▁lacquerware	-8408
▁mathematical	-8409
▁consciousness	-8410
▁traditionally	-8411
▁simultaneously	-8412
▁/	-8413
▁九	-8414
▁亚	-8415
▁些	-8416
▁亡	-8417
▁仁	-8418
▁俯	-8419
▁倾	-8420
▁剩	-8421
▁吧	-8422
▁呛	-8423
▁唆	-8424
▁嚼	-8425
▁失	-8426
▁威	-8427
▁孩	-8428
▁左	-8429
▁弩	-8430
▁彗	-8431
▁征	-8432
▁怕	-8433
▁日	-8434
▁替	-8435
▁机	-8436
▁架	-8437
▁栓	-8438
▁棕	-8439
▁活	-8440
▁浆	-8441
▁浸	-8442
▁王	-8443
▁玻	-8444
▁留	-8445
▁病	-8446
▁瘦	-8447
▁皮	-8448
▁皱	-8449
▁盐	-8450
▁短	-8451
▁砣	-8452
▁累	-8453
▁蘇	-8454
▁补	-8455
▁许	-8456
▁读	-8457
▁谷	-8458
▁豁	-8459
▁起	-8460
▁轴	-8461
▁输	-8462
▁追	-8463
▁陈	-8464
▁难	-8465
▁鳞	-8466
一句	-8467
一遍	-8468
上下	-8469
下降	-8470
下面	-8471
不太	-8472
不少	-8473
不见	-8474
不错	-8475
丢脸	-8476
中华	-8477
之声	-8478
也是	-8479
乾淨	-8480
他说	-8481
令人	-8482
以后	-8483
优势	-8484
传送	-8485
你把	-8486
你能	-8487
借我	-8488
元旦	-8489
克力	-8490
兔子	-8491
八角	-8492
六个	-8493
其中	-8494
再來	-8495
冥想	-8496
创新	-8497
別人	-8498
制作	-8499
前要	-8500
加班	-8501
加盐	-8502
動了	-8503
十月	-8504
厨师	-8505
厨房	-8506
发烧	-8507
口弦	-8508
周日	-8509
味着	-8510
喝水	-8511
喝點	-8512
因為	-8513
國外	-8514
城堡	-8515
外国	-8516
外國	-8517
女兒	-8518
好处	-8519
好看	-8520
姊妹	-8521
客气	-8522
家的	-8523
就像	-8524
就在	-8525
居住	-8526
岁了	-8527
岩石	-8528
开门	-8529
必有	-8530
忙吗	-8531
惬意	-8532
慕阿	-8533
懒惰	-8534
我有	-8535
所知	-8536
把它	-8537
抛弃	-8538
抽泣	-8539
指出	-8540
挎包	-8541
改變	-8542
故意	-8543
教堂	-8544
方形	-8545
旅游	-8546
是他	-8547
更有	-8548
月球	-8549
有八	-8550
期望	-8551
权利	-8552
枝花	-8553
染料	-8554
桃子	-8555
機器	-8556
檢查	-8557
比河	-8558
氧化	-8559
河边	-8560
浪費	-8561
游戏	-8562
火災	-8563
灾难	-8564
燃料	-8565
牛马	-8566
牵挂	-8567
特征	-8568
狡猾	-8569
独自	-8570
玩笑	-8571
用具	-8572
男生	-8573
的那	-8574
睫毛	-8575
社交	-8576
祖灵	-8577
突出	-8578
第三	-8579
篾席	-8580
纽扣	-8581
细微	-8582
终于	-8583
经验	-8584
绸缎	-8585
缺席	-8586
老婆	-8587
而是	-8588
聲音	-8589
胳膊	-8590
腹部	-8591
膨胀	-8592
至少	-8593
航班	-8594
英里	-8595
蚂蚱	-8596
街道	-8597
表现	-8598
袋子	-8599
车是	-8600
软弱	-8601
过去	-8602
選擇	-8603
那麼	-8604
酸角	-8605
金属	-8606
错了	-8607
關係	-8608
關於	-8609
陌生	-8610
降低	-8611
雜誌	-8612
革命	-8613
領帶	-8614
风险	-8615
麵包	-8616
)、(	-8617
?”“	-8618
aim	-8619
bal	-8620
ern	-8621
fly	-8622
gic	-8623
ids	-8624
ler	-8625
rab	-8626
rad	-8627
sao	-8628
sec	-8629
two	-8630
wan	-8631
▁Br	-8632
▁Cl	-8633
▁Op	-8634
▁hi	-8635
▁mi	-8636
▁na	-8637
▁oh	-8638
▁ug	-8639
▁一個	-8640
▁丑陋	-8641
▁他从	-8642
▁他对	-8643
▁他對	-8644
▁他比	-8645
▁会议	-8646
▁但是	-8647
▁保持	-8648
▁凝结	-8649
▁发炎	-8650
▁地铁	-8651
▁基因	-8652
▁如何	-8653
▁希望	-8654
▁想念	-8655
▁我寧	-8656
▁我每	-8657
▁数据	-8658
▁明白	-8659
▁是的	-8660
▁模仿	-8661
▁灵活	-8662
▁狮子	-8663
▁繁衍	-8664
▁纠缠	-8665
▁耽搁	-8666
▁融化	-8667
▁請問	-8668
▁这家	-8669
▁這座	-8670
▁這裡	-8671
▁邁克	-8672
▁鮑伯	-8673
下了一	-8674
中最早	-8675
你可以	-8676
做完了	-8677
出去了	-8678
危險的	-8679
喝咖啡	-8680
回家了	-8681
在云南	-8682
就可以	-8683
巧克力	-8684
弹钢琴	-8685
形成的	-8686
待在家	-8687
意味着	-8688
成功的	-8689
打破了	-8690
搭公車	-8691
收到了	-8692
新语言	-8693
方位词	-8694
星期日	-8695
有哪些	-8696
梧桐树	-8697
照相机	-8698
的历史	-8699
的词尾	-8700
的过程	-8701
看到了	-8702
粮食的	-8703
给我们	-8704
老朋友	-8705
被称为	-8706
西班牙	-8707
转化为	-8708
辦公室	-8709
這件事	-8710
遇到了	-8711
遲到了	-8712
));'	-8713
appy	-8714
cave	-8715
five	-8716
huān	-8717
jiao	-8718
orms	-8719
pret	-8720
sych	-8721
uddh	-8722
ulse	-8723
urry	-8724
wise	-8725
▁Mrs	-8726
▁Try	-8727
▁gho	-8728
▁lif	-8729
▁mix	-8730
▁mrs	-8731
▁mud	-8732
▁qsm	-8733
▁rot	-8734
▁unf	-8735
▁他已经	-8736
▁他有一	-8737
▁你怎麼	-8738
▁告訴我	-8739
▁告诉我	-8740
▁我不太	-8741
▁我同意	-8742
▁所有的	-8743
▁沒有人	-8744
每天早上	-8745
永遠不會	-8746
要做什麼	-8747
這份工作	-8748
骑自行车	-8749
alous	-8750
chong	-8751
eagle	-8752
ement	-8753
ghter	-8754
herry	-8755
inger	-8756
ronic	-8757
▁Just	-8758
▁Mari	-8759
▁Stop	-8760
▁Such	-8761
▁Taro	-8762
▁Time	-8763
▁bark	-8764
▁blow	-8765
▁cuis	-8766
▁cure	-8767
▁deer	-8768
▁desp	-8769
▁emer	-8770
▁enab	-8771
▁exec	-8772
▁flav	-8773
▁flew	-8774
▁flip	-8775
▁hers	-8776
▁init	-8777
▁july	-8778
▁melt	-8779
▁mild	-8780
▁neut	-8781
▁nood	-8782
▁pale	-8783
▁sale	-8784
▁sang	-8785
▁trap	-8786
▁ugly	-8787
▁valu	-8788
▁ways	-8789
▁wipe	-8790
▁yuan	-8791
▁这朵书包	-8792
▁这朵帽子	-8793
▁这朵手机	-8794
▁这朵衣服	-8795
▁这朵鞋子	-8796
中最早出现	-8797
最大的城市	-8798
ancing	-8799
ateful	-8800
forest	-8801
ration	-8802
velope	-8803
verage	-8804
▁Helen	-8805
▁Hurry	-8806
▁Money	-8807
▁Today	-8808
▁Write	-8809
▁accur	-8810
▁acted	-8811
▁admit	-8812
▁bench	-8813
▁boils	-8814
▁cried	-8815
▁cyber	-8816
▁drove	-8817
▁faces	-8818
▁facts	-8819
▁fixed	-8820
▁grove	-8821
▁indic	-8822
▁lands	-8823
▁lingu	-8824
▁photo	-8825
▁plate	-8826
▁pride	-8827
▁psych	-8828
▁purch	-8829
▁rates	-8830
▁sales	-8831
▁scene	-8832
▁sells	-8833
▁sixth	-8834
▁twist	-8835
▁waves	-8836
▁weigh	-8837
▁我不知道他	-8838
aborate	-8839
asayama	-8840
oration	-8841
ription	-8842
▁Africa	-8843
▁Mayuko	-8844
▁adjust	-8845
▁affair	-8846
▁behave	-8847
▁bother	-8848
▁commer	-8849
▁denied	-8850
▁dresss	-8851
▁geomet	-8852
▁laughs	-8853
▁losing	-8854
▁micros	-8855
▁points	-8856
▁pounds	-8857
▁priest	-8858
▁qubits	-8859
▁remain	-8860
▁reward	-8861
▁seemed	-8862
▁shoess	-8863
▁solved	-8864
▁stable	-8865
▁struck	-8866
▁talent	-8867
▁vision	-8868
▁银行在超市的	-8869
▁Nothing	-8870
▁accused	-8871
▁biggest	-8872
▁britain	-8873
▁ceiling	-8874
▁century	-8875
▁compass	-8876
▁cottage	-8877
▁defense	-8878
▁delayed	-8879
▁forests	-8880
▁freezes	-8881
▁herself	-8882
▁hurried	-8883
▁keeping	-8884
▁lessons	-8885
▁massive	-8886
▁parking	-8887
▁pencils	-8888
▁pianist	-8889
▁quarter	-8890
▁receive	-8891
▁require	-8892
▁scholar	-8893
▁scolded	-8894
▁section	-8895
▁sharing	-8896
▁signals	-8897
▁spanish	-8898
▁suppose	-8899
▁thunder	-8900
▁warming	-8901
▁worship	-8902
ification	-8903
▁analysis	-8904
▁artistic	-8905
▁balanced	-8906
▁bathroom	-8907
▁boarding	-8908
▁chairman	-8909
▁chatting	-8910
▁climbing	-8911
▁composed	-8912
▁deceived	-8913
▁develops	-8914
▁envelope	-8915
▁evidence	-8916
▁grateful	-8917
▁involved	-8918
▁produces	-8919
▁promoted	-8920
▁religion	-8921
▁remained	-8922
▁stealing	-8923
▁straight	-8924
▁strength	-8925
▁survival	-8926
▁transfer	-8927
▁traveled	-8928
▁彝文中怎么表达是	-8929
▁associate	-8930
▁destroyed	-8931
▁developed	-8932
▁diversity	-8933
▁elaborate	-8934
▁evolution	-8935
▁exhausted	-8936
▁existence	-8937
▁forgotten	-8938
▁inflation	-8939
▁mechanism	-8940
▁ourselves	-8941
▁professor	-8942
▁religious	-8943
▁secretary	-8944
▁southwest	-8945
▁succeeded	-8946
▁beneficial	-8947
▁confidence	-8948
▁exercising	-8949
▁historical	-8950
▁industrial	-8951
▁inventions	-8952
▁invitation	-8953
▁phenomenon	-8954
▁playground	-8955
▁reflecting	-8956
▁engineering	-8957
▁explanation	-8958
▁instruments	-8959
▁recognition	-8960
▁instructions	-8961
▁misunderstood	-8962
▁significantly	-8963
ah	-8964
fu	-8965
ki	-8966
uf	-8967
▁。	-8968
▁丘	-8969
▁串	-8970
▁事	-8971
▁仔	-8972
▁停	-8973
▁克	-8974
▁养	-8975
▁减	-8976
▁劈	-8977
▁华	-8978
▁叶	-8979
▁吐	-8980
▁唾	-8981
▁垫	-8982
▁嫁	-8983
▁子	-8984
▁季	-8985
▁孵	-8986
▁寡	-8987
▁封	-8988
▁干	-8989
▁底	-8990
▁彝	-8991
▁得	-8992
▁悲	-8993
▁捅	-8994
▁摇	-8995
▁文	-8996
▁曲	-8997
▁朽	-8998
▁根	-8999
▁梳	-9000
▁欲	-9001
▁此	-9002
▁沿	-9003
▁流	-9004
▁浅	-9005
▁湖	-9006
▁溅	-9007
▁潜	-9008
▁焖	-9009
▁瓶	-9010
▁百	-9011
▁石	-9012
▁箭	-9013
▁缴	-9014
▁聚	-9015
▁脏	-9016
▁膀	-9017
▁蕾	-9018
▁裂	-9019
▁退	-9020
▁遍	-9021
▁钉	-9022
一件	-9023
一门	-9024
七十	-9025
不出	-9026
不合	-9027
专指	-9028
中间	-9029
之道	-9030
了兩	-9031
争论	-9032
互相	-9033
介紹	-9034
他很	-9035
仗恃	-9036
以為	-9037
仪式	-9038
会议	-9039
你不	-9040
你是	-9041
來到	-9042
依赖	-9043
倒了	-9044
做到	-9045
储备	-9046
像个	-9047
入赘	-9048
六點	-9049
准时	-9050
凤凰	-9051
出國	-9052
出来	-9053
刁难	-9054
制的	-9055
刺绣	-9056
功能	-9057
升起	-9058
卦名	-9059
厌烦	-9060
受到	-9061
变暖	-9062
古典	-9063
叹息	-9064
吃草	-9065
各自	-9066
和氧	-9067
响了	-9068
四位	-9069
在我	-9070
坍塌	-9071
坐下	-9072
坝子	-9073
垢腻	-9074
報紙	-9075
增强	-9076
增长	-9077
多远	-9078
大约	-9079
大雨	-9080
天花	-9081
失敗	-9082
奇数	-9083
好久	-9084
定了	-9085
定理	-9086
小姐	-9087
小步	-9088
小说	-9089
就去	-9090
师傅	-9091
幫你	-9092
幾點	-9093
应声	-9094
座位	-9095
张开	-9096
往往	-9097
循环	-9098
忠告	-9099
情歌	-9100
想到	-9101
愚蠢	-9102
感动	-9103
慢跑	-9104
我在	-9105
我想	-9106
打开	-9107
技艺	-9108
报告	-9109
推理	-9110
推荐	-9111
放棄	-9112
政权	-9113
效仿	-9114
敬仰	-9115
数字	-9116
旧时	-9117
早點	-9118
景色	-9119
更新	-9120
最後	-9121
月份	-9122
有几	-9123
有點	-9124
标准	-9125
样的	-9126
核桃	-9127
槟榔	-9128
母羊	-9129
民主	-9130
水冲	-9131
水泡	-9132
汉族	-9133
汉藏	-9134
沙拉	-9135
泄气	-9136
法术	-9137
活泼	-9138
海拔	-9139
深刻	-9140
温柔	-9141
澳洲	-9142
火山	-9143
炎热	-9144
点了	-9145
照顾	-9146
用刀	-9147
痫病	-9148
的嗎	-9149
相似	-9150
禁闭	-9151
程車	-9152
穆朗	-9153
糟蹋	-9154
约为	-9155
练习	-9156
编辑	-9157
缠绕	-9158
羊补	-9159
翻譯	-9160
耽误	-9161
肥料	-9162
能量	-9163
腳踏	-9164
花费	-9165
茁壮	-9166
营养	-9167
蓬松	-9168
號碼	-9169
裤子	-9170
讓你	-9171
认真	-9172
让人	-9173
让他	-9174
调拌	-9175
贵了	-9176
贸易	-9177
赶上	-9178
输入	-9179
辩论	-9180
进展	-9181
追求	-9182
透明	-9183
這場	-9184
這張	-9185
進行	-9186
逻辑	-9187
遇見	-9188
過去	-9189
邀请	-9190
部落	-9191
配种	-9192
里有	-9193
野鸡	-9194
銀行	-9195
链接	-9196
锅铲	-9197
镰刀	-9198
長大	-9199
长期	-9200
開門	-9201
除以	-9202
陷阱	-9203
雖然	-9204
顽强	-9205
领域	-9206
颜色	-9207
首先	-9208
高粱	-9209
arr	-9210
eld	-9211
hib	-9212
hop	-9213
imb	-9214
uly	-9215
usb	-9216
▁CD	-9217
▁ep	-9218
▁中医	-9219
▁也许	-9220
▁任何	-9221
▁你对	-9222
▁俏皮	-9223
▁健康	-9224
▁全球	-9225
▁化学	-9226
▁可惜	-9227
▁咽喉	-9228
▁喧哗	-9229
▁声音	-9230
▁外面	-9231
▁忠厚	-9232
▁惩治	-9233
▁我买	-9234
▁我問	-9235
▁我爱	-9236
▁森林	-9237
▁欢迎	-9238
▁毡子	-9239
▁污染	-9240
▁游泳	-9241
▁爷爷	-9242
▁牵挂	-9243
▁知识	-9244
▁社会	-9245
▁祭献	-9246
▁科学	-9247
▁給我	-9248
▁细微	-9249
▁节省	-9250
▁许多	-9251
▁赔偿	-9252
▁过分	-9253
▁這件	-9254
▁這台	-9255
▁這輛	-9256
▁除了	-9257
▁除非	-9258
▁高兴	-9259
▁鮑勃	-9260
▁鸣叫	-9261
▁麻煩	-9262
下一步	-9263
不喜歡	-9264
个小时	-9265
会导致	-9266
出租车	-9267
動物園	-9268
去那裡	-9269
取消了	-9270
名用词	-9271
告訴你	-9272
小男孩	-9273
差不多	-9274
年轻人	-9275
彈吉他	-9276
待多久	-9277
很好的	-9278
意为是	-9279
日本人	-9280
时间和	-9281
是两个	-9282
比我高	-9283
澳大利	-9284
男祖先	-9285
癫痫病	-9286
的味道	-9287
的方式	-9288
的种子	-9289
的量词	-9290
的食物	-9291
看一下	-9292
看电影	-9293
给了我	-9294
羊补牢	-9295
美麗的	-9296
者之间	-9297
腳踏車	-9298
葡萄酒	-9299
被偷了	-9300
部電影	-9301
长时间	-9302
静悄悄	-9303
alyz	-9304
back	-9305
bage	-9306
cuse	-9307
lean	-9308
orcy	-9309
tong	-9310
vard	-9311
▁Air	-9312
▁Bir	-9313
▁Har	-9314
▁Has	-9315
▁Ten	-9316
▁War	-9317
▁Way	-9318
▁apt	-9319
▁cel	-9320
▁cit	-9321
▁era	-9322
▁hor	-9323
▁mas	-9324
▁obl	-9325
▁odd	-9326
▁pit	-9327
▁pra	-9328
▁upd	-9329
▁世界上	-9330
▁云计算	-9331
▁他可能	-9332
▁他已經	-9333
▁他是我	-9334
▁你到底	-9335
▁你相信	-9336
▁我以前	-9337
▁我听到	-9338
▁我最近	-9339
▁没有人	-9340
▁為什麼	-9341
▁这条河	-9342
一點也不	-9343
个子矮小	-9344
多个状态	-9345
属于汉藏	-9346
彝族支系	-9347
正在改变	-9348
气候变化	-9349
液体沸腾	-9350
的前缀词	-9351
這個消息	-9352
andom	-9353
ashed	-9354
cture	-9355
iding	-9356
iture	-9357
orage	-9358
orses	-9359
overl	-9360
owned	-9361
rated	-9362
rises	-9363
unity	-9364
unnel	-9365
water	-9366
▁Fred	-9367
▁June	-9368
▁Most	-9369
▁bind	-9370
▁bomb	-9371
▁bonf	-9372
▁bore	-9373
▁bowl	-9374
▁chop	-9375
▁copy	-9376
▁dess	-9377
▁ease	-9378
▁embr	-9379
▁fred	-9380
▁gene	-9381
▁insp	-9382
▁lose	-9383
▁mere	-9384
▁mile	-9385
▁pand	-9386
▁peak	-9387
▁sett	-9388
▁stem	-9389
▁tail	-9390
▁task	-9391
▁unit	-9392
▁亡羊补牢	-9393
▁今天下午	-9394
▁請告訴我	-9395
▁这朵花是	-9396
▁道法自然	-9397
叫什么名字	-9398
是什么时候	-9399
是量子力学	-9400
的传统节日	-9401
atform	-9402
ectual	-9403
istics	-9404
tongue	-9405
usband	-9406
▁Hello	-9407
▁Italy	-9408
▁QEntL	-9409
▁angle	-9410
▁avail	-9411
▁begun	-9412
▁benef	-9413
▁concl	-9414
▁cycle	-9415
▁extra	-9416
▁fifth	-9417
▁foods	-9418
▁frequ	-9419
▁greet	-9420
▁grows	-9421
▁helen	-9422
▁humid	-9423
▁legal	-9424
▁lower	-9425
▁refer	-9426
▁remed	-9427
▁resol	-9428
▁roast	-9429
▁shake	-9430
▁spite	-9431
▁spoon	-9432
▁stood	-9433
▁towel	-9434
▁uncer	-9435
▁weave	-9436
属于汉藏语系	-9437
形容个子矮小	-9438
abulary	-9439
fection	-9440
orcycle	-9441
ression	-9442
▁Excuse	-9443
▁States	-9444
▁advert	-9445
▁allows	-9446
▁belief	-9447
▁carpet	-9448
▁collap	-9449
▁create	-9450
▁dances	-9451
▁disput	-9452
▁expand	-9453
▁fields	-9454
▁formed	-9455
▁herbal	-9456
▁junior	-9457
▁lights	-9458
▁locked	-9459
▁louder	-9460
▁pardon	-9461
▁random	-9462
▁remark	-9463
▁resemb	-9464
▁signal	-9465
▁sunset	-9466
▁tunnel	-9467
量子叠加态模型	-9468
izations	-9469
▁Spanish	-9470
▁average	-9471
▁becomes	-9472
▁billion	-9473
▁captain	-9474
▁cleared	-9475
▁concent	-9476
▁consult	-9477
▁corresp	-9478
▁cuisine	-9479
▁deepest	-9480
▁demands	-9481
▁element	-9482
▁engaged	-9483
▁ensures	-9484
▁fastest	-9485
▁forgive	-9486
▁guangxi	-9487
▁hardest	-9488
▁heavier	-9489
▁hunting	-9490
▁jealous	-9491
▁memoriz	-9492
▁nations	-9493
▁noodles	-9494
▁photosy	-9495
▁private	-9496
▁produce	-9497
▁recover	-9498
▁relaxed	-9499
▁request	-9500
▁seasons	-9501
▁setting	-9502
▁skating	-9503
▁species	-9504
▁startle	-9505
▁storage	-9506
▁torches	-9507
▁火把节是彝族最	-9508
▁appeared	-9509
▁approxim	-9510
▁attached	-9511
▁attitude	-9512
▁bonfires	-9513
▁careless	-9514
▁deadline	-9515
▁entrance	-9516
▁exciting	-9517
▁forehead	-9518
▁immunity	-9519
▁industry	-9520
▁innocent	-9521
▁literary	-9522
▁material	-9523
▁mistaken	-9524
▁ordinary	-9525
▁potatoes	-9526
▁presents	-9527
▁research	-9528
▁stronger	-9529
▁symptoms	-9530
▁teamwork	-9531
▁thoughts	-9532
▁daughters	-9533
▁functions	-9534
▁gratitude	-9535
▁increases	-9536
▁interview	-9537
▁lightning	-9538
▁maintains	-9539
▁operation	-9540
▁reasoning	-9541
▁seriously	-9542
▁uncertain	-9543
overlapping	-9544
▁constantly	-9545
▁continuous	-9546
▁determines	-9547
▁experiment	-9548
▁increasing	-9549
▁meaningful	-9550
▁motorcycle	-9551
▁operations	-9552
▁production	-9553
▁themselves	-9554
▁throughout	-9555
▁vocabulary	-9556
▁calligraphy	-9557
▁communicate	-9558
▁competition	-9559
▁established	-9560
▁intelligent	-9561
▁observation	-9562
▁photography	-9563
▁probability	-9564
▁shakespeare	-9565
▁significant	-9566
▁construction	-9567
▁intellectual	-9568
▁circumstances	-9569
▁photosynthesis	-9570
?!	-9571
?」	-9572
do	-9573
hi	-9574
ya	-9575
ào	-9576
▁=	-9577
▁为	-9578
▁交	-9579
▁令	-9580
▁使	-9581
▁供	-9582
▁侧	-9583
▁允	-9584
▁内	-9585
▁勤	-9586
▁哮	-9587
▁唇	-9588
▁处	-9589
▁夏	-9590
▁夜	-9591
▁奉	-9592
▁孤	-9593
▁忍	-9594
▁总	-9595
▁房	-9596
▁拜	-9597
▁掏	-9598
▁搬	-9599
▁摘	-9600
▁敲	-9601
▁暑	-9602
▁朵	-9603
▁杀	-9604
▁杆	-9605
▁杯	-9606
▁林	-9607
▁槽	-9608
▁欺	-9609
▁歪	-9610
▁毁	-9611
▁洋	-9612
▁溢	-9613
▁為	-9614
▁牙	-9615
▁物	-9616
▁狐	-9617
▁獾	-9618
▁班	-9619
▁田	-9620
▁立	-9621
▁竖	-9622
▁糊	-9623
▁系	-9624
▁统	-9625
▁网	-9626
▁罗	-9627
▁股	-9628
▁胀	-9629
▁艾	-9630
▁芽	-9631
▁苔	-9632
▁薹	-9633
▁虎	-9634
▁蜂	-9635
▁血	-9636
▁角	-9637
▁警	-9638
▁记	-9639
▁豆	-9640
▁赶	-9641
▁轮	-9642
▁還	-9643
▁钟	-9644
▁颤	-9645
▁骗	-9646
▁麥	-9647
一條	-9648
一段	-9649
一間	-9650
丈量	-9651
下去	-9652
不久	-9653
不绝	-9654
不足	-9655
专用	-9656
东方	-9657
丟了	-9658
丢了	-9659
严肃	-9660
主修	-9661
义词	-9662
之上	-9663
乌撒	-9664
乌龟	-9665
二月	-9666
传唤	-9667
传染	-9668
传递	-9669
伯父	-9670
伸缩	-9671
你有	-9672
佩戴	-9673
例如	-9674
保卫	-9675
保障	-9676
信仰	-9677
修车	-9678
做客	-9679
免費	-9680
免费	-9681
八位	-9682
八十	-9683
凡是	-9684
出差	-9685
分配	-9686
利于	-9687
刺猬	-9688
劳伤	-9689
参与	-9690
反对	-9691
发语	-9692
可怜	-9693
吃完	-9694
吃油	-9695
同为	-9696
同学	-9697
向上	-9698
向我	-9699
君王	-9700
吸引	-9701
周末	-9702
土块	-9703
圣诞	-9704
在那	-9705
埋怨	-9706
声明	-9707
失马	-9708
头晕	-9709
头绪	-9710
女儿	-9711
女性	-9712
好过	-9713
妨碍	-9714
始于	-9715
威夷	-9716
威宁	-9717
婚姻	-9718
子是	-9719
子裡	-9720
学会	-9721
宝宝	-9722
害羞	-9723
导线	-9724
尔瓦	-9725
尝试	-9726
巢胃	-9727
平静	-9728
并不	-9729
度假	-9730
开会	-9731
弹跳	-9732
微笑	-9733
快要	-9734
我能	-9735
戒烟	-9736
手臂	-9737
打了	-9738
打扰	-9739
打掃	-9740
把我	-9741
投降	-9742
折叠	-9743
护照	-9744
招待	-9745
拾柴	-9746
指数	-9747
挑拨	-9748
接处	-9749
提琴	-9750
操纵	-9751
收缩	-9752
放置	-9753
政府	-9754
故障	-9755
教学	-9756
数量	-9757
整個	-9758
文献	-9759
文章	-9760
斗架	-9761
新車	-9762
无能	-9763
早飯	-9764
晃荡	-9765
晚了	-9766
最终	-9767
有的	-9768
杂草	-9769
条件	-9770
来没	-9771
板上	-9772
歌手	-9773
殷殷	-9774
比他	-9775
比方	-9776
沙漠	-9777
沟通	-9778
河裡	-9779
法國	-9780
洁净	-9781
洋芋	-9782
洗漱	-9783
津梁	-9784
活着	-9785
浓稠	-9786
浪荡	-9787
海邊	-9788
淹没	-9789
港湾	-9790
滋润	-9791
火种	-9792
烧烤	-9793
爆炸	-9794
牺牲	-9795
犯错	-9796
玛峰	-9797
现实	-9798
球拍	-9799
球状	-9800
瓦片	-9801
生素	-9802
用于	-9803
瘫痪	-9804
癌症	-9805
的作	-9806
的某	-9807
的水	-9808
的目	-9809
盘江	-9810
看过	-9811
睁睁	-9812
睡了	-9813
瞧得	-9814
知新	-9815
神戶	-9816
禮貌	-9817
种花	-9818
科技	-9819
科目	-9820
秸秆	-9821
空氣	-9822
站在	-9823
第六	-9824
笼头	-9825
答应	-9826
絕對	-9827
组织	-9828
络绎	-9829
统一	-9830
维护	-9831
绿色	-9832
缓和	-9833
编程	-9834
考慮	-9835
脊椎	-9836
脚后	-9837
脚趾	-9838
腰身	-9839
艘船	-9840
芝麻	-9841
芭蕉	-9842
花序	-9843
花瓶	-9844
英勇	-9845
茂盛	-9846
蒙舍	-9847
蜻蜓	-9848
行為	-9849
表格	-9850
西南	-9851
要紧	-9852
观念	-9853
角形	-9854
詞典	-9855
說的	-9856
讀過	-9857
论是	-9858
试试	-9859
诗歌	-9860
说的	-9861
说过	-9862
负责	-9863
购物	-9864
越过	-9865
转轴	-9866
這本	-9867
這種	-9868
遗憾	-9869
遵循	-9870
還沒	-9871
都能	-9872
都要	-9873
酸痛	-9874
醫院	-9875
钢笔	-9876
铃薯	-9877
開著	-9878
阿迷	-9879
陷处	-9880
随时	-9881
隨便	-9882
集市	-9883
霍麻	-9884
面对	-9885
飞翔	-9886
马路	-9887
驱动	-9888
驾驶	-9889
骡子	-9890
高爾	-9891
龙胆	-9892
Yes	-9893
asy	-9894
ees	-9895
eno	-9896
het	-9897
ibi	-9898
iox	-9899
men	-9900
oko	-9901
olk	-9902
oya	-9903
sol	-9904
uce	-9905
ucy	-9906
udy	-9907
yer	-9908
zil	-9909
▁By	-9910
▁Le	-9911
▁Wa	-9912
▁不是	-9913
▁为了	-9914
▁你真	-9915
▁侍从	-9916
▁保护	-9917
▁偿还	-9918
▁呕吐	-9919
▁喬治	-9920
▁塞翁	-9921
▁大象	-9922
▁好的	-9923
▁学校	-9924
▁客店	-9925
▁容器	-9926
▁将要	-9927
▁帮我	-9928
▁康复	-9929
▁恐怕	-9930
▁您的	-9931
▁惦念	-9932
▁我將	-9933
▁抽泣	-9934
▁拼搏	-9935
▁掺和	-9936
▁根据	-9937
▁模样	-9938
▁汉语	-9939
▁潮湿	-9940
▁灵敏	-9941
▁电脑	-9942
▁第十	-9943
▁老人	-9944
▁老实	-9945
▁老虎	-9946
▁許多	-9947
▁警方	-9948
▁诚实	-9949
▁足够	-9950
▁辛苦	-9951
▁过度	-9952
▁这座	-9953
▁连累	-9954
▁這樣	-9955
▁醫生	-9956
▁需要	-9957
一串串	-9958
一样高	-9959
万公里	-9960
义词是	-9961
了你的	-9962
些什么	-9963
人合一	-9964
今天的	-9965
任何人	-9966
会下雨	-9967
伟大的	-9968
你自己	-9969
促进了	-9970
全世界	-9971
十分鐘	-9972
博物館	-9973
去世了	-9974
去哪儿	-9975
去哪裡	-9976
去游泳	-9977
反映了	-9978
发语词	-9979
听音乐	-9980
和他的	-9981
坐火车	-9982
巨大的	-9983
很大的	-9984
很快乐	-9985
很难过	-9986
擦尔瓦	-9987
明一下	-9988
星期五	-9989
是地球	-9990
更喜欢	-9991
更强壮	-9992
有五十	-9993
有引力	-9994
杯咖啡	-9995
架子猪	-9996
照相機	-9997
物理学	-9998
生血菜	-9999
生长在	-10000
發生的	-10001
的原因	-10002
的問題	-10003
的平方	-10004
的能力	-10005
的语言	-10006
的首都	-10007
眼药水	-10008
确定性	-10009
祖宗的	-10010
結婚了	-10011
美国人	-10012
著名的	-10013
計程車	-10014
说什么	-10015
買了一	-10016
过崽的	-10017
还没有	-10018
迷路了	-10019
那件事	-10020
都可以	-10021
锅庄石	-10022
门转轴	-10023
附近有	-10024
aker	-10025
amin	-10026
apor	-10027
asso	-10028
atch	-10029
bell	-10030
coln	-10031
eral	-10032
esus	-10033
gies	-10034
gypt	-10035
iers	-10036
iped	-10037
iter	-10038
llen	-10039
long	-10040
okes	-10041
omas	-10042
ompl	-10043
orea	-10044
ramm	-10045
reen	-10046
ropy	-10047
sick	-10048
sper	-10049
ston	-10050
uang	-10051
ushi	-10052
wers	-10053
zens	-10054
zhou	-10055
▁Bri	-10056
▁Fri	-10057
▁Haw	-10058
▁Now	-10059
▁bod	-10060
▁dim	-10061
▁fra	-10062
▁kun	-10063
▁lic	-10064
▁mam	-10065
▁mex	-10066
▁mob	-10067
▁nap	-10068
▁rhy	-10069
▁sli	-10070
▁unl	-10071
▁不灵活	-10072
▁不要把	-10073
▁你覺得	-10074
▁你需要	-10075
▁医生很	-10076
▁史密斯	-10077
▁地球的	-10078
▁太阳系	-10079
▁学生很	-10080
▁孩子很	-10081
▁彝族人	-10082
▁我一直	-10083
▁我和他	-10084
▁我在找	-10085
▁我很好	-10086
▁我想买	-10087
▁我想你	-10088
▁我會在	-10089
▁我爸爸	-10090
▁我看見	-10091
▁我認為	-10092
▁我记得	-10093
▁数学比	-10094
▁最近的	-10095
▁有一天	-10096
▁老师很	-10097
▁謝謝你	-10098
▁这件事	-10099
一种野生	-10100
不是我的	-10101
交通事故	-10102
会说中文	-10103
会说彝语	-10104
努力学习	-10105
反义词是	-10106
发生什么	-10107
可以帮助	-10108
告诉我们	-10109
喜歡音樂	-10110
文字系统	-10111
最喜歡的	-10112
没有任何	-10113
澳大利亚	-10114
看看你的	-10115
穆朗玛峰	-10116
络绎不绝	-10117
货币量词	-10118
量子系统	-10119
量子纠缠	-10120
電話號碼	-10121
agoya	-10122
arant	-10123
arely	-10124
arily	-10125
cence	-10126
erves	-10127
essed	-10128
guing	-10129
icans	-10130
inced	-10131
iring	-10132
ister	-10133
smith	-10134
stick	-10135
store	-10136
tains	-10137
tingu	-10138
umble	-10139
▁Each	-10140
▁Lucy	-10141
▁Miss	-10142
▁None	-10143
▁Open	-10144
▁Well	-10145
▁beef	-10146
▁bone	-10147
▁cong	-10148
▁curi	-10149
▁curl	-10150
▁diox	-10151
▁drum	-10152
▁heal	-10153
▁hide	-10154
▁host	-10155
▁huge	-10156
▁hunt	-10157
▁jump	-10158
▁lamp	-10159
▁laun	-10160
▁mars	-10161
▁neur	-10162
▁pear	-10163
▁role	-10164
▁scat	-10165
▁sons	-10166
▁stro	-10167
▁taro	-10168
▁toys	-10169
▁vall	-10170
▁visa	-10171
▁他把他的	-10172
▁你不應該	-10173
▁塞翁失马	-10174
▁我不明白	-10175
▁我想和你	-10176
▁我的姐姐	-10177
▁深度学习	-10178
▁这个问题	-10179
▁这朵车是	-10180
▁量子力学	-10181
在农历六月	-10182
彝族支系名	-10183
是世界上最	-10184
玩得很開心	-10185
的第二君王	-10186
量子计算机	-10187
achiko	-10188
avenly	-10189
coming	-10190
estial	-10191
hority	-10192
incoln	-10193
mented	-10194
nesday	-10195
urance	-10196
urning	-10197
utions	-10198
▁Alice	-10199
▁alarm	-10200
▁anise	-10201
▁beard	-10202
▁bleed	-10203
▁blend	-10204
▁candy	-10205
▁citiz	-10206
▁cloth	-10207
▁conse	-10208
▁cured	-10209
▁drill	-10210
▁dying	-10211
▁emiss	-10212
▁exams	-10213
▁expon	-10214
▁fully	-10215
▁gramm	-10216
▁honor	-10217
▁imper	-10218
▁impud	-10219
▁india	-10220
▁jeans	-10221
▁mouse	-10222
▁obser	-10223
▁olymp	-10224
▁reply	-10225
▁resid	-10226
▁shook	-10227
▁shore	-10228
▁smear	-10229
▁spect	-10230
▁stead	-10231
▁stuck	-10232
▁sunfl	-10233
▁sushi	-10234
▁sweat	-10235
▁tight	-10236
▁tries	-10237
▁windy	-10238
▁wiped	-10239
▁可再生能源	-10240
▁这朵书包是	-10241
▁这朵帽子是	-10242
▁这朵房子是	-10243
▁这朵手机是	-10244
▁这朵衣服是	-10245
▁这朵鞋子是	-10246
一种野生植物	-10247
athered	-10248
onsense	-10249
orities	-10250
ptember	-10251
▁Friday	-10252
▁Hawaii	-10253
▁amazed	-10254
▁barely	-10255
▁batter	-10256
▁battle	-10257
▁beside	-10258
▁betray	-10259
▁cherry	-10260
▁cosmic	-10261
▁curren	-10262
▁dancer	-10263
▁darker	-10264
▁device	-10265
▁dining	-10266
▁drawer	-10267
▁fairly	-10268
▁fallen	-10269
▁faults	-10270
▁forces	-10271
▁ghosts	-10272
▁grapes	-10273
▁gravit	-10274
▁habits	-10275
▁hawaii	-10276
▁hotpot	-10277
▁impact	-10278
▁issues	-10279
▁lawyer	-10280
▁levels	-10281
▁livest	-10282
▁loudly	-10283
▁machin	-10284
▁motion	-10285
▁normal	-10286
▁pepper	-10287
▁poison	-10288
▁prohib	-10289
▁pupils	-10290
▁resign	-10291
▁rising	-10292
▁served	-10293
▁serves	-10294
▁sleepy	-10295
▁smells	-10296
▁status	-10297
▁temper	-10298
▁unable	-10299
主要分布在云南	-10300
aintance	-10301
atically	-10302
fficient	-10303
heavenly	-10304
security	-10305
▁Britain	-10306
▁abounds	-10307
▁affairs	-10308
▁amounts	-10309
▁answers	-10310
▁biology	-10311
▁calling	-10312
▁crucial	-10313
▁dessert	-10314
▁diamond	-10315
▁dioxide	-10316
▁entropy	-10317
▁essence	-10318
▁everest	-10319
▁exactly	-10320
▁extingu	-10321
▁guarant	-10322
▁healing	-10323
▁involve	-10324
▁license	-10325
▁pacific	-10326
▁prosper	-10327
▁quarrel	-10328
▁reserve	-10329
▁russian	-10330
▁settled	-10331
▁slipped	-10332
▁solving	-10333
▁spirits	-10334
▁stumble	-10335
▁tourist	-10336
▁wounded	-10337
ibilities	-10338
▁blossoms	-10339
▁definite	-10340
▁describe	-10341
▁einstein	-10342
▁elevator	-10343
▁experien	-10344
▁flexible	-10345
▁fluently	-10346
▁forecast	-10347
▁incident	-10348
▁musician	-10349
▁platform	-10350
▁proposed	-10351
▁resolute	-10352
▁seasonal	-10353
▁sequence	-10354
▁spending	-10355
▁strictly	-10356
▁subjects	-10357
▁tomatoes	-10358
▁uniforms	-10359
▁authority	-10360
▁butterfly	-10361
▁celestial	-10362
▁confucian	-10363
▁connected	-10364
▁convinced	-10365
▁emissions	-10366
▁furniture	-10367
▁ignorance	-10368
▁phenomena	-10369
▁reactions	-10370
▁sentences	-10371
▁universal	-10372
▁Everything	-10373
▁blackboard	-10374
▁determined	-10375
▁foreigners	-10376
▁friendship	-10377
▁greenhouse	-10378
▁membership	-10379
▁photograph	-10380
▁profession	-10381
▁regardless	-10382
▁scientific	-10383
▁suspicious	-10384
▁telephoned	-10385
▁disappeared	-10386
▁acquaintance	-10387
▁expectations	-10388
▁organization	-10389
▁transmission	-10390
▁cybersecurity	-10391
▁gravitational	-10392
go	-10393
ps	-10394
ta	-10395
▁世	-10396
▁借	-10397
▁假	-10398
▁公	-10399
▁兴	-10400
▁其	-10401
▁剃	-10402
▁削	-10403
▁剥	-10404
▁劝	-10405
▁及	-10406
▁咬	-10407
▁哼	-10408
▁嘛	-10409
▁坎	-10410
▁堵	-10411
▁墨	-10412
▁外	-10413
▁套	-10414
▁展	-10415
▁床	-10416
▁扣	-10417
▁抄	-10418
▁抠	-10419
▁据	-10420
▁掰	-10421
▁插	-10422
▁敌	-10423
▁旧	-10424
▁棵	-10425
▁死	-10426
▁残	-10427
▁波	-10428
▁洞	-10429
▁混	-10430
▁添	-10431
▁演	-10432
▁潮	-10433
▁炉	-10434
▁炒	-10435
▁烫	-10436
▁熏	-10437
▁瑪	-10438
▁穗	-10439
▁管	-10440
▁紫	-10441
▁线	-10442
▁缩	-10443
▁耳	-10444
▁苦	-10445
▁茧	-10446
▁荒	-10447
▁荫	-10448
▁蜡	-10449
▁蠕	-10450
▁被	-10451
▁观	-10452
▁规	-10453
▁论	-10454
▁设	-10455
▁词	-10456
▁踢	-10457
▁轻	-10458
▁迁	-10459
▁递	-10460
▁锥	-10461
▁阻	-10462
▁雀	-10463
▁震	-10464
▁颗	-10465
▁饿	-10466
▁骑	-10467
▁骨	-10468
▁髓	-10469
▁魔	-10470
▁鳝	-10471
▁鸦	-10472
。。	-10473
一把	-10474
一輛	-10475
一边	-10476
一邊	-10477
七点	-10478
上午	-10479
上漂	-10480
下棋	-10481
下次	-10482
不够	-10483
不欲	-10484
不過	-10485
严实	-10486
丧祭	-10487
中药	-10488
丰收	-10489
为而	-10490
之路	-10491
也没	-10492
买的	-10493
乾坤	-10494
了三	-10495
交谈	-10496
付款	-10497
代数	-10498
以後	-10499
会来	-10500
佐料	-10501
作声	-10502
依据	-10503
侦察	-10504
保存	-10505
俱樂	-10506
個人	-10507
倒下	-10508
做出	-10509
偶然	-10510
允声	-10511
允许	-10512
充满	-10513
充足	-10514
全都	-10515
八点	-10516
八點	-10517
公婆	-10518
具有	-10519
农业	-10520
冷了	-10521
冷的	-10522
几天	-10523
出国	-10524
切题	-10525
别称	-10526
加哥	-10527
勿施	-10528
包谷	-10529
化脓	-10530
十年	-10531
十点	-10532
占卜	-10533
厅堂	-10534
原则	-10535
原野	-10536
厦子	-10537
參觀	-10538
发觉	-10539
取钱	-10540
口粮	-10541
古称	-10542
句型	-10543
句子	-10544
只要	-10545
召集	-10546
可怕	-10547
台垫	-10548
号召	-10549
号角	-10550
吃飯	-10551
各种	-10552
吆猪	-10553
同志	-10554
后悔	-10555
否则	-10556
吹奏	-10557
吹捧	-10558
告状	-10559
周一	-10560
呻吟	-10561
命运	-10562
和尚	-10563
咒猫	-10564
咧嘴	-10565
啊呀	-10566
喧闹	-10567
嘱咐	-10568
嘶哑	-10569
嘻嘻	-10570
回转	-10571
困倦	-10572
土壤	-10573
在于	-10574
在他	-10575
坑道	-10576
坨坨	-10577
培育	-10578
基础	-10579
報告	-10580
外语	-10581
奖赏	-10582
奶油	-10583
好吃	-10584
如果	-10585
妻弟	-10586
始祖	-10587
姐夫	-10588
姑姑	-10589
娶妻	-10590
婚礼	-10591
孔里	-10592
存储	-10593
安装	-10594
安靜	-10595
客人	-10596
害虫	-10597
家畜	-10598
宾谓	-10599
富裕	-10600
寨神	-10601
对面	-10602
將會	-10603
尖尖	-10604
山垭	-10605
山梁	-10606
工人	-10607
左转	-10608
己所	-10609
巴烂	-10610
带来	-10611
平洋	-10612
并排	-10613
序列	-10614
廚房	-10615
建築	-10616
开辟	-10617
弯钩	-10618
强权	-10619
彼此	-10620
德语	-10621
怂恿	-10622
思索	-10623
情況	-10624
惟恐	-10625
惨重	-10626
想像	-10627
愁闷	-10628
感謝	-10629
戏弄	-10630
戒指	-10631
打采	-10632
技能	-10633
把這	-10634
抓住	-10635
抢救	-10636
披袍	-10637
拐爪	-10638
拒绝	-10639
挨着	-10640
排放	-10641
提升	-10642
搜查	-10643
撤除	-10644
撮箕	-10645
攻打	-10646
教授	-10647
整体	-10648
文本	-10649
斟酌	-10650
斧头	-10651
斷了	-10652
方案	-10653
早就	-10654
时曾	-10655
是从	-10656
是指	-10657
晴天	-10658
暗示	-10659
暴露	-10660
更替	-10661
曾孙	-10662
机会	-10663
权力	-10664
杉树	-10665
杯水	-10666
构皮	-10667
枋板	-10668
果断	-10669
柿子	-10670
栓猪	-10671
梭动	-10672
模糊	-10673
橘子	-10674
歌唱	-10675
歐洲	-10676
比较	-10677
气灵	-10678
水桶	-10679
水沟	-10680
汆烫	-10681
汉字	-10682
汽水	-10683
沉默	-10684
沙子	-10685
沟渠	-10686
河蚌	-10687
治理	-10688
法规	-10689
泥巴	-10690
洱海	-10691
浊气	-10692
浮肿	-10693
消费	-10694
深层	-10695
混杂	-10696
渺小	-10697
满满	-10698
滿意	-10699
演奏	-10700
灯盏	-10701
灵敏	-10702
煮融	-10703
特色	-10704
犯了	-10705
犯人	-10706
猎鸟	-10707
猪胆	-10708
獨自	-10709
玷污	-10710
瑞士	-10711
甄子	-10712
生存	-10713
田埂	-10714
畫的	-10715
痴呆	-10716
的天	-10717
盟誓	-10718
盡力	-10719
瞌睡	-10720
石膏	-10721
砂子	-10722
确保	-10723
碎片	-10724
祭司	-10725
科學	-10726
秧鸡	-10727
稳定	-10728
穷困	-10729
空的	-10730
空碗	-10731
窥探	-10732
竟然	-10733
第一	-10734
策略	-10735
精确	-10736
精通	-10737
糊臭	-10738
糖的	-10739
紧张	-10740
給了	-10741
經驗	-10742
红茨	-10743
约翰	-10744
经络	-10745
结冰	-10746
编织	-10747
缘故	-10748
缺乏	-10749
耗子	-10750
耳坠	-10751
聯絡	-10752
背篓	-10753
胎盘	-10754
能吃	-10755
脑盖	-10756
脾脏	-10757
腰杆	-10758
腼腆	-10759
臁疮	-10760
自豪	-10761
自身	-10762
至关	-10763
芦笙	-10764
花样	-10765
茶吗	-10766
获取	-10767
菜墩	-10768
菲篥	-10769
落下	-10770
葱籽	-10771
藏缅	-10772
虱子	-10773
蚕豆	-10774
蚯蚓	-10775
蚱蜢	-10776
蜂蜜	-10777
蝼蚁	-10778
蟑螂	-10779
街上	-10780
衡量	-10781
衣襟	-10782
被高	-10783
裙脚	-10784
見到	-10785
见到	-10786
视频	-10787
說謊	-10788
计谋	-10789
讨菜	-10790
训斥	-10791
诗人	-10792
说他	-10793
请求	-10794
责备	-10795
责难	-10796
贪污	-10797
赏赐	-10798
赞成	-10799
走遍	-10800
起的	-10801
輕鬆	-10802
车轴	-10803
转嘎	-10804
辫子	-10805
过来	-10806
逗笑	-10807
進步	-10808
道理	-10809
適合	-10810
遮挡	-10811
醋水	-10812
里之	-10813
重视	-10814
野鸭	-10815
钩子	-10816
铜帽	-10817
铺设	-10818
门槛	-10819
闯入	-10820
阔叶	-10821
阴门	-10822
阿姨	-10823
陀螺	-10824
随机	-10825
难为	-10826
雄性	-10827
零度	-10828
零碎	-10829
霹雳	-10830
青年	-10831
餐毕	-10832
饭豆	-10833
饿了	-10834
鲁莽	-10835
鸭子	-10836
鹌鹑	-10837
鹿子	-10838
))。	-10839
?」「	-10840
DNA	-10841
asc	-10842
bec	-10843
den	-10844
lan	-10845
lom	-10846
nee	-10847
nut	-10848
oph	-10849
pie	-10850
six	-10851
uff	-10852
wel	-10853
▁),	-10854
▁万物	-10855
▁东西	-10856
▁人生	-10857
▁他以	-10858
▁他要	-10859
▁倫敦	-10860
▁停止	-10861
▁傑克	-10862
▁决定	-10863
▁分散	-10864
▁卡羅	-10865
▁叶子	-10866
▁周围	-10867
▁国际	-10868
▁地震	-10869
▁女孩	-10870
▁学会	-10871
▁快点	-10872
▁怀孕	-10873
▁我好	-10874
▁房子	-10875
▁技术	-10876
▁挑拨	-10877
▁收拢	-10878
▁收缩	-10879
▁暴露	-10880
▁有多	-10881
▁梅格	-10882
▁沉淀	-10883
▁泡利	-10884
▁温故	-10885
▁疲倦	-10886
▁相对	-10887
▁祝告	-10888
▁禁忌	-10889
▁稠密	-10890
▁第二	-10891
▁简述	-10892
▁粮食	-10893
▁经过	-10894
▁赠送	-10895
▁越过	-10896
▁足球	-10897
▁距离	-10898
▁软弱	-10899
▁这张	-10900
▁这把	-10901
▁這家	-10902
▁這把	-10903
▁遗传	-10904
▁锋利	-10905
▁隐瞒	-10906
▁雖然	-10907
▁非常	-10908
一定是	-10909
一定會	-10910
一樣高	-10911
上你的	-10912
上個月	-10913
下一站	-10914
不容易	-10915
丧祭歌	-10916
个字符	-10917
为而治	-10918
二十五	-10919
二氧化	-10920
任何你	-10921
俱樂部	-10922
公園裡	-10923
决定了	-10924
出生的	-10925
别作声	-10926
到日本	-10927
勿施于	-10928
博物馆	-10929
双里的	-10930
可以在	-10931
吆猪声	-10932
同志们	-10933
吹奏的	-10934
回到家	-10935
坨坨肉	-10936
夏威夷	-10937
太阳历	-10938
失败了	-10939
奇怪的	-10940
娃娃鸡	-10941
学生的	-10942
对身体	-10943
导致了	-10944
巡回转	-10945
工作的	-10946
市中心	-10947
应允声	-10948
开始了	-10949
引述式	-10950
彝语是	-10951
往孔里	-10952
很满意	-10953
怎么做	-10954
悄悄的	-10955
感興趣	-10956
感覺到	-10957
成功了	-10958
房间里	-10959
护寨神	-10960
文明的	-10961
无实际	-10962
早起床	-10963
时态词	-10964
是一位	-10965
是唯一	-10966
是因为	-10967
更容易	-10968
最多的	-10969
有空吗	-10970
杆乐器	-10971
构皮树	-10972
树叶水	-10973
比我的	-10974
气无力	-10975
气灵气	-10976
水蒸汽	-10977
洗衣服	-10978
温汽水	-10979
牙咧嘴	-10980
猎鸟兽	-10981
猫头鹰	-10982
用你的	-10983
男子汉	-10984
畜生的	-10985
的學生	-10986
的方法	-10987
的照片	-10988
的问题	-10989
真正的	-10990
知道他	-10991
稀巴烂	-10992
空间的	-10993
笑嘻嘻	-10994
精打采	-10995
紅色的	-10996
紧挨着	-10997
給他的	-10998
红茨莓	-10999
经络病	-11000
给我的	-11001
绸之路	-11002
脚趾被	-11003
膝关节	-11004
芝加哥	-11005
行合一	-11006
要多久	-11007
講英語	-11008
讓我們	-11009
设陷阱	-11010
轻轻的	-11011
远距离	-11012
還沒有	-11013
里游泳	-11014
量子门	-11015
非正常	-11016
ably	-11017
adow	-11018
alay	-11019
aret	-11020
dney	-11021
ends	-11022
enge	-11023
erry	-11024
gage	-11025
gery	-11026
lind	-11027
mail	-11028
mers	-11029
ober	-11030
osis	-11031
racy	-11032
rain	-11033
rapy	-11034
rots	-11035
shed	-11036
tens	-11037
wall	-11038
wber	-11039
what	-11040
yang	-11041
yles	-11042
▁Dad	-11043
▁Few	-11044
▁Ind	-11045
▁Say	-11046
▁fan	-11047
▁hen	-11048
▁hug	-11049
▁lim	-11050
▁mos	-11051
▁nut	-11052
▁phr	-11053
▁pil	-11054
▁rom	-11055
▁rub	-11056
▁sla	-11057
▁sow	-11058
▁tai	-11059
▁vit	-11060
▁中国的	-11061
▁互联网	-11062
▁他正在	-11063
▁他非常	-11064
▁你们很	-11065
▁你真的	-11066
▁太贵了	-11067
▁彝语的	-11068
▁我去年	-11069
▁我應該	-11070
▁我記得	-11071
▁能不能	-11072
▁這是我	-11073
一個朋友	-11074
不好意思	-11075
丢了我的	-11076
义相对论	-11077
二氧化碳	-11078
今天下午	-11079
他的名字	-11080
他說的話	-11081
会说法语	-11082
会说英语	-11083
俗称讨菜	-11084
兩個小時	-11085
六点起床	-11086
再見到你	-11087
加盐佐料	-11088
咒猫儿语	-11089
少数民族	-11090
居住治理	-11091
己所不欲	-11092
年的历史	-11093
彝族六祖	-11094
成為一個	-11095
沸水蒸汽	-11096
清晰明亮	-11097
满满尖尖	-11098
看起来很	-11099
祖宗祝告	-11100
祭祀用品	-11101
祭祀用的	-11102
精气灵气	-11103
自然语言	-11104
表示叹息	-11105
说话切题	-11106
這個計劃	-11107
阔叶韭菜	-11108
高爾夫球	-11109
apore	-11110
assed	-11111
crops	-11112
ctual	-11113
etime	-11114
hical	-11115
inces	-11116
inter	-11117
lands	-11118
mploy	-11119
olley	-11120
ortal	-11121
osity	-11122
proof	-11123
rific	-11124
ropri	-11125
tempt	-11126
unted	-11127
welry	-11128
▁Comp	-11129
▁Love	-11130
▁aest	-11131
▁army	-11132
▁brit	-11133
▁chef	-11134
▁cogn	-11135
▁defe	-11136
▁dram	-11137
▁drug	-11138
▁ends	-11139
▁folk	-11140
▁inse	-11141
▁lens	-11142
▁lucy	-11143
▁magn	-11144
▁paul	-11145
▁pens	-11146
▁port	-11147
▁prop	-11148
▁push	-11149
▁reli	-11150
▁span	-11151
▁tang	-11152
▁tiny	-11153
▁tire	-11154
▁whis	-11155
▁wore	-11156
▁他的故事	-11157
▁你有沒有	-11158
▁光合作用	-11159
▁天人合一	-11160
▁彝族怎么	-11161
▁彝语语法	-11162
▁我很抱歉	-11163
▁我有很多	-11164
▁我買了一	-11165
▁我還沒有	-11166
▁网络安全	-11167
▁说明一下	-11168
庄稼地里的	-11169
无实际意义	-11170
是量子计算	-11171
树叶水上漂	-11172
的基本单位	-11173
经典计算机	-11174
被高温汽水	-11175
起源是什么	-11176
量子叠加态	-11177
非正常死亡	-11178
angers	-11179
ishing	-11180
isible	-11181
issors	-11182
itable	-11183
linder	-11184
odynam	-11185
orrect	-11186
sticks	-11187
▁Birds	-11188
▁Carol	-11189
▁Leave	-11190
▁Peter	-11191
▁alice	-11192
▁april	-11193
▁argum	-11194
▁aside	-11195
▁boats	-11196
▁boots	-11197
▁burst	-11198
▁cance	-11199
▁carol	-11200
▁claim	-11201
▁downs	-11202
▁eagle	-11203
▁erupt	-11204
▁float	-11205
▁flour	-11206
▁greek	-11207
▁guide	-11208
▁homet	-11209
▁hypot	-11210
▁image	-11211
▁input	-11212
▁issue	-11213
▁journ	-11214
▁maybe	-11215
▁minim	-11216
▁minus	-11217
▁negot	-11218
▁nucle	-11219
▁numer	-11220
▁parad	-11221
▁peter	-11222
▁plain	-11223
▁raise	-11224
▁reads	-11225
▁sauce	-11226
▁shoot	-11227
▁sword	-11228
▁troub	-11229
▁twins	-11230
▁wrest	-11231
▁你為什麼不	-11232
▁我每天早上	-11233
發生了什麼事	-11234
设陷阱猎鸟兽	-11235
athemat	-11236
cellent	-11237
inement	-11238
iration	-11239
▁ascend	-11240
▁bodies	-11241
▁compre	-11242
▁conver	-11243
▁cradle	-11244
▁dozens	-11245
▁enjoys	-11246
▁equity	-11247
▁exceed	-11248
▁execut	-11249
▁exists	-11250
▁figure	-11251
▁finger	-11252
▁flavor	-11253
▁gained	-11254
▁horses	-11255
▁lifest	-11256
▁linear	-11257
▁mexico	-11258
▁orbits	-11259
▁papers	-11260
▁powder	-11261
▁preced	-11262
▁retire	-11263
▁skirts	-11264
▁snakes	-11265
▁stairs	-11266
▁tigers	-11267
▁varies	-11268
▁visual	-11269
▁volley	-11270
己所不欲勿施于	-11271
重要的传统节日	-11272
chestnut	-11273
▁Between	-11274
▁Chicago	-11275
▁aesthet	-11276
▁attempt	-11277
▁baggage	-11278
▁chicago	-11279
▁command	-11280
▁counter	-11281
▁crashed	-11282
▁current	-11283
▁destiny	-11284
▁drowned	-11285
▁earnest	-11286
▁eastern	-11287
▁effects	-11288
▁endless	-11289
▁extract	-11290
▁falling	-11291
▁fifteen	-11292
▁germany	-11293
▁haircut	-11294
▁healers	-11295
▁himalay	-11296
▁husband	-11297
▁imports	-11298
▁italian	-11299
▁january	-11300
▁jewelry	-11301
▁lighter	-11302
▁located	-11303
▁mention	-11304
▁musical	-11305
▁predict	-11306
▁seconds	-11307
▁silence	-11308
▁sixteen	-11309
▁speaker	-11310
▁tuesday	-11311
▁weaving	-11312
▁windows	-11313
▁winning	-11314
▁accounts	-11315
▁actually	-11316
▁allergic	-11317
▁appropri	-11318
▁benefits	-11319
▁checkups	-11320
▁criminal	-11321
▁curtains	-11322
▁cylinder	-11323
▁disputes	-11324
▁february	-11325
▁fighting	-11326
▁hometown	-11327
▁hundreds	-11328
▁involves	-11329
▁lifelong	-11330
▁negative	-11331
▁nonsense	-11332
▁occurred	-11333
▁products	-11334
▁properly	-11335
▁protects	-11336
▁punctual	-11337
▁quantity	-11338
▁reaction	-11339
▁reducing	-11340
▁relieved	-11341
▁remedies	-11342
▁reporter	-11343
▁scissors	-11344
▁starting	-11345
▁unemploy	-11346
▁watering	-11347
▁weakness	-11348
▁worrying	-11349
彝族先民中最早出现	-11350
athematics	-11351
▁assistant	-11352
▁awareness	-11353
▁breathing	-11354
▁challenge	-11355
▁completed	-11356
▁cosmology	-11357
▁cultivate	-11358
▁depressed	-11359
▁detention	-11360
▁discovery	-11361
▁efficient	-11362
▁excellent	-11363
▁expecting	-11364
▁fireworks	-11365
▁improving	-11366
▁innocence	-11367
▁insurance	-11368
▁intention	-11369
▁kilograms	-11370
▁musicians	-11371
▁neighbors	-11372
▁provinces	-11373
▁repairing	-11374
▁strengths	-11375
▁threatens	-11376
▁toothache	-11377
▁wrestling	-11378
可以同时处于多个状态	-11379
▁ceremonial	-11380
▁chopsticks	-11381
▁collective	-11382
▁creativity	-11383
▁discussing	-11384
▁minorities	-11385
▁prevention	-11386
▁recognized	-11387
▁remarkable	-11388
▁simulation	-11389
▁structural	-11390
▁structures	-11391
▁volleyball	-11392
▁Shakespeare	-11393
▁confinement	-11394
▁consumption	-11395
▁measurement	-11396
▁silversmith	-11397
▁thermodynam	-11398
▁uncertainty	-11399
▁applications	-11400
▁astronomical	-11401
▁constitution	-11402
▁perspectives	-11403
▁approximately	-11404
▁civilizations	-11405
▁philosophical	-11406
▁unfortunately	-11407
It	-11408
ju	-11409
ku	-11410
ló	-11411
sc	-11412
tw	-11413
uc	-11414
▁V	-11415
▁Z	-11416
▁°	-11417
▁丁	-11418
▁久	-11419
▁乘	-11420
▁乙	-11421
▁亮	-11422
▁仓	-11423
▁低	-11424
▁信	-11425
▁偏	-11426
▁元	-11427
▁兩	-11428
▁冒	-11429
▁军	-11430
▁办	-11431
▁卷	-11432
▁厚	-11433
▁司	-11434
▁哭	-11435
▁善	-11436
▁图	-11437
▁埂	-11438
▁始	-11439
▁完	-11440
▁害	-11441
▁尖	-11442
▁帽	-11443
▁库	-11444
▁弱	-11445
▁彼	-11446
▁恭	-11447
▁憨	-11448
▁戴	-11449
▁户	-11450
▁扔	-11451
▁抛	-11452
▁捏	-11453
▁掌	-11454
▁掐	-11455
▁揭	-11456
▁摸	-11457
▁擂	-11458
▁擞	-11459
▁改	-11460
▁断	-11461
▁昌	-11462
▁星	-11463
▁暗	-11464
▁枝	-11465
▁枣	-11466
▁柱	-11467
▁校	-11468
▁样	-11469
▁核	-11470
▁桥	-11471
▁梗	-11472
▁棍	-11473
▁椽	-11474
▁段	-11475
▁泻	-11476
▁满	-11477
▁煮	-11478
▁痛	-11479
▁瞪	-11480
▁矮	-11481
▁秋	-11482
▁竭	-11483
▁簸	-11484
▁臭	-11485
▁臼	-11486
▁芒	-11487
▁莫	-11488
▁葛	-11489
▁虚	-11490
▁蚂	-11491
▁讲	-11492
▁该	-11493
▁赊	-11494
▁车	-11495
▁辈	-11496
▁运	-11497
▁铠	-11498
▁锡	-11499
▁陷	-11500
▁鞋	-11501
▁项	-11502
▁颈	-11503
▁驾	-11504
▁鲍	-11505
▁鲜	-11506
▁鸣	-11507
▁鼾	-11508
。(	-11509
一片	-11510
一隻	-11511
不下	-11512
不對	-11513
专业	-11514
世上	-11515
两块	-11516
个旧	-11517
之后	-11518
乒乓	-11519
九点	-11520
也沒	-11521
书写	-11522
五点	-11523
交易	-11524
亲戚	-11525
人群	-11526
他在	-11527
代价	-11528
以为	-11529
会对	-11530
但他	-11531
位子	-11532
体检	-11533
体舞	-11534
作客	-11535
作护	-11536
作茶	-11537
你要	-11538
你说	-11539
來越	-11540
俊俏	-11541
保佑	-11542
修剪	-11543
倒倒	-11544
偶爾	-11545
傷了	-11546
儿在	-11547
充分	-11548
光明	-11549
全力	-11550
公寓	-11551
六天	-11552
关联	-11553
写信	-11554
分散	-11555
分数	-11556
判断	-11557
剩下	-11558
化的	-11559
北海	-11560
千米	-11561
午节	-11562
印象	-11563
去做	-11564
反對	-11565
发了	-11566
取名	-11567
变黄	-11568
古彝	-11569
史诗	-11570
吃过	-11571
吃過	-11572
各个	-11573
吓唬	-11574
周率	-11575
和蔼	-11576
唱片	-11577
商业	-11578
嘎耄	-11579
嚼环	-11580
回忆	-11581
在了	-11582
在十	-11583
在地	-11584
在场	-11585
在床	-11586
埃及	-11587
外婆	-11588
多数	-11589
多种	-11590
大方	-11591
大約	-11592
大聲	-11593
大蒜	-11594
太空	-11595
头牛	-11596
女士	-11597
學會	-11598
它的	-11599
宗祠	-11600
客店	-11601
察觉	-11602
將在	-11603
對面	-11604
小了	-11605
尺寸	-11606
干瘪	-11607
平常	-11608
年齡	-11609
幸運	-11610
康復	-11611
建的	-11612
弗雷	-11613
强健	-11614
归一	-11615
当时	-11616
得好	-11617
忙嗎	-11618
恶龙	-11619
想你	-11620
感激	-11621
成长	-11622
我了	-11623
截止	-11624
手提	-11625
扳机	-11626
抚养	-11627
拉伯	-11628
拜訪	-11629
指望	-11630
提醒	-11631
撞撞	-11632
政策	-11633
教你	-11634
教師	-11635
散开	-11636
整理	-11637
斯坦	-11638
新鲜	-11639
明智	-11640
显著	-11641
晚熟	-11642
晴朗	-11643
有三	-11644
木盔	-11645
来吗	-11646
架构	-11647
柚栗	-11648
棵树	-11649
楚雄	-11650
橙子	-11651
正确	-11652
母鸡	-11653
每月	-11654
比如	-11655
毕业	-11656
毫无	-11657
民间	-11658
气馁	-11659
水平	-11660
水怪	-11661
洗衣	-11662
火了	-11663
火药	-11664
火锅	-11665
火镰	-11666
点燃	-11667
熬夜	-11668
特地	-11669
特殊	-11670
犯罪	-11671
猜测	-11672
生育	-11673
用功	-11674
用卡	-11675
用字	-11676
由来	-11677
申请	-11678
畢業	-11679
病了	-11680
病人	-11681
盖房	-11682
相處	-11683
相邻	-11684
眼前	-11685
矛盾	-11686
知晓	-11687
码器	-11688
破烂	-11689
碑刻	-11690
確定	-11691
穿着	-11692
第十	-11693
筷子	-11694
篾笆	-11695
籃球	-11696
类似	-11697
經過	-11698
红的	-11699
约定	-11700
细小	-11701
给她	-11702
续断	-11703
羊毛	-11704
翅膀	-11705
老板	-11706
而言	-11707
能夠	-11708
舉行	-11709
舒适	-11710
草席	-11711
菜油	-11712
著我	-11713
蜜蜂	-11714
蝼蛄	-11715
螺旋	-11716
行了	-11717
表面	-11718
衬衫	-11719
装饰	-11720
西哥	-11721
角色	-11722
設法	-11723
試著	-11724
誠實	-11725
說他	-11726
談談	-11727
請你	-11728
變得	-11729
让你	-11730
记号	-11731
设备	-11732
试着	-11733
语意	-11734
语族	-11735
请你	-11736
调节	-11737
豆类	-11738
贩卖	-11739
贫穷	-11740
购买	-11741
赏月	-11742
走串	-11743
走动	-11744
走吧	-11745
越好	-11746
足下	-11747
跌跌	-11748
跟她	-11749
跟随	-11750
身份	-11751
身肌	-11752
转筋	-11753
辣痛	-11754
辦法	-11755
辭職	-11756
还在	-11757
进入	-11758
远处	-11759
远方	-11760
递给	-11761
這條	-11762
通信	-11763
進入	-11764
過馬	-11765
道德	-11766
那時	-11767
邮局	-11768
释放	-11769
錯的	-11770
钱财	-11771
闪亮	-11772
间隔	-11773
陡峭	-11774
雨傘	-11775
雨林	-11776
面条	-11777
预期	-11778
预测	-11779
饭吃	-11780
驚訝	-11781
马桑	-11782
麻烦	-11783
黄松	-11784
點前	-11785
;)'	-11786
alf	-11787
arn	-11788
aru	-11789
aud	-11790
esh	-11791
igr	-11792
ima	-11793
isy	-11794
ker	-11795
lóu	-11796
mel	-11797
mào	-11798
omi	-11799
oro	-11800
pth	-11801
ria	-11802
rid	-11803
rip	-11804
rog	-11805
tze	-11806
ugg	-11807
ulf	-11808
umi	-11809
und	-11810
▁Ap	-11811
▁De	-11812
▁Fr	-11813
▁Hi	-11814
▁Na	-11815
▁Oh	-11816
▁Pl	-11817
▁ea	-11818
▁gū	-11819
▁一些	-11820
▁一切	-11821
▁京都	-11822
▁他問	-11823
▁价格	-11824
▁你對	-11825
▁你本	-11826
▁使动	-11827
▁债务	-11828
▁免疫	-11829
▁入赘	-11830
▁农民	-11831
▁凉山	-11832
▁刮风	-11833
▁勺子	-11834
▁印度	-11835
▁叔叔	-11836
▁同时	-11837
▁和蔼	-11838
▁喜欢	-11839
▁垃圾	-11840
▁复活	-11841
▁太陽	-11842
▁失败	-11843
▁宇宙	-11844
▁安装	-11845
▁定期	-11846
▁容易	-11847
▁密码	-11848
▁小心	-11849
▁巴黎	-11850
▁建议	-11851
▁您有	-11852
▁您能	-11853
▁慢慢	-11854
▁我下	-11855
▁我再	-11856
▁我将	-11857
▁我怕	-11858
▁我打	-11859
▁招赘	-11860
▁放置	-11861
▁早餐	-11862
▁星星	-11863
▁春节	-11864
▁概率	-11865
▁模型	-11866
▁河比	-11867
▁浑浊	-11868
▁海倫	-11869
▁海洋	-11870
▁生活	-11871
▁生物	-11872
▁皇帝	-11873
▁看看	-11874
▁祈求	-11875
▁称呼	-11876
▁立即	-11877
▁算了	-11878
▁紐約	-11879
▁经济	-11880
▁结合	-11881
▁继续	-11882
▁美国	-11883
▁考虑	-11884
▁肚子	-11885
▁自由	-11886
▁蘇珊	-11887
▁诙谐	-11888
▁责任	-11889
▁这份	-11890
▁这只	-11891
▁这本	-11892
▁这顶	-11893
▁那座	-11894
▁那時	-11895
▁长城	-11896
▁问题	-11897
▁间隔	-11898
▁青年	-11899
▁馈赠	-11900
▁麥克	-11901
▁黑洞	-11902
一封信	-11903
一杯水	-11904
下雪了	-11905
不得了	-11906
与自然	-11907
▁	-11908
e	-11909
t	-11910
i	-11911
o	-11912
a	-11913
s	-11914
n	-11915
r	-11916
h	-11917
l	-11918
c	-11919
d	-11920
u	-11921
.	-11922
m	-11923
y	-11924
p	-11925
f	-11926
w	-11927
g	-11928
。	-11929
(	-11930
)	-11931
文	-11932
是	-11933
b	-11934
的	-11935
?	-11936
彝	-11937
,	-11938
'	-11939
k	-11940
v	-11941
我	-11942
字	-11943
Y	-11944
0	-11945
T	-11946
2	-11947
符	-11948
x	-11949
I	-11950
这	-11951
么	-11952
:	-11953
、	-11954
3	-11955
用	-11956
了	-11957
1	-11958
什	-11959
H	-11960
;	-11961
英	-11962
中	-11963
你	-11964
一	-11965
他	-11966
编	-11967
号	-11968
在	-11969
4	-11970
翻	-11971
5	-11972
译	-11973
不	-11974
6	-11975
有	-11976
C	-11977
个	-11978
子	-11979
|	-11980
8	-11981
9	-11982
通	-11983
7	-11984
作	-11985
和	-11986
请	-11987
要	-11988
很	-11989
词	-11990
表	-11991
天	-11992
W	-11993
人	-11994
怎	-11995
对	-11996
j	-11997
上	-11998
写	-11999
问	-12000
应	-12001
示	-12002
多	-12003
「	-12004
」	-12005
分	-12006
q	-12007
生	-12008
族	-12009
這	-12010
意	-12011
量	-12012
把	-12013
合	-12014
们	-12015
去	-12016
语	-12017
好	-12018
成	-12019
到	-12020
等	-12021
于	-12022
两	-12023
别	-12024
动	-12025
会	-12026
学	-12027
能	-12028
下	-12029
個	-12030
想	-12031
组	-12032
M	-12033
地	-12034
大	-12035
那	-12036
为	-12037
可	-12038
化	-12039
喜	-12040
!	-12041
比	-12042
以	-12043
看	-12044
家	-12045
z	-12046
得	-12047
水	-12048
A	-12049
們	-12050
都	-12051
最	-12052
时	-12053
S	-12054
本	-12055
说	-12056
来	-12057
嗎	-12058
她	-12059
年	-12060
小	-12061
做	-12062
加	-12063
D	-12064
吃	-12065
吗	-12066
集	-12067
名	-12068
体	-12069
更	-12070
自	-12071
重	-12072
少	-12073
过	-12074
明	-12075
出	-12076
老	-12077
行	-12078
里	-12079
欢	-12080
就	-12081
起	-12082
打	-12083
"	-12084
事	-12085
會	-12086
气	-12087
系	-12088
工	-12089
面	-12090
來	-12091
日	-12092
法	-12093
道	-12094
知	-12095
物	-12096
之	-12097
解	-12098
前	-12099
车	-12100
花	-12101
每	-12102
点	-12103
心	-12104
J	-12105
麼	-12106
火	-12107
数	-12108
传	-12109
义	-12110
理	-12111
E	-12112
头	-12113
发	-12114
十	-12115
今	-12116
高	-12117
国	-12118
果	-12119
开	-12120
使	-12121
孩	-12122
常	-12123
方	-12124
位	-12125
力	-12126
快	-12127
山	-12128
定	-12129
书	-12130
色	-12131
机	-12132
古	-12133
回	-12134
思	-12135
球	-12136
早	-12137
然	-12138
饭	-12139
被	-12140
没	-12141
公	-12142
P	-12143
時	-12144
间	-12145
民	-12146
形	-12147
太	-12148
沒	-12149
晚	-12150
房	-12151
正	-12152
着	-12153
手	-12154
种	-12155
相	-12156
需	-12157
些	-12158
三	-12159
美	-12160
裡	-12161
說	-12162
完	-12163
哪	-12164
L	-12165
口	-12166
感	-12167
走	-12168
候	-12169
信	-12170
节	-12171
如	-12172
月	-12173
电	-12174
同	-12175
含	-12176
西	-12177
儿	-12178
统	-12179
也	-12180
車	-12181
叫	-12182
世	-12183
现	-12184
放	-12185
點	-12186
实	-12187
容	-12188
神	-12189
B	-12190
學	-12191
昨	-12192
给	-12193
言	-12194
音	-12195
服	-12196
记	-12197
午	-12198
N	-12199
特	-12200
性	-12201
考	-12202
接	-12203
活	-12204
习	-12205
過	-12206
雨	-12207
经	-12208
全	-12209
對	-12210
后	-12211
还	-12212
仅	-12213
利	-12214
声	-12215
衣	-12216
部	-12217
開	-12218
星	-12219
為	-12220
达	-12221
关	-12222
新	-12223
度	-12224
真	-12225
請	-12226
空	-12227
界	-12228
只	-12229
您	-12230
給	-12231
从	-12232
乘	-12233
住	-12234
样	-12235
路	-12236
第	-12237
承	-12238
话	-12239
所	-12240
直	-12241
告	-12242
智	-12243
长	-12244
睡	-12245
立	-12246
无	-12247
期	-12248
菜	-12249
保	-12250
市	-12251
歡	-12252
再	-12253
结	-12254
K	-12255
但	-12256
历	-12257
因	-12258
女	-12259
息	-12260
而	-12261
觉	-12262
二	-12263
变	-12264
外	-12265
算	-12266
任	-12267
安	-12268
O	-12269
五	-12270
必	-12271
次	-12272
主	-12273
件	-12274
见	-12275
史	-12276
食	-12277
马	-12278
树	-12279
先	-12280
吧	-12281
平	-12282
已	-12283
非	-12284
何	-12285
助	-12286
姆	-12287
盖	-12288
己	-12289
喝	-12290
故	-12291
友	-12292
情	-12293
F	-12294
始	-12295
-	-12296
教	-12297
書	-12298
门	-12299
载	-12300
祖	-12301
收	-12302
乐	-12303
游	-12304
减	-12305
整	-12306
亮	-12307
准	-12308
話	-12309
详	-12310
钱	-12311
模	-12312
語	-12313
朋	-12314
越	-12315
虑	-12316
深	-12317
受	-12318
白	-12319
计	-12320
风	-12321
六	-12322
其	-12323
G	-12324
代	-12325
母	-12326
男	-12327
身	-12328
包	-12329
医	-12330
帮	-12331
论	-12332
四	-12333
步	-12334
父	-12335
态	-12336
该	-12337
养	-12338
狗	-12339
器	-12340
认	-12341
鱼	-12342
向	-12343
跟	-12344
背	-12345
電	-12346
城	-12347
贵	-12348
影	-12349
让	-12350
远	-12351
海	-12352
指	-12353
注	-12354
提	-12355
难	-12356
校	-12357
黑	-12358
交	-12359
具	-12360
國	-12361
师	-12362
病	-12363
經	-12364
缀	-12365
間	-12366
周	-12367
由	-12368
精	-12369
强	-12370
支	-12371
片	-12372
跑	-12373
千	-12374
待	-12375
社	-12376
慧	-12377
题	-12378
望	-12379
歌	-12380
班	-12381
听	-12382
录	-12383
朵	-12384
兴	-12385
牛	-12386
建	-12387
河	-12388
东	-12389
猫	-12390
站	-12391
鸟	-12392
巴	-12393
板	-12394
涵	-12395
确	-12396
米	-12397
运	-12398
味	-12399
布	-12400
消	-12401
茶	-12402
光	-12403
失	-12404
汉	-12405
独	-12406
眼	-12407
产	-12408
答	-12409
著	-12410
死	-12411
皮	-12412
清	-12413
漂	-12414
爱	-12415
石	-12416
处	-12417
弟	-12418
烂	-12419
餐	-12420
约	-12421
边	-12422
流	-12423
照	-12424
+	-12425
發	-12426
見	-12427
阳	-12428
久	-12429
刀	-12430
功	-12431
灵	-12432
进	-12433
酒	-12434
式	-12435
介	-12436
格	-12437
谢	-12438
几	-12439
找	-12440
持	-12441
治	-12442
调	-12443
转	-12444
近	-12445
买	-12446
它	-12447
属	-12448
象	-12449
便	-12450
健	-12451
該	-12452
問	-12453
從	-12454
离	-12455
称	-12456
康	-12457
現	-12458
与	-12459
台	-12460
遗	-12461
场	-12462
干	-12463
草	-12464
鸡	-12465
入	-12466
术	-12467
原	-12468
基	-12469
层	-12470
类	-12471
护	-12472
樣	-12473
讓	-12474
像	-12475
金	-12476
京	-12477
克	-12478
姐	-12479
忙	-12480
慢	-12481
累	-12482
松	-12483
识	-12484
读	-12485
内	-12486
制	-12487
念	-12488
坐	-12489
散	-12490
程	-12491
穿	-12492
者	-12493
叠	-12494
土	-12495
機	-12496
取	-12497
折	-12498
热	-12499
足	-12500
伤	-12501
倒	-12502
改	-12503
条	-12504
油	-12505
湯	-12506
盛	-12507
红	-12508
趣	-12509
送	-12510
决	-12511
木	-12512
祭	-12513
八	-12514
半	-12515
妹	-12516
育	-12517
應	-12518
洗	-12519
源	-12520
川	-12521
张	-12522
琴	-12523
速	-12524
元	-12525
希	-12526
拿	-12527
痛	-12528
磨	-12529
冷	-12530
士	-12531
泳	-12532
满	-12533
网	-12534
修	-12535
無	-12536
百	-12537
跳	-12538
野	-12539
业	-12540
切	-12541
根	-12542
当	-12543
留	-12544
轻	-12545
亲	-12546
東	-12547
爸	-12548
笑	-12549
厚	-12550
客	-12551
料	-12552
還	-12553
丽	-12554
夏	-12555
富	-12556
带	-12557
落	-12558
休	-12559
反	-12560
吸	-12561
掉	-12562
烟	-12563
猪	-12564
视	-12565
谷	-12566
错	-12567
雪	-12568
哥	-12569
备	-12570
豆	-12571
飞	-12572
万	-12573
引	-12574
泡	-12575
许	-12576
易	-12577
温	-12578
羊	-12579
角	-12580
桌	-12581
叔	-12582
块	-12583
架	-12584
管	-12585
裏	-12586
价	-12587
占	-12588
忘	-12589
怕	-12590
拥	-12591
绍	-12592
肉	-12593
香	-12594
目	-12595
质	-12596
云	-12597
嘴	-12598
氣	-12599
求	-12600
烧	-12601
将	-12602
旅	-12603
画	-12604
超	-12605
银	-12606
兒	-12607
北	-12608
据	-12609
景	-12610
舞	-12611
錢	-12612
南	-12613
命	-12614
奶	-12615
密	-12616
耳	-12617
聽	-12618
拉	-12619
玩	-12620
脚	-12621
谁	-12622
夜	-12623
威	-12624
展	-12625
差	-12626
床	-12627
覺	-12628
座	-12629
麻	-12630
黄	-12631
刺	-12632
叶	-12633
咖	-12634
唱	-12635
往	-12636
断	-12637
试	-12638
连	-12639
造	-12640
題	-12641
啡	-12642
後	-12643
微	-12644
供	-12645
底	-12646
核	-12647
破	-12648
停	-12649
摆	-12650
牙	-12651
箱	-12652
兩	-12653
园	-12654
型	-12655
汤	-12656
脑	-12657
虎	-12658
幫	-12659
於	-12660
福	-12661
规	-12662
费	-12663
践	-12664
依	-12665
動	-12666
吉	-12667
德	-12668
挑	-12669
诉	-12670
V	-12671
乎	-12672
仍	-12673
份	-12674
单	-12675
复	-12676
毛	-12677
誰	-12678
七	-12679
婚	-12680
才	-12681
滇	-12682
缩	-12683
肯	-12684
親	-12685
典	-12686
区	-12687
品	-12688
害	-12689
药	-12690
首	-12691
R	-12692
呢	-12693
响	-12694
弹	-12695
春	-12696
线	-12697
Q	-12698
幾	-12699
抽	-12700
染	-12701
派	-12702
長	-12703
“	-12704
环	-12705
蛋	-12706
又	-12707
啊	-12708
寫	-12709
技	-12710
细	-12711
须	-12712
”	-12713
值	-12714
农	-12715
場	-12716
导	-12717
沉	-12718
争	-12719
妈	-12720
察	-12721
杯	-12722
樂	-12723
甚	-12724
冬	-12725
律	-12726
枪	-12727
止	-12728
礼	-12729
祝	-12730
苦	-12731
议	-12732
总	-12733
付	-12734
努	-12735
帽	-12736
群	-12737
舒	-12738
虫	-12739
案	-12740
科	-12741
鞋	-12742
刻	-12743
围	-12744
融	-12745
装	-12746
讀	-12747
買	-12748
黔	-12749
够	-12750
搭	-12751
斗	-12752
窝	-12753
店	-12754
曾	-12755
錯	-12756
除	-12757
怪	-12758
畜	-12759
聪	-12760
摇	-12761
村	-12762
积	-12763
即	-12764
坏	-12765
斯	-12766
灿	-12767
當	-12768
讲	-12769
述	-12770
静	-12771
务	-12772
困	-12773
壮	-12774
推	-12775
摩	-12776
状	-12777
肚	-12778
敬	-12779
秋	-12780
预	-12781
及	-12782
换	-12783
未	-12784
洋	-12785
讨	-12786
锅	-12787
唠	-12788
票	-12789
糊	-12790
冰	-12791
別	-12792
司	-12793
图	-12794
汽	-12795
续	-12796
缺	-12797
观	-12798
钟	-12799
乌	-12800
夫	-12801
排	-12802
移	-12803
門	-12804
随	-12805
丢	-12806
借	-12807
否	-12808
封	-12809
敢	-12810
總	-12811
共	-12812
叨	-12813
拌	-12814
效	-12815
权	-12816
灰	-12817
突	-12818
免	-12819
冲	-12820
创	-12821
師	-12822
席	-12823
毕	-12824
泥	-12825
率	-12826
码	-12827
笔	-12828
腿	-12829
青	-12830
项	-12831
假	-12832
妻	-12833
林	-12834
洞	-12835
田	-12836
約	-12837
阿	-12838
撒	-12839
牲	-12840
鐘	-12841
偷	-12842
善	-12843
报	-12844
暖	-12845
粒	-12846
臭	-12847
存	-12848
將	-12849
州	-12850
挂	-12851
查	-12852
络	-12853
艺	-12854
蜂	-12855
资	-12856
顺	-12857
勇	-12858
拍	-12859
测	-12860
熟	-12861
蓝	-12862
迎	-12863
选	-12864
九	-12865
條	-12866
珍	-12867
認	-12868
责	-12869
遇	-12870
難	-12871
骨	-12872
塞	-12873
屋	-12874
幸	-12875
幽	-12876
急	-12877
极	-12878
构	-12879
棒	-12880
犯	-12881
稀	-12882
软	-12883
酸	-12884
附	-12885
零	-12886
齐	-12887
串	-12888
卡	-12889
張	-12890
柴	-12891
梦	-12892
素	-12893
腰	-12894
迟	-12895
释	-12896
麗	-12897
圆	-12898
左	-12899
杆	-12900
須	-12901
净	-12902
室	-12903
战	-12904
担	-12905
操	-12906
竹	-12907
進	-12908
震	-12909
序	-12910
或	-12911
演	-12912
瓜	-12913
缠	-12914
記	-12915
訴	-12916
關	-12917
陷	-12918
划	-12919
嫩	-12920
悲	-12921
摔	-12922
植	-12923
盐	-12924
简	-12925
紧	-12926
设	-12927
飯	-12928
吹	-12929
境	-12930
懒	-12931
投	-12932
播	-12933
浪	-12934
渐	-12935
犁	-12936
绿	-12937
警	-12938
院	-12939
馆	-12940
鸦	-12941
堵	-12942
帶	-12943
恶	-12944
懂	-12945
曲	-12946
烦	-12947
碎	-12948
胡	-12949
脏	-12950
适	-12951
丰	-12952
办	-12953
句	-12954
奇	-12955
尖	-12956
岁	-12957
搅	-12958
楼	-12959
沙	-12960
疾	-12961
苹	-12962
袋	-12963
配	-12964
饰	-12965
嚼	-12966
愛	-12967
敦	-12968
污	-12969
禁	-12970
種	-12971
究	-12972
窗	-12973
纠	-12974
绝	-12975
芋	-12976
败	-12977
输	-12978
鼓	-12979
低	-12980
华	-12981
抱	-12982
撮	-12983
液	-12984
腐	-12985
补	-12986
堂	-12987
套	-12988
惜	-12989
政	-12990
決	-12991
爽	-12992
研	-12993
端	-12994
遍	-12995
则	-12996
瑪	-12997
糕	-12998
習	-12999
藏	-13000
謝	-13001
邊	-13002
乱	-13003
危	-13004
吵	-13005
尔	-13006
尽	-13007
此	-13008
致	-13009
虚	-13010
血	-13011
防	-13012
離	-13013
露	-13014
凉	-13015
压	-13016
各	-13017
昆	-13018
材	-13019
膀	-13020
興	-13021
课	-13022
赘	-13023
靠	-13024
魔	-13025
兄	-13026
冒	-13027
升	-13028
双	-13029
吐	-13030
员	-13031
愿	-13032
替	-13033
棚	-13034
租	-13035
繁	-13036
绵	-13037
鬼	-13038
哭	-13039
奉	-13040
宗	-13041
恐	-13042
掌	-13043
洲	-13044
砍	-13045
視	-13046
頭	-13047
丝	-13048
互	-13049
亚	-13050
孔	-13051
庄	-13052
扇	-13053
抖	-13054
抢	-13055
损	-13056
暗	-13057
爷	-13058
碗	-13059
章	-13060
粉	-13061
粗	-13062
翰	-13063
計	-13064
退	-13065
饿	-13066
严	-13067
呼	-13068
增	-13069
宜	-13070
寄	-13071
彩	-13072
戏	-13073
撞	-13074
末	-13075
瓶	-13076
瘦	-13077
碰	-13078
結	-13079
练	-13080
荡	-13081
蒸	-13082
裙	-13083
闪	-13084
专	-13085
倦	-13086
参	-13087
商	-13088
弃	-13089
擦	-13090
枝	-13091
楚	-13092
沸	-13093
牢	-13094
益	-13095
短	-13096
终	-13097
置	-13098
肥	-13099
船	-13100
辣	-13101
降	-13102
馬	-13103
印	-13104
右	-13105
園	-13106
宇	-13107
守	-13108
弄	-13109
按	-13110
旧	-13111
燃	-13112
王	-13113
珠	-13114
箭	-13115
良	-13116
裂	-13117
論	-13118
赶	-13119
距	-13120
醫	-13121
闲	-13122
隻	-13123
伙	-13124
列	-13125
宙	-13126
沟	-13127
级	-13128
纸	-13129
胸	-13130
误	-13131
遠	-13132
闭	-13133
顶	-13134
优	-13135
似	-13136
卧	-13137
厌	-13138
姑	-13139
征	-13140
敏	-13141
滑	-13142
滴	-13143
炸	-13144
牵	-13145
索	-13146
耐	-13147
試	-13148
議	-13149
週	-13150
鼻	-13151
另	-13152
哈	-13153
姓	-13154
尼	-13155
居	-13156
拜	-13157
献	-13158
瓢	-13159
矮	-13160
胎	-13161
迷	-13162
卫	-13163
季	-13164
弱	-13165
标	-13166
永	-13167
炎	-13168
粮	-13169
织	-13170
脸	-13171
虽	-13172
衡	-13173
诗	-13174
輛	-13175
辆	-13176
锁	-13177
闹	-13178
U	-13179
且	-13180
婆	-13181
愈	-13182
济	-13183
疑	-13184
纽	-13185
芽	-13186
達	-13187
铃	-13188
阅	-13189
隔	-13190
令	-13191
债	-13192
偿	-13193
喷	-13194
归	-13195
惊	-13196
戴	-13197
拾	-13198
煮	-13199
爬	-13200
糖	-13201
罩	-13202
联	-13203
至	-13204
追	-13205
阴	-13206
隐	-13207
雀	-13208
领	-13209
館	-13210
骗	-13211
仿	-13212
伯	-13213
圈	-13214
崽	-13215
志	-13216
怨	-13217
悄	-13218
挡	-13219
昌	-13220
杀	-13221
砂	-13222
稍	-13223
蚂	-13224
雾	-13225
丑	-13226
倫	-13227
剛	-13228
劳	-13229
匙	-13230
博	-13231
广	-13232
怜	-13233
慕	-13234
扒	-13235
湖	-13236
稠	-13237
網	-13238
舅	-13239
辛	-13240
递	-13241
钢	-13242
骑	-13243
井	-13244
傲	-13245
凸	-13246
团	-13247
墨	-13248
宝	-13249
并	-13250
怀	-13251
救	-13252
斑	-13253
杂	-13254
槽	-13255
波	-13256
滿	-13257
甜	-13258
监	-13259
省	-13260
聚	-13261
胆	-13262
螂	-13263
街	-13264
饮	-13265
乳	-13266
亡	-13267
凝	-13268
剪	-13269
勺	-13270
堆	-13271
塘	-13272
尊	-13273
户	-13274
扣	-13275
旁	-13276
灭	-13277
爾	-13278
祈	-13279
芦	-13280
許	-13281
诚	-13282
财	-13283
赛	-13284
际	-13285
雄	-13286
鹿	-13287
麦	-13288
帝	-13289
扳	-13290
控	-13291
朗	-13292
梅	-13293
梨	-13294
準	-13295
稻	-13296
筆	-13297
苗	-13298
蔬	-13299
训	-13300
谈	-13301
链	-13302
骄	-13303
勾	-13304
垫	-13305
射	-13306
彈	-13307
忍	-13308
戒	-13309
捆	-13310
梯	-13311
混	-13312
烫	-13313
玉	-13314
畫	-13315
疮	-13316
睛	-13317
課	-13318
证	-13319
贫	-13320
铁	-13321
额	-13322
举	-13323
充	-13324
卖	-13325
固	-13326
坎	-13327
娃	-13328
寒	-13329
拢	-13330
揭	-13331
某	-13332
湿	-13333
漆	-13334
熊	-13335
疗	-13336
疲	-13337
箩	-13338
紫	-13339
缓	-13340
胁	-13341
脱	-13342
获	-13343
變	-13344
谐	-13345
運	-13346
霍	-13347
魂	-13348
龙	-13349
仗	-13350
佩	-13351
刨	-13352
咽	-13353
娇	-13354
幅	-13355
招	-13356
欠	-13357
狸	-13358
登	-13359
绕	-13360
蒙	-13361
輕	-13362
逗	-13363
鸣	-13364
默	-13365
倍	-13366
剩	-13367
喉	-13368
實	-13369
屎	-13370
惯	-13371
挣	-13372
捂	-13373
普	-13374
桃	-13375
段	-13376
泣	-13377
滚	-13378
狐	-13379
签	-13380
纪	-13381
菌	-13382
蒂	-13383
跨	-13384
迁	-13385
逃	-13386
针	-13387
伦	-13388
估	-13389
傻	-13390
勤	-13391
員	-13392
單	-13393
尾	-13394
忆	-13395
抓	-13396
撕	-13397
朝	-13398
業	-13399
浓	-13400
瘪	-13401
笨	-13402
耽	-13403
聲	-13404
談	-13405
货	-13406
邀	-13407
醒	-13408
飛	-13409
丈	-13410
俗	-13411
厅	-13412
均	-13413
坚	-13414
填	-13415
巧	-13416
扫	-13417
扯	-13418
拱	-13419
挤	-13420
握	-13421
數	-13422
杨	-13423
桥	-13424
棵	-13425
歉	-13426
申	-13427
笆	-13428
筑	-13429
螳	-13430
講	-13431
避	-13432
魚	-13433
乍	-13434
乒	-13435
乾	-13436
侄	-13437
侍	-13438
倾	-13439
初	-13440
刮	-13441
劃	-13442
呀	-13443
尘	-13444
摸	-13445
暴	-13446
李	-13447
棕	-13448
歪	-13449
烙	-13450
疫	-13451
疼	-13452
维	-13453
胃	-13454
葡	-13455
薄	-13456
處	-13457
蛇	-13458
钓	-13459
允	-13460
匹	-13461
卦	-13462
參	-13463
咒	-13464
壁	-13465
媽	-13466
拐	-13467
挺	-13468
插	-13469
束	-13470
概	-13471
猜	-13472
甩	-13473
瞄	-13474
矩	-13475
祀	-13476
箕	-13477
糟	-13478
肿	-13479
胜	-13480
腾	-13481
般	-13482
芒	-13483
萄	-13484
踢	-13485
轴	-13486
迹	-13487
遲	-13488
铜	-13489
限	-13490
顽	-13491
饱	-13492
众	-13493
凿	-13494
削	-13495
副	-13496
叹	-13497
哲	-13498
孕	-13499
恩	-13500
拼	-13501
捕	-13502
欲	-13503
欺	-13504
氧	-13505
浮	-13506
漏	-13507
潮	-13508
炒	-13509
瓷	-13510
盆	-13511
础	-13512
罗	-13513
聊	-13514
胀	-13515
虹	-13516
触	-13517
遮	-13518
陶	-13519
隨	-13520
雷	-13521
願	-13522
傷	-13523
剥	-13524
哎	-13525
喧	-13526
嘎	-13527
娘	-13528
嫁	-13529
寻	-13530
掩	-13531
棍	-13532
榫	-13533
渡	-13534
灾	-13535
炉	-13536
猎	-13537
禄	-13538
禮	-13539
童	-13540
策	-13541
莓	-13542
藤	-13543
裤	-13544
識	-13545
赠	-13546
透	-13547
鲜	-13548
鼠	-13549
龄	-13550
势	-13551
呕	-13552
坟	-13553
巢	-13554
批	-13555
抚	-13556
攻	-13557
敲	-13558
施	-13559
旋	-13560
暑	-13561
森	-13562
椒	-13563
池	-13564
灯	-13565
炼	-13566
煙	-13567
熱	-13568
狠	-13569
祷	-13570
篾	-13571
苔	-13572
荞	-13573
蘋	-13574
遣	-13575
险	-13576
革	-13577
黎	-13578
齿	-13579
伴	-13580
促	-13581
判	-13582
叽	-13583
弯	-13584
忠	-13585
椅	-13586
添	-13587
渴	-13588
烤	-13589
瓦	-13590
皇	-13591
盘	-13592
笼	-13593
继	-13594
肮	-13595
腻	-13596
菇	-13597
蓑	-13598
蕾	-13599
裝	-13600
贪	-13601
選	-13602
队	-13603
饼	-13604
體	-13605
鲁	-13606
俄	-13607
俏	-13608
冻	-13609
刷	-13610
吆	-13611
喳	-13612
塑	-13613
墓	-13614
壶	-13615
夭	-13616
孤	-13617
局	-13618
择	-13619
搁	-13620
摘	-13621
歲	-13622
玛	-13623
砰	-13624
硬	-13625
確	-13626
穷	-13627
篱	-13628
罪	-13629
肠	-13630
脂	-13631
脊	-13632
负	-13633
赌	-13634
赤	-13635
较	-13636
采	-13637
鋼	-13638
铅	-13639
闷	-13640
颤	-13641
驾	-13642
验	-13643
鹰	-13644
伞	-13645
圣	-13646
坑	-13647
壤	-13648
庭	-13649
慎	-13650
斜	-13651
晴	-13652
洁	-13653
浊	-13654
潜	-13655
澡	-13656
焦	-13657
燕	-13658
疏	-13659
砚	-13660
私	-13661
舂	-13662
蚁	-13663
費	-13664
锋	-13665
仇	-13666
偏	-13667
储	-13668
內	-13669
凑	-13670
咬	-13671
哄	-13672
哼	-13673
圖	-13674
址	-13675
培	-13676
岩	-13677
庆	-13678
弓	-13679
忌	-13680
惑	-13681
惧	-13682
拟	-13683
探	-13684
砣	-13685
篇	-13686
绞	-13687
绣	-13688
罢	-13689
耗	-13690
茎	-13691
荷	-13692
蝶	-13693
賽	-13694
赢	-13695
跤	-13696
踏	-13697
踪	-13698
镶	-13699
阻	-13700
颗	-13701
偶	-13702
卷	-13703
呆	-13704
妇	-13705
寿	-13706
尺	-13707
恸	-13708
截	-13709
描	-13710
搬	-13711
晰	-13712
橙	-13713
武	-13714
江	-13715
泼	-13716
浸	-13717
煩	-13718
狮	-13719
略	-13720
皱	-13721
矿	-13722
稼	-13723
糙	-13724
绪	-13725
缝	-13726
脾	-13727
荒	-13728
虐	-13729
蜴	-13730
蟹	-13731
赏	-13732
踩	-13733
逝	-13734
闩	-13735
顿	-13736
鳝	-13737
鸭	-13738
ā	-13739
匆	-13740
嘛	-13741
報	-13742
壞	-13743
姊	-13744
弩	-13745
惩	-13746
戶	-13747
押	-13748
掺	-13749
映	-13750
显	-13751
枕	-13752
梭	-13753
泛	-13754
灶	-13755
爆	-13756
猛	-13757
玻	-13758
肋	-13759
舍	-13760
萝	-13761
虾	-13762
蜷	-13763
貌	-13764
辨	-13765
钉	-13766
阶	-13767
黏	-13768
龟	-13769
備	-13770
凱	-13771
劈	-13772
呛	-13773
嚎	-13774
埂	-13775
壳	-13776
孙	-13777
币	-13778
库	-13779
废	-13780
延	-13781
怒	-13782
抛	-13783
披	-13784
括	-13785
晕	-13786
柔	-13787
桶	-13788
樹	-13789
泸	-13790
牧	-13791
秘	-13792
紅	-13793
肩	-13794
臀	-13795
舌	-13796
荣	-13797
莫	-13798
菠	-13799
衍	-13800
诺	-13801
账	-13802
蹈	-13803
铺	-13804
锦	-13805
键	-13806
並	-13807
仰	-13808
傣	-13809
兵	-13810
况	-13811
击	-13812
勃	-13813
吓	-13814
唇	-13815
唤	-13816
宁	-13817
寨	-13818
愚	-13819
挎	-13820
捅	-13821
掷	-13822
既	-13823
杖	-13824
栓	-13825
毡	-13826
汆	-13827
浆	-13828
盡	-13829
砖	-13830
笠	-13831
纳	-13832
罐	-13833
股	-13834
茧	-13835
茨	-13836
葛	-13837
蜥	-13838
襟	-13839
誤	-13840
邻	-13841
钩	-13842
陈	-13843
風	-13844
饲	-13845
鲸	-13846
仪	-13847
伐	-13848
剔	-13849
劝	-13850
勒	-13851
坍	-13852
夢	-13853
妒	-13854
寡	-13855
屁	-13856
弦	-13857
摊	-13858
晃	-13859
柜	-13860
栗	-13861
梳	-13862
横	-13863
殡	-13864
溢	-13865
盾	-13866
竖	-13867
笙	-13868
纵	-13869
纹	-13870
绘	-13871
耍	-13872
芝	-13873
蝴	-13874
诽	-13875
谤	-13876
豁	-13877
赡	-13878
辈	-13879
辦	-13880
逛	-13881
镰	-13882
險	-13883
馈	-13884
丘	-13885
亿	-13886
仔	-13887
伸	-13888
冠	-13889
勝	-13890
勿	-13891
叙	-13892
吊	-13893
启	-13894
哨	-13895
唯	-13896
嘶	-13897
坝	-13898
夹	-13899
奏	-13900
娶	-13901
孝	-13902
戚	-13903
扔	-13904
抵	-13905
拨	-13906
殖	-13907
毁	-13908
沿	-13909
淋	-13910
溅	-13911
溶	-13912
灌	-13913
熏	-13914
狱	-13915
瓣	-13916
盒	-13917
盗	-13918
稳	-13919
筋	-13920
缘	-13921
羞	-13922
腌	-13923
荫	-13924
营	-13925
螃	-13926
蟀	-13927
跌	-13928
阵	-13929
顾	-13930
髓	-13931
鮑	-13932
鳞	-13933
丛	-13934
仓	-13935
例	-13936
兜	-13937
凹	-13938
召	-13939
吼	-13940
呲	-13941
囫	-13942
塔	-13943
夠	-13944
夷	-13945
婿	-13946
嫉	-13947
托	-13948
抬	-13949
抹	-13950
搏	-13951
斤	-13952
昏	-13953
朽	-13954
杏	-13955
柏	-13956
泪	-13957
洛	-13958
浅	-13959
淡	-13960
溜	-13961
焖	-13962
煎	-13963
璃	-13964
紙	-13965
肺	-13966
襻	-13967
討	-13968
诙	-13969
锤	-13970
锥	-13971
陋	-13972
隊	-13973
韭	-13974
页	-13975
鬃	-13976
丧	-13977
仁	-13978
伟	-13979
佑	-13980
侧	-13981
剃	-13982
呐	-13983
咐	-13984
哗	-13985
坛	-13986
奋	-13987
姜	-13988
寸	-13989
悯	-13990
惠	-13991
擂	-13992
擅	-13993
杜	-13994
槛	-13995
漫	-13996
睫	-13997
碓	-13998
節	-13999
茅	-14000
蛆	-14001
裹	-14002
诱	-14003
购	-14004
赚	-14005
較	-14006
轮	-14007
轿	-14008
郵	-14009
醋	-14010
钻	-14011
锈	-14012
駕	-14013
鳅	-14014
$	-14015
=	-14016
—	-14017
佛	-14018
俐	-14019
催	-14020
兔	-14021
凡	-14022
啦	-14023
垭	-14024
塌	-14025
墙	-14026
夺	-14027
婴	-14028
官	-14029
宿	-14030
尿	-14031
峰	-14032
彻	-14033
拳	-14034
授	-14035
掏	-14036
揩	-14037
枯	-14038
梁	-14039
榴	-14040
毒	-14041
汁	-14042
汗	-14043
沾	-14044
浑	-14045
渣	-14046
濮	-14047
疤	-14048
瘤	-14049
眉	-14050
秕	-14051
竭	-14052
绳	-14053
绸	-14054
耕	-14055
肤	-14056
脉	-14057
腮	-14058
膝	-14059
臼	-14060
與	-14061
茂	-14062
茯	-14063
荸	-14064
蒜	-14065
號	-14066
讶	-14067
谎	-14068
谱	-14069
貓	-14070
赖	-14071
返	-14072
錶	-14073
铲	-14074
霉	-14075
驮	-14076
鸽	-14077
亞	-14078
吝	-14079
吻	-14080
唆	-14081
嘻	-14082
囤	-14083
域	-14084
寺	-14085
帕	-14086
帘	-14087
扬	-14088
抠	-14089
拔	-14090
拙	-14091
捞	-14092
掐	-14093
旗	-14094
栽	-14095
殷	-14096
焰	-14097
牌	-14098
砧	-14099
税	-14100
穗	-14101
窄	-14102
笛	-14103
筒	-14104
續	-14105
缴	-14106
羅	-14107
茄	-14108
葫	-14109
蕉	-14110
薹	-14111
蜜	-14112
蝌	-14113
蝗	-14114
衫	-14115
袍	-14116
赊	-14117
辩	-14118
遵	-14119
镀	-14120
陀	-14121
障	-14122
霭	-14123
髮	-14124
魄	-14125
麒	-14126
󲊂	-14127
丁	-14128
丸	-14129
乏	-14130
俯	-14131
傑	-14132
價	-14133
刚	-14134
厨	-14135
县	-14136
哮	-14137
嚏	-14138
囵	-14139
埋	-14140
婪	-14141
彗	-14142
愉	-14143
慣	-14144
捉	-14145
捷	-14146
援	-14147
搜	-14148
晨	-14149
柱	-14150
株	-14151
棉	-14152
樓	-14153
欧	-14154
沫	-14155
泞	-14156
激	-14157
獾	-14158
甸	-14159
畅	-14160
痕	-14161
盏	-14162
睁	-14163
瞒	-14164
碳	-14165
秃	-14166
筲	-14167
粥	-14168
紐	-14169
翁	-14170
苍	-14171
若	-14172
葱	-14173
蛙	-14174
蝼	-14175
覆	-14176
讽	-14177
赔	-14178
趟	-14179
迈	-14180
逐	-14181
遊	-14182
酿	-14183
醉	-14184
钥	-14185
雹	-14186
颈	-14187
骂	-14188
鸠	-14189
兆	-14190
剖	-14191
哑	-14192
唢	-14193
嗜	-14194
嘘	-14195
堡	-14196
妨	-14197
媳	-14198
嫂	-14199
宽	-14200
宾	-14201
尝	-14202
彼	-14203
徙	-14204
惦	-14205
戳	-14206
扑	-14207
拖	-14208
掰	-14209
掼	-14210
敌	-14211
旺	-14212
柄	-14213
栖	-14214
检	-14215
棺	-14216
檐	-14217
款	-14218
涨	-14219
溫	-14220
炖	-14221
猴	-14222
甲	-14223
痴	-14224
瘠	-14225
癞	-14226
眠	-14227
矛	-14228
禾	-14229
篮	-14230
粑	-14231
紀	-14232
羡	-14233
聂	-14234
职	-14235
脓	-14236
腦	-14237
腹	-14238
苓	-14239
萎	-14240
蓬	-14241
蔼	-14242
蕨	-14243
蚪	-14244
蚱	-14245
览	-14246
订	-14247
谜	-14248
迪	-14249
邮	-14250
铐	-14251
锡	-14252
锣	-14253
镜	-14254
闻	-14255
鹃	-14256
鹤	-14257
麝	-14258
伶	-14259
剧	-14260
君	-14261
唾	-14262
塊	-14263
夸	-14264
奔	-14265
婶	-14266
孵	-14267
幼	-14268
忧	-14269
慌	-14270
执	-14271
挪	-14272
攀	-14273
斥	-14274
杉	-14275
枷	-14276
桐	-14277
棟	-14278
椿	-14279
毯	-14280
涕	-14281
淀	-14282
漱	-14283
澳	-14284
炮	-14285
爭	-14286
犹	-14287
獨	-14288
疹	-14289
瞪	-14290
粪	-14291
終	-14292
組	-14293
绩	-14294
绺	-14295
缎	-14296
翘	-14297
航	-14298
莎	-14299
菱	-14300
薯	-14301
蘇	-14302
蟋	-14303
貝	-14304
贿	-14305
趕	-14306
蹬	-14307
辑	-14308
邁	-14309
锄	-14310
陡	-14311
陪	-14312
飘	-14313
駛	-14314
驗	-14315
乃	-14316
務	-14317
吠	-14318
呈	-14319
咳	-14320
咸	-14321
啤	-14322
啸	-14323
喂	-14324
坡	-14325
奖	-14326
妖	-14327
屏	-14328
屑	-14329
巨	-14330
庙	-14331
循	-14332
恃	-14333
戰	-14334
抄	-14335
捋	-14336
捏	-14337
捣	-14338
擀	-14339
旦	-14340
晌	-14341
析	-14342
柩	-14343
柳	-14344
桑	-14345
楂	-14346
潭	-14347
珊	-14348
痣	-14349
盔	-14350
盟	-14351
瞎	-14352
砸	-14353
碍	-14354
籽	-14355
絕	-14356
绊	-14357
罚	-14358
聘	-14359
胖	-14360
胱	-14361
苇	-14362
荠	-14363
螺	-14364
訂	-14365
躲	-14366
途	-14367
連	-14368
酌	-14369
酵	-14370
锻	-14371
阔	-14372
驯	-14373
驰	-14374
余	-14375
傍	-14376
傘	-14377
兽	-14378
凶	-14379
則	-14380
匠	-14381
卜	-14382
吞	-14383
坯	-14384
宫	-14385
強	-14386
恨	-14387
患	-14388
扎	-14389
拈	-14390
拘	-14391
挖	-14392
擊	-14393
晓	-14394
椽	-14395
毫	-14396
涂	-14397
港	-14398
澈	-14399
炫	-14400
熄	-14401
狡	-14402
睾	-14403
胳	-14404
脐	-14405
脖	-14406
膏	-14407
舊	-14408
芜	-14409
芫	-14410
蚌	-14411
袜	-14412
裁	-14413
裕	-14414
贱	-14415
贴	-14416
赎	-14417
逮	-14418
韧	-14419
顧	-14420
颜	-14421
鹊	-14422
麟	-14423
/	-14424
乖	-14425
厭	-14426
呃	-14427
啄	-14428
啬	-14429
喊	-14430
坠	-14431
垂	-14432
墩	-14433
嬰	-14434
庇	-14435
忽	-14436
悬	-14437
憨	-14438
扛	-14439
拆	-14440
拇	-14441
捡	-14442
捧	-14443
掀	-14444
揉	-14445
撩	-14446
晒	-14447
梗	-14448
残	-14449
殺	-14450
洒	-14451
津	-14452
浇	-14453
淌	-14454
淹	-14455
燈	-14456
犬	-14457
狭	-14458
猬	-14459
甥	-14460
疟	-14461
盯	-14462
秧	-14463
簇	-14464
簸	-14465
糠	-14466
翅	-14467
翔	-14468
翠	-14469
肝	-14470
胗	-14471
脆	-14472
舟	-14473
艳	-14474
芭	-14475
茁	-14476
萬	-14477
蘑	-14478
蚕	-14479
蜡	-14480
蝇	-14481
蝉	-14482
褂	-14483
评	-14484
跚	-14485
辫	-14486
適	-14487
鏡	-14488
響	-14489
驱	-14490
骟	-14491
鼾	-14492
丟	-14493
佐	-14494
俱	-14495
儴	-14496
兰	-14497
军	-14498
凤	-14499
凰	-14500
函	-14501
剑	-14502
割	-14503
叛	-14504
吮	-14505
嗑	-14506
嗷	-14507
嘱	-14508
噪	-14509
坨	-14510
垮	-14511
妮	-14512
嫌	-14513
尚	-14514
帐	-14515
径	-14516
復	-14517
惰	-14518
措	-14519
揽	-14520
撤	-14521
擔	-14522
擞	-14523
旷	-14524
晾	-14525
杵	-14526
枣	-14527
榔	-14528
檬	-14529
歧	-14530
殴	-14531
沃	-14532
沽	-14533
泄	-14534
淤	-14535
滤	-14536
燥	-14537
爪	-14538
爵	-14539
狼	-14540
猖	-14541
瘌	-14542
瞧	-14543
硝	-14544
碑	-14545
碾	-14546
秆	-14547
秒	-14548
秸	-14549
穴	-14550
簡	-14551
簧	-14552
聋	-14553
聖	-14554
聞	-14555
肾	-14556
腳	-14557
臂	-14558
舔	-14559
莉	-14560
蜓	-14561
蜕	-14562
蟑	-14563
蠕	-14564
觀	-14565
詞	-14566
谓	-14567
豺	-14568
赂	-14569
蹄	-14570
蹋	-14571
镊	-14572
闰	-14573
雙	-14574
雜	-14575
雳	-14576
鞘	-14577
頂	-14578
預	-14579
養	-14580
鳥	-14581
鹅	-14582
[	-14583
临	-14584
侦	-14585
刊	-14586
匀	-14587
卵	-14588
吩	-14589
呻	-14590
咂	-14591
喬	-14592
嘭	-14593
奴	-14594
幢	-14595
庶	-14596
廚	-14597
异	-14598
弥	-14599
扁	-14600
拒	-14601
挨	-14602
樱	-14603
殿	-14604
泻	-14605
洪	-14606
洼	-14607
浴	-14608
涩	-14609
滋	-14610
漠	-14611
炕	-14612
爹	-14613
版	-14614
獗	-14615
獭	-14616
瘾	-14617
禀	-14618
粘	-14619
粱	-14620
線	-14621
绎	-14622
绒	-14623
聰	-14624
胞	-14625
腼	-14626
荐	-14627
荨	-14628
萨	-14629
葵	-14630
蟒	-14631
裳	-14632
觅	-14633
調	-14634
谋	-14635
責	-14636
躺	-14637
鄂	-14638
酱	-14639
銀	-14640
陽	-14641
雇	-14642
频	-14643
餓	-14644
馊	-14645
亏	-14646
享	-14647
傅	-14648
傳	-14649
刁	-14650
厦	-14651
叉	-14652
吟	-14653
哺	-14654
唐	-14655
啃	-14656
嗽	-14657
嘟	-14658
嚅	-14659
嚴	-14660
坪	-14661
妣	-14662
姨	-14663
尸	-14664
崴	-14665
巡	-14666
幻	-14667
彤	-14668
恒	-14669
悔	-14670
惬	-14671
愤	-14672
扶	-14673
掘	-14674
撵	-14675
攒	-14676
斟	-14677
枋	-14678
柿	-14679
椎	-14680
歷	-14681
況	-14682
洱	-14683
涧	-14684
渗	-14685
溃	-14686
漾	-14687
焙	-14688
燒	-14689
猾	-14690
痫	-14691
癫	-14692
睬	-14693
硌	-14694
碧	-14695
竞	-14696
籃	-14697
纬	-14698
纯	-14699
绑	-14700
義	-14701
耄	-14702
肌	-14703
膊	-14704
臁	-14705
荽	-14706
菲	-14707
蓄	-14708
蘸	-14709
蠢	-14710
褊	-14711
襯	-14712
誓	-14713
證	-14714
贏	-14715
跛	-14716
蹒	-14717
躁	-14718
轉	-14719
辟	-14720
鉛	-14721
铛	-14722
锐	-14723
雅	-14724
雲	-14725
靜	-14726
鞍	-14727
馁	-14728
驶	-14729
骚	-14730
骡	-14731
黍	-14732
°	-14733
乡	-14734
企	-14735
俊	-14736
刃	-14737
剁	-14738
劫	-14739
區	-14740
协	-14741
呓	-14742
嗅	-14743
噢	-14744
垢	-14745
婢	-14746
媒	-14747
宣	-14748
宰	-14749
宴	-14750
岛	-14751
怂	-14752
扭	-14753
換	-14754
斷	-14755
旱	-14756
梧	-14757
槍	-14758
橋	-14759
爺	-14760
玷	-14761
瑰	-14762
症	-14763
痒	-14764
癌	-14765
眨	-14766
瞅	-14767
祠	-14768
竟	-14769
笃	-14770
繼	-14771
耙	-14772
聯	-14773
職	-14774
膨	-14775
苏	-14776
荚	-14777
莲	-14778
莽	-14779
蔗	-14780
蚓	-14781
蚯	-14782
蜢	-14783
蜻	-14784
術	-14785
褛	-14786
訪	-14787
誌	-14788
誕	-14789
護	-14790
資	-14791
贝	-14792
赞	-14793
辱	-14794
釋	-14795
饺	-14796
驚	-14797
驼	-14798
麸	-14799
à	-14800
ǒ	-14801
《	-14802
》	-14803
乔	-14804
乙	-14805
冥	-14806
剐	-14807
咚	-14808
咧	-14809
哀	-14810
唬	-14811
售	-14812
圾	-14813
坤	-14814
垃	-14815
奠	-14816
寧	-14817
岱	-14818
帳	-14819
府	-14820
恿	-14821
悠	-14822
悴	-14823
惟	-14824
愁	-14825
戈	-14826
扮	-14827
扰	-14828
搂	-14829
搔	-14830
摄	-14831
撑	-14832
槟	-14833
沤	-14834
浏	-14835
涉	-14836
润	-14837
湾	-14838
滥	-14839
炷	-14840
烈	-14841
犟	-14842
玫	-14843
痰	-14844
瞻	-14845
砌	-14846
碱	-14847
祛	-14848
祟	-14849
祸	-14850
窥	-14851
笋	-14852
筛	-14853
箇	-14854
箍	-14855
篥	-14856
綠	-14857
纷	-14858
纺	-14859
缨	-14860
耀	-14861
脫	-14862
脯	-14863
腆	-14864
腋	-14865
臣	-14866
舉	-14867
茸	-14868
葬	-14869
蛄	-14870
蛰	-14871
蝙	-14872
褥	-14873
襁	-14874
詩	-14875
誊	-14876
貴	-14877
赫	-14878
趾	-14879
跪	-14880
辕	-14881
鄙	-14882
铠	-14883
镇	-14884
阪	-14885
阱	-14886
雕	-14887
頓	-14888
顆	-14889
馋	-14890
馍	-14891
鹌	-14892
鹑	-14893
麵	-14894
%	-14895
乞	-14896
予	-14897
伊	-14898
匾	-14899
喘	-14900
嗝	-14901
嗫	-14902
圃	-14903
弛	-14904
悉	-14905
憾	-14906
戌	-14907
戲	-14908
抗	-14909
挽	-14910
揍	-14911
揖	-14912
搛	-14913
擇	-14914
敗	-14915
斧	-14916
栋	-14917
栏	-14918
桩	-14919
氏	-14920
汇	-14921
泰	-14922
淘	-14923
淨	-14924
渍	-14925
渠	-14926
渥	-14927
渺	-14928
漸	-14929
災	-14930
燎	-14931
猿	-14932
獐	-14933
番	-14934
疡	-14935
瘫	-14936
皆	-14937
皴	-14938
碼	-14939
窃	-14940
篓	-14941
篦	-14942
糯	-14943
絲	-14944
缸	-14945
膛	-14946
艘	-14947
艾	-14948
苤	-14949
藕	-14950
藝	-14951
藥	-14952
蟆	-14953
褶	-14954
設	-14955
謊	-14956
访	-14957
诏	-14958
谚	-14959
贩	-14960
赐	-14961
钳	-14962
镫	-14963
闯	-14964
陌	-14965
隆	-14966
靛	-14967
領	-14968
飲	-14969
驴	-14970
鬆	-14971
鹳	-14972
鹽	-14973
麥	-14974
󳤣	-14975
仙	-14976
係	-14977
励	-14978
哩	-14979
噎	-14980
嚷	-14981
奥	-14982
姻	-14983
届	-14984
岭	-14985
崩	-14986
巫	-14987
巽	-14988
巾	-14989
恭	-14990
惨	-14991
拦	-14992
挜	-14993
搓	-14994
搖	-14995
撬	-14996
據	-14997
敷	-14998
棄	-14999
棋	-15000
楔	-15001
樟	-15002
檢	-15003
歐	-15004
泉	-15005
淬	-15006
炭	-15007
牺	-15008
狂	-15009
瑞	-15010
瞌	-15011
祥	-15012
稗	-15013
稱	-15014
籍	-15015
緊	-15016
纱	-15017
胶	-15018
腊	-15019
藿	-15020
蘭	-15021
虱	-15022
蛾	-15023
裱	-15024
讳	-15025
诅	-15026
诞	-15027
負	-15028
財	-15029
賣	-15030
贷	-15031
贸	-15032
蹲	-15033
載	-15034
郎	-15035
鎖	-15036
鐵	-15037
霜	-15038
類	-15039
ꀋ	-15040
Z	-15041
è	-15042
兑	-15043
圪	-15044
壬	-15045
奢	-15046
妥	-15047
專	-15048
岔	-15049
岸	-15050
峨	-15051
峭	-15052
島	-15053
庚	-15054
廳	-15055
弗	-15056
恢	-15057
拴	-15058
捶	-15059
掃	-15060
搞	-15061
摞	-15062
柚	-15063
椆	-15064
沧	-15065
滓	-15066
煨	-15067
疯	-15068
痪	-15069
眯	-15070
磁	-15071
禽	-15072
穆	-15073
筷	-15074
級	-15075
紹	-15076
統	-15077
練	-15078
绾	-15079
芤	-15080
萌	-15081
蓖	-15082
蓟	-15083
蔫	-15084
蜘	-15085
蝠	-15086
衰	-15087
製	-15088
譯	-15089
讥	-15090
诓	-15091
豌	-15092
豐	-15093
賴	-15094
辔	-15095
逆	-15096
逻	-15097
酥	-15098
阉	-15099
雖	-15100
霹	-15101
順	-15102
颅	-15103
颊	-15104
黝	-15105
󲉖	-15106
]	-15107
ó	-15108
ō	-15109
優	-15110
剜	-15111
劇	-15112
卯	-15113
嘣	-15114
噗	-15115
圍	-15116
團	-15117
垦	-15118
央	-15119
宠	-15120
屈	-15121
屬	-15122
幺	-15123
庸	-15124
弈	-15125
慮	-15126
抡	-15127
挥	-15128
挼	-15129
搾	-15130
撂	-15131
昧	-15132
極	-15133
煞	-15134
熬	-15135
甄	-15136
產	-15137
畢	-15138
癣	-15139
眩	-15140
秤	-15141
筐	-15142
築	-15143
絡	-15144
罅	-15145
肃	-15146
肘	-15147
膘	-15148
膻	-15149
舀	-15150
范	-15151
荑	-15152
蛛	-15153
衬	-15154
褓	-15155
褪	-15156
規	-15157
訊	-15158
诵	-15159
購	-15160
辖	-15161
遞	-15162
鈕	-15163
钹	-15164
镯	-15165
閱	-15166
際	-15167
鹞	-15168
X	-15169
伺	-15170
凳	-15171
匪	-15172
卓	-15173
卻	-15174
咱	-15175
哦	-15176
唸	-15177
坦	-15178
奈	-15179
委	-15180
幕	-15181
廣	-15182
憔	-15183
憶	-15184
晶	-15185
枚	-15186
框	-15187
桨	-15188
標	-15189
橘	-15190
毀	-15191
漢	-15192
焉	-15193
熵	-15194
獲	-15195
疥	-15196
眾	-15197
睦	-15198
瞀	-15199
瞬	-15200
筹	-15201
細	-15202
維	-15203
缅	-15204
肢	-15205
苣	-15206
蛤	-15207
袖	-15208
誠	-15209
豪	-15210
豹	-15211
賨	-15212
賺	-15213
贤	-15214
趁	-15215
軍	-15216
輪	-15217
辭	-15218
迂	-15219
鈴	-15220
鎮	-15221
锛	-15222
锯	-15223
韩	-15224
顯	-15225
髻	-15226
鲍	-15227
齡	-15228
ū	-15229
乓	-15230
亦	-15231
厂	-15232
呵	-15233
嘗	-15234
嘲	-15235
圓	-15236
埃	-15237
執	-15238
壽	-15239
奮	-15240
宅	-15241
寓	-15242
峻	-15243
幣	-15244
幹	-15245
庹	-15246
弘	-15247
慰	-15248
抟	-15249
振	-15250
晋	-15251
櫱	-15252
欣	-15253
殊	-15254
氢	-15255
減	-15256
滗	-15257
澜	-15258
濟	-15259
灘	-15260
牆	-15261
疔	-15262
痘	-15263
督	-15264
碌	-15265
簾	-15266
署	-15267
耶	-15268
胛	-15269
腥	-15270
臉	-15271
葉	-15272
蒼	-15273
藍	-15274
蜀	-15275
褴	-15276
訝	-15277
谅	-15278
貨	-15279
贊	-15280
辞	-15281
辰	-15282
農	-15283
逊	-15284
鄉	-15285
酉	-15286
釣	-15287
閃	-15288
閒	-15289
雞	-15290
馒	-15291
騎	-15292
騙	-15293
骈	-15294
鸳	-15295
ꋍ	-15296
伍	-15297
伽	-15298
僰	-15299
刑	-15300
劣	-15301
啥	-15302
妙	-15303
導	-15304
巳	-15305
廢	-15306
恋	-15307
懷	-15308
拓	-15309
拧	-15310
撲	-15311
擁	-15312
擤	-15313
敵	-15314
朱	-15315
杰	-15316
栘	-15317
梢	-15318
橡	-15319
檩	-15320
歹	-15321
沌	-15322
涅	-15323
涌	-15324
滾	-15325
潲	-15326
烁	-15327
琳	-15328
瑚	-15329
瘊	-15330
盲	-15331
礁	-15332
秀	-15333
窮	-15334
篝	-15335
簽	-15336
罔	-15337
罵	-15338
苋	-15339
苕	-15340
莴	-15341
萊	-15342
蓋	-15343
薅	-15344
薪	-15345
衛	-15346
複	-15347
褙	-15348
評	-15349
諾	-15350
谣	-15351
賞	-15352
質	-15353
辜	-15354
迫	-15355
酪	-15356
銷	-15357
镐	-15358
陆	-15359
陸	-15360
靈	-15361
項	-15362
颠	-15363
鸯	-15364
ꆹ	-15365
ꐥ	-15366
á	-15367
⋯	-15368
丹	-15369
亥	-15370
亨	-15371
佈	-15372
佳	-15373
偉	-15374
冊	-15375
凍	-15376
創	-15377
勸	-15378
厲	-15379
嗨	-15380
囚	-15381
堅	-15382
壓	-15383
夕	-15384
夾	-15385
婦	-15386
审	-15387
宪	-15388
尤	-15389
崇	-15390
御	-15391
戟	-15392
扩	-15393
掛	-15394
柞	-15395
榮	-15396
櫃	-15397
權	-15398
歸	-15399
殆	-15400
沮	-15401
濕	-15402
瀑	-15403
烏	-15404
營	-15405
獄	-15406
獎	-15407
環	-15408
甘	-15409
瘋	-15410
碟	-15411
磅	-15412
秩	-15413
稣	-15414
筱	-15415
繩	-15416
繫	-15417
翼	-15418
耢	-15419
耻	-15420
肛	-15421
臨	-15422
芹	-15423
莊	-15424
襪	-15425
诊	-15426
豫	-15427
賭	-15428
赋	-15429
趋	-15430
踫	-15431
迅	-15432
逼	-15433
遭	-15434
遺	-15435
酬	-15436
鑰	-15437
销	-15438
闺	-15439
隧	-15440
隶	-15441
霧	-15442
靖	-15443
頁	-15444
飽	-15445
髒	-15446
鹇	-15447
ꑌ	-15448
ꒉ	-15449
󲈮	-15450
‘	-15451
丙	-15452
侵	-15453
僻	-15454
儒	-15455
儘	-15456
兼	-15457
删	-15458
勢	-15459
厕	-15460
厘	-15461
厩	-15462
嗉	-15463
嚇	-15464
嚨	-15465
圳	-15466
垄	-15467
塵	-15468
壯	-15469
寶	-15470
尬	-15471
屉	-15472
廠	-15473
恥	-15474
惡	-15475
懈	-15476
搶	-15477
擋	-15478
擠	-15479
杠	-15480
杭	-15481
柠	-15482
棱	-15483
榜	-15484
欄	-15485
泽	-15486
涼	-15487
淚	-15488
渔	-15489
測	-15490
溯	-15491
澆	-15492
濃	-15493
犀	-15494
狀	-15495
猶	-15496
瑜	-15497
疚	-15498
療	-15499
盤	-15500
瞭	-15501
禅	-15502
禍	-15503
秦	-15504
簿	-15505
績	-15506
缆	-15507
耿	-15508
臥	-15509
艰	-15510
芯	-15511
茬	-15512
菩	-15513
菸	-15514
蔺	-15515
薩	-15516
藉	-15517
蘿	-15518
虻	-15519
蚀	-15520
蠅	-15521
褲	-15522
訓	-15523
詢	-15524
詳	-15525
謀	-15526
讼	-15527
询	-15528
谊	-15529
谦	-15530
谬	-15531
豚	-15532
贺	-15533
邦	-15534
钮	-15535
閉	-15536
闆	-15537
額	-15538
骤	-15539
魅	-15540
鮮	-15541
ꁦ	-15542
ꂷ	-15543
·	-15544
í	-15545
ǎ	-15546
€	-15547
→	-15548
亂	-15549
佔	-15550
侣	-15551
僅	-15552
凌	-15553
凯	-15554
却	-15555
喻	-15556
壅	-15557
奧	-15558
宏	-15559
寂	-15560
尋	-15561
尴	-15562
崎	-15563
巍	-15564
廁	-15565
徒	-15566
怖	-15567
悖	-15568
悦	-15569
惹	-15570
愧	-15571
損	-15572
携	-15573
撥	-15574
撫	-15575
擎	-15576
擾	-15577
攝	-15578
昼	-15579
桂	-15580
械	-15581
楣	-15582
橄	-15583
氮	-15584
沄	-15585
沖	-15586
溺	-15587
滅	-15588
潔	-15589
潺	-15590
炊	-15591
烛	-15592
烹	-15593
煤	-15594
爲	-15595
牡	-15596
獅	-15597
癸	-15598
監	-15599
稚	-15600
積	-15601
穩	-15602
篡	-15603
籠	-15604
粹	-15605
糾	-15606
納	-15607
織	-15608
绅	-15609
臺	-15610
芬	-15611
芸	-15612
華	-15613
董	-15614
蒿	-15615
蔔	-15616
蟲	-15617
