<pad>	0
<unk>	0
<s>	0
</s>	0
ꀂ	0
ꀃ	0
ꀊ	0
ꀋ	0
ꀐ	0
ꀑ	0
ꁈ	0
ꁦ	0
ꂫ	0
ꂷ	0
ꃀ	0
ꃅ	0
ꃴ	0
ꆏ	0
ꆗ	0
ꆹ	0
ꇈ	0
ꇬ	0
ꋍ	0
ꋚ	0
ꌋ	0
ꌕ	0
ꌶ	0
ꌷ	0
ꌺ	0
ꏂ	0
ꏬ	0
ꐥ	0
ꑋ	0
ꑌ	0
ꑴ	0
ꒉ	0
󲈮	0
󲉖	0
󲊂	0
󲊖	0
󲊪	0
󲊭	0
󲊮	0
󲊰	0
󲊱	0
󲊴	0
󲜐	0
󲜑	0
󲜒	0
󲜓	0
󲜔	0
󲜕	0
󲜖	0
󲜗	0
󲜘	0
󲜙	0
󲜚	0
󲜛	0
󲜜	0
󲜝	0
󲜞	0
󲜟	0
󲜠	0
󲜡	0
󲜢	0
󲜣	0
󲜤	0
󲜥	0
󲜦	0
󲜧	0
󲜨	0
󲜩	0
󲜪	0
󲜫	0
󲜬	0
󲜭	0
󲜮	0
󲜯	0
󲜰	0
󲜱	0
󲜲	0
󲜳	0
󲜴	0
󲜵	0
󲜶	0
󲜷	0
󲜸	0
󲜹	0
󲜺	0
󲜻	0
󲜼	0
󲜽	0
󲜾	0
󲜿	0
󲝀	0
󲝁	0
󲝂	0
󲝃	0
󲝄	0
󲝅	0
󲝆	0
󲝇	0
󲝈	0
󲝉	0
󲝊	0
󲝋	0
󲝌	0
󲝍	0
󲝎	0
󲝏	0
󲝐	0
󲝑	0
󲝒	0
󲝓	0
󲝔	0
󲝕	0
󲝖	0
󲝗	0
󲝘	0
󲝙	0
󲝚	0
󲝛	0
󲝜	0
󲝝	0
󲝞	0
󲝟	0
󲝠	0
󲝡	0
󲝢	0
󲝣	0
󲝤	0
󲝥	0
󲝦	0
󲝧	0
󲝨	0
󲝩	0
󲝪	0
󲝫	0
󲝬	0
󲝭	0
󲝮	0
󲝯	0
󲝰	0
󲝱	0
󲝲	0
󲝳	0
󲝴	0
󲝵	0
󲝶	0
󲝷	0
󲝸	0
󲝹	0
󲝺	0
󲝻	0
󲝼	0
󲝽	0
󲝾	0
󲝿	0
󲞀	0
󲞁	0
󲞂	0
󲞃	0
󲞄	0
󲞅	0
󲞆	0
󲞇	0
󲞈	0
󲞉	0
󲞊	0
󲞋	0
󲞌	0
󲞍	0
󲞎	0
󲞏	0
󲞐	0
󲞑	0
󲞒	0
󲞓	0
󲞔	0
󲞕	0
󲞖	0
󲞗	0
󲞘	0
󲞙	0
󲞚	0
󲞛	0
󲞜	0
󲞝	0
󲞞	0
󲞟	0
󲞠	0
󲞡	0
󲞢	0
󲞣	0
󲞤	0
󲞥	0
󲞦	0
󲞧	0
󲞨	0
󲞩	0
󲞪	0
󲞫	0
󲞬	0
󲞭	0
󲞮	0
󲞯	0
󲞰	0
󲞱	0
󲞲	0
󲞳	0
󲞴	0
󲞵	0
󲞶	0
󲞷	0
󲞸	0
󲞹	0
󲞺	0
󲞻	0
󲞼	0
󲞽	0
󲞾	0
󲞿	0
󲟀	0
󲟁	0
󲟂	0
󲟃	0
󲟄	0
󲟅	0
󲟆	0
󲟇	0
󲟈	0
󲟉	0
󲟊	0
󲟋	0
󲟌	0
󲟍	0
󲟎	0
󲟏	0
󲟐	0
󲟑	0
󲟒	0
󲟓	0
󲟔	0
󲟕	0
󲟖	0
󲟗	0
󲟘	0
󲟙	0
󲟚	0
󲟛	0
󲟜	0
󲟝	0
󲟞	0
󲟟	0
󲟠	0
󲟡	0
󲟢	0
󲟣	0
󲟤	0
󲟥	0
󲟦	0
󲟧	0
󲟨	0
󲟩	0
󲟪	0
󲟫	0
󲟬	0
󲟭	0
󲟮	0
󲟯	0
󲟰	0
󲟱	0
󲟲	0
󲟳	0
󲟴	0
󲟵	0
󲟶	0
󲟷	0
󲟸	0
󲟹	0
󲟺	0
󲟻	0
󲟼	0
󲟽	0
󲟾	0
󲟿	0
󲠀	0
󲠁	0
󲠂	0
󲠃	0
󲠄	0
󲠅	0
󲠆	0
󲠇	0
󲠈	0
󲠉	0
󲠊	0
󲠋	0
󲠌	0
󲠍	0
󲠎	0
󲠏	0
󲠐	0
󲠑	0
󲠒	0
󲠓	0
󲠔	0
󲠕	0
󲠖	0
󲠗	0
󲠘	0
󲠙	0
󲠚	0
󲠛	0
󲠜	0
󲠝	0
󲠞	0
󲠟	0
󲠠	0
󲠡	0
󲠢	0
󲠣	0
󲠤	0
󲠥	0
󲠦	0
󲠧	0
󲠨	0
󲠩	0
󲠪	0
󲠫	0
󲠬	0
󲠭	0
󲠮	0
󲠯	0
󲠰	0
󲠱	0
󲠲	0
󲠳	0
󲠴	0
󲠵	0
󲠶	0
󲠷	0
󲠸	0
󲠹	0
󲠺	0
󲠻	0
󲠼	0
󲠽	0
󲠾	0
󲠿	0
󲡀	0
󲡁	0
󲡂	0
󲡃	0
󲡄	0
󲡅	0
󲡆	0
󲡇	0
󲡈	0
󲡉	0
󲡊	0
󲡋	0
󲡌	0
󲡍	0
󲡎	0
󲡏	0
󲡐	0
󲡑	0
󲡒	0
󲡓	0
󲡔	0
󲡕	0
󲡖	0
󲡗	0
󲡘	0
󲡙	0
󲡚	0
󲡛	0
󲡜	0
󲡝	0
󲡞	0
󲡟	0
󲡠	0
󲡡	0
󲡢	0
󲡣	0
󲡤	0
󲡥	0
󲡦	0
󲡧	0
󲡨	0
󲡩	0
󲡪	0
󲡫	0
󲡬	0
󲡭	0
󲡮	0
󲡯	0
󲡰	0
󲡱	0
󲡲	0
󲡳	0
󲡴	0
󲡵	0
󲡶	0
󲡷	0
󲡸	0
󲡹	0
󲡺	0
󲡻	0
󲡼	0
󲡽	0
󲡾	0
󲡿	0
󲢀	0
󲢁	0
󲢂	0
󲢃	0
󲢄	0
󲢅	0
󲢆	0
󲢇	0
󲢈	0
󲢉	0
󲢊	0
󲢋	0
󲢌	0
󲢍	0
󲢎	0
󲢏	0
󲢐	0
󲢑	0
󲢒	0
󲢓	0
󲢔	0
󲢕	0
󲢖	0
󲢗	0
󲢘	0
󲢙	0
󲢚	0
󲢛	0
󲢜	0
󲢝	0
󲢞	0
󲢟	0
󲢠	0
󲢡	0
󲢢	0
󲢣	0
󲢤	0
󲢥	0
󲢦	0
󲢧	0
󲢨	0
󲢩	0
󲢪	0
󲢫	0
󲢬	0
󲢭	0
󲢮	0
󲢯	0
󲢰	0
󲢱	0
󲢲	0
󲢳	0
󲢴	0
󲢵	0
󲢶	0
󲢷	0
󲢸	0
󲢹	0
󲢺	0
󲢻	0
󲢼	0
󲢽	0
󲢾	0
󲢿	0
󲣀	0
󲣁	0
󲣂	0
󲣃	0
󲣄	0
󲣅	0
󲣆	0
󲣇	0
󲣈	0
󲣉	0
󲣊	0
󲣋	0
󲣌	0
󲣍	0
󲣎	0
󲣏	0
󲣐	0
󲣑	0
󲣒	0
󲣓	0
󲣔	0
󲣕	0
󲣖	0
󲣗	0
󲣘	0
󲣙	0
󲣚	0
󲣛	0
󲣜	0
󲣝	0
󲣞	0
󲣟	0
󲣠	0
󲣡	0
󲣢	0
󲣣	0
󲣤	0
󲣥	0
󲣦	0
󲣧	0
󲣨	0
󲣩	0
󲣪	0
󲣫	0
󲣬	0
󲣭	0
󲣮	0
󲣯	0
󲣰	0
󲣱	0
󲣲	0
󲣳	0
󲣴	0
󲣵	0
󲣶	0
󲣷	0
󲣸	0
󲣹	0
󲣺	0
󲣻	0
󲣼	0
󲣽	0
󲣾	0
󲣿	0
󲤀	0
󲤁	0
󲤂	0
󲤃	0
󲤄	0
󲤅	0
󲤆	0
󲤇	0
󲤈	0
󲤉	0
󲤊	0
󲤋	0
󲤌	0
󲤍	0
󲤎	0
󲤏	0
󲤐	0
󲤑	0
󲤒	0
󲤓	0
󲤔	0
󲤕	0
󲤖	0
󲤗	0
󲤘	0
󲤙	0
󲤚	0
󲤛	0
󲤜	0
󲤝	0
󲤞	0
󲤟	0
󲤠	0
󲤡	0
󲤢	0
󲤣	0
󲤤	0
󲤥	0
󲤦	0
󲤧	0
󲤨	0
󲤩	0
󲤪	0
󲤫	0
󲤬	0
󲤭	0
󲤮	0
󲤯	0
󲤰	0
󲤱	0
󲤲	0
󲤳	0
󲤴	0
󲤵	0
󲤶	0
󲤷	0
󲤸	0
󲤹	0
󲤺	0
󲤻	0
󲤼	0
󲤽	0
󲤾	0
󲤿	0
󲥀	0
󲥁	0
󲥂	0
󲥃	0
󲥄	0
󲥅	0
󲥆	0
󲥇	0
󲥈	0
󲥉	0
󲥊	0
󲥋	0
󲥌	0
󲥍	0
󲥎	0
󲥏	0
󲥐	0
󲥑	0
󲥒	0
󲥓	0
󲥔	0
󲥕	0
󲥖	0
󲥗	0
󲥘	0
󲥙	0
󲥚	0
󲥛	0
󲥜	0
󲥝	0
󲥞	0
󲥟	0
󲥠	0
󲥡	0
󲥢	0
󲥣	0
󲥤	0
󲥥	0
󲥦	0
󲥧	0
󲥨	0
󲥩	0
󲥪	0
󲥫	0
󲥬	0
󲥭	0
󲥮	0
󲥯	0
󲥰	0
󲥱	0
󲥲	0
󲥳	0
󲥴	0
󲥵	0
󲥶	0
󲥷	0
󲥸	0
󲥹	0
󲥺	0
󲥻	0
󲥼	0
󲥽	0
󲥾	0
󲥿	0
󲦀	0
󲦁	0
󲦂	0
󲦃	0
󲦄	0
󲦅	0
󲦆	0
󲦇	0
󲦈	0
󲦉	0
󲦊	0
󲦋	0
󲦌	0
󲦍	0
󲦎	0
󲦏	0
󲦐	0
󲦑	0
󲦒	0
󲦓	0
󲦔	0
󲦕	0
󲦖	0
󲦗	0
󲦘	0
󲦙	0
󲦚	0
󲦛	0
󲦜	0
󲦝	0
󲦞	0
󲦟	0
󲦠	0
󲦡	0
󲦢	0
󲦣	0
󲦤	0
󲦥	0
󲦦	0
󲦧	0
󲦨	0
󲦩	0
󲦪	0
󲦫	0
󲦬	0
󲦭	0
󲦮	0
󲦯	0
󲦰	0
󲦱	0
󲦲	0
󲦳	0
󲦴	0
󲦵	0
󲦶	0
󲦷	0
󲦸	0
󲦹	0
󲦺	0
󲦻	0
󲦼	0
󲦽	0
󲦾	0
󲦿	0
󲧀	0
󲧁	0
󲧂	0
󲧃	0
󲧄	0
󲧅	0
󲧆	0
󲧇	0
󲧈	0
󲧉	0
󲧊	0
󲧋	0
󲧌	0
󲧍	0
󲧎	0
󲧏	0
󲧐	0
󲧑	0
󲧒	0
󲧓	0
󲧔	0
󲧕	0
󲧖	0
󲧗	0
󲧘	0
󲧙	0
󲧚	0
󲧛	0
󲧜	0
󲧝	0
󲧞	0
󲧟	0
󲧠	0
󲧡	0
󲧢	0
󲧣	0
󲧤	0
󲧥	0
󲧦	0
󲧧	0
󲧨	0
󲧩	0
󲧪	0
󲧫	0
󲧬	0
󲧭	0
󲧮	0
󲧯	0
󲧰	0
󲧱	0
󲧲	0
󲧳	0
󲧴	0
󲧵	0
󲧶	0
󲧷	0
󲧸	0
󲧹	0
󲧺	0
󲧻	0
󲧼	0
󲧽	0
󲧾	0
󲧿	0
󲨀	0
󲨁	0
󲨂	0
󲨃	0
󲨄	0
󲨅	0
󲨆	0
󲨇	0
󲨈	0
󲨉	0
󲨊	0
󲨋	0
󲨌	0
󲨍	0
󲨎	0
󲨏	0
󲨐	0
󲨑	0
󲨒	0
󲨓	0
󲨔	0
󲨕	0
󲨖	0
󲨗	0
󲨘	0
󲨙	0
󲨚	0
󲨛	0
󲨜	0
󲨝	0
󲨞	0
󲨟	0
󲨠	0
󲨡	0
󲨢	0
󲨣	0
󲨤	0
󲨥	0
󲨦	0
󲨧	0
󲨨	0
󲨩	0
󲨪	0
󲨫	0
󲨬	0
󲨭	0
󲨮	0
󲨯	0
󲨰	0
󲨱	0
󲨲	0
󲨳	0
󲨴	0
󲨵	0
󲨶	0
󲨷	0
󲨸	0
󲨹	0
󲨺	0
󲨻	0
󲨼	0
󲨽	0
󲨾	0
󲨿	0
󲩀	0
󲩁	0
󲩂	0
󲩃	0
󲩄	0
󲩅	0
󲩆	0
󲩇	0
󲩈	0
󲩉	0
󲩊	0
󲩋	0
󲩌	0
󲩍	0
󲩎	0
󲩏	0
󲩐	0
󲩑	0
󲩒	0
󲩓	0
󲩔	0
󲩕	0
󲩖	0
󲩗	0
󲩘	0
󲩙	0
󲩚	0
󲩛	0
󲩜	0
󲩝	0
󲩞	0
󲩟	0
󲩠	0
󲩡	0
󲩢	0
󲩣	0
󲩤	0
󲩥	0
󲩦	0
󲩧	0
󲩨	0
󲩩	0
󲩪	0
󲩫	0
󲩬	0
󲩭	0
󲩮	0
󲩯	0
󲩰	0
󲩱	0
󲩲	0
󲩳	0
󲩴	0
󲩵	0
󲩶	0
󲩷	0
󲩸	0
󲩹	0
󲩺	0
󲩻	0
󲩼	0
󲩽	0
󲩾	0
󲩿	0
󲪀	0
󲪁	0
󲪂	0
󲪃	0
󲪄	0
󲪅	0
󲪆	0
󲪇	0
󲪈	0
󲪉	0
󲪊	0
󲪋	0
󲪌	0
󲪍	0
󲪎	0
󲪏	0
󲪐	0
󲪑	0
󲪒	0
󲪓	0
󲪔	0
󲪕	0
󲪖	0
󲪗	0
󲪘	0
󲪙	0
󲪚	0
󲪛	0
󲪜	0
󲪝	0
󲪞	0
󲪟	0
󲪠	0
󲪡	0
󲪢	0
󲪣	0
󲪤	0
󲪥	0
󲪦	0
󲪧	0
󲪨	0
󲪩	0
󲪪	0
󲪫	0
󲪬	0
󲪭	0
󲪮	0
󲪯	0
󲪰	0
󲪱	0
󲪲	0
󲪳	0
󲪴	0
󲪵	0
󲪶	0
󲪷	0
󲪸	0
󲪹	0
󲪺	0
󲪻	0
󲪼	0
󲪽	0
󲪾	0
󲪿	0
󲫀	0
󲫁	0
󲫂	0
󲫃	0
󲫄	0
󲫅	0
󲫆	0
󲫇	0
󲫈	0
󲫉	0
󲫊	0
󲫋	0
󲫌	0
󲫍	0
󲫎	0
󲫏	0
󲫐	0
󲫑	0
󲫒	0
󲫓	0
󲫔	0
󲫕	0
󲫖	0
󲫗	0
󲫘	0
󲫙	0
󲫚	0
󲫛	0
󲫜	0
󲫝	0
󲫞	0
󲫟	0
󲫠	0
󲫡	0
󲫢	0
󲫣	0
󲫤	0
󲫥	0
󲫦	0
󲫧	0
󲫨	0
󲫩	0
󲫪	0
󲫫	0
󲫬	0
󲫭	0
󲫮	0
󲫯	0
󲫰	0
󲫱	0
󲫲	0
󲫳	0
󲫴	0
󲫵	0
󲫶	0
󲫷	0
󲫸	0
󲫹	0
󲫺	0
󲫻	0
󲫼	0
󲫽	0
󲫾	0
󲫿	0
󲬀	0
󲬁	0
󲬂	0
󲬃	0
󲬄	0
󲬅	0
󲬆	0
󲬇	0
󲬈	0
󲬉	0
󲬊	0
󲬋	0
󲬌	0
󲬍	0
󲬎	0
󲬏	0
󲬐	0
󲬑	0
󲬒	0
󲬓	0
󲬔	0
󲬕	0
󲬖	0
󲬗	0
󲬘	0
󲬙	0
󲬚	0
󲬛	0
󲬜	0
󲬝	0
󲬞	0
󲬟	0
󲬠	0
󲬡	0
󲬢	0
󲬣	0
󲬤	0
󲬥	0
󲬦	0
󲬧	0
󲬨	0
󲬩	0
󲬪	0
󲬫	0
󲬬	0
󲬭	0
󲬮	0
󲬯	0
󲬰	0
󲬱	0
󲬲	0
󲬳	0
󲬴	0
󲬵	0
󲬶	0
󲬷	0
󲬸	0
󲬹	0
󲬺	0
󲬻	0
󲬼	0
󲬽	0
󲬾	0
󲬿	0
󲭀	0
󲭁	0
󲭂	0
󲭃	0
󲭄	0
󲭅	0
󲭆	0
󲭇	0
󲭈	0
󲭉	0
󲭊	0
󲭋	0
󲭌	0
󲭍	0
󲭎	0
󲭏	0
󲭐	0
󲭑	0
󲭒	0
󲭓	0
󲭔	0
󲭕	0
󲭖	0
󲭗	0
󲭘	0
󲭙	0
󲭚	0
󲭛	0
󲭜	0
󲭝	0
󲭞	0
󲭟	0
󲭠	0
󲭡	0
󲭢	0
󲭣	0
󲭤	0
󲭥	0
󲭦	0
󲭧	0
󲭨	0
󲭩	0
󲭪	0
󲭫	0
󲭬	0
󲭭	0
󲭮	0
󲭯	0
󲭰	0
󲭱	0
󲭲	0
󲭳	0
󲭴	0
󲭵	0
󲭶	0
󲭷	0
󲭸	0
󲭹	0
󲭺	0
󲭻	0
󲭼	0
󲭽	0
󲭾	0
󲭿	0
󲮀	0
󲮁	0
󲮂	0
󲮃	0
󲮄	0
󲮅	0
󲮆	0
󲮇	0
󲮈	0
󲮉	0
󲮊	0
󲮋	0
󲮌	0
󲮍	0
󲮎	0
󲮏	0
󲮐	0
󲮑	0
󲮒	0
󲮓	0
󲮔	0
󲮕	0
󲮖	0
󲮗	0
󲮘	0
󲮙	0
󲮚	0
󲮛	0
󲮜	0
󲮝	0
󲮞	0
󲮟	0
󲮠	0
󲮡	0
󲮢	0
󲮣	0
󲮤	0
󲮥	0
󲮦	0
󲮧	0
󲮨	0
󲮩	0
󲮪	0
󲮫	0
󲮬	0
󲮭	0
󲮮	0
󲮯	0
󲮰	0
󲮱	0
󲮲	0
󲮳	0
󲮴	0
󲮵	0
󲮶	0
󲮷	0
󲮸	0
󲮹	0
󲮺	0
󲮻	0
󲮼	0
󲮽	0
󲮾	0
󲮿	0
󲯀	0
󲯁	0
󲯂	0
󲯃	0
󲯄	0
󲯅	0
󲯆	0
󲯇	0
󲯈	0
󲯉	0
󲯊	0
󲯋	0
󲯌	0
󲯍	0
󲯎	0
󲯏	0
󲯐	0
󲯑	0
󲯒	0
󲯓	0
󲯔	0
󲯕	0
󲯖	0
󲯗	0
󲯘	0
󲯙	0
󲯚	0
󲯛	0
󲯜	0
󲯝	0
󲯞	0
󲯟	0
󲯠	0
󲯡	0
󲯢	0
󲯣	0
󲯤	0
󲯥	0
󲯦	0
󲯧	0
󲯨	0
󲯩	0
󲯪	0
󲯫	0
󲯬	0
󲯭	0
󲯮	0
󲯯	0
󲯰	0
󲯱	0
󲯲	0
󲯳	0
󲯴	0
󲯵	0
󲯶	0
󲯷	0
󲯸	0
󲯹	0
󲯺	0
󲯻	0
󲯼	0
󲯽	0
󲯾	0
󲯿	0
󲰀	0
󲰁	0
󲰂	0
󲰃	0
󲰄	0
󲰅	0
󲰆	0
󲰇	0
󲰈	0
󲰉	0
󲰊	0
󲰋	0
󲰌	0
󲰍	0
󲰎	0
󲰏	0
󲰐	0
󲰑	0
󲰒	0
󲰓	0
󲰔	0
󲰕	0
󲰖	0
󲰗	0
󲰘	0
󲰙	0
󲰚	0
󲰛	0
󲰜	0
󲰝	0
󲰞	0
󲰟	0
󲰠	0
󲰡	0
󲰢	0
󲰣	0
󲰤	0
󲰥	0
󲰦	0
󲰧	0
󲰨	0
󲰩	0
󲰪	0
󲰫	0
󲰬	0
󲰭	0
󲰮	0
󲰯	0
󲰰	0
󲰱	0
󲰲	0
󲰳	0
󲰴	0
󲰵	0
󲰶	0
󲰷	0
󲰸	0
󲰹	0
󲰺	0
󲰻	0
󲰼	0
󲰽	0
󲰾	0
󲰿	0
󲱀	0
󲱁	0
󲱂	0
󲱃	0
󲱄	0
󲱅	0
󲱆	0
󲱇	0
󲱈	0
󲱉	0
󲱊	0
󲱋	0
󲱌	0
󲱍	0
󲱎	0
󲱏	0
󲱐	0
󲱑	0
󲱒	0
󲱓	0
󲱔	0
󲱕	0
󲱖	0
󲱗	0
󲱘	0
󲱙	0
󲱚	0
󲱛	0
󲱜	0
󲱝	0
󲱞	0
󲱟	0
󲱠	0
󲱡	0
󲱢	0
󲱣	0
󲱤	0
󲱥	0
󲱦	0
󲱧	0
󲱨	0
󲱩	0
󲱪	0
󲱫	0
󲱬	0
󲱭	0
󲱮	0
󲱯	0
󲱰	0
󲱱	0
󲱲	0
󲱳	0
󲱴	0
󲱵	0
󲱶	0
󲱷	0
󲱸	0
󲱹	0
󲱺	0
󲱻	0
󲱼	0
󲱽	0
󲱾	0
󲱿	0
󲲀	0
󲲁	0
󲲂	0
󲲃	0
󲲄	0
󲲅	0
󲲆	0
󲲇	0
󲲈	0
󲲉	0
󲲊	0
󲲋	0
󲲌	0
󲲍	0
󲲎	0
󲲏	0
󲲐	0
󲲑	0
󲲒	0
󲲓	0
󲲔	0
󲲕	0
󲲖	0
󲲗	0
󲲘	0
󲲙	0
󲲚	0
󲲛	0
󲲜	0
󲲝	0
󲲞	0
󲲟	0
󲲠	0
󲲡	0
󲲢	0
󲲣	0
󲲤	0
󲲥	0
󲲦	0
󲲧	0
󲲨	0
󲲩	0
󲲪	0
󲲫	0
󲲬	0
󲲭	0
󲲮	0
󲲯	0
󲲰	0
󲲱	0
󲲲	0
󲲳	0
󲲴	0
󲲵	0
󲲶	0
󲲷	0
󲲸	0
󲲹	0
󲲺	0
󲲻	0
󲲼	0
󲲽	0
󲲾	0
󲲿	0
󲳀	0
󲳁	0
󲳂	0
󲳃	0
󲳄	0
󲳅	0
󲳆	0
󲳇	0
󲳈	0
󲳉	0
󲳊	0
󲳋	0
󲳌	0
󲳍	0
󲳎	0
󲳏	0
󲳐	0
󲳑	0
󲳒	0
󲳓	0
󲳔	0
󲳕	0
󲳖	0
󲳗	0
󲳘	0
󲳙	0
󲳚	0
󲳛	0
󲳜	0
󲳝	0
󲳞	0
󲳟	0
󲳠	0
󲳡	0
󲳢	0
󲳣	0
󲳤	0
󲳥	0
󲳦	0
󲳧	0
󲳨	0
󲳩	0
󲳪	0
󲳫	0
󲳬	0
󲳭	0
󲳮	0
󲳯	0
󲳰	0
󲳱	0
󲳲	0
󲳳	0
󲳴	0
󲳵	0
󲳶	0
󲳷	0
󲳸	0
󲳹	0
󲳺	0
󲳻	0
󲳼	0
󲳽	0
󲳾	0
󲳿	0
󲴀	0
󲴁	0
󲴂	0
󲴃	0
󲴄	0
󲴅	0
󲴆	0
󲴇	0
󲴈	0
󲴉	0
󲴊	0
󲴋	0
󲴌	0
󲴍	0
󲴎	0
󲴏	0
󲴐	0
󲴑	0
󲴒	0
󲴓	0
󲴔	0
󲴕	0
󲴖	0
󲴗	0
󲴘	0
󲴙	0
󲴚	0
󲴛	0
󲴜	0
󲴝	0
󲴞	0
󲴟	0
󲴠	0
󲴡	0
󲴢	0
󲴣	0
󲴤	0
󲴥	0
󲴦	0
󲴧	0
󲴨	0
󲴩	0
󲴪	0
󲴫	0
󲴬	0
󲴭	0
󲴮	0
󲴯	0
󲴰	0
󲴱	0
󲴲	0
󲴳	0
󲴴	0
󲴵	0
󲴶	0
󲴷	0
󲴸	0
󲴹	0
󲴺	0
󲴻	0
󲴼	0
󲴽	0
󲴾	0
󲴿	0
󲵀	0
󲵁	0
󲵂	0
󲵃	0
󲵄	0
󲵅	0
󲵆	0
󲵇	0
󲵈	0
󲵉	0
󲵊	0
󲵋	0
󲵌	0
󲵍	0
󲵎	0
󲵏	0
󲵐	0
󲵑	0
󲵒	0
󲵓	0
󲵔	0
󲵕	0
󲵖	0
󲵗	0
󲵘	0
󲵙	0
󲵚	0
󲵛	0
󲵜	0
󲵝	0
󲵞	0
󲵟	0
󲵠	0
󲵡	0
󲵢	0
󲵣	0
󲵤	0
󲵥	0
󲵦	0
󲵧	0
󲵨	0
󲵩	0
󲵪	0
󲵫	0
󲵬	0
󲵭	0
󲵮	0
󲵯	0
󲵰	0
󲵱	0
󲵲	0
󲵳	0
󲵴	0
󲵵	0
󲵶	0
󲵷	0
󲵸	0
󲵹	0
󲵺	0
󲵻	0
󲵼	0
󲵽	0
󲵾	0
󲵿	0
󲶀	0
󲶁	0
󲶂	0
󲶃	0
󲶄	0
󲶅	0
󲶆	0
󲶇	0
󲶈	0
󲶉	0
󲶊	0
󲶋	0
󲶌	0
󲶍	0
󲶎	0
󲶏	0
󲶐	0
󲶑	0
󲶒	0
󲶓	0
󲶔	0
󲶕	0
󲶖	0
󲶗	0
󲶘	0
󲶙	0
󲶚	0
󲶛	0
󲶜	0
󲶝	0
󲶞	0
󲶟	0
󲶠	0
󲶡	0
󲶢	0
󲶣	0
󲶤	0
󲶥	0
󲶦	0
󲶧	0
󲶨	0
󲶩	0
󲶪	0
󲶫	0
󲶬	0
󲶭	0
󲶮	0
󲶯	0
󲶰	0
󲶱	0
󲶲	0
󲶳	0
󲶴	0
󲶵	0
󲶶	0
󲶷	0
󲶸	0
󲶹	0
󲶺	0
󲶻	0
󲶼	0
󲶽	0
󲶾	0
󲶿	0
󲷀	0
󲷁	0
󲷂	0
󲷃	0
󲷄	0
󲷅	0
󲷆	0
󲷇	0
󲷈	0
󲷉	0
󲷊	0
󲷋	0
󲷌	0
󲷍	0
󲷎	0
󲷏	0
󲷐	0
󲷑	0
󲷒	0
󲷓	0
󲷔	0
󲷕	0
󲷖	0
󲷗	0
󲷘	0
󲷙	0
󲷚	0
󲷛	0
󲷜	0
󲷝	0
󲷞	0
󲷟	0
󲷠	0
󲷡	0
󲷢	0
󲷣	0
󲷤	0
󲷥	0
󲷦	0
󲷧	0
󲷨	0
󲷩	0
󲷪	0
󲷫	0
󲷬	0
󲷭	0
󲷮	0
󲷯	0
󲷰	0
󲷱	0
󲷲	0
󲷳	0
󲷴	0
󲷵	0
󲷶	0
󲷷	0
󲷸	0
󲷹	0
󲷺	0
󲷻	0
󲷼	0
󲷽	0
󲷾	0
󲷿	0
󲸀	0
󲸁	0
󲸂	0
󲸃	0
󲸄	0
󲸅	0
󲸆	0
󲸇	0
󲸈	0
󲸉	0
󲸊	0
󲸋	0
󲸌	0
󲸍	0
󲸎	0
󲸏	0
󲸐	0
󲸑	0
󲸒	0
󲸓	0
󲸔	0
󲸕	0
󲸖	0
󲸗	0
󲸘	0
󲸙	0
󲸚	0
󲸛	0
󲸜	0
󲸝	0
󲸞	0
󲸟	0
󲸠	0
󲸡	0
󲸢	0
󲸣	0
󲸤	0
󲸥	0
󲸦	0
󲸧	0
󲸨	0
󲸩	0
󲸪	0
󲸫	0
󲸬	0
󲸭	0
󲸮	0
󲸯	0
󲸰	0
󲸱	0
󲸲	0
󲸳	0
󲸴	0
󲸵	0
󲸶	0
󲸷	0
󲸸	0
󲸹	0
󲸺	0
󲸻	0
󲸼	0
󲸽	0
󲸾	0
󲸿	0
󲹀	0
󲹁	0
󲹂	0
󲹃	0
󲹄	0
󲹅	0
󲹆	0
󲹇	0
󲹈	0
󲹉	0
󲹊	0
󲹋	0
󲹌	0
󲹍	0
󲹎	0
󲹏	0
󲹐	0
󲹑	0
󲹒	0
󲹓	0
󲹔	0
󲹕	0
󲹖	0
󲹗	0
󲹘	0
󲹙	0
󲹚	0
󲹛	0
󲹜	0
󲹝	0
󲹞	0
󲹟	0
󲹠	0
󲹡	0
󲹢	0
󲹣	0
󲹤	0
󲹥	0
󲹦	0
󲹧	0
󲹨	0
󲹩	0
󲹪	0
󲹫	0
󲹬	0
󲹭	0
󲹮	0
󲹯	0
󲹰	0
󲹱	0
󲹲	0
󲹳	0
󲹴	0
󲹵	0
󲹶	0
󲹷	0
󲹸	0
󲹹	0
󲹺	0
󲹻	0
󲹼	0
󲹽	0
󲹾	0
󲹿	0
󲺀	0
󲺁	0
󲺂	0
󲺃	0
󲺄	0
󲺅	0
󲺆	0
󲺇	0
󲺈	0
󲺉	0
󲺊	0
󲺋	0
󲺌	0
󲺍	0
󲺎	0
󲺏	0
󲺐	0
󲺑	0
󲺒	0
󲺓	0
󲺔	0
󲺕	0
󲺖	0
󲺗	0
󲺘	0
󲺙	0
󲺚	0
󲺛	0
󲺜	0
󲺝	0
󲺞	0
󲺟	0
󲺠	0
󲺡	0
󲺢	0
󲺣	0
󲺤	0
󲺥	0
󲺦	0
󲺧	0
󲺨	0
󲺩	0
󲺪	0
󲺫	0
󲺬	0
󲺭	0
󲺮	0
󲺯	0
󲺰	0
󲺱	0
󲺲	0
󲺳	0
󲺴	0
󲺵	0
󲺶	0
󲺷	0
󲺸	0
󲺹	0
󲺺	0
󲺻	0
󲺼	0
󲺽	0
󲺾	0
󲺿	0
󲻀	0
󲻁	0
󲻂	0
󲻃	0
󲻄	0
󲻅	0
󲻆	0
󲻇	0
󲻈	0
󲻉	0
󲻊	0
󲻋	0
󲻌	0
󲻍	0
󲻎	0
󲻏	0
󲻐	0
󲻑	0
󲻒	0
󲻓	0
󲻔	0
󲻕	0
󲻖	0
󲻗	0
󲻘	0
󲻙	0
󲻚	0
󲻛	0
󲻜	0
󲻝	0
󲻞	0
󲻟	0
󲻠	0
󲻡	0
󲻢	0
󲻣	0
󲻤	0
󲻥	0
󲻦	0
󲻧	0
󲻨	0
󲻩	0
󲻪	0
󲻫	0
󲻬	0
󲻭	0
󲻮	0
󲻯	0
󲻰	0
󲻱	0
󲻲	0
󲻳	0
󲻴	0
󲻵	0
󲻶	0
󲻷	0
󲻸	0
󲻹	0
󲻺	0
󲻻	0
󲻼	0
󲻽	0
󲻾	0
󲻿	0
󲼀	0
󲼁	0
󲼂	0
󲼃	0
󲼄	0
󲼅	0
󲼆	0
󲼇	0
󲼈	0
󲼉	0
󲼊	0
󲼋	0
󲼌	0
󲼍	0
󲼎	0
󲼏	0
󲼐	0
󲼑	0
󲼒	0
󲼓	0
󲼔	0
󲼕	0
󲼖	0
󲼗	0
󲼘	0
󲼙	0
󲼚	0
󲼛	0
󲼜	0
󲼝	0
󲼞	0
󲼟	0
󲼠	0
󲼡	0
󲼢	0
󲼣	0
󲼤	0
󲼥	0
󲼦	0
󲼧	0
󲼨	0
󲼩	0
󲼪	0
󲼫	0
󲼬	0
󲼭	0
󲼮	0
󲼯	0
󲼰	0
󲼱	0
󲼲	0
󲼳	0
󲼴	0
󲼵	0
󲼶	0
󲼷	0
󲼸	0
󲼹	0
󲼺	0
󲼻	0
󲼼	0
󲼽	0
󲼾	0
󲼿	0
󲽀	0
󲽁	0
󲽂	0
󲽃	0
󲽄	0
󲽅	0
󲽆	0
󲽇	0
󲽈	0
󲽉	0
󲽊	0
󲽋	0
󲽌	0
󲽍	0
󲽎	0
󲽏	0
󲽐	0
󲽑	0
󲽒	0
󲽓	0
󲽔	0
󲽕	0
󲽖	0
󲽗	0
󲽘	0
󲽙	0
󲽚	0
󲽛	0
󲽜	0
󲽝	0
󲽞	0
󲽟	0
󲽠	0
󲽡	0
󲽢	0
󲽣	0
󲽤	0
󲽥	0
󲽦	0
󲽧	0
󲽨	0
󲽩	0
󲽪	0
󲽫	0
󲽬	0
󲽭	0
󲽮	0
󲽯	0
󲽰	0
󲽱	0
󲽲	0
󲽳	0
󲽴	0
󲽵	0
󲽶	0
󲽷	0
󲽸	0
󲽹	0
󲽺	0
󲽻	0
󲽼	0
󲽽	0
󲽾	0
󲽿	0
󲾀	0
󲾁	0
󲾂	0
󲾃	0
󲾄	0
󲾅	0
󲾆	0
󲾇	0
󲾈	0
󲾉	0
󲾊	0
󲾋	0
󲾌	0
󲾍	0
󲾎	0
󲾏	0
󲾐	0
󲾑	0
󲾒	0
󲾓	0
󲾔	0
󲾕	0
󲾖	0
󲾗	0
󲾘	0
󲾙	0
󲾚	0
󲾛	0
󲾜	0
󲾝	0
󲾞	0
󲾟	0
󲾠	0
󲾡	0
󲾢	0
󲾣	0
󲾤	0
󲾥	0
󲾦	0
󲾧	0
󲾨	0
󲾩	0
󲾪	0
󲾫	0
󲾬	0
󲾭	0
󲾮	0
󲾯	0
󲾰	0
󲾱	0
󲾲	0
󲾳	0
󲾴	0
󲾵	0
󲾶	0
󲾷	0
󲾸	0
󲾹	0
󲾺	0
󲾻	0
󲾼	0
󲾽	0
󲾾	0
󲾿	0
󲿀	0
󲿁	0
󲿂	0
󲿃	0
󲿄	0
󲿅	0
󲿆	0
󲿇	0
󲿈	0
󲿉	0
󲿊	0
󲿋	0
󲿌	0
󲿍	0
󲿎	0
󲿏	0
󲿐	0
󲿑	0
󲿒	0
󲿓	0
󲿔	0
󲿕	0
󲿖	0
󲿗	0
󲿘	0
󲿙	0
󲿚	0
󲿛	0
󲿜	0
󲿝	0
󲿞	0
󲿟	0
󲿠	0
󲿡	0
󲿢	0
󲿣	0
󲿤	0
󲿥	0
󲿦	0
󲿧	0
󲿨	0
󲿩	0
󲿪	0
󲿫	0
󲿬	0
󲿭	0
󲿮	0
󲿯	0
󲿰	0
󲿱	0
󲿲	0
󲿳	0
󲿴	0
󲿵	0
󲿶	0
󲿷	0
󲿸	0
󲿹	0
󲿺	0
󲿻	0
󲿼	0
󲿽	0
󲿾	0
󲿿	0
󳀀	0
󳀁	0
󳀂	0
󳀃	0
󳀄	0
󳀅	0
󳀆	0
󳀇	0
󳀈	0
󳀉	0
󳀊	0
󳀋	0
󳀌	0
󳀍	0
󳀎	0
󳀏	0
󳀐	0
󳀑	0
󳀒	0
󳀓	0
󳀔	0
󳀕	0
󳀖	0
󳀗	0
󳀘	0
󳀙	0
󳀚	0
󳀛	0
󳀜	0
󳀝	0
󳀞	0
󳀟	0
󳀠	0
󳀡	0
󳀢	0
󳀣	0
󳀤	0
󳀥	0
󳀦	0
󳀧	0
󳀨	0
󳀩	0
󳀪	0
󳀫	0
󳀬	0
󳀭	0
󳀮	0
󳀯	0
󳀰	0
󳀱	0
󳀲	0
󳀳	0
󳀴	0
󳀵	0
󳀶	0
󳀷	0
󳀸	0
󳀹	0
󳀺	0
󳀻	0
󳀼	0
󳀽	0
󳀾	0
󳀿	0
󳁀	0
󳁁	0
󳁂	0
󳁃	0
󳁄	0
󳁅	0
󳁆	0
󳁇	0
󳁈	0
󳁉	0
󳁊	0
󳁋	0
󳁌	0
󳁍	0
󳁎	0
󳁏	0
󳁐	0
󳁑	0
󳁒	0
󳁓	0
󳁔	0
󳁕	0
󳁖	0
󳁗	0
󳁘	0
󳁙	0
󳁚	0
󳁛	0
󳁜	0
󳁝	0
󳁞	0
󳁟	0
󳁠	0
󳁡	0
󳁢	0
󳁣	0
󳁤	0
󳁥	0
󳁦	0
󳁧	0
󳁨	0
󳁩	0
󳁪	0
󳁫	0
󳁬	0
󳁭	0
󳁮	0
󳁯	0
󳁰	0
󳁱	0
󳁲	0
󳁳	0
󳁴	0
󳁵	0
󳁶	0
󳁷	0
󳁸	0
󳁹	0
󳁺	0
󳁻	0
󳁼	0
󳁽	0
󳁾	0
󳁿	0
󳂀	0
󳂁	0
󳂂	0
󳂃	0
󳂄	0
󳂅	0
󳂆	0
󳂇	0
󳂈	0
󳂉	0
󳂊	0
󳂋	0
󳂌	0
󳂍	0
󳂎	0
󳂏	0
󳂐	0
󳂑	0
󳂒	0
󳂓	0
󳂔	0
󳂕	0
󳂖	0
󳂗	0
󳂘	0
󳂙	0
󳂚	0
󳂛	0
󳂜	0
󳂝	0
󳂞	0
󳂟	0
󳂠	0
󳂡	0
󳂢	0
󳂣	0
󳂤	0
󳂥	0
󳂦	0
󳂧	0
󳂨	0
󳂩	0
󳂪	0
󳂫	0
󳂬	0
󳂭	0
󳂮	0
󳂯	0
󳂰	0
󳂱	0
󳂲	0
󳂳	0
󳂴	0
󳂵	0
󳂶	0
󳂷	0
󳂸	0
󳂹	0
󳂺	0
󳂻	0
󳂼	0
󳂽	0
󳂾	0
󳂿	0
󳃀	0
󳃁	0
󳃂	0
󳃃	0
󳃄	0
󳃅	0
󳃆	0
󳃇	0
󳃈	0
󳃉	0
󳃊	0
󳃋	0
󳃌	0
󳃍	0
󳃎	0
󳃏	0
󳃐	0
󳃑	0
󳃒	0
󳃓	0
󳃔	0
󳃕	0
󳃖	0
󳃗	0
󳃘	0
󳃙	0
󳃚	0
󳃛	0
󳃜	0
󳃝	0
󳃞	0
󳃟	0
󳃠	0
󳃡	0
󳃢	0
󳃣	0
󳃤	0
󳃥	0
󳃦	0
󳃧	0
󳃨	0
󳃩	0
󳃪	0
󳃫	0
󳃬	0
󳃭	0
󳃮	0
󳃯	0
󳃰	0
󳃱	0
󳃲	0
󳃳	0
󳃴	0
󳃵	0
󳃶	0
󳃷	0
󳃸	0
󳃹	0
󳃺	0
󳃻	0
󳃼	0
󳃽	0
󳃾	0
󳃿	0
󳄀	0
󳄁	0
󳄂	0
󳄃	0
󳄄	0
󳄅	0
󳄆	0
󳄇	0
󳄈	0
󳄉	0
󳄊	0
󳄋	0
󳄌	0
󳄍	0
󳄎	0
󳄏	0
󳄐	0
󳄑	0
󳄒	0
󳄓	0
󳄔	0
󳄕	0
󳄖	0
󳄗	0
󳄘	0
󳄙	0
󳄚	0
󳄛	0
󳄜	0
󳄝	0
󳄞	0
󳄟	0
󳄠	0
󳄡	0
󳄢	0
󳄣	0
󳄤	0
󳄥	0
󳄦	0
󳄧	0
󳄨	0
󳄩	0
󳄪	0
󳄫	0
󳄬	0
󳄭	0
󳄮	0
󳄯	0
󳄰	0
󳄱	0
󳄲	0
󳄳	0
󳄴	0
󳄵	0
󳄶	0
󳄷	0
󳄸	0
󳄹	0
󳄺	0
󳄻	0
󳄼	0
󳄽	0
󳄾	0
󳄿	0
󳅀	0
󳅁	0
󳅂	0
󳅃	0
󳅄	0
󳅅	0
󳅆	0
󳅇	0
󳅈	0
󳅉	0
󳅊	0
󳅋	0
󳅌	0
󳅍	0
󳅎	0
󳅏	0
󳅐	0
󳅑	0
󳅒	0
󳅓	0
󳅔	0
󳅕	0
󳅖	0
󳅗	0
󳅘	0
󳅙	0
󳅚	0
󳅛	0
󳅜	0
󳅝	0
󳅞	0
󳅟	0
󳅠	0
󳅡	0
󳅢	0
󳅣	0
󳅤	0
󳅥	0
󳅦	0
󳅧	0
󳅨	0
󳅩	0
󳅪	0
󳅫	0
󳅬	0
󳅭	0
󳅮	0
󳅯	0
󳅰	0
󳅱	0
󳅲	0
󳅳	0
󳅴	0
󳅵	0
󳅶	0
󳅷	0
󳅸	0
󳅹	0
󳅺	0
󳅻	0
󳅼	0
󳅽	0
󳅾	0
󳅿	0
󳆀	0
󳆁	0
󳆂	0
󳆃	0
󳆄	0
󳆅	0
󳆆	0
󳆇	0
󳆈	0
󳆉	0
󳆊	0
󳆋	0
󳆌	0
󳆍	0
󳆎	0
󳆏	0
󳆐	0
󳆑	0
󳆒	0
󳆓	0
󳆔	0
󳆕	0
󳆖	0
󳆗	0
󳆘	0
󳆙	0
󳆚	0
󳆛	0
󳆜	0
󳆝	0
󳆞	0
󳆟	0
󳆠	0
󳆡	0
󳆢	0
󳆣	0
󳆤	0
󳆥	0
󳆦	0
󳆧	0
󳆨	0
󳆩	0
󳆪	0
󳆫	0
󳆬	0
󳆭	0
󳆮	0
󳆯	0
󳆰	0
󳆱	0
󳆲	0
󳆳	0
󳆴	0
󳆵	0
󳆶	0
󳆷	0
󳆸	0
󳆹	0
󳆺	0
󳆻	0
󳆼	0
󳆽	0
󳆾	0
󳆿	0
󳇀	0
󳇁	0
󳇂	0
󳇃	0
󳇄	0
󳇅	0
󳇆	0
󳇇	0
󳇈	0
󳇉	0
󳇊	0
󳇋	0
󳇌	0
󳇍	0
󳇎	0
󳇏	0
󳇐	0
󳇑	0
󳇒	0
󳇓	0
󳇔	0
󳇕	0
󳇖	0
󳇗	0
󳇘	0
󳇙	0
󳇚	0
󳇛	0
󳇜	0
󳇝	0
󳇞	0
󳇟	0
󳇠	0
󳇡	0
󳇢	0
󳇣	0
󳇤	0
󳇥	0
󳇦	0
󳇧	0
󳇨	0
󳇩	0
󳇪	0
󳇫	0
󳇬	0
󳇭	0
󳇮	0
󳇯	0
󳇰	0
󳇱	0
󳇲	0
󳇳	0
󳇴	0
󳇵	0
󳇶	0
󳇷	0
󳇸	0
󳇹	0
󳇺	0
󳇻	0
󳇼	0
󳇽	0
󳇾	0
󳇿	0
󳈀	0
󳈁	0
󳈂	0
󳈃	0
󳈄	0
󳈅	0
󳈆	0
󳈇	0
󳈈	0
󳈉	0
󳈊	0
󳈋	0
󳈌	0
󳈍	0
󳈎	0
󳈏	0
󳈐	0
󳈑	0
󳈒	0
󳈓	0
󳈔	0
󳈕	0
󳈖	0
󳈗	0
󳈘	0
󳈙	0
󳈚	0
󳈛	0
󳈜	0
󳈝	0
󳈞	0
󳈟	0
󳈠	0
󳈡	0
󳈢	0
󳈣	0
󳈤	0
󳈥	0
󳈦	0
󳈧	0
󳈨	0
󳈩	0
󳈪	0
󳈫	0
󳈬	0
󳈭	0
󳈮	0
󳈯	0
󳈰	0
󳈱	0
󳈲	0
󳈳	0
󳈴	0
󳈵	0
󳈶	0
󳈷	0
󳈸	0
󳈹	0
󳈺	0
󳈻	0
󳈼	0
󳈽	0
󳈾	0
󳈿	0
󳉀	0
󳉁	0
󳉂	0
󳉃	0
󳉄	0
󳉅	0
󳉆	0
󳉇	0
󳉈	0
󳉉	0
󳉊	0
󳉋	0
󳉌	0
󳉍	0
󳉎	0
󳉏	0
󳉐	0
󳉑	0
󳉒	0
󳉓	0
󳉔	0
󳉕	0
󳉖	0
󳉗	0
󳉘	0
󳉙	0
󳉚	0
󳉛	0
󳉜	0
󳉝	0
󳉞	0
󳉟	0
󳉠	0
󳉡	0
󳉢	0
󳉣	0
󳉤	0
󳉥	0
󳉦	0
󳉧	0
󳉨	0
󳉩	0
󳉪	0
󳉫	0
󳉬	0
󳉭	0
󳉮	0
󳉯	0
󳉰	0
󳉱	0
󳉲	0
󳉳	0
󳉴	0
󳉵	0
󳉶	0
󳉷	0
󳉸	0
󳉹	0
󳉺	0
󳉻	0
󳉼	0
󳉽	0
󳉾	0
󳉿	0
󳊀	0
󳊁	0
󳊂	0
󳊃	0
󳊄	0
󳊅	0
󳊆	0
󳊇	0
󳊈	0
󳊉	0
󳊊	0
󳊋	0
󳊌	0
󳊍	0
󳊎	0
󳊏	0
󳊐	0
󳊑	0
󳊒	0
󳊓	0
󳊔	0
󳊕	0
󳊖	0
󳊗	0
󳊘	0
󳊙	0
󳊚	0
󳊛	0
󳊜	0
󳊝	0
󳊞	0
󳊟	0
󳊠	0
󳊡	0
󳊢	0
󳊣	0
󳊤	0
󳊥	0
󳊦	0
󳊧	0
󳊨	0
󳊩	0
󳊪	0
󳊫	0
󳊬	0
󳊭	0
󳊮	0
󳊯	0
󳊰	0
󳊱	0
󳊲	0
󳊳	0
󳊴	0
󳊵	0
󳊶	0
󳊷	0
󳊸	0
󳊹	0
󳊺	0
󳊻	0
󳊼	0
󳊽	0
󳊾	0
󳊿	0
󳋀	0
󳋁	0
󳋂	0
󳋃	0
󳋄	0
󳋅	0
󳋆	0
󳋇	0
󳋈	0
󳋉	0
󳋊	0
󳋋	0
󳋌	0
󳋍	0
󳋎	0
󳋏	0
󳋐	0
󳋑	0
󳋒	0
󳋓	0
󳋔	0
󳋕	0
󳋖	0
󳋗	0
󳋘	0
󳋙	0
󳋚	0
󳋛	0
󳋜	0
󳋝	0
󳋞	0
󳋟	0
󳋠	0
󳋡	0
󳋢	0
󳋣	0
󳋤	0
󳋥	0
󳋦	0
󳋧	0
󳋨	0
󳋩	0
󳋪	0
󳋫	0
󳋬	0
󳋭	0
󳋮	0
󳋯	0
󳋰	0
󳋱	0
󳋲	0
󳋳	0
󳋴	0
󳋵	0
󳋶	0
󳋷	0
󳋸	0
󳋹	0
󳋺	0
󳋻	0
󳋼	0
󳋽	0
󳋾	0
󳋿	0
󳌀	0
󳌁	0
󳌂	0
󳌃	0
󳌄	0
󳌅	0
󳌆	0
󳌇	0
󳌈	0
󳌉	0
󳌊	0
󳌋	0
󳌌	0
󳌍	0
󳌎	0
󳌏	0
󳌐	0
󳌑	0
󳌒	0
󳌓	0
󳌔	0
󳌕	0
󳌖	0
󳌗	0
󳌘	0
󳌙	0
󳌚	0
󳌛	0
󳌜	0
󳌝	0
󳌞	0
󳌟	0
󳌠	0
󳌡	0
󳌢	0
󳌣	0
󳌤	0
󳌥	0
󳌦	0
󳌧	0
󳌨	0
󳌩	0
󳌪	0
󳌫	0
󳌬	0
󳌭	0
󳌮	0
󳌯	0
󳌰	0
󳌱	0
󳌲	0
󳌳	0
󳌴	0
󳌵	0
󳌶	0
󳌷	0
󳌸	0
󳌹	0
󳌺	0
󳌻	0
󳌼	0
󳌽	0
󳌾	0
󳌿	0
󳍀	0
󳍁	0
󳍂	0
󳍃	0
󳍄	0
󳍅	0
󳍆	0
󳍇	0
󳍈	0
󳍉	0
󳍊	0
󳍋	0
󳍌	0
󳍍	0
󳍎	0
󳍏	0
󳍐	0
󳍑	0
󳍒	0
󳍓	0
󳍔	0
󳍕	0
󳍖	0
󳍗	0
󳍘	0
󳍙	0
󳍚	0
󳍛	0
󳍜	0
󳍝	0
󳍞	0
󳍟	0
󳍠	0
󳍡	0
󳍢	0
󳍣	0
󳍤	0
󳍥	0
󳍦	0
󳍧	0
󳍨	0
󳍩	0
󳍪	0
󳍫	0
󳍬	0
󳍭	0
󳍮	0
󳍯	0
󳍰	0
󳍱	0
󳍲	0
󳍳	0
󳍴	0
󳍵	0
󳍶	0
󳍷	0
󳍸	0
󳍹	0
󳍺	0
󳍻	0
󳍼	0
󳍽	0
󳍾	0
󳍿	0
󳎀	0
󳎁	0
󳎂	0
󳎃	0
󳎄	0
󳎅	0
󳎆	0
󳎇	0
󳎈	0
󳎉	0
󳎊	0
󳎋	0
󳎌	0
󳎍	0
󳎎	0
󳎏	0
󳎐	0
󳎑	0
󳎒	0
󳎓	0
󳎔	0
󳎕	0
󳎖	0
󳎗	0
󳎘	0
󳎙	0
󳎚	0
󳎛	0
󳎜	0
󳎝	0
󳎞	0
󳎟	0
󳎠	0
󳎡	0
󳎢	0
󳎣	0
󳎤	0
󳎥	0
󳎦	0
󳎧	0
󳎨	0
󳎩	0
󳎪	0
󳎫	0
󳎬	0
󳎭	0
󳎮	0
󳎯	0
󳎰	0
󳎱	0
󳎲	0
󳎳	0
󳎴	0
󳎵	0
󳎶	0
󳎷	0
󳎸	0
󳎹	0
󳎺	0
󳎻	0
󳎼	0
󳎽	0
󳎾	0
󳎿	0
󳏀	0
󳏁	0
󳏂	0
󳏃	0
󳏄	0
󳏅	0
󳏆	0
󳏇	0
󳏈	0
󳏉	0
󳏊	0
󳏋	0
󳏌	0
󳏍	0
󳏎	0
󳏏	0
󳏐	0
󳏑	0
󳏒	0
󳏓	0
󳏔	0
󳏕	0
󳏖	0
󳏗	0
󳏘	0
󳏙	0
󳏚	0
󳏛	0
󳏜	0
󳏝	0
󳏞	0
󳏟	0
󳏠	0
󳏡	0
󳏢	0
󳏣	0
󳏤	0
󳏥	0
󳏦	0
󳏧	0
󳏨	0
󳏩	0
󳏪	0
󳏫	0
󳏬	0
󳏭	0
󳏮	0
󳏯	0
󳏰	0
󳏱	0
󳏲	0
󳏳	0
󳏴	0
󳏵	0
󳏶	0
󳏷	0
󳏸	0
󳏹	0
󳏺	0
󳏻	0
󳏼	0
󳏽	0
󳏾	0
󳏿	0
󳐀	0
󳐁	0
󳐂	0
󳐃	0
󳐄	0
󳐅	0
󳐆	0
󳐇	0
󳐈	0
󳐉	0
󳐊	0
󳐋	0
󳐌	0
󳐍	0
󳐎	0
󳐏	0
󳐐	0
󳐑	0
󳐒	0
󳐓	0
󳐔	0
󳐕	0
󳐖	0
󳐗	0
󳐘	0
󳐙	0
󳐚	0
󳐛	0
󳐜	0
󳐝	0
󳐞	0
󳐟	0
󳐠	0
󳐡	0
󳐢	0
󳐣	0
󳐤	0
󳐥	0
󳐦	0
󳐧	0
󳐨	0
󳐩	0
󳐪	0
󳐫	0
󳐬	0
󳐭	0
󳐮	0
󳐯	0
󳐰	0
󳐱	0
󳐲	0
󳐳	0
󳐴	0
󳐵	0
󳐶	0
󳐷	0
󳐸	0
󳐹	0
󳐺	0
󳐻	0
󳐼	0
󳐽	0
󳐾	0
󳐿	0
󳑀	0
󳑁	0
󳑂	0
󳑃	0
󳑄	0
󳑅	0
󳑆	0
󳑇	0
󳑈	0
󳑉	0
󳑊	0
󳑋	0
󳑌	0
󳑍	0
󳑎	0
󳑏	0
󳑐	0
󳑑	0
󳑒	0
󳑓	0
󳑔	0
󳑕	0
󳑖	0
󳑗	0
󳑘	0
󳑙	0
󳑚	0
󳑛	0
󳑜	0
󳑝	0
󳑞	0
󳑟	0
󳑠	0
󳑡	0
󳑢	0
󳑣	0
󳑤	0
󳑥	0
󳑦	0
󳑧	0
󳑨	0
󳑩	0
󳑪	0
󳑫	0
󳑬	0
󳑭	0
󳑮	0
󳑯	0
󳑰	0
󳑱	0
󳑲	0
󳑳	0
󳑴	0
󳑵	0
󳑶	0
󳑷	0
󳑸	0
󳑹	0
󳑺	0
󳑻	0
󳑼	0
󳑽	0
󳑾	0
󳑿	0
󳒀	0
󳒁	0
󳒂	0
󳒃	0
󳒄	0
󳒅	0
󳒆	0
󳒇	0
󳒈	0
󳒉	0
󳒊	0
󳒋	0
󳒌	0
󳒍	0
󳒎	0
󳒏	0
󳒐	0
󳒑	0
󳒒	0
󳒓	0
󳒔	0
󳒕	0
󳒖	0
󳒗	0
󳒘	0
󳒙	0
󳒚	0
󳒛	0
󳒜	0
󳒝	0
󳒞	0
󳒟	0
󳒠	0
󳒡	0
󳒢	0
󳒣	0
󳒤	0
󳒥	0
󳒦	0
󳒧	0
󳒨	0
󳒩	0
󳒪	0
󳒫	0
󳒬	0
󳒭	0
󳒮	0
󳒯	0
󳒰	0
󳒱	0
󳒲	0
󳒳	0
󳒴	0
󳒵	0
󳒶	0
󳒷	0
󳒸	0
󳒹	0
󳒺	0
󳒻	0
󳒼	0
󳒽	0
󳒾	0
󳒿	0
󳓀	0
󳓁	0
󳓂	0
󳓃	0
󳓄	0
󳓅	0
󳓆	0
󳓇	0
󳓈	0
󳓉	0
󳓊	0
󳓋	0
󳓌	0
󳓍	0
󳓎	0
󳓏	0
󳓐	0
󳓑	0
󳓒	0
󳓓	0
󳓔	0
󳓕	0
󳓖	0
󳓗	0
󳓘	0
󳓙	0
󳓚	0
󳓛	0
󳓜	0
󳓝	0
󳓞	0
󳓟	0
󳓠	0
󳓡	0
󳓢	0
󳓣	0
󳓤	0
󳓥	0
󳓦	0
󳓧	0
󳓨	0
󳓩	0
󳓪	0
󳓫	0
󳓬	0
󳓭	0
󳓮	0
󳓯	0
󳓰	0
󳓱	0
󳓲	0
󳓳	0
󳓴	0
󳓵	0
󳓶	0
󳓷	0
󳓸	0
󳓹	0
󳓺	0
󳓻	0
󳓼	0
󳓽	0
󳓾	0
󳓿	0
󳔀	0
󳔁	0
󳔂	0
󳔃	0
󳔄	0
󳔅	0
󳔆	0
󳔇	0
󳔈	0
󳔉	0
󳔊	0
󳔋	0
󳔌	0
󳔍	0
󳔎	0
󳔏	0
󳔐	0
󳔑	0
󳔒	0
󳔓	0
󳔔	0
󳔕	0
󳔖	0
󳔗	0
󳔘	0
󳔙	0
󳔚	0
󳔛	0
󳔜	0
󳔝	0
󳔞	0
󳔟	0
󳔠	0
󳔡	0
󳔢	0
󳔣	0
󳔤	0
󳔥	0
󳔦	0
󳔧	0
󳔨	0
󳔩	0
󳔪	0
󳔫	0
󳔬	0
󳔭	0
󳔮	0
󳔯	0
󳔰	0
󳔱	0
󳔲	0
󳔳	0
󳔴	0
󳔵	0
󳔶	0
󳔷	0
󳔸	0
󳔹	0
󳔺	0
󳔻	0
󳔼	0
󳔽	0
󳔾	0
󳔿	0
󳕀	0
󳕁	0
󳕂	0
󳕃	0
󳕄	0
󳕅	0
󳕆	0
󳕇	0
󳕈	0
󳕉	0
󳕊	0
󳕋	0
󳕌	0
󳕍	0
󳕎	0
󳕏	0
󳕐	0
󳕑	0
󳕒	0
󳕓	0
󳕔	0
󳕕	0
󳕖	0
󳕗	0
󳕘	0
󳕙	0
󳕚	0
󳕛	0
󳕜	0
󳕝	0
󳕞	0
󳕟	0
󳕠	0
󳕡	0
󳕢	0
󳕣	0
󳕤	0
󳕥	0
󳕦	0
󳕧	0
󳕨	0
󳕩	0
󳕪	0
󳕫	0
󳕬	0
󳕭	0
󳕮	0
󳕯	0
󳕰	0
󳕱	0
󳕲	0
󳕳	0
󳕴	0
󳕵	0
󳕶	0
󳕷	0
󳕸	0
󳕹	0
󳕺	0
󳕻	0
󳕼	0
󳕽	0
󳕾	0
󳕿	0
󳖀	0
󳖁	0
󳖂	0
󳖃	0
󳖄	0
󳖅	0
󳖆	0
󳖇	0
󳖈	0
󳖉	0
󳖊	0
󳖋	0
󳖌	0
󳖍	0
󳖎	0
󳖏	0
󳖐	0
󳖑	0
󳖒	0
󳖓	0
󳖔	0
󳖕	0
󳖖	0
󳖗	0
󳖘	0
󳖙	0
󳖚	0
󳖛	0
󳖜	0
󳖝	0
󳖞	0
󳖟	0
󳖠	0
󳖡	0
󳖢	0
󳖣	0
󳖤	0
󳖥	0
󳖦	0
󳖧	0
󳖨	0
󳖩	0
󳖪	0
󳖫	0
󳖬	0
󳖭	0
󳖮	0
󳖯	0
󳖰	0
󳖱	0
󳖲	0
󳖳	0
󳖴	0
󳖵	0
󳖶	0
󳖷	0
󳖸	0
󳖹	0
󳖺	0
󳖻	0
󳖼	0
󳖽	0
󳖾	0
󳖿	0
󳗀	0
󳗁	0
󳗂	0
󳗃	0
󳗄	0
󳗅	0
󳗆	0
󳗇	0
󳗈	0
󳗉	0
󳗊	0
󳗋	0
󳗌	0
󳗍	0
󳗎	0
󳗏	0
󳗐	0
󳗑	0
󳗒	0
󳗓	0
󳗔	0
󳗕	0
󳗖	0
󳗗	0
󳗘	0
󳗙	0
󳗚	0
󳗛	0
󳗜	0
󳗝	0
󳗞	0
󳗟	0
󳗠	0
󳗡	0
󳗢	0
󳗣	0
󳗤	0
󳗥	0
󳗦	0
󳗧	0
󳗨	0
󳗩	0
󳗪	0
󳗫	0
󳗬	0
󳗭	0
󳗮	0
󳗯	0
󳗰	0
󳗱	0
󳗲	0
󳗳	0
󳗴	0
󳗵	0
󳗶	0
󳗷	0
󳗸	0
󳗹	0
󳗺	0
󳗻	0
󳗼	0
󳗽	0
󳗾	0
󳗿	0
󳘀	0
󳘁	0
󳘂	0
󳘃	0
󳘄	0
󳘅	0
󳘆	0
󳘇	0
󳘈	0
󳘉	0
󳘊	0
󳘋	0
󳘌	0
󳘍	0
󳘎	0
󳘏	0
󳘐	0
󳘑	0
󳘒	0
󳘓	0
󳘔	0
󳘕	0
󳘖	0
󳘗	0
󳘘	0
󳘙	0
󳘚	0
󳘛	0
󳘜	0
󳘝	0
󳘞	0
󳘟	0
󳘠	0
󳘡	0
󳘢	0
󳘣	0
󳘤	0
󳘥	0
󳘦	0
󳘧	0
󳘨	0
󳘩	0
󳘪	0
󳘫	0
󳘬	0
󳘭	0
󳘮	0
󳘯	0
󳘰	0
󳘱	0
󳘲	0
󳘳	0
󳘴	0
󳘵	0
󳘶	0
󳘷	0
󳘸	0
󳘹	0
󳘺	0
󳘻	0
󳘼	0
󳘽	0
󳘾	0
󳘿	0
󳙀	0
󳙁	0
󳙂	0
󳙃	0
󳙄	0
󳙅	0
󳙆	0
󳙇	0
󳙈	0
󳙉	0
󳙊	0
󳙋	0
󳙌	0
󳙍	0
󳙎	0
󳙏	0
󳙐	0
󳙑	0
󳙒	0
󳙓	0
󳙔	0
󳙕	0
󳙖	0
󳙗	0
󳙘	0
󳙙	0
󳙚	0
󳙛	0
󳙜	0
󳙝	0
󳙞	0
󳙟	0
󳙠	0
󳙡	0
󳙢	0
󳙣	0
󳙤	0
󳙥	0
󳙦	0
󳙧	0
󳙨	0
󳙩	0
󳙪	0
󳙫	0
󳙬	0
󳙭	0
󳙮	0
󳙯	0
󳙰	0
󳙱	0
󳙲	0
󳙳	0
󳙴	0
󳙵	0
󳙶	0
󳙷	0
󳙸	0
󳙹	0
󳙺	0
󳙻	0
󳙼	0
󳙽	0
󳙾	0
󳙿	0
󳚀	0
󳚁	0
󳚂	0
󳚃	0
󳚄	0
󳚅	0
󳚆	0
󳚇	0
󳚈	0
󳚉	0
󳚊	0
󳚋	0
󳚌	0
󳚍	0
󳚎	0
󳚏	0
󳚐	0
󳚑	0
󳚒	0
󳚓	0
󳚔	0
󳚕	0
󳚖	0
󳚗	0
󳚘	0
󳚙	0
󳚚	0
󳚛	0
󳚜	0
󳚝	0
󳚞	0
󳚟	0
󳚠	0
󳚡	0
󳚢	0
󳚣	0
󳚤	0
󳚥	0
󳚦	0
󳚧	0
󳚨	0
󳚩	0
󳚪	0
󳚫	0
󳚬	0
󳚭	0
󳚮	0
󳚯	0
󳚰	0
󳚱	0
󳚲	0
󳚳	0
󳚴	0
󳚵	0
󳚶	0
󳚷	0
󳚸	0
󳚹	0
󳚺	0
󳚻	0
󳚼	0
󳚽	0
󳚾	0
󳚿	0
󳛀	0
󳛁	0
󳛂	0
󳛃	0
󳛄	0
󳛅	0
󳛆	0
󳛇	0
󳛈	0
󳛉	0
󳛊	0
󳛋	0
󳛌	0
󳛍	0
󳛎	0
󳛏	0
󳛐	0
󳛑	0
󳛒	0
󳛓	0
󳛔	0
󳛕	0
󳛖	0
󳛗	0
󳛘	0
󳛙	0
󳛚	0
󳛛	0
󳛜	0
󳛝	0
󳛞	0
󳛟	0
󳛠	0
󳛡	0
󳛢	0
󳛣	0
󳛤	0
󳛥	0
󳛦	0
󳛧	0
󳛨	0
󳛩	0
󳛪	0
󳛫	0
󳛬	0
󳛭	0
󳛮	0
󳛯	0
󳛰	0
󳛱	0
󳛲	0
󳛳	0
󳛴	0
󳛵	0
󳛶	0
󳛷	0
󳛸	0
󳛹	0
󳛺	0
󳛻	0
󳛼	0
󳛽	0
󳛾	0
󳛿	0
󳜀	0
󳜁	0
󳜂	0
󳜃	0
󳜄	0
󳜅	0
󳜆	0
󳜇	0
󳜈	0
󳜉	0
󳜊	0
󳜋	0
󳜌	0
󳜍	0
󳜎	0
󳜏	0
󳜐	0
󳜑	0
󳜒	0
󳜓	0
󳜔	0
󳜕	0
󳜖	0
󳜗	0
󳜘	0
󳜙	0
󳜚	0
󳜛	0
󳜜	0
󳜝	0
󳜞	0
󳜟	0
󳜠	0
󳜡	0
󳜢	0
󳜣	0
󳜤	0
󳜥	0
󳜦	0
󳜧	0
󳤣	0
󿜚	0
󿜟	0
󿭓	0
▁t	-0
▁i	-1
▁s	-2
he	-3
▁a	-4
▁to	-5
▁w	-6
ou	-7
in	-8
an	-9
re	-10
彝文	-11
▁m	-12
▁the	-13
at	-14
▁is	-15
▁我	-16
ri	-17
▁c	-18
er	-19
▁(	-20
on	-21
▁b	-22
▁h	-23
▁y	-24
▁in	-25
▁f	-26
▁d	-27
es	-28
or	-29
▁Y	-30
▁you	-31
▁sc	-32
▁l	-33
字符	-34
en	-35
pt	-36
▁这	-37
▁Yi	-38
ript	-39
▁script	-40
is	-41
彝文字符	-42
▁T	-43
ing	-44
▁p	-45
ay	-46
▁I	-47
ow	-48
▁这是	-49
as	-50
▁th	-51
ar	-52
ed	-53
ll	-54
文是	-55
▁g	-56
▁o	-57
ans	-58
▁n	-59
▁he	-60
ve	-61
▁H	-62
om	-63
ate	-64
xf	-65
什么	-66
▁你	-67
le	-68
▁他	-69
▁me	-70
it	-71
ic	-72
ot	-73
▁这是彝文字符	-74
的英	-75
rans	-76
late	-77
▁'	-78
ranslate	-79
的英文是	-80
▁of	-81
et	-82
▁for	-83
▁0	-84
▁e	-85
▁ha	-86
ver	-87
▁Translate	-88
编号	-89
翻译	-90
oo	-91
hin	-92
▁an	-93
).	-94
ke	-95
un	-96
ese	-97
▁say	-98
us	-99
▁How	-100
▁do	-101
ld	-102
▁The	-103
▁st	-104
▁be	-105
hinese	-106
▁li	-107
用彝文	-108
▁C	-109
个彝文字符	-110
im	-111
▁we	-112
▁翻译	-113
组合	-114
的组合	-115
▁这是两	-116
个彝文字符的组合	-117
▁这是两个彝文字符的组合	-118
al	-119
ter	-120
▁on	-121
▁this	-122
▁|	-123
▁are	-124
ent	-125
▁it	-126
ac	-127
gh	-128
▁re	-129
de	-130
▁请	-131
▁have	-132
▁Chinese	-133
▁my	-134
▁at	-135
ion	-136
▁W	-137
中文是	-138
very	-139
的英文是什么	-140
▁wh	-141
▁r	-142
▁It	-143
her	-144
▁was	-145
st	-146
id	-147
se	-148
am	-149
▁can	-150
ad	-151
ome	-152
▁彝文	-153
▁your	-154
怎么	-155
▁go	-156
ch	-157
ill	-158
ut	-159
ght	-160
ant	-161
ain	-162
▁He	-163
ir	-164
▁not	-165
ith	-166
▁like	-167
▁1	-168
▁that	-169
▁with	-170
▁ne	-171
ly	-172
表示	-173
ook	-174
▁k	-175
ce	-176
all	-177
ore	-178
;2	-179
▁very	-180
通用彝文	-181
;2、	-182
写作	-183
▁means	-184
out	-185
▁and	-186
▁as	-187
▁请问	-188
▁his	-189
ct	-190
'.	-191
op	-192
」。	-193
ur	-194
用彝文怎么	-195
用通用彝文	-196
用彝文怎么表示	-197
用通用彝文写作	-198
▁se	-199
ould	-200
▁這	-201
up	-202
▁sh	-203
▁un	-204
对应	-205
day	-206
ode	-207
ak	-208
ase	-209
)).	-210
▁wor	-211
▁te	-212
▁am	-213
ish	-214
one	-215
icode	-216
ge	-217
▁编号	-218
▁j	-219
▁ch	-220
ood	-221
▁sp	-222
th	-223
是什么	-224
)'	-225
ro	-226
1、	-227
ast	-228
▁will	-229
ong	-230
qu	-231
oun	-232
▁than	-233
ul	-234
ap	-235
ake	-236
▁tr	-237
um	-238
▁pl	-239
▁him	-240
▁has	-241
▁what	-242
il	-243
lease	-244
▁want	-245
end	-246
▁M	-247
▁fr	-248
▁ab	-249
▁((	-250
est	-251
▁le	-252
▁al	-253
▁us	-254
and	-255
▁2	-256
我的	-257
▁我们	-258
▁don	-259
▁up	-260
ation	-261
),	-262
)。	-263
now	-264
);	-265
分别	-266
分别是	-267
和编号	-268
分别是编号	-269
ust	-270
pp	-271
▁so	-272
▁en	-273
ry	-274
▁You	-275
ud	-276
▁there	-277
▁A	-278
▁com	-279
if	-280
▁我們	-281
▁more	-282
可以	-283
▁'(	-284
▁tim	-285
量词	-286
▁no	-287
喜欢	-288
ard	-289
你的	-290
ive	-291
▁Th	-292
▁whe	-293
▁ri	-294
▁from	-295
▁by	-296
▁ex	-297
▁chinese	-298
彝族	-299
▁did	-300
▁book	-301
▁know	-302
▁Wh	-303
ight	-304
our	-305
ort	-306
gl	-307
art	-308
ave	-309
ame	-310
▁get	-311
:(	-312
▁de	-313
▁man	-314
ble	-315
▁please	-316
▁S	-317
▁D	-318
ind	-319
ool	-320
等于	-321
▁how	-322
▁co	-323
▁time	-324
▁我不	-325
ure	-326
▁qu	-327
▁she	-328
▁We	-329
▁wat	-330
glish	-331
ang	-332
▁2.	-333
▁all	-334
▁彝文字	-335
ass	-336
ist	-337
are	-338
▁cl	-339
▁stud	-340
▁那	-341
ess	-342
了一	-343
▁spe	-344
今天	-345
ol	-346
fe	-347
▁good	-348
▁通	-349
▁1.	-350
中文	-351
te	-352
▁her	-353
ree	-354
▁lo	-355
ather	-356
30	-357
▁had	-358
ear	-359
▁here	-360
:0	-361
ers	-362
▁out	-363
ire	-364
ack	-365
▁work	-366
知道	-367
uch	-368
▁我想	-369
文化	-370
用彝文字符	-371
用彝文字符集	-372
unicode	-373
▁unicode	-374
▁通用彝文字符集	-375
▁too	-376
什么彝文	-377
▁come	-378
对应什么彝文	-379
对应彝文字符	-380
▁see	-381
ig	-382
ie	-383
alk	-384
▁day	-385
▁any	-386
▁play	-387
一个	-388
▁home	-389
▁about	-390
ck	-391
▁fe	-392
▁con	-393
other	-394
他的	-395
ine	-396
ning	-397
▁car	-398
▁one	-399
▁sch	-400
沒有	-401
os	-402
;2、(	-403
ice	-404
▁我的	-405
多少	-406
▁J	-407
▁translate	-408
▁af	-409
ound	-410
▁school	-411
ous	-412
▁不	-413
der	-414
▁v	-415
▁字符	-416
▁pe	-417
▁br	-418
ild	-419
▁ro	-420
31	-421
什麼	-422
ep	-423
▁mo	-424
ink	-425
ven	-426
▁tw	-427
etter	-428
32	-429
▁This	-430
工作	-431
▁E	-432
35	-433
36	-434
way	-435
▁long	-436
▁;	-437
ace	-438
own	-439
▁bo	-440
▁她	-441
▁ma	-442
▁speak	-443
一個	-444
▁ar	-445
ary	-446
▁last	-447
34	-448
▁every	-449
el	-450
喜歡	-451
▁ac	-452
▁year	-453
▁bus	-454
▁comp	-455
00	-456
29	-457
28	-458
▁sm	-459
ount	-460
ople	-461
翻译成	-462
▁eat	-463
▁sa	-464
▁pro	-465
▁look	-466
▁What	-467
▁people	-468
mp	-469
▁or	-470
▁today	-471
ity	-472
我們	-473
ark	-474
▁'1、	-475
▁請	-476
ren	-477
我们	-478
▁gr	-479
▁P	-480
apan	-481
▁yes	-482
▁should	-483
hing	-484
▁new	-485
▁read	-486
需要	-487
▁ag	-488
▁dr	-489
昨天	-490
▁some	-491
▁tom	-492
▁take	-493
terday	-494
▁does	-495
age	-496
文字	-497
ick	-498
▁teac	-499
res	-500
▁yesterday	-501
动词	-502
▁fl	-503
▁ten	-504
lf	-505
▁off	-506
意思	-507
▁child	-508
ect	-509
▁when	-510
▁请把	-511
▁su	-512
▁我在	-513
▁english	-514
這個	-515
▁would	-516
hed	-517
▁going	-518
▁now	-519
▁were	-520
▁got	-521
27	-522
ob	-523
很多	-524
▁My	-525
▁happ	-526
ved	-527
没有	-528
ag	-529
孩子	-530
▁old	-531
▁must	-532
ult	-533
▁who	-534
量子	-535
▁but	-536
lp	-537
▁many	-538
▁ear	-539
▁much	-540
▁sw	-541
翻译成中文	-542
▁请把彝文	-543
重要	-544
▁went	-545
朋友	-546
▁two	-547
到了	-548
▁L	-549
ought	-550
▁rain	-551
▁1、	-552
▁help	-553
▁fri	-554
▁if	-555
日本	-556
▁been	-557
▁made	-558
▁water	-559
▁bl	-560
▁teacher	-561
不是	-562
▁今天	-563
▁app	-564
▁我很	-565
▁where	-566
▁after	-567
▁"	-568
▁op	-569
▁ad	-570
▁N	-571
▁exp	-572
▁他的	-573
urn	-574
ting	-575
ory	-576
自己	-577
ouse	-578
▁friend	-579
▁pr	-580
彝语	-581
▁B	-582
row	-583
▁Do	-584
▁有	-585
ue	-586
▁在	-587
▁they	-588
▁bu	-589
▁think	-590
▁这个	-591
▁may	-592
ork	-593
▁make	-594
ose	-595
ally	-596
▁walk	-597
▁house	-598
等于多少	-599
▁student	-600
33	-601
▁dog	-602
▁our	-603
▁better	-604
▁lear	-605
oney	-606
▁There	-607
:1、	-608
▁En	-609
red	-610
▁ke	-611
▁po	-612
▁hard	-613
▁well	-614
▁over	-615
世界	-616
可能	-617
▁back	-618
这个	-619
ctor	-620
ty	-621
▁您	-622
ough	-623
▁down	-624
▁need	-625
▁wri	-626
▁give	-627
时候	-628
▁acc	-629
▁imp	-630
▁train	-631
av	-632
able	-633
▁money	-634
em	-635
体系	-636
ide	-637
含义	-638
reat	-639
有一	-640
ence	-641
▁call	-642
ky	-643
▁room	-644
▁mor	-645
▁could	-646
▁let	-647
ond	-648
ways	-649
▁night	-650
▁three	-651
中的	-652
非常	-653
▁always	-654
▁morning	-655
xt	-656
▁如	-657
時候	-658
not	-659
▁wr	-660
▁dri	-661
▁一	-662
fic	-663
正在	-664
les	-665
的彝文	-666
▁English	-667
ther	-668
▁cat	-669
ies	-670
self	-671
▁cannot	-672
▁doctor	-673
一下	-674
..	-675
▁把	-676
▁study	-677
本书	-678
很好	-679
▁G	-680
▁我要	-681
▁dis	-682
▁我喜欢	-683
▁mat	-684
▁years	-685
ict	-686
▁dif	-687
od	-688
ance	-689
▁part	-690
在哪	-691
);'	-692
▁never	-693
▁thing	-694
ca	-695
▁just	-696
▁mus	-697
色的	-698
ber	-699
▁ph	-700
ment	-701
tle	-702
37	-703
ile	-704
▁under	-705
中国	-706
▁你的	-707
在彝族	-708
omet	-709
▁int	-710
▁str	-711
英文	-712
▁yi	-713
ci	-714
ft	-715
aut	-716
▁right	-717
▁Please	-718
湯姆	-719
▁tell	-720
▁late	-721
ng	-722
irst	-723
▁Whe	-724
▁soon	-725
▁stay	-726
▁beaut	-727
▁如果	-728
▁way	-729
orrow	-730
▁inte	-731
ab	-732
▁K	-733
▁swim	-734
);2、(	-735
ite	-736
▁這個	-737
的人	-738
wer	-739
fore	-740
▁sun	-741
▁talk	-742
形容	-743
ten	-744
▁不要	-745
▁cold	-746
是一	-747
▁ask	-748
▁lik	-749
▁run	-750
▁came	-751
已經	-752
akes	-753
▁feel	-754
任何	-755
▁watch	-756
ank	-757
ock	-758
angu	-759
▁use	-760
之一	-761
50	-762
應該	-763
work	-764
thing	-765
▁before	-766
去了	-767
学习	-768
ves	-769
▁langu	-770
▁next	-771
▁老	-772
语言	-773
ired	-774
▁Tom	-775
▁only	-776
iful	-777
▁fin	-778
▁lar	-779
▁F	-780
hes	-781
ek	-782
▁beautiful	-783
▁sup	-784
▁weather	-785
au	-786
房子	-787
▁live	-788
▁music	-789
▁father	-790
▁brother	-791
▁japan	-792
▁bre	-793
▁lot	-794
▁river	-795
早上	-796
▁air	-797
词缀	-798
cle	-799
ving	-800
▁ans	-801
▁put	-802
▁forg	-803
給我	-804
▁far	-805
▁res	-806
▁week	-807
▁other	-808
oh	-809
天气	-810
rest	-811
现在	-812
eri	-813
▁didn	-814
是我	-815
▁station	-816
▁meet	-817
▁happy	-818
▁bought	-819
英語	-820
ress	-821
▁world	-822
port	-823
▁boy	-824
▁lit	-825
antum	-826
▁count	-827
air	-828
ition	-829
cl	-830
ait	-831
ters	-832
▁likes	-833
游泳	-834
ffe	-835
ich	-836
▁Japan	-837
ied	-838
mer	-839
▁他在	-840
▁mon	-841
▁hot	-842
▁again	-843
49	-844
星期	-845
民族	-846
给我	-847
▁name	-848
▁tomorrow	-849
ip	-850
表意	-851
ach	-852
▁tall	-853
字详	-854
ane	-855
字详解	-856
▁des	-857
19	-858
▁left	-859
▁took	-860
▁letter	-861
問題	-862
每天	-863
▁他们	-864
▁mind	-865
▁park	-866
▁wait	-867
▁learn	-868
▁somet	-869
▁little	-870
3、	-871
og	-872
▁word	-873
▁young	-874
iz	-875
▁big	-876
文字体系	-877
▁first	-878
明天	-879
火车	-880
blem	-881
▁fam	-882
▁rem	-883
▁said	-884
▁answer	-885
alth	-886
▁That	-887
▁door	-888
▁problem	-889
45	-890
咖啡	-891
use	-892
▁beg	-893
▁bel	-894
▁turn	-895
ily	-896
▁gir	-897
ident	-898
39	-899
ok	-900
表达	-901
ian	-902
ise	-903
▁won	-904
住在	-905
古老	-906
▁你不	-907
▁你在	-908
ried	-909
ix	-910
▁O	-911
考虑	-912
古老的	-913
▁cle	-914
▁pre	-915
▁flow	-916
▁gave	-917
▁into	-918
▁quantum	-919
医生	-920
问题	-921
使动	-922
故事	-923
ens	-924
▁他是	-925
▁湯姆	-926
▁five	-927
▁life	-928
▁these	-929
回家	-930
希望	-931
ffee	-932
▁keep	-933
▁language	-934
68	-935
現在	-936
甚麼	-937
ange	-938
▁pass	-939
▁children	-940
ficult	-941
▁difficult	-942
最好	-943
▁class	-944
▁coffee	-945
学生	-946
erson	-947
48	-948
iv	-949
▁天	-950
很高	-951
東西	-952
iss	-953
▁girl	-954
的彝文翻译	-955
▁leave	-956
act	-957
的文化	-958
▁mov	-959
▁彝文中	-960
▁care	-961
estion	-962
▁interest	-963
一起	-964
时间	-965
開始	-966
als	-967
);2、	-968
▁bir	-969
▁che	-970
10	-971
地位	-972
▁Don	-973
▁break	-974
▁great	-975
▁tired	-976
不仅	-977
历史	-978
anc	-979
ra	-980
智慧	-981
ody	-982
read	-983
▁import	-984
名词	-985
她的	-986
erm	-987
▁found	-988
ream	-989
▁fish	-990
▁compu	-991
下雨	-992
有很多	-993
▁busy	-994
47	-995
▁lun	-996
▁lost	-997
▁love	-998
▁used	-999
▁mount	-1000
▁health	-1001
▁question	-1002
38	-1003
▁大	-1004
学校	-1005
怎麼	-1006
nis	-1007
▁fo	-1008
▁eas	-1009
▁sur	-1010
▁hour	-1011
▁open	-1012
40	-1013
cc	-1014
名字	-1015
▁fast	-1016
▁rest	-1017
在彝族文化	-1018
▁mother	-1019
no	-1020
使用	-1021
▁start	-1022
城市	-1023
大的	-1024
很快	-1025
ope	-1026
▁sis	-1027
▁sing	-1028
不会	-1029
所有	-1030
llow	-1031
▁nothing	-1032
英语	-1033
▁gl	-1034
ject	-1035
▁tennis	-1036
1。	-1037
ts	-1038
成功	-1039
leep	-1040
▁hun	-1041
▁pen	-1042
60	-1043
自然	-1044
ful	-1045
▁你想	-1046
▁underst	-1047
aw	-1048
每个	-1049
ohn	-1050
ull	-1051
▁saw	-1052
ction	-1053
▁lunch	-1054
ia	-1055
▁war	-1056
▁best	-1057
58	-1058
ye	-1059
ail	-1060
▁孩子	-1061
▁彝语	-1062
健康	-1063
记录	-1064
▁gu	-1065
▁sl	-1066
▁人	-1067
传统	-1068
本書	-1069
男孩	-1070
▁Can	-1071
▁why	-1072
▁drink	-1073
▁mountain	-1074
应该	-1075
▁while	-1076
▁His	-1077
▁met	-1078
▁tea	-1079
ished	-1080
ne	-1081
▁homework	-1082
昨晚	-1083
是最	-1084
ars	-1085
▁你可以	-1086
▁days	-1087
▁doesn	-1088
东西	-1089
漂亮	-1090
46	-1091
起來	-1092
要考虑	-1093
orry	-1094
▁buy	-1095
▁large	-1096
▁太	-1097
ris	-1098
▁often	-1099
59	-1100
;'	-1101
ss	-1102
不起	-1103
了我	-1104
那个	-1105
ner	-1106
▁我會	-1107
▁wind	-1108
▁still	-1109
下午	-1110
衣服	-1111
▁even	-1112
▁pict	-1113
▁month	-1114
▁accident	-1115
)(	-1116
是中国	-1117
的時候	-1118
▁fire	-1119
▁picture	-1120
▁important	-1121
2。	-1122
不要	-1123
注意	-1124
igh	-1125
body	-1126
▁Let	-1127
一點	-1128
這裡	-1129
▁你有	-1130
为什么	-1131
▁sum	-1132
▁list	-1133
来了	-1134
走了	-1135
▁something	-1136
4。	-1137
ub	-1138
不會	-1139
就是	-1140
房間	-1141
▁什么	-1142
▁bed	-1143
▁kind	-1144
▁once	-1145
▁anything	-1146
57	-1147
努力	-1148
▁bro	-1149
▁pol	-1150
pl	-1151
▁量子	-1152
▁plan	-1153
▁understand	-1154
5。	-1155
▁Are	-1156
▁win	-1157
▁city	-1158
3。	-1159
▁你们	-1160
ited	-1161
▁arri	-1162
▁away	-1163
▁stop	-1164
▁playing	-1165
的事	-1166
oss	-1167
oth	-1168
▁free	-1169
▁hand	-1170
▁doing	-1171
▁country	-1172
计算	-1173
▁量词	-1174
▁cor	-1175
▁six	-1176
▁3	-1177
告诉	-1178
▁你是	-1179
世界上	-1180
▁wish	-1181
gry	-1182
▁你能	-1183
fast	-1184
▁yet	-1185
▁tele	-1186
▁sister	-1187
▁friends	-1188
属于	-1189
▁light	-1190
生活	-1191
umb	-1192
aking	-1193
▁such	-1194
▁breakfast	-1195
67	-1196
回答	-1197
真的	-1198
这里	-1199
int	-1200
▁mar	-1201
▁Where	-1202
▁drive	-1203
▁which	-1204
41	-1205
地方	-1206
女孩	-1207
必須	-1208
ated	-1209
ened	-1210
▁min	-1211
▁vis	-1212
▁上	-1213
开始	-1214
很有	-1215
▁昨天	-1216
▁phone	-1217
▁story	-1218
▁around	-1219
▁things	-1220
必须	-1221
感到	-1222
▁ever	-1223
▁books	-1224
▁sleep	-1225
▁summer	-1226
af	-1227
orse	-1228
▁job	-1229
gr	-1230
一直	-1231
告訴	-1232
容易	-1233
电影	-1234
電話	-1235
音乐	-1236
的时候	-1237
ball	-1238
▁adv	-1239
▁food	-1240
▁earth	-1241
▁wrong	-1242
▁strong	-1243
都有	-1244
ath	-1245
▁ele	-1246
oy	-1247
▁我会	-1248
▁這是	-1249
▁att	-1250
▁fore	-1251
▁show	-1252
▁movie	-1253
6。	-1254
美丽	-1255
hina	-1256
noon	-1257
▁rec	-1258
▁write	-1259
▁without	-1260
▁afternoon	-1261
▁red	-1262
any	-1263
ign	-1264
▁我有	-1265
▁我可以	-1266
▁miss	-1267
年的	-1268
▁mist	-1269
▁reading	-1270
▁finished	-1271
ph	-1272
▁老师	-1273
ital	-1274
▁cut	-1275
▁sal	-1276
."	-1277
▁是	-1278
一次	-1279
ife	-1280
oud	-1281
▁sec	-1282
以前	-1283
公园	-1284
相信	-1285
ori	-1286
ember	-1287
▁small	-1288
20	-1289
▁水	-1290
到你	-1291
多久	-1292
時間	-1293
▁getting	-1294
一定	-1295
ible	-1296
lain	-1297
▁bec	-1298
▁pri	-1299
▁我不知道	-1300
▁asked	-1301
▁sorry	-1302
pe	-1303
學校	-1304
晚上	-1305
face	-1306
▁bad	-1307
▁chang	-1308
▁party	-1309
ord	-1310
ring	-1311
ross	-1312
▁inv	-1313
▁road	-1314
▁belie	-1315
▁looking	-1316
休息	-1317
聪明	-1318
▁Is	-1319
▁early	-1320
▁heard	-1321
已经	-1322
的最	-1323
语气	-1324
ike	-1325
怎么样	-1326
形容词缀	-1327
night	-1328
ondon	-1329
▁most	-1330
總是	-1331
▁我是	-1332
rench	-1333
做了	-1334
kyo	-1335
▁;.	-1336
ates	-1337
cation	-1338
▁dream	-1339
br	-1340
we	-1341
冬天	-1342
夏天	-1343
發生	-1344
起来	-1345
▁医生	-1346
▁我看	-1347
▁usu	-1348
▁cook	-1349
▁pres	-1350
▁matter	-1351
▁yourself	-1352
vel	-1353
▁mean	-1354
得很	-1355
电话	-1356
看看	-1357
▁few	-1358
▁isn	-1359
▁我今天	-1360
▁snow	-1361
▁china	-1362
手机	-1363
ost	-1364
自己的	-1365
▁Who	-1366
▁disc	-1367
▁easy	-1368
▁seen	-1369
▁family	-1370
▁winter	-1371
42	-1372
上了	-1373
了嗎	-1374
完成	-1375
ert	-1376
▁他很	-1377
了我的	-1378
ming	-1379
▁times	-1380
▁students	-1381
56	-1382
ms	-1383
▁hur	-1384
az	-1385
一点	-1386
學生	-1387
独立	-1388
3、(	-1389
uth	-1390
▁dec	-1391
▁sky	-1392
▁cont	-1393
▁minut	-1394
▁computer	-1395
so	-1396
不能	-1397
ics	-1398
▁fall	-1399
▁table	-1400
▁remember	-1401
了他	-1402
做的	-1403
無法	-1404
icy	-1405
led	-1406
▁bri	-1407
▁ran	-1408
▁什么是	-1409
属于表意	-1410
▁four	-1411
▁looks	-1412
彝文属于表意	-1413
▁地	-1414
男人	-1415
▁sk	-1416
▁being	-1417
▁comes	-1418
▁彝族	-1419
ical	-1420
raid	-1421
iness	-1422
▁afraid	-1423
▁小	-1424
▁用	-1425
在家	-1426
oes	-1427
▁find	-1428
▁forgot	-1429
一天	-1430
意义	-1431
父親	-1432
ier	-1433
了一個	-1434
在哪里	-1435
為什麼	-1436
▁end	-1437
▁mil	-1438
▁per	-1439
▁你應該	-1440
先生	-1441
让我	-1442
ell	-1443
ped	-1444
▁To	-1445
aper	-1446
ient	-1447
▁cam	-1448
▁bird	-1449
▁hear	-1450
▁thank	-1451
人都	-1452
想要	-1453
社会	-1454
ted	-1455
uck	-1456
独立的	-1457
▁sit	-1458
▁try	-1459
▁'1、(	-1460
▁pain	-1461
▁true	-1462
▁police	-1463
彝文属于表意文字体系	-1464
睡觉	-1465
orm	-1466
▁我把	-1467
ater	-1468
ready	-1469
是什么意思	-1470
▁already	-1471
?"	-1472
▁)	-1473
▁讓	-1474
了吗	-1475
介绍	-1476
如何	-1477
汤姆	-1478
精神	-1479
音樂	-1480
era	-1481
ote	-1482
是一個	-1483
的传统	-1484
▁add	-1485
▁med	-1486
▁dist	-1487
▁them	-1488
▁trave	-1489
▁follow	-1490
▁learning	-1491
51	-1492
件事	-1493
是我的	-1494
olog	-1495
▁我希望	-1496
clock	-1497
▁cons	-1498
▁near	-1499
▁place	-1500
▁window	-1501
▁meeting	-1502
▁山	-1503
拥有	-1504
电脑	-1505
美國	-1506
ons	-1507
▁你要	-1508
aven	-1509
▁din	-1510
▁equ	-1511
▁dark	-1512
▁desk	-1513
▁news	-1514
▁lives	-1515
十分	-1516
▁介绍	-1517
iver	-1518
▁ago	-1519
▁bag	-1520
cause	-1521
▁told	-1522
▁grand	-1523
ff	-1524
关系	-1525
去上	-1526
多个	-1527
好了	-1528
字形	-1529
覺得	-1530
谢谢	-1531
oke	-1532
很高兴	-1533
tory	-1534
字符都有	-1535
▁When	-1536
▁char	-1537
独立的含义	-1538
每个字符都有	-1539
▁apples	-1540
▁another	-1541
每个字符都有独立的含义	-1542
▁interesting	-1543
但是	-1544
桌子	-1545
▁Ken	-1546
▁gre	-1547
▁tri	-1548
▁Have	-1549
▁eight	-1550
52	-1551
61	-1552
午饭	-1553
古语	-1554
是誰	-1555
的字	-1556
还是	-1557
那裡	-1558
get	-1559
▁An	-1560
▁bet	-1561
▁dep	-1562
▁pay	-1563
▁pop	-1564
▁sub	-1565
▁thr	-1566
▁flowers	-1567
io	-1568
▁因	-1569
一些	-1570
实践	-1571
苹果	-1572
运动	-1573
▁high	-1574
▁Would	-1575
▁begin	-1576
▁evening	-1577
mb	-1578
▁R	-1579
▁要	-1580
旅行	-1581
瑪麗	-1582
附近	-1583
電視	-1584
▁他不	-1585
▁学生	-1586
▁日本	-1587
▁那个	-1588
ched	-1589
oking	-1590
▁less	-1591
▁smart	-1592
▁dinner	-1593
▁believe	-1594
▁history	-1595
▁working	-1596
▁“	-1597
助词	-1598
000	-1599
ple	-1600
得很好	-1601
augh	-1602
▁Did	-1603
▁exc	-1604
▁ide	-1605
▁stand	-1606
▁forget	-1607
▁longer	-1608
▁spring	-1609
好嗎	-1610
房间	-1611
的話	-1612
直接	-1613
▁Why	-1614
▁full	-1615
▁broke	-1616
▁uncle	-1617
▁wants	-1618
▁coming	-1619
▁watching	-1620
声词	-1621
消息	-1622
特性	-1623
起床	-1624
▁他把	-1625
千年的	-1626
象声词	-1627
▁own	-1628
▁我要去	-1629
▁done	-1630
▁exam	-1631
ousand	-1632
▁those	-1633
▁person	-1634
▁because	-1635
▁好	-1636
▁花	-1637
传承	-1638
准确	-1639
吃了	-1640
火車	-1641
盖了	-1642
網球	-1643
食物	-1644
▁这朵	-1645
ince	-1646
rect	-1647
▁我昨天	-1648
▁comm	-1649
▁clean	-1650
▁usually	-1651
gg	-1652
叔叔	-1653
觉得	-1654
说话	-1655
iet	-1656
orn	-1657
▁pa	-1658
▁sy	-1659
▁我能	-1660
orts	-1661
▁fun	-1662
▁reg	-1663
▁also	-1664
▁goes	-1665
▁hope	-1666
▁oper	-1667
iction	-1668
▁short	-1669
▁wrote	-1670
▁enough	-1671
▁others	-1672
))	-1673
8。	-1674
▁再	-1675
▁肯	-1676
一样	-1677
工具	-1678
最近	-1679
用词	-1680
那么	-1681
joy	-1682
▁sol	-1683
ention	-1684
▁camera	-1685
▁through	-1686
买了	-1687
彝文的	-1688
▁abs	-1689
anger	-1690
▁bank	-1691
▁alone	-1692
▁travel	-1693
▁5	-1694
人民	-1695
在彝	-1696
每一	-1697
和准确	-1698
在彝汉	-1699
实践中	-1700
的字是	-1701
▁May	-1702
▁hum	-1703
▁我想要	-1704
文字之一	-1705
是最直接	-1706
表意特性	-1707
需要注意	-1708
aught	-1709
erica	-1710
▁bicy	-1711
在彝汉翻译	-1712
对应的字是	-1713
的彝文表达	-1714
的彝文翻译是	-1715
彝文的表意特性	-1716
是最直接和准确	-1717
▁arrived	-1718
在彝汉翻译实践中	-1719
需要注意彝文的表意特性	-1720
是最直接和准确的彝文表达	-1721
仅是	-1722
去年	-1723
叠加	-1724
aren	-1725
ience	-1726
▁pian	-1727
▁same	-1728
▁hours	-1729
古老的文字之一	-1730
▁thousand	-1731
62	-1732
7。	-1733
▁只	-1734
▁猫	-1735
出去	-1736
完全	-1737
电视	-1738
自行	-1739
ash	-1740
man	-1741
语言的	-1742
onom	-1743
▁art	-1744
▁sim	-1745
▁这本书	-1746
▁enjoy	-1747
▁popul	-1748
▁their	-1749
▁office	-1750
▁airport	-1751
明白	-1752
答案	-1753
old	-1754
ared	-1755
▁rad	-1756
▁我们在	-1757
民族之一	-1758
▁fail	-1759
翻译成彝文	-1760
▁truth	-1761
▁learned	-1762
44	-1763
上有	-1764
也不	-1765
占有	-1766
和你	-1767
完整	-1768
层面	-1769
春天	-1770
遗产	-1771
ove	-1772
▁汤姆	-1773
▁沒有	-1774
ward	-1775
▁ret	-1776
的文化遗产	-1777
▁bicycle	-1778
▁married	-1779
上的	-1780
仍在	-1781
作为	-1782
同意	-1783
所以	-1784
父母	-1785
爸爸	-1786
通常	-1787
都是	-1788
ger	-1789
ret	-1790
▁10	-1791
reet	-1792
▁box	-1793
仍在使用	-1794
数千年的	-1795
▁anim	-1796
仍在使用的最	-1797
ossible	-1798
▁change	-1799
古老的民族之一	-1800
▁japanese	-1801
世界上仍在使用的最	-1802
世界上仍在使用的最古老的文字之一	-1803
be	-1804
▁对	-1805
小時	-1806
数词	-1807
是个	-1808
是個	-1809
更是	-1810
這麼	-1811
▁No	-1812
▁他們	-1813
中占有	-1814
涵盖了	-1815
看起來	-1816
等多个	-1817
ries	-1818
▁ind	-1819
▁rep	-1820
▁wom	-1821
中的地位	-1822
重要地位	-1823
arket	-1824
▁Good	-1825
▁Your	-1826
▁clim	-1827
▁doll	-1828
▁drop	-1829
体系中占有	-1830
涵盖了自然	-1831
等多个层面	-1832
person	-1833
▁words	-1834
彝族文字体系	-1835
▁heaven	-1836
精神等多个层面	-1837
▁diction	-1838
彝族文字体系完整	-1839
▁studying	-1840
体系中占有重要地位	-1841
在彝族文化中的地位	-1842
▁dictionary	-1843
在彝族文化体系中占有重要地位	-1844
▁它	-1845
唱歌	-1846
部电影	-1847
▁sat	-1848
cient	-1849
▁John	-1850
▁game	-1851
▁listen	-1852
▁street	-1853
▁correct	-1854
9。	-1855
QS	-1856
ax	-1857
今晚	-1858
回來	-1859
忘了	-1860
我很	-1861
灿烂	-1862
这儿	-1863
QSM	-1864
lic	-1865
▁In	-1866
彝族人民	-1867
▁rich	-1868
▁running	-1869
▁writing	-1870
▁happened	-1871
▁8	-1872
▁中	-1873
之前	-1874
人名	-1875
会儿	-1876
的载	-1877
和历史	-1878
的载体	-1879
▁rel	-1880
不仅仅是	-1881
中的一个	-1882
什么时候	-1883
arden	-1884
brary	-1885
▁mine	-1886
▁sick	-1887
▁then	-1888
▁glass	-1889
▁horse	-1890
▁makes	-1891
▁teleph	-1892
▁library	-1893
▁present	-1894
▁Japanese	-1895
66	-1896
▁對	-1897
人的	-1898
内涵	-1899
承载	-1900
突然	-1901
給你	-1902
承载着	-1903
的意义	-1904
....	-1905
road	-1906
▁swe	-1907
都承载着	-1908
aster	-1909
icket	-1910
rious	-1911
▁gone	-1912
▁nice	-1913
了彝族人民	-1914
的传统文化	-1915
的文化内涵	-1916
▁garden	-1917
▁ticket	-1918
▁changed	-1919
▁minutes	-1920
▁tonight	-1921
▁谁	-1922
事故	-1923
会说	-1924
小时	-1925
川黔	-1926
意为	-1927
数学	-1928
深厚	-1929
▁他有	-1930
▁现在	-1931
川黔贵	-1932
ceed	-1933
▁bas	-1934
彝文作为	-1935
拥有灿烂	-1936
滇川黔贵	-1937
▁sure	-1938
▁介绍彝文	-1939
彝族是中国	-1940
智慧和历史	-1941
▁Every	-1942
都承载着深厚	-1943
osition	-1944
每一个彝文字符	-1945
记录了彝族人民	-1946
滇川黔贵通用彝文	-1947
拥有灿烂的文化遗产	-1948
数千年的智慧和历史	-1949
都承载着深厚的文化内涵	-1950
彝族是中国古老的民族之一	-1951
记录了彝族人民数千年的智慧和历史	-1952
常常	-1953
帽子	-1954
年轻	-1955
點鐘	-1956
▁19	-1957
了他的	-1958
其含义	-1959
在哪裡	-1960
ancy	-1961
most	-1962
传承民族	-1963
其含义为	-1964
重要字符	-1965
▁milk	-1966
▁wife	-1967
▁我不喜欢	-1968
智慧的载体	-1969
记录语言的	-1970
▁lived	-1971
▁since	-1972
文字不仅仅是	-1973
更是传承民族	-1974
的传统文化中	-1975
▁saying	-1976
记录语言的工具	-1977
▁talking	-1978
中的一个重要字符	-1979
在彝族的传统文化中	-1980
是滇川黔贵通用彝文	-1981
更是传承民族智慧的载体	-1982
文字不仅仅是记录语言的工具	-1983
)、	-1984
去哪	-1985
妹妹	-1986
封信	-1987
纠缠	-1988
老师	-1989
认识	-1990
ial	-1991
▁ken	-1992
▁mac	-1993
▁set	-1994
▁idea	-1995
▁piano	-1996
哥哥	-1997
完了	-1998
老師	-1999
警察	-2000
醫生	-2001
▁Am	-2002
▁im	-2003
做什麼	-2004
在彝文	-2005
很快就	-2006
计算机	-2007
hine	-2008
ious	-2009
side	-2010
▁aut	-2011
▁cap	-2012
▁son	-2013
▁你喜欢	-2014
在彝文中	-2015
illed	-2016
▁able	-2017
arents	-2018
▁medic	-2019
▁explain	-2020
▁watched	-2021
55	-2022
ai	-2023
ys	-2024
▁别	-2025
▁比	-2026
二十	-2027
字面	-2028
散步	-2029
是不	-2030
的一	-2031
背景	-2032
时不仅	-2033
ason	-2034
ense	-2035
▁act	-2036
字面意思	-2037
怎么表达	-2038
文化背景	-2039
还要考虑	-2040
ision	-2041
▁hair	-2042
翻译时不仅	-2043
▁quite	-2044
在彝文中写作	-2045
▁danger	-2046
▁hungry	-2047
要考虑字面意思	-2048
▁surface	-2049
▁彝文中怎么表达	-2050
还要考虑文化背景	-2051
▁medicine	-2052
翻译时不仅要考虑字面意思	-2053
;.	-2054
。”	-2055
了那	-2056
作业	-2057
保持	-2058
公車	-2059
和我	-2060
比我	-2061
的是	-2062
跟我	-2063
電影	-2064
irt	-2065
oto	-2066
uss	-2067
▁你很	-2068
语气词	-2069
▁你知道	-2070
▁base	-2071
▁今天天气	-2072
▁build	-2073
▁radio	-2074
▁shoes	-2075
▁yours	-2076
▁abroad	-2077
▁across	-2078
▁called	-2079
▁wonder	-2080
▁smoking	-2081
▁business	-2082
▁swimming	-2083
▁火	-2084
▁生	-2085
来的	-2086
osp	-2087
叠加态	-2088
▁gen	-2089
▁mom	-2090
▁suc	-2091
ature	-2092
▁Mary	-2093
▁clot	-2094
▁leav	-2095
▁moon	-2096
▁cloud	-2097
▁succeed	-2098
兄弟	-2099
决定	-2100
到他	-2101
幸福	-2102
死了	-2103
派對	-2104
牛奶	-2105
舒服	-2106
說話	-2107
fer	-2108
cend	-2109
cept	-2110
ided	-2111
rees	-2112
stem	-2113
▁dire	-2114
▁trad	-2115
▁seems	-2116
▁almost	-2117
▁caught	-2118
▁really	-2119
▁location	-2120
ib	-2121
its	-2122
▁cup	-2123
feren	-2124
▁each	-2125
▁mary	-2126
▁resp	-2127
ensive	-2128
▁along	-2129
▁inter	-2130
▁sunday	-2131
▁parents	-2132
▁questions	-2133
值得	-2134
公司	-2135
您的	-2136
每個	-2137
的话	-2138
計劃	-2139
▁火车	-2140
▁All	-2141
▁ate	-2142
▁我喜歡	-2143
quare	-2144
▁slow	-2145
▁green	-2146
▁univer	-2147
▁raining	-2148
▁很	-2149
无法	-2150
离开	-2151
erc	-2152
▁3,	-2153
▁ox	-2154
▁可以	-2155
▁我对	-2156
的意思	-2157
ific	-2158
▁1、(	-2159
▁law	-2160
▁unt	-2161
▁both	-2162
▁hosp	-2163
▁seven	-2164
▁hospital	-2165
▁telephone	-2166
一杯	-2167
出生	-2168
勇敢	-2169
去看	-2170
幫我	-2171
弟弟	-2172
早餐	-2173
智能	-2174
理解	-2175
約翰	-2176
美国	-2177
足球	-2178
離開	-2179
ces	-2180
▁ed	-2181
▁我對	-2182
在這裡	-2183
所有的	-2184
打網球	-2185
这本书	-2186
ween	-2187
▁sad	-2188
▁agree	-2189
▁began	-2190
▁birth	-2191
▁sports	-2192
▁everything	-2193
12	-2194
70	-2195
▁发	-2196
不同	-2197
比特	-2198
▁tv	-2199
▁你好	-2200
▁我從	-2201
form	-2202
▁fav	-2203
▁its	-2204
▁conc	-2205
▁line	-2206
▁worth	-2207
▁別	-2208
学了	-2209
帮助	-2210
放在	-2211
母親	-2212
照片	-2213
网球	-2214
▁請你	-2215
告訴我	-2216
▁你最好	-2217
ouble	-2218
place	-2219
▁born	-2220
▁chair	-2221
▁operate	-2222
▁baseball	-2223
▁tradition	-2224
65	-2225
来越	-2226
经常	-2227
▁If	-2228
不知道	-2229
越来越	-2230
enty	-2231
fect	-2232
▁Sun	-2233
▁tow	-2234
▁如果你	-2235
▁cult	-2236
▁john	-2237
▁bring	-2238
▁catch	-2239
▁hotel	-2240
▁Sunday	-2241
▁rather	-2242
▁waiting	-2243
▁everyone	-2244
ny	-2245
他們	-2246
动物	-2247
改变	-2248
棒球	-2249
發現	-2250
看到	-2251
蘋果	-2252
这条	-2253
ural	-2254
▁hat	-2255
▁ste	-2256
affic	-2257
▁cake	-2258
▁shop	-2259
▁black	-2260
▁quiet	-2261
▁system	-2262
▁walked	-2263
▁machine	-2264
▁mistake	-2265
▁traffic	-2266
▁direction	-2267
▁expensive	-2268
11	-2269
▁多	-2270
便宜	-2271
出了	-2272
姐姐	-2273
科学	-2274
蛋糕	-2275
▁ap	-2276
告诉我	-2277
有什么	-2278
ival	-2279
oint	-2280
outh	-2281
▁hon	-2282
inion	-2283
▁Will	-2284
▁case	-2285
▁dogs	-2286
▁head	-2287
▁rice	-2288
▁climb	-2289
▁haven	-2290
▁taking	-2291
▁building	-2292
du	-2293
▁从	-2294
兩個	-2295
太阳	-2296
好的	-2297
收音	-2298
東京	-2299
永遠	-2300
走路	-2301
银行	-2302
開車	-2303
ors	-2304
▁我听	-2305
▁这些	-2306
了一个	-2307
我們的	-2308
yoto	-2309
▁pat	-2310
▁yen	-2311
ating	-2312
▁numb	-2313
▁succ	-2314
▁exerc	-2315
▁visit	-2316
▁charac	-2317
▁eating	-2318
▁myself	-2319
lt	-2320
▁三	-2321
▁哪	-2322
▁放	-2323
▁能	-2324
帮我	-2325
打算	-2326
第二	-2327
can	-2328
eye	-2329
umn	-2330
yes	-2331
▁Ne	-2332
come	-2333
▁ent	-2334
▁为什么	-2335
▁blue	-2336
▁coll	-2337
▁tree	-2338
▁close	-2339
▁human	-2340
▁opinion	-2341
▁下	-2342
▁前	-2343
▁快	-2344
▁當	-2345
來說	-2346
倫敦	-2347
安全	-2348
年了	-2349
强壮	-2350
我就	-2351
早饭	-2352
汽车	-2353
用的	-2354
ize	-2355
▁你會	-2356
▁太阳	-2357
▁瑪麗	-2358
自行车	-2359
▁bab	-2360
▁我们很	-2361
▁讓我們	-2362
▁cars	-2363
▁side	-2364
▁warm	-2365
▁elect	-2366
▁heart	-2367
▁equals	-2368
▁success	-2369
有趣	-2370
虽然	-2371
app	-2372
erg	-2373
▁ca	-2374
▁ob	-2375
▁早上	-2376
做什么	-2377
ured	-2378
▁She	-2379
▁num	-2380
▁他喜欢	-2381
);3、(	-2382
▁math	-2383
▁song	-2384
▁thir	-2385
▁angry	-2386
▁point	-2387
▁partic	-2388
▁between	-2389
▁healthy	-2390
▁differen	-2391
64	-2392
cy	-2393
▁晚	-2394
一樣	-2395
下來	-2396
了這	-2397
交通	-2398
住了	-2399
和他	-2400
年前	-2401
总是	-2402
想吃	-2403
找到	-2404
美元	-2405
这么	-2406
還是	-2407
cil	-2408
lla	-2409
▁她很	-2410
ages	-2411
▁Our	-2412
▁我們在	-2413
▁我知道	-2414
什麼時候	-2415
▁baby	-2416
▁died	-2417
▁glad	-2418
▁salt	-2419
▁Could	-2420
▁apple	-2421
▁dress	-2422
▁knows	-2423
▁older	-2424
▁order	-2425
▁quick	-2426
▁flower	-2427
▁pencil	-2428
▁return	-2429
▁started	-2430
▁4	-2431
▁z	-2432
发生	-2433
机场	-2434
模型	-2435
鞋子	-2436
erv	-2437
new	-2438
▁kn	-2439
▁ru	-2440
cess	-2441
▁Bob	-2442
▁cry	-2443
▁sil	-2444
▁我需要	-2445
▁surp	-2446
▁until	-2447
▁london	-2448
▁clothes	-2449
▁computers	-2450
,(	-2451
▁但	-2452
上學	-2453
京都	-2454
你们	-2455
处理	-2456
天氣	-2457
學習	-2458
意外	-2459
成為	-2460
清楚	-2461
秋天	-2462
系统	-2463
認識	-2464
跳舞	-2465
llo	-2466
▁Mr	-2467
▁mr	-2468
▁你們	-2469
▁没有	-2470
▁這些	-2471
成英文	-2472
打電話	-2473
dred	-2474
land	-2475
ness	-2476
▁umb	-2477
grass	-2478
▁Jane	-2479
▁deep	-2480
▁prop	-2481
▁sent	-2482
object	-2483
▁tokyo	-2484
▁touch	-2485
▁trans	-2486
▁umbre	-2487
▁moment	-2488
▁seeing	-2489
▁support	-2490
▁birthday	-2491
▁interested	-2492
18	-2493
ko	-2494
▁说	-2495
可惜	-2496
感觉	-2497
ced	-2498
▁TV	-2499
vent	-2500
▁trip	-2501
▁French	-2502
▁french	-2503
▁number	-2504
▁speaks	-2505
▁himself	-2506
▁umbrella	-2507
▁祝	-2508
两个	-2509
价格	-2510
我不	-2511
決定	-2512
跟你	-2513
車站	-2514
里的	-2515
ton	-2516
udd	-2517
▁夏天	-2518
一会儿	-2519
的東西	-2520
:1、(	-2521
ledge	-2522
▁bill	-2523
▁felt	-2524
▁wood	-2525
▁woman	-2526
▁London	-2527
▁famous	-2528
▁dollars	-2529
▁叫	-2530
▁看	-2531
▁雨	-2532
也许	-2533
有多	-2534
聊天	-2535
记得	-2536
ime	-2537
▁她在	-2538
▁春天	-2539
gest	-2540
▁bit	-2541
ology	-2542
▁cost	-2543
▁fest	-2544
▁nine	-2545
▁wall	-2546
▁writ	-2547
father	-2548
▁Tokyo	-2549
▁hands	-2550
▁paper	-2551
▁address	-2552
▁driving	-2553
▁hundred	-2554
ze	-2555
▁,	-2556
▁珍	-2557
▁过	-2558
不如	-2559
为了	-2560
動物	-2561
參加	-2562
国家	-2563
國家	-2564
小孩	-2565
幾乎	-2566
方法	-2567
日元	-2568
是谁	-2569
相機	-2570
睡覺	-2571
許多	-2572
鋼琴	-2573
高兴	-2574
1、(	-2575
▁Ch	-2576
▁St	-2577
▁我用	-2578
▁有人	-2579
的地方	-2580
fort	-2581
▁他们很	-2582
▁我不能	-2583
▁cats	-2584
▁town	-2585
▁你為什麼	-2586
▁speed	-2587
▁翻译成英文	-2588
▁autumn	-2589
▁played	-2590
▁superm	-2591
▁company	-2592
▁foreign	-2593
▁supermarket	-2594
54	-2595
ee	-2596
oe	-2597
sh	-2598
▁狗	-2599
不好	-2600
之间	-2601
伦敦	-2602
哪里	-2603
坐在	-2604
声音	-2605
巴黎	-2606
新的	-2607
生日	-2608
知识	-2609
认为	-2610
跑得	-2611
身体	-2612
车站	-2613
ari	-2614
dge	-2615
在这里	-2616
less	-2617
osed	-2618
heart	-2619
ility	-2620
▁They	-2621
▁pret	-2622
▁drank	-2623
▁white	-2624
▁advice	-2625
▁depend	-2626
▁honest	-2627
▁decided	-2628
▁exercise	-2629
15	-2630
ug	-2631
事情	-2632
去過	-2633
多了	-2634
年輕	-2635
椅子	-2636
解释	-2637
讓我	-2638
這些	-2639
這樣	-2640
那個	-2641
怎么说	-2642
是你的	-2643
最大的	-2644
here	-2645
ised	-2646
rive	-2647
▁age	-2648
▁fly	-2649
▁pur	-2650
▁sus	-2651
▁bath	-2652
▁wool	-2653
▁我不喜歡	-2654
▁brave	-2655
▁later	-2656
▁novel	-2657
▁couldn	-2658
▁discuss	-2659
▁traditional	-2660
▁安	-2661
不到	-2662
女人	-2663
忘记	-2664
提供	-2665
植物	-2666
要去	-2667
eth	-2668
oup	-2669
▁动词	-2670
rise	-2671
wood	-2672
▁men	-2673
▁pie	-2674
▁fact	-2675
▁hold	-2676
▁lend	-2677
▁luck	-2678
▁pick	-2679
▁temp	-2680
▁wear	-2681
▁store	-2682
▁second	-2683
▁festival	-2684
ef	-2685
▁7	-2686
▁空	-2687
▁马	-2688
他们	-2689
他是	-2690
公室	-2691
幫助	-2692
来说	-2693
测量	-2694
超市	-2695
重字	-2696
aur	-2697
chn	-2698
▁那個	-2699
打电话	-2700
漂亮的	-2701
說英語	-2702
ains	-2703
hind	-2704
ones	-2705
rist	-2706
▁adm	-2707
▁vac	-2708
asure	-2709
▁card	-2710
▁jack	-2711
▁seat	-2712
▁suit	-2713
▁grass	-2714
▁laugh	-2715
▁sweet	-2716
▁behind	-2717
▁intell	-2718
▁pictures	-2719
90	-2720
eb	-2721
ji	-2722
▁q	-2723
▁十	-2724
▁月	-2725
东京	-2726
兴趣	-2727
准备	-2728
妈妈	-2729
;3、	-2730
hen	-2731
▁中国	-2732
▁冬天	-2733
▁明天	-2734
▁我有一	-2735
▁face	-2736
▁grow	-2737
▁noon	-2738
▁check	-2739
▁clear	-2740
▁having	-2741
▁brought	-2742
▁trouble	-2743
▁grandfather	-2744
1.	-2745
21	-2746
▁走	-2747
主意	-2748
來了	-2749
善良	-2750
大利	-2751
很大	-2752
很忙	-2753
得到	-2754
忘記	-2755
感冒	-2756
法语	-2757
灵活	-2758
第一	-2759
uan	-2760
▁50	-2761
▁As	-2762
▁約翰	-2763
hand	-2764
▁fif	-2765
▁mem	-2766
▁你今天	-2767
▁我想去	-2768
▁我覺得	-2769
這個問題	-2770
horse	-2771
▁eyes	-2772
▁prom	-2773
▁runs	-2774
▁tast	-2775
atever	-2776
gether	-2777
▁known	-2778
▁techn	-2779
▁whole	-2780
ancient	-2781
position	-2782
▁serious	-2783
▁thought	-2784
▁mistakes	-2785
▁together	-2786
▁knowledge	-2787
25	-2788
74	-2789
▁无	-2790
书馆	-2791
五十	-2792
我都	-2793
服务	-2794
考试	-2795
而且	-2796
葡萄	-2797
部分	-2798
ada	-2799
amp	-2800
图书馆	-2801
最好的	-2802
amed	-2803
cket	-2804
fire	-2805
used	-2806
▁dry	-2807
▁flo	-2808
▁ill	-2809
▁mid	-2810
的意思是	-2811
▁gray	-2812
▁half	-2813
▁birds	-2814
▁gener	-2815
▁hurry	-2816
▁comple	-2817
22	-2818
▁吉	-2819
上去	-2820
下了	-2821
丰富	-2822
似乎	-2823
体育	-2824
在那	-2825
好像	-2826
小心	-2827
就要	-2828
很远	-2829
很难	-2830
怎樣	-2831
接受	-2832
有空	-2833
無論	-2834
见过	-2835
認為	-2836
计划	-2837
飞机	-2838
hem	-2839
ilt	-2840
ont	-2841
ric	-2842
▁因为	-2843
▁我找	-2844
▁这里	-2845
▁這條	-2846
下雨了	-2847
为彝文	-2848
我们的	-2849
最喜歡	-2850
有多少	-2851
,000	-2852
ache	-2853
ames	-2854
jing	-2855
▁她喜欢	-2856
▁我們的	-2857
▁這本書	-2858
▁conf	-2859
▁fell	-2860
▁fool	-2861
▁poor	-2862
erican	-2863
▁翻译为彝文	-2864
▁became	-2865
▁expect	-2866
▁living	-2867
▁looked	-2868
▁wanted	-2869
▁animals	-2870
erposition	-2871
13	-2872
nt	-2873
▁9	-2874
▁U	-2875
▁当	-2876
▁打	-2877
▁没	-2878
下一	-2879
医院	-2880
可爱	-2881
妻子	-2882
开车	-2883
折磨	-2884
方式	-2885
机器	-2886
比赛	-2887
确定	-2888
mon	-2889
▁你会	-2890
工智能	-2891
ergy	-2892
room	-2893
▁tax	-2894
orite	-2895
▁Some	-2896
▁heav	-2897
▁lake	-2898
ations	-2899
▁shall	-2900
▁smoke	-2901
▁become	-2902
▁against	-2903
▁favorite	-2904
▁intellig	-2905
▁possible	-2906
▁dangerous	-2907
23	-2908
▁從	-2909
▁最	-2910
▁誰	-2911
個月	-2912
口袋	-2913
吃饭	-2914
字典	-2915
巴士	-2916
我是	-2917
滿了	-2918
节日	-2919
许多	-2920
過了	-2921
開心	-2922
cow	-2923
ins	-2924
str	-2925
une	-2926
▁em	-2927
▁谢谢	-2928
一起去	-2929
不是嗎	-2930
aken	-2931
▁mag	-2932
▁我昨晚	-2933
▁我現在	-2934
uring	-2935
▁jane	-2936
▁kept	-2937
▁past	-2938
▁till	-2939
aurant	-2940
vision	-2941
▁These	-2942
▁ready	-2943
▁sound	-2944
▁prefer	-2945
▁taller	-2946
▁america	-2947
▁capital	-2948
▁popular	-2949
▁strange	-2950
▁restaurant	-2951
▁television	-2952
17	-2953
by	-2954
co	-2955
li	-2956
▁去	-2957
一种	-2958
北京	-2959
去过	-2960
回来	-2961
因为	-2962
宇宙	-2963
ech	-2964
▁我从	-2965
ived	-2966
sity	-2967
▁sea	-2968
lcome	-2969
▁fine	-2970
▁guit	-2971
▁comput	-2972
▁energy	-2973
▁faster	-2974
▁making	-2975
▁movies	-2976
14	-2977
▁半	-2978
▁等	-2979
▁鸟	-2980
不了	-2981
唠叨	-2982
喝了	-2983
在這	-2984
家都	-2985
想法	-2986
抱歉	-2987
會議	-2988
法語	-2989
生病	-2990
的書	-2991
相对	-2992
真相	-2993
col	-2994
ipe	-2995
ned	-2996
▁地球	-2997
▁请用	-2998
形容词	-2999
很重要	-3000
看電視	-3001
見到你	-3002
omed	-3003
▁bei	-3004
▁對不起	-3005
▁我已經	-3006
gland	-3007
udden	-3008
▁rece	-3009
▁send	-3010
▁team	-3011
▁sight	-3012
▁belong	-3013
▁reason	-3014
▁secret	-3015
▁stayed	-3016
▁beijing	-3017
▁culture	-3018
▁feeling	-3019
▁largest	-3020
▁visited	-3021
▁walking	-3022
▁vacation	-3023
ao	-3024
dd	-3025
▁今	-3026
▁做	-3027
▁教	-3028
修理	-3029
地址	-3030
子的	-3031
安静	-3032
害怕	-3033
技术	-3034
有人	-3035
父亲	-3036
裙子	-3037
诚实	-3038
读书	-3039
跑步	-3040
ken	-3041
med	-3042
▁ce	-3043
▁ec	-3044
在一起	-3045
;3、(	-3046
▁egg	-3047
▁ski	-3048
drive	-3049
▁race	-3050
▁Thank	-3051
▁stone	-3052
▁finish	-3053
▁guitar	-3054
▁passed	-3055
▁speech	-3056
▁thirst	-3057
▁science	-3058
▁complain	-3059
▁speaking	-3060
▁whatever	-3061
75	-3062
伤口	-3063
发现	-3064
只是	-3065
失败	-3066
得了	-3067
想去	-3068
感覺	-3069
成了	-3070
才能	-3071
掉了	-3072
是在	-3073
比賽	-3074
毕摩	-3075
準備	-3076
米饭	-3077
给你	-3078
肯定	-3079
見過	-3080
起了	-3081
辆车	-3082
风箱	-3083
;).	-3084
ata	-3085
bit	-3086
▁請把	-3087
說的話	-3088
ccer	-3089
gram	-3090
ized	-3091
oose	-3092
rowd	-3093
▁bot	-3094
▁我买了	-3095
▁我忘了	-3096
▁prov	-3097
▁says	-3098
▁star	-3099
▁wrap	-3100
▁Which	-3101
▁noise	-3102
ination	-3103
▁accept	-3104
▁excuse	-3105
▁pretty	-3106
▁stopped	-3107
▁subject	-3108
▁younger	-3109
16	-3110
hy	-3111
▁和	-3112
▁牛	-3113
下雪	-3114
吉他	-3115
同时	-3116
味道	-3117
更多	-3118
状态	-3119
砂锅	-3120
缀词	-3121
词头	-3122
通过	-3123
rit	-3124
ual	-3125
▁gi	-3126
head	-3127
nect	-3128
▁QSM	-3129
▁bob	-3130
▁det	-3131
▁edu	-3132
▁eye	-3133
▁inc	-3134
▁kil	-3135
▁opp	-3136
hemat	-3137
▁club	-3138
▁dead	-3139
▁foot	-3140
▁test	-3141
▁vill	-3142
though	-3143
▁Nancy	-3144
▁mouth	-3145
▁plays	-3146
▁takes	-3147
▁attend	-3148
▁bridge	-3149
▁harder	-3150
▁leaves	-3151
▁twenty	-3152
▁someone	-3153
▁surpris	-3154
▁different	-3155
▁superposition	-3156
24	-3157
26	-3158
▁书	-3159
不多	-3160
主要	-3161
云南	-3162
介意	-3163
危險	-3164
家人	-3165
對的	-3166
小說	-3167
想念	-3168
我也	-3169
担心	-3170
的书	-3171
祖父	-3172
箱子	-3173
累了	-3174
結婚	-3175
興趣	-3176
芋头	-3177
英國	-3178
解決	-3179
謝謝	-3180
除了	-3181
骄傲	-3182
麻煩	-3183
rap	-3184
▁下午	-3185
▁不好	-3186
▁你看	-3187
▁我没	-3188
▁请你	-3189
中文说	-3190
份工作	-3191
很容易	-3192
很聪明	-3193
怎麼樣	-3194
是真的	-3195
發生了	-3196
這本書	-3197
aged	-3198
imes	-3199
▁har	-3200
▁对不起	-3201
ained	-3202
▁danc	-3203
▁knew	-3204
▁supp	-3205
▁wine	-3206
square	-3207
▁above	-3208
▁crowd	-3209
▁plane	-3210
▁whose	-3211
▁easily	-3212
▁slowly	-3213
▁soccer	-3214
▁forward	-3215
▁problems	-3216
87	-3217
▁吸	-3218
出发	-3219
干净	-3220
方便	-3221
行动	-3222
连接	-3223
coh	-3224
ket	-3225
ral	-3226
sky	-3227
uit	-3228
▁ty	-3229
一个人	-3230
很有趣	-3231
迟到了	-3232
lier	-3233
oken	-3234
olut	-3235
ored	-3236
ower	-3237
▁New	-3238
▁eng	-3239
▁leg	-3240
▁lie	-3241
▁ple	-3242
▁我每天	-3243
人名用词	-3244
语气助词	-3245
cohol	-3246
▁meat	-3247
▁sign	-3248
▁cross	-3249
▁death	-3250
▁请用中文说	-3251
▁arrive	-3252
▁during	-3253
▁inform	-3254
▁staying	-3255
▁whether	-3256
▁sleeping	-3257
▁countries	-3258
▁education	-3259
▁everybody	-3260
▁languages	-3261
▁sometimes	-3262
85	-3263
ec	-3264
▁吃	-3265
▁鮑	-3266
下来	-3267
保护	-3268
儿子	-3269
兒子	-3270
公交	-3271
公園	-3272
到達	-3273
加拿	-3274
地球	-3275
姐妹	-3276
建议	-3277
成的	-3278
星星	-3279
更好	-3280
期待	-3281
眼睛	-3282
研究	-3283
结果	-3284
给了	-3285
習慣	-3286
聽到	-3287
跑了	-3288
重叠	-3289
錯誤	-3290
飛機	-3291
iew	-3292
▁Sh	-3293
▁我一	-3294
▁虽然	-3295
▁这条	-3296
不可能	-3297
也沒有	-3298
星期天	-3299
hood	-3300
ping	-3301
rove	-3302
ully	-3303
▁(1、	-3304
▁aff	-3305
▁cal	-3306
▁nat	-3307
▁你必须	-3308
▁我不想	-3309
▁我们的	-3310
▁我無法	-3311
重叠词缀	-3312
velop	-3313
▁boat	-3314
▁data	-3315
▁hurt	-3316
▁front	-3317
▁sense	-3318
▁basket	-3319
▁single	-3320
▁sudden	-3321
▁turned	-3322
▁worked	-3323
▁America	-3324
▁alcohol	-3325
▁studied	-3326
▁listened	-3327
▁listening	-3328
▁intelligence	-3329
43	-3330
69	-3331
99	-3332
▁6	-3333
▁泡	-3334
▁海	-3335
习惯	-3336
人类	-3337
大了	-3338
得多	-3339
必要	-3340
成为	-3341
我去	-3342
放弃	-3343
是用	-3344
核心	-3345
螳螂	-3346
ush	-3347
▁晚上	-3348
叫什么	-3349
hair	-3350
ions	-3351
oice	-3352
resh	-3353
erman	-3354
▁Bill	-3355
▁pron	-3356
▁real	-3357
......	-3358
▁among	-3359
▁eaten	-3360
▁round	-3361
▁works	-3362
▁worry	-3363
ificial	-3364
▁grandm	-3365
▁result	-3366
hematics	-3367
▁earlier	-3368
▁quickly	-3369
▁although	-3370
bb	-3371
▁收	-3372
一名	-3373
但我	-3374
偷了	-3375
写了	-3376
几点	-3377
到老	-3378
参加	-3379
很冷	-3380
很難	-3381
愉快	-3382
晚飯	-3383
森林	-3384
浪费	-3385
滑雪	-3386
玛丽	-3387
说了	-3388
贵州	-3389
这样	-3390
週日	-3391
遲到	-3392
首歌	-3393
big	-3394
mas	-3395
omp	-3396
▁12	-3397
▁di	-3398
▁ve	-3399
▁昨晚	-3400
▁最近	-3401
▁無論	-3402
▁現在	-3403
一個人	-3404
多少钱	-3405
很美丽	-3406
收音機	-3407
有沒有	-3408
給了我	-3409
这条路	-3410
ever	-3411
olen	-3412
over	-3413
▁Jim	-3414
▁Yes	-3415
▁请给我	-3416
每個人都	-3417
甚麼時候	-3418
ented	-3419
fully	-3420
omach	-3421
▁cour	-3422
▁cute	-3423
▁expl	-3424
▁poet	-3425
▁daugh	-3426
▁twice	-3427
▁waste	-3428
ristmas	-3429
▁absent	-3430
▁appear	-3431
▁experi	-3432
▁months	-3433
▁player	-3434
▁stolen	-3435
▁enjoyed	-3436
▁program	-3437
▁village	-3438
▁written	-3439
▁thinking	-3440
▁surprised	-3441
▁technology	-3442
▁Q	-3443
▁家	-3444
▁让	-3445
三个	-3446
几乎	-3447
别人	-3448
原因	-3449
周日	-3450
坚持	-3451
惊讶	-3452
明的	-3453
的基	-3454
继续	-3455
肚子	-3456
鸡蛋	-3457
ade	-3458
gen	-3459
rib	-3460
▁cr	-3461
▁那是	-3462
是量子	-3463
比冬天	-3464
angh	-3465
▁cow	-3466
▁deg	-3467
▁die	-3468
▁ext	-3469
▁fut	-3470
ither	-3471
veral	-3472
where	-3473
▁Mike	-3474
▁taxi	-3475
anghai	-3476
▁built	-3477
▁pract	-3478
▁price	-3479
▁trees	-3480
▁spoken	-3481
▁states	-3482
▁fishing	-3483
▁perfect	-3484
▁several	-3485
80	-3486
bc	-3487
fa	-3488
▁就	-3489
▁道	-3490
他会	-3491
你了	-3492
凱特	-3493
功課	-3494
外面	-3495
奇怪	-3496
對我	-3497
得不	-3498
手錶	-3499
抱怨	-3500
数据	-3501
旁边	-3502
更快	-3503
比你	-3504
比較	-3505
立刻	-3506
紐約	-3507
约翰	-3508
見了	-3509
豆腐	-3510
遇到	-3511
都很	-3512
))'	-3513
ney	-3514
que	-3515
▁30	-3516
▁中文	-3517
▁他一	-3518
▁我家	-3519
▁每天	-3520
▁英語	-3521
了這個	-3522
hemp	-3523
ists	-3524
odel	-3525
ular	-3526
▁arm	-3527
▁maj	-3528
▁net	-3529
▁oil	-3530
▁top	-3531
▁他们在	-3532
▁我去了	-3533
▁我正在	-3534
▁我觉得	-3535
那个故事	-3536
▁gold	-3537
▁prin	-3538
▁wasn	-3539
▁york	-3540
escend	-3541
▁fresh	-3542
▁broken	-3543
▁future	-3544
▁comfort	-3545
▁connect	-3546
▁stomach	-3547
▁thirsty	-3548
▁electric	-3549
▁artificial	-3550
53	-3551
86	-3552
88	-3553
94	-3554
;。	-3555
da	-3556
▁自	-3557
▁长	-3558
其他	-3559
叶子	-3560
威胁	-3561
家庭	-3562
开了	-3563
开心	-3564
操作	-3565
矮小	-3566
纽约	-3567
路上	-3568
过了	-3569
高的	-3570
ape	-3571
▁ye	-3572
▁中午	-3573
▁他被	-3574
▁所有	-3575
erve	-3576
▁Ann	-3577
▁key	-3578
▁我没有	-3579
ables	-3580
▁Tell	-3581
▁eggs	-3582
▁gent	-3583
▁move	-3584
▁prot	-3585
▁不好意思	-3586
▁solve	-3587
▁conven	-3588
▁econom	-3589
▁trains	-3590
▁develop	-3591
▁respons	-3592
▁singing	-3593
▁welcome	-3594
▁shanghai	-3595
▁character	-3596
81	-3597
89	-3598
95	-3599
▁关	-3600
三十	-3601
作業	-3602
來的	-3603
利用	-3604
到底	-3605
唯一	-3606
啤酒	-3607
大学	-3608
左右	-3609
打開	-3610
昆明	-3611
正確	-3612
生气	-3613
生氣	-3614
讀書	-3615
駕駛	-3616
高興	-3617
bye	-3618
ief	-3619
isf	-3620
▁20	-3621
▁我该	-3622
▁我跟	-3623
▁祝你	-3624
▁老師	-3625
▁讓我	-3626
一定要	-3627
公交车	-3628
加拿大	-3629
去上班	-3630
把你的	-3631
有一個	-3632
第一次	-3633
见到你	-3634
atop	-3635
cial	-3636
ding	-3637
oeia	-3638
olid	-3639
▁del	-3640
▁par	-3641
▁你应该	-3642
▁你怎么	-3643
▁孩子们	-3644
▁火车比	-3645
▁請給我	-3646
了一本书	-3647
angle	-3648
iling	-3649
urope	-3650
▁Jack	-3651
▁boys	-3652
▁deal	-3653
▁draw	-3654
▁form	-3655
▁lock	-3656
▁rang	-3657
▁ship	-3658
▁sold	-3659
reated	-3660
▁Hello	-3661
▁chose	-3662
▁dance	-3663
▁girls	-3664
▁stamp	-3665
▁taken	-3666
▁meters	-3667
atopoeia	-3668
▁glasses	-3669
▁network	-3670
▁outside	-3671
▁protect	-3672
▁computing	-3673
▁impossible	-3674
▁grandmother	-3675
77	-3676
92	-3677
98	-3678
▁分	-3679
▁祭	-3680
▁越	-3681
▁雪	-3682
▁鱼	-3683
一位	-3684
佩服	-3685
发展	-3686
困难	-3687
坟墓	-3688
快乐	-3689
我会	-3690
水果	-3691
温暖	-3692
狮子	-3693
立即	-3694
这种	-3695
野生	-3696
钓鱼	-3697
随时	-3698
19。	-3699
▁cy	-3700
▁晚安	-3701
airs	-3702
▁env	-3703
▁ice	-3704
▁nor	-3705
▁这是一	-3706
mbers	-3707
▁Take	-3708
▁York	-3709
▁bear	-3710
▁beer	-3711
▁held	-3712
▁land	-3713
▁mike	-3714
▁wash	-3715
▁fruit	-3716
▁ought	-3717
▁stars	-3718
▁veget	-3719
▁begins	-3720
▁common	-3721
▁gentle	-3722
▁temper	-3723
▁members	-3724
▁complete	-3725
▁university	-3726
onomatopoeia	-3727
▁information	-3728
4、	-3729
96	-3730
?”	-3731
▁与	-3732
▁两	-3733
▁喝	-3734
▁学	-3735
▁布	-3736
▁明	-3737
▁由	-3738
▁盖	-3739
▁金	-3740
▁风	-3741
一切	-3742
傑克	-3743
古代	-3744
媽媽	-3745
寫信	-3746
就能	-3747
座山	-3748
建議	-3749
忍受	-3750
战争	-3751
收到	-3752
日语	-3753
曾經	-3754
液体	-3755
盒子	-3756
瞄准	-3757
艺术	-3758
英国	-3759
裡的	-3760
討論	-3761
讓他	-3762
車子	-3763
運動	-3764
邁克	-3765
都不	-3766
隻狗	-3767
顺利	-3768
332	-3769
aka	-3770
ior	-3771
omm	-3772
oub	-3773
▁但願	-3774
▁再见	-3775
▁只有	-3776
▁我和	-3777
▁我被	-3778
了一些	-3779
在这儿	-3780
彈鋼琴	-3781
新手机	-3782
是一个	-3783
是多少	-3784
的英語	-3785
orge	-3786
▁Not	-3787
▁ass	-3788
▁eff	-3789
▁hob	-3790
▁kit	-3791
▁我哥哥	-3792
▁我打算	-3793
▁我沒有	-3794
▁我相信	-3795
▁老师在	-3796
很快就會	-3797
▁Give	-3798
▁susp	-3799
休息一会儿	-3800
ustral	-3801
▁bread	-3802
▁heavy	-3803
▁least	-3804
▁magaz	-3805
▁smell	-3806
▁action	-3807
▁filled	-3808
▁killed	-3809
▁satisf	-3810
▁comfortable	-3811
05	-3812
72	-3813
;,	-3814
dc	-3815
me	-3816
▁出	-3817
▁即	-3818
▁尽	-3819
▁来	-3820
▁模	-3821
▁的	-3822
▁茶	-3823
▁门	-3824
中最	-3825
到达	-3826
十二	-3827
周围	-3828
娃娃	-3829
愿意	-3830
把节	-3831
污染	-3832
石头	-3833
要求	-3834
责任	-3835
ama	-3836
eng	-3837
ipp	-3838
ube	-3839
▁fa	-3840
彝语指	-3841
的名字	-3842
重要的	-3843
ants	-3844
ents	-3845
▁cur	-3846
▁ins	-3847
ately	-3848
icate	-3849
ities	-3850
▁ball	-3851
▁grad	-3852
▁post	-3853
▁redu	-3854
▁requ	-3855
ertain	-3856
oliday	-3857
▁blame	-3858
▁carry	-3859
▁fifty	-3860
▁rains	-3861
▁anyone	-3862
▁thirty	-3863
▁holiday	-3864
▁pronoun	-3865
▁midnight	-3866
▁convenient	-3867
,"	-3868
71	-3869
83	-3870
dy	-3871
na	-3872
▁光	-3873
▁每	-3874
▁真	-3875
。"	-3876
上班	-3877
不可	-3878
並不	-3879
为你	-3880
依靠	-3881
做完	-3882
做饭	-3883
凉爽	-3884
分鐘	-3885
去世	-3886
商店	-3887
地上	-3888
密斯	-3889
寒冷	-3890
年紀	-3891
很累	-3892
很美	-3893
我會	-3894
整天	-3895
早起	-3896
是由	-3897
桌上	-3898
歡迎	-3899
牲畜	-3900
疾病	-3901
看了	-3902
简单	-3903
給他	-3904
蔬菜	-3905
虐待	-3906
蜥蜴	-3907
见面	-3908
買了	-3909
距离	-3910
辛苦	-3911
那些	-3912
那里	-3913
里有	-3914
钥匙	-3915
错误	-3916
ety	-3917
gar	-3918
oin	-3919
unt	-3920
▁Pa	-3921
▁他從	-3922
▁他會	-3923
▁我還	-3924
▁猫比	-3925
▁警察	-3926
不喜欢	-3927
办公室	-3928
去上学	-3929
去哪裡	-3930
吃早饭	-3931
唠叨叨	-3932
很强壮	-3933
很高興	-3934
感兴趣	-3935
把我的	-3936
每天都	-3937
看起来	-3938
買了一	-3939
fall	-3940
ling	-3941
▁bat	-3942
▁col	-3943
▁tie	-3944
▁他昨天	-3945
▁你昨天	-3946
▁大家都	-3947
▁我不会	-3948
▁我吃了	-3949
▁我明天	-3950
▁我非常	-3951
▁用英文	-3952
唠唠叨叨	-3953
比冬天更	-3954
量子比特	-3955
ached	-3956
color	-3957
▁acqu	-3958
▁aunt	-3959
▁coat	-3960
▁gets	-3961
▁paid	-3962
▁pipe	-3963
▁sour	-3964
▁step	-3965
▁tong	-3966
▁他是我的	-3967
▁Kyoto	-3968
▁guess	-3969
▁kyoto	-3970
▁offer	-3971
▁spent	-3972
descend	-3973
▁animal	-3974
▁choose	-3975
▁dreams	-3976
▁forest	-3977
▁intern	-3978
▁orange	-3979
▁stream	-3980
ustralia	-3981
▁concert	-3982
▁washing	-3983
▁weekend	-3984
▁policeman	-3985
97	-3986
ba	-3987
▁史	-3988
▁心	-3989
▁白	-3990
▁种	-3991
▁背	-3992
▁菜	-3993
▁还	-3994
个月	-3995
了解	-3996
侍从	-3997
停止	-3998
幽默	-3999
庄稼	-4000
文件	-4001
渐渐	-4002
结婚	-4003
耳朵	-4004
能力	-4005
陶瓷	-4006
300	-4007
350	-4008
ets	-4009
▁On	-4010
▁名词	-4011
▁天空	-4012
▁秋天	-4013
是一种	-4014
白色的	-4015
ases	-4016
ines	-4017
ware	-4018
▁beh	-4019
▁ben	-4020
▁lay	-4021
这个问题	-4022
ental	-4023
ently	-4024
▁cool	-4025
▁hasn	-4026
▁ride	-4027
▁safe	-4028
▁cheap	-4029
▁model	-4030
▁borrow	-4031
▁corner	-4032
▁nobody	-4033
▁degrees	-4034
▁earthqu	-4035
▁excited	-4036
▁process	-4037
▁studies	-4038
▁shopping	-4039
▁mathematics	-4040
73	-4041
91	-4042
93	-4043
▁全	-4044
▁到	-4045
▁卡	-4046
▁挑	-4047
▁正	-4048
▁河	-4049
▁知	-4050
▁破	-4051
他會	-4052
你會	-4053
写字	-4054
副词	-4055
南希	-4056
博物	-4057
只有	-4058
噪音	-4059
困難	-4060
圖書	-4061
堵塞	-4062
外套	-4063
大學	-4064
对我	-4065
就会	-4066
幾個	-4067
康复	-4068
强调	-4069
换了	-4070
擅長	-4071
晚餐	-4072
根本	-4073
機場	-4074
流利	-4075
爷爷	-4076
环境	-4077
相机	-4078
禮物	-4079
窗戶	-4080
算了	-4081
粮食	-4082
网络	-4083
考試	-4084
花了	-4085
行李	-4086
裡有	-4087
要做	-4088
解决	-4089
語言	-4090
选了	-4091
鉛筆	-4092
铅笔	-4093
...	-4094
eum	-4095
iko	-4096
ues	-4097
urb	-4098
uri	-4099
▁1,	-4100
▁今晚	-4101
▁他说	-4102
▁你该	-4103
▁我读	-4104
▁比爾	-4105
▁這裏	-4106
▁那些	-4107
名用词	-4108
圖書館	-4109
打网球	-4110
的生活	-4111
的英文	-4112
ides	-4113
ighb	-4114
ying	-4115
▁inj	-4116
▁pub	-4117
▁zoo	-4118
▁你不能	-4119
▁你必須	-4120
▁我做了	-4121
▁我妹妹	-4122
▁我必須	-4123
▁我期待	-4124
▁我看见	-4125
▁我走了	-4126
▁早上好	-4127
▁昨天我	-4128
▁现在是	-4129
eorge	-4130
urday	-4131
▁area	-4132
▁cast	-4133
▁chat	-4134
▁golf	-4135
▁join	-4136
▁rise	-4137
▁save	-4138
▁airpl	-4139
▁apply	-4140
▁beach	-4141
▁floor	-4142
▁space	-4143
▁什么是量子	-4144
ibility	-4145
▁helped	-4146
▁memory	-4147
▁minute	-4148
▁museum	-4149
▁nature	-4150
▁neighb	-4151
▁phones	-4152
▁remind	-4153
▁tongue	-4154
▁yellow	-4155
▁cooking	-4156
▁leaving	-4157
▁natural	-4158
▁painted	-4159
▁attention	-4160
▁mountains	-4161
▁satisfied	-4162
63	-4163
76	-4164
79	-4165
aa	-4166
▁想	-4167
▁点	-4168
▁神	-4169
▁第	-4170
一百	-4171
会议	-4172
哪个	-4173
月琴	-4174
死亡	-4175
比那	-4176
洗澡	-4177
的首	-4178
移动	-4179
稍微	-4180
迷路	-4181
钢琴	-4182
鼻子	-4183
100	-4184
ery	-4185
▁sn	-4186
▁只要	-4187
感到很	-4188
比昨天	-4189
ract	-4190
▁ann	-4191
▁cir	-4192
▁cra	-4193
▁due	-4194
▁如果我	-4195
▁象声词	-4196
gress	-4197
point	-4198
▁Look	-4199
▁imag	-4200
▁pity	-4201
▁plus	-4202
▁ring	-4203
▁text	-4204
▁brown	-4205
▁needs	-4206
▁season	-4207
▁finally	-4208
▁shoulder	-4209
▁女	-4210
▁法	-4211
▁结	-4212
上学	-4213
上海	-4214
不想	-4215
不用	-4216
不錯	-4217
严重	-4218
他有	-4219
公里	-4220
出門	-4221
分钟	-4222
到我	-4223
勝過	-4224
午飯	-4225
受了	-4226
吸煙	-4227
咽喉	-4228
喝點	-4229
嬰兒	-4230
家支	-4231
彩虹	-4232
恐怕	-4233
意見	-4234
感谢	-4235
方面	-4236
旅館	-4237
日語	-4238
时态	-4239
是你	-4240
最后	-4241
有五	-4242
欢迎	-4243
汽車	-4244
派对	-4245
玉米	-4246
秘密	-4247
笑了	-4248
篱笆	-4249
肮脏	-4250
被子	-4251
道歉	-4252
那儿	-4253
錯了	-4254
電腦	-4255
饮食	-4256
高中	-4257
nic	-4258
ole	-4259
rew	-4260
▁Sm	-4261
▁Un	-4262
▁ev	-4263
▁半夜	-4264
▁城市	-4265
▁很多	-4266
▁我也	-4267
▁朋友	-4268
▁這本	-4269
了很多	-4270
什麼事	-4271
前缀词	-4272
去学校	-4273
可能會	-4274
吃午饭	-4275
多少錢	-4276
是一種	-4277
是彝族	-4278
的女孩	-4279
的朋友	-4280
的男人	-4281
看上去	-4282
种语言	-4283
case	-4284
urch	-4285
▁100	-4286
▁jim	-4287
▁ref	-4288
▁tig	-4289
▁他總是	-4290
▁你喜歡	-4291
▁你想要	-4292
▁我叔叔	-4293
▁我听了	-4294
▁我喝了	-4295
▁我来了	-4296
▁我用了	-4297
▁我看了	-4298
▁我给了	-4299
▁我说了	-4300
那部电影	-4301
class	-4302
▁Does	-4303
▁aren	-4304
▁inst	-4305
▁king	-4306
▁main	-4307
▁none	-4308
▁今天早上	-4309
▁形容词缀	-4310
了那部电影	-4311
ommend	-4312
▁hobby	-4313
▁keeps	-4314
▁neare	-4315
▁paris	-4316
▁sugar	-4317
▁tried	-4318
▁你什麼時候	-4319
▁apolog	-4320
▁clever	-4321
▁driver	-4322
▁princi	-4323
▁subway	-4324
▁account	-4325
▁acquain	-4326
▁climbed	-4327
▁patient	-4328
▁respect	-4329
▁shouldn	-4330
▁airplane	-4331
▁daughter	-4332
▁distance	-4333
▁recommend	-4334
▁population	-4335
((	-4336
78	-4337
db	-4338
my	-4339
▁听	-4340
▁回	-4341
▁抽	-4342
▁早	-4343
▁清	-4344
▁细	-4345
▁融	-4346
▁里	-4347
▁钱	-4348
▁香	-4349
万物	-4350
代表	-4351
你在	-4352
信息	-4353
儿语	-4354
分布	-4355
包括	-4356
取消	-4357
和平	-4358
好吗	-4359
意见	-4360
来自	-4361
物理	-4362
生意	-4363
疲倦	-4364
的大	-4365
的第	-4366
真是	-4367
足够	-4368
阳光	-4369
ses	-4370
▁es	-4371
▁fu	-4372
▁我叫	-4373
▁数学	-4374
▁爸爸	-4375
▁让我	-4376
完成了	-4377
ires	-4378
iron	-4379
pose	-4380
▁fro	-4381
▁hit	-4382
▁今天是	-4383
▁我想吃	-4384
anges	-4385
oming	-4386
rance	-4387
▁Come	-4388
▁burn	-4389
▁cond	-4390
▁dare	-4391
▁loss	-4392
▁prof	-4393
ompany	-4394
thread	-4395
▁allow	-4396
▁fight	-4397
▁knife	-4398
▁nancy	-4399
▁piece	-4400
▁power	-4401
▁trust	-4402
▁church	-4403
▁engine	-4404
▁master	-4405
▁monday	-4406
▁simple	-4407
▁square	-4408
▁useful	-4409
ironment	-4410
▁certain	-4411
▁purpose	-4412
▁indicate	-4413
▁practice	-4414
▁sentence	-4415
▁wherever	-4416
▁basketball	-4417
▁characters	-4418
▁environment	-4419
df	-4420
▁/	-4421
▁节	-4422
▁行	-4423
▁貝	-4424
乘以	-4425
仍然	-4426
作家	-4427
傣族	-4428
兴奋	-4429
加入	-4430
发音	-4431
在天	-4432
士山	-4433
导致	-4434
小声	-4435
幫忙	-4436
很少	-4437
手表	-4438
摆摆	-4439
摇摇	-4440
擔心	-4441
數學	-4442
法国	-4443
流行	-4444
爬山	-4445
狗更	-4446
理由	-4447
的地	-4448
礼物	-4449
祖母	-4450
组成	-4451
罢了	-4452
群众	-4453
輛車	-4454
那樣	-4455
都會	-4456
难过	-4457
餐厅	-4458
饱满	-4459
馬上	-4460
280	-4461
320	-4462
oof	-4463
unn	-4464
▁Af	-4465
▁吉姆	-4466
▁因為	-4467
▁我聽	-4468
▁美國	-4469
▁這張	-4470
來沒有	-4471
在哪裏	-4472
太多了	-4473
富士山	-4474
就是我	-4475
差不多	-4476
很可爱	-4477
很善良	-4478
打棒球	-4479
是不是	-4480
的一个	-4481
的房子	-4482
看电视	-4483
遲到了	-4484
hest	-4485
irty	-4486
osal	-4487
time	-4488
▁dem	-4489
▁div	-4490
▁jud	-4491
▁mad	-4492
▁nur	-4493
▁wit	-4494
▁他喜歡	-4495
▁他是个	-4496
▁他沒有	-4497
▁我写了	-4498
▁我学了	-4499
▁我弟弟	-4500
▁我找了	-4501
▁我换了	-4502
▁我无法	-4503
▁我读了	-4504
▁我跑了	-4505
▁我选了	-4506
▁这是我	-4507
▁這是一	-4508
摇摇摆摆	-4509
是世界上	-4510
永遠不會	-4511
▁Many	-4512
▁boss	-4513
▁farm	-4514
▁lies	-4515
▁ripe	-4516
▁scen	-4517
▁shut	-4518
叫什么名字	-4519
▁alive	-4520
▁colle	-4521
▁fault	-4522
▁group	-4523
▁moved	-4524
▁shirt	-4525
▁worse	-4526
▁failed	-4527
▁flying	-4528
▁market	-4529
▁opened	-4530
▁scient	-4531
▁talked	-4532
▁用英文怎么说	-4533
▁Goodbye	-4534
▁depends	-4535
▁descend	-4536
▁injured	-4537
▁nearest	-4538
▁sisters	-4539
▁decision	-4540
▁discount	-4541
▁invented	-4542
▁received	-4543
▁classroom	-4544
▁wonderful	-4545
82	-4546
wo	-4547
▁张	-4548
▁树	-4549
▁烧	-4550
▁编	-4551
▁腰	-4552
不但	-4553
不懂	-4554
乐器	-4555
农村	-4556
几个	-4557
出现	-4558
出的	-4559
只猫	-4560
名的	-4561
壁虎	-4562
嫉妒	-4563
很久	-4564
支系	-4565
架子	-4566
洞房	-4567
满了	-4568
生命	-4569
留在	-4570
的气	-4571
看法	-4572
礼节	-4573
祖宗	-4574
祭祀	-4575
老虎	-4576
老鼠	-4577
耐心	-4578
臭味	-4579
螃蟹	-4580
饲养	-4581
马上	-4582
336	-4583
iri	-4584
ony	-4585
▁AI	-4586
▁At	-4587
▁Ke	-4588
▁他去	-4589
▁使动	-4590
▁苹果	-4591
老朋友	-4592
蓝色的	-4593
ilar	-4594
ivil	-4595
lves	-4596
reed	-4597
wine	-4598
▁exh	-4599
▁fil	-4600
▁flu	-4601
▁inf	-4602
▁occ	-4603
anted	-4604
olute	-4605
▁Kate	-4606
▁size	-4607
▁sugg	-4608
▁人工智能	-4609
▁Sorry	-4610
▁block	-4611
▁gradu	-4612
▁proud	-4613
▁rainy	-4614
▁button	-4615
▁dishes	-4616
▁ancient	-4617
▁careful	-4618
▁collect	-4619
▁england	-4620
▁project	-4621
▁provide	-4622
▁similar	-4623
▁teaches	-4624
▁drinking	-4625
▁carefully	-4626
▁condition	-4627
▁vegetables	-4628
▁temperature	-4629
ns	-4630
▁「	-4631
▁五	-4632
▁传	-4633
▁修	-4634
▁后	-4635
▁工	-4636
▁开	-4637
▁愛	-4638
▁消	-4639
▁问	-4640
。」	-4641
一家	-4642
一張	-4643
上面	-4644
不上	-4645
不在	-4646
乌鸦	-4647
了个	-4648
云雀	-4649
人生	-4650
他了	-4651
他说	-4652
你会	-4653
停了	-4654
六点	-4655
到家	-4656
剛剛	-4657
午餐	-4658
只狗	-4659
否定	-4660
哪裡	-4661
喝酒	-4662
坏了	-4663
壞了	-4664
太多	-4665
太太	-4666
夫球	-4667
奉养	-4668
慢慢	-4669
改變	-4670
教室	-4671
明年	-4672
晚饭	-4673
母亲	-4674
画画	-4675
的那	-4676
看我	-4677
眼鏡	-4678
簡單	-4679
粗糙	-4680
結束	-4681
經常	-4682
美的	-4683
腿肚	-4684
臭虫	-4685
花园	-4686
記得	-4687
說得	-4688
谷鸟	-4689
踪迹	-4690
身上	-4691
过分	-4692
这些	-4693
這裏	-4694
通知	-4695
進了	-4696
遗传	-4697
酒店	-4698
頭髮	-4699
预备	-4700
20。	-4701
331	-4702
370	-4703
obe	-4704
oms	-4705
oon	-4706
zen	-4707
▁25	-4708
▁Be	-4709
▁el	-4710
▁凱特	-4711
▁北京	-4712
▁天氣	-4713
▁我受	-4714
▁我沒	-4715
▁我為	-4716
▁我請	-4717
▁有些	-4718
▁每个	-4719
▁玛丽	-4720
▁當我	-4721
▁这种	-4722
一直在	-4723
什么都	-4724
但是我	-4725
值得一	-4726
做午饭	-4727
在哪儿	-4728
在日本	-4729
就好了	-4730
很勇敢	-4731
收音机	-4732
有一些	-4733
毕摩的	-4734
生病了	-4735
的英语	-4736
黑色的	-4737
);3、	-4738
aces	-4739
chen	-4740
ches	-4741
entl	-4742
oses	-4743
saka	-4744
uary	-4745
yond	-4746
▁Bet	-4747
▁ash	-4748
▁bar	-4749
▁fix	-4750
▁map	-4751
▁mur	-4752
▁rev	-4753
▁他不是	-4754
▁你介意	-4755
▁我现在	-4756
▁没关系	-4757
一杯咖啡	-4758
對我來說	-4759
里有很多	-4760
ograp	-4761
rison	-4762
▁dise	-4763
▁doub	-4764
▁fond	-4765
▁hate	-4766
▁lion	-4767
▁meal	-4768
▁phys	-4769
▁roll	-4770
▁rule	-4771
▁stri	-4772
▁每個人都	-4773
▁这是我的	-4774
overed	-4775
▁ahead	-4776
▁civil	-4777
▁delic	-4778
▁enter	-4779
▁nurse	-4780
▁peace	-4781
▁third	-4782
▁turns	-4783
▁women	-4784
▁你什么时候	-4785
artment	-4786
ometers	-4787
working	-4788
▁artist	-4789
▁asleep	-4790
▁chance	-4791
▁missed	-4792
▁necess	-4793
▁skiing	-4794
▁tastes	-4795
▁college	-4796
▁kitchen	-4797
▁prevent	-4798
▁sitting	-4799
▁progress	-4800
▁proposal	-4801
▁returned	-4802
▁suddenly	-4803
▁universe	-4804
▁happiness	-4805
bf	-4806
▁少	-4807
▁拌	-4808
▁搭	-4809
▁沉	-4810
▁活	-4811
▁深	-4812
▁灵	-4813
▁睡	-4814
▁磨	-4815
▁肉	-4816
▁草	-4817
▁软	-4818
▁间	-4819
▁青	-4820
人口	-4821
你去	-4822
全部	-4823
力学	-4824
叫我	-4825
娇气	-4826
崽的	-4827
悄悄	-4828
悲恸	-4829
我要	-4830
教育	-4831
日期	-4832
有个	-4833
梦想	-4834
狐狸	-4835
看见	-4836
稻子	-4837
经济	-4838
老人	-4839
议论	-4840
质量	-4841
过得	-4842
避免	-4843
arp	-4844
ead	-4845
irm	-4846
ots	-4847
▁).	-4848
▁11	-4849
▁Sp	-4850
▁不管	-4851
我可以	-4852
火车站	-4853
的故事	-4854
chan	-4855
elve	-4856
sing	-4857
uted	-4858
▁One	-4859
▁cot	-4860
▁def	-4861
▁ter	-4862
▁他不会	-4863
▁孩子在	-4864
ality	-4865
owder	-4866
▁Keep	-4867
▁bell	-4868
▁fill	-4869
▁pack	-4870
▁phot	-4871
▁soup	-4872
▁我们必须	-4873
▁Paris	-4874
▁bound	-4875
▁incre	-4876
▁liked	-4877
▁relax	-4878
▁sharp	-4879
▁量子叠加态	-4880
▁beyond	-4881
▁object	-4882
▁rained	-4883
▁report	-4884
▁twelve	-4885
▁weight	-4886
▁wouldn	-4887
▁今天天气很好	-4888
▁dancing	-4889
▁meaning	-4890
▁worried	-4891
▁American	-4892
▁american	-4893
▁internet	-4894
▁particle	-4895
▁Everybody	-4896
▁classical	-4897
▁traveling	-4898
84	-4899
VO	-4900
bd	-4901
bi	-4902
cf	-4903
ea	-4904
uā	-4905
yd	-4906
▁先	-4907
▁土	-4908
▁撮	-4909
▁松	-4910
▁洗	-4911
▁滴	-4912
▁相	-4913
▁闪	-4914
一本	-4915
三次	-4916
上床	-4917
中有	-4918
人们	-4919
人在	-4920
今年	-4921
你是	-4922
來自	-4923
供养	-4924
個人	-4925
公共	-4926
六月	-4927
出發	-4928
動了	-4929
原子	-4930
合作	-4931
名称	-4932
周末	-4933
响了	-4934
四川	-4935
地震	-4936
大阪	-4937
夭折	-4938
女生	-4939
好好	-4940
好是	-4941
尊敬	-4942
就會	-4943
平安	-4944
快樂	-4945
感謝	-4946
戰爭	-4947
打破	-4948
拍照	-4949
支持	-4950
有四	-4951
榫头	-4952
永远	-4953
準時	-4954
灰尘	-4955
照顧	-4956
玩具	-4957
的吗	-4958
的小	-4959
砚台	-4960
窝棚	-4961
終於	-4962
繼續	-4963
给他	-4964
聖誕	-4965
胎子	-4966
花園	-4967
襯衫	-4968
見面	-4969
规律	-4970
解釋	-4971
还没	-4972
选择	-4973
選擇	-4974
邀請	-4975
隨時	-4976
4、(	-4977
50。	-4978
ale	-4979
aro	-4980
cer	-4981
dle	-4982
len	-4983
ron	-4984
uān	-4985
▁Me	-4986
▁一个	-4987
▁与其	-4988
▁当然	-4989
▁我每	-4990
▁男孩	-4991
▁謝謝	-4992
不是吗	-4993
任何你	-4994
去學校	-4995
小腿肚	-4996
改变了	-4997
星期一	-4998
是誰的	-4999
的事情	-5000
的時間	-5001
美丽的	-5002
自行車	-5003
該怎麼	-5004
踢足球	-5005
itch	-5006
lder	-5007
omen	-5008
rodu	-5009
star	-5010
tain	-5011
uiri	-5012
▁See	-5013
▁anx	-5014
▁blo	-5015
▁emb	-5016
▁gas	-5017
▁god	-5018
▁lad	-5019
▁pot	-5020
▁我父親	-5021
▁我通常	-5022
▁把你的	-5023
▁有什么	-5024
▁請你把	-5025
▁這隻狗	-5026
看起來很	-5027
ortun	-5028
ution	-5029
▁cust	-5030
▁desc	-5031
▁dest	-5032
▁heat	-5033
▁incl	-5034
▁loud	-5035
▁rock	-5036
▁seem	-5037
▁term	-5038
▁我把我的	-5039
uiriel	-5040
▁cance	-5041
▁feels	-5042
▁fever	-5043
▁major	-5044
▁miles	-5045
▁newsp	-5046
▁sheep	-5047
▁teeth	-5048
▁tiger	-5049
▁usual	-5050
ization	-5051
▁afford	-5052
▁assist	-5053
▁bottle	-5054
▁concer	-5055
▁flight	-5056
▁ground	-5057
▁happen	-5058
▁jacket	-5059
▁larger	-5060
▁public	-5061
▁record	-5062
▁silver	-5063
▁stamps	-5064
▁anxious	-5065
▁crowded	-5066
▁missing	-5067
anglement	-5068
▁headache	-5069
▁neighbor	-5070
▁opportun	-5071
▁pleasure	-5072
▁delicious	-5073
▁kilometers	-5074
▁countryside	-5075
cb	-5076
▁也	-5077
▁入	-5078
▁加	-5079
▁台	-5080
▁嫩	-5081
▁往	-5082
▁爱	-5083
▁牵	-5084
▁直	-5085
▁祖	-5086
▁耳	-5087
▁野	-5088
一般	-5089
关于	-5090
出租	-5091
变得	-5092
变成	-5093
喝茶	-5094
存在	-5095
客气	-5096
怀孕	-5097
斗笠	-5098
有益	-5099
果子	-5100
母畜	-5101
爽快	-5102
皇帝	-5103
监狱	-5104
祈求	-5105
禁止	-5106
等了	-5107
绞痛	-5108
菠萝	-5109
蟋蟀	-5110
认错	-5111
讨论	-5112
进行	-5113
都在	-5114
290	-5115
35。	-5116
Ent	-5117
ism	-5118
ued	-5119
▁Al	-5120
▁ju	-5121
▁va	-5122
▁事故	-5123
▁他会	-5124
▁可惜	-5125
▁学习	-5126
▁手机	-5127
▁无论	-5128
▁时间	-5129
▁突然	-5130
▁英文	-5131
▁重字	-5132
之间的	-5133
好朋友	-5134
孩子们	-5135
所以我	-5136
的核心	-5137
这件事	-5138
迷路了	-5139
EntL	-5140
anch	-5141
ined	-5142
oned	-5143
▁Put	-5144
▁bur	-5145
▁cri	-5146
▁esc	-5147
▁eth	-5148
▁mis	-5149
▁mot	-5150
▁tor	-5151
▁不客气	-5152
▁他常常	-5153
▁你想吃	-5154
▁越来越	-5155
休息一下	-5156
彝族家支	-5157
▁Turn	-5158
▁ears	-5159
▁inno	-5160
▁jour	-5161
▁kate	-5162
▁kill	-5163
▁pear	-5164
▁Whose	-5165
▁breat	-5166
▁hello	-5167
▁qentl	-5168
▁state	-5169
▁今天比昨天	-5170
▁branch	-5171
▁closed	-5172
▁crying	-5173
▁either	-5174
▁france	-5175
▁happens	-5176
▁consists	-5177
▁football	-5178
▁accompany	-5179
▁earthquake	-5180
▁electricity	-5181
▁hardworking	-5182
▁responsibility	-5183
;(	-5184
▁$	-5185
▁刺	-5186
▁印	-5187
▁取	-5188
▁喬	-5189
▁圆	-5190
▁成	-5191
▁撒	-5192
▁脚	-5193
▁饭	-5194
三天	-5195
中心	-5196
之後	-5197
也會	-5198
书包	-5199
人是	-5200
何時	-5201
作物	-5202
俏皮	-5203
六祖	-5204
六點	-5205
再來	-5206
再次	-5207
出來	-5208
出席	-5209
制造	-5210
勾引	-5211
升起	-5212
危险	-5213
原理	-5214
变化	-5215
向你	-5216
喷水	-5217
在一	-5218
夢想	-5219
岁了	-5220
幾天	-5221
底下	-5222
建造	-5223
很热	-5224
性的	-5225
情况	-5226
情況	-5227
惩治	-5228
想起	-5229
打仗	-5230
托尼	-5231
政治	-5232
新年	-5233
是嗎	-5234
是很	-5235
普及	-5236
會兒	-5237
木板	-5238
機會	-5239
歷史	-5240
沸腾	-5241
泥鳅	-5242
浪費	-5243
特的	-5244
玩笑	-5245
玫瑰	-5246
班牙	-5247
百姓	-5248
的词	-5249
看過	-5250
石油	-5251
神位	-5252
祷告	-5253
糟糕	-5254
结束	-5255
老实	-5256
聰明	-5257
聲音	-5258
葫芦	-5259
行为	-5260
讨厌	-5261
郵票	-5262
锋利	-5263
错了	-5264
间的	-5265
随便	-5266
非洲	-5267
面前	-5268
顽皮	-5269
12。	-5270
334	-5271
aid	-5272
aly	-5273
ara	-5274
etr	-5275
hou	-5276
iar	-5277
uko	-5278
▁18	-5279
▁但是	-5280
▁南希	-5281
▁去年	-5282
▁天气	-5283
▁妈妈	-5284
▁我上	-5285
▁我寧	-5286
▁我爱	-5287
▁月亮	-5288
▁约翰	-5289
▁给我	-5290
▁英语	-5291
▁貝蒂	-5292
▁這樣	-5293
做了一	-5294
十年了	-5295
危險的	-5296
去上學	-5297
另一个	-5298
吃早餐	-5299
含义是	-5300
喷水枪	-5301
在那裡	-5302
多久了	-5303
布谷鸟	-5304
待在家	-5305
意大利	-5306
成功的	-5307
把他的	-5308
星期六	-5309
是一名	-5310
是日本	-5311
更重要	-5312
最喜欢	-5313
比中文	-5314
玩得很	-5315
給我們	-5316
给我们	-5317
西班牙	-5318
说中的	-5319
這件事	-5320
bits	-5321
edge	-5322
ilet	-5323
ldom	-5324
mony	-5325
rica	-5326
▁cho	-5327
▁dut	-5328
▁laz	-5329
▁rum	-5330
▁wet	-5331
▁我不太	-5332
▁我完全	-5333
▁我必须	-5334
▁我要回	-5335
▁火把节	-5336
▁让我们	-5337
▁请解释	-5338
人工智能	-5339
任何東西	-5340
努力工作	-5341
可以同时	-5342
喜歡音樂	-5343
成為一名	-5344
inite	-5345
▁Here	-5346
▁appl	-5347
▁auth	-5348
▁craz	-5349
▁hill	-5350
▁mess	-5351
▁quar	-5352
▁reap	-5353
▁rent	-5354
▁repe	-5355
▁rude	-5356
▁self	-5357
▁sell	-5358
▁situ	-5359
▁soft	-5360
▁vase	-5361
▁virt	-5362
▁我想和你	-5363
▁我的房間	-5364
最大的城市	-5365
▁clock	-5366
▁event	-5367
▁games	-5368
▁judge	-5369
▁might	-5370
▁named	-5371
▁prize	-5372
▁reach	-5373
▁thief	-5374
▁tooth	-5375
▁voice	-5376
▁wound	-5377
▁我今天早上	-5378
ustomed	-5379
▁eleven	-5380
▁island	-5381
▁penetr	-5382
▁pocket	-5383
▁prison	-5384
▁regret	-5385
▁salary	-5386
▁toilet	-5387
▁washed	-5388
▁cheaper	-5389
▁disturb	-5390
▁elected	-5391
▁introdu	-5392
▁invited	-5393
▁managed	-5394
▁suitcase	-5395
▁pronounce	-5396
▁accustomed	-5397
▁complaining	-5398
▁entanglement	-5399
cd	-5400
gn	-5401
▁云	-5402
▁伤	-5403
▁依	-5404
▁头	-5405
▁巴	-5406
▁带	-5407
▁强	-5408
▁手	-5409
▁挣	-5410
▁整	-5411
▁烙	-5412
▁调	-5413
▁转	-5414
▁酸	-5415
▁鸡	-5416
一份	-5417
位词	-5418
凝结	-5419
前面	-5420
区别	-5421
卧倒	-5422
叫声	-5423
四十	-5424
囤箩	-5425
好梦	-5426
将要	-5427
或者	-5428
拐杖	-5429
日子	-5430
来没	-5431
柴刀	-5432
毡子	-5433
池塘	-5434
点儿	-5435
猴子	-5436
生的	-5437
的主	-5438
石榴	-5439
稀烂	-5440
红色	-5441
经过	-5442
耽搁	-5443
脾气	-5444
臀部	-5445
自动	-5446
薄荷	-5447
藤子	-5448
蚂蝗	-5449
诽谤	-5450
赡养	-5451
迟到	-5452
速度	-5453
都会	-5454
阴茎	-5455
隐瞒	-5456
面包	-5457
额头	-5458
餐具	-5459
鸣叫	-5460
500	-5461
dam	-5462
ram	-5463
rat	-5464
▁Qu	-5465
▁aw	-5466
▁er	-5467
▁je	-5468
▁lu	-5469
▁即使	-5470
▁数词	-5471
▁正在	-5472
度学习	-5473
弹钢琴	-5474
的一种	-5475
砍柴刀	-5476
遇到了	-5477
ners	-5478
pack	-5479
uish	-5480
▁dev	-5481
▁emp	-5482
▁jum	-5483
▁sew	-5484
▁他比我	-5485
▁她不会	-5486
▁学生在	-5487
▁我们会	-5488
▁我会说	-5489
▁苹果比	-5490
主要分布	-5491
ciate	-5492
cious	-5493
ollow	-5494
ooked	-5495
urity	-5496
▁bags	-5497
▁mail	-5498
▁quit	-5499
▁type	-5500
▁view	-5501
selves	-5502
▁Those	-5503
▁blind	-5504
▁blood	-5505
▁chick	-5506
▁helps	-5507
▁moder	-5508
▁sunny	-5509
▁量子计算机	-5510
▁bucket	-5511
▁butter	-5512
▁cancer	-5513
▁contin	-5514
▁disapp	-5515
▁except	-5516
▁mechan	-5517
▁seldom	-5518
▁slight	-5519
▁theory	-5520
▁waited	-5521
▁failure	-5522
▁hearing	-5523
▁oranges	-5524
▁smaller	-5525
▁suggest	-5526
▁wearing	-5527
▁Everyone	-5528
▁requires	-5529
▁somebody	-5530
▁president	-5531
▁experience	-5532
OV	-5533
fb	-5534
fc	-5535
fd	-5536
ks	-5537
sm	-5538
▁保	-5539
▁切	-5540
▁可	-5541
▁堆	-5542
▁挂	-5543
▁温	-5544
▁漂	-5545
▁烟	-5546
▁积	-5547
▁答	-5548
▁船	-5549
▁蘇	-5550
▁进	-5551
▁除	-5552
▁飞	-5553
一张	-5554
一支	-5555
一条	-5556
一班	-5557
不去	-5558
不太	-5559
不然	-5560
丑陋	-5561
丢失	-5562
乾淨	-5563
以為	-5564
你把	-5565
倒了	-5566
借我	-5567
像个	-5568
先民	-5569
克力	-5570
兔子	-5571
其中	-5572
別人	-5573
办法	-5574
叙述	-5575
另外	-5576
只能	-5577
后天	-5578
呕吐	-5579
哭了	-5580
唢呐	-5581
因為	-5582
國外	-5583
士比	-5584
外國	-5585
天干	-5586
失望	-5587
女兒	-5588
奶奶	-5589
婴儿	-5590
对的	-5591
平均	-5592
引述	-5593
快要	-5594
怀疑	-5595
怎样	-5596
想到	-5597
我有	-5598
所知	-5599
把它	-5600
报纸	-5601
收集	-5602
故意	-5603
教堂	-5604
早點	-5605
更加	-5606
更难	-5607
最後	-5608
會去	-5609
未曾	-5610
模仿	-5611
模样	-5612
機器	-5613
檢查	-5614
步行	-5615
河裡	-5616
满意	-5617
潮湿	-5618
火災	-5619
点了	-5620
獨自	-5621
用手	-5622
男生	-5623
目前	-5624
等待	-5625
缺席	-5626
美麗	-5627
老婆	-5628
舌头	-5629
英里	-5630
虚词	-5631
號碼	-5632
袋子	-5633
规则	-5634
角落	-5635
讓你	-5636
贵了	-5637
跟他	-5638
适合	-5639
遇見	-5640
遗憾	-5641
遵守	-5642
那麼	-5643
關係	-5644
關於	-5645
阅读	-5646
雜誌	-5647
領帶	-5648
项目	-5649
马路	-5650
鲸鱼	-5651
麵包	-5652
310	-5653
330	-5654
335	-5655
59。	-5656
:00	-5657
?”“	-5658
SVO	-5659
ils	-5660
oul	-5661
pty	-5662
the	-5663
▁14	-5664
▁49	-5665
▁av	-5666
▁ow	-5667
▁一個	-5668
▁不用	-5669
▁也许	-5670
▁今年	-5671
▁他从	-5672
▁他对	-5673
▁他對	-5674
▁他比	-5675
▁体育	-5676
▁古语	-5677
▁可能	-5678
▁希望	-5679
▁我去	-5680
▁請問	-5681
▁许多	-5682
▁這座	-5683
▁這裡	-5684
▁邁克	-5685
▁鮑伯	-5686
一杯水	-5687
下一站	-5688
你可以	-5689
出去了	-5690
到日本	-5691
去哪儿	-5692
吃完了	-5693
回家了	-5694
学英语	-5695
小男孩	-5696
巧克力	-5697
待多久	-5698
感冒了	-5699
搭公車	-5700
星期日	-5701
是對的	-5702
更漂亮	-5703
桌上有	-5704
比上海	-5705
法自然	-5706
照相机	-5707
的东西	-5708
的男孩	-5709
看到了	-5710
真的很	-5711
英语说	-5712
莎士比	-5713
葡萄酒	-5714
被偷了	-5715
说什么	-5716
辦公室	-5717
那件事	-5718
ased	-5719
aust	-5720
cent	-5721
ered	-5722
ghed	-5723
hess	-5724
ield	-5725
like	-5726
upid	-5727
▁Mon	-5728
▁fat	-5729
▁sho	-5730
▁他已经	-5731
▁你怎麼	-5732
▁你觉得	-5733
▁告訴我	-5734
▁告诉我	-5735
▁我最近	-5736
▁所有的	-5737
▁沒有人	-5738
▁这辆车	-5739
去看電影	-5740
我很高兴	-5741
是中国最	-5742
最喜歡的	-5743
机器学习	-5744
要做什麼	-5745
這份工作	-5746
atoes	-5747
dered	-5748
ended	-5749
ierce	-5750
iting	-5751
ouses	-5752
peare	-5753
under	-5754
vered	-5755
▁bott	-5756
▁capt	-5757
▁east	-5758
▁fair	-5759
▁film	-5760
▁lazy	-5761
▁rack	-5762
▁tube	-5763
▁介绍一下	-5764
▁你为什么	-5765
▁孩子们在	-5766
▁我有一个	-5767
▁重叠词缀	-5768
colate	-5769
▁board	-5770
▁cards	-5771
▁cause	-5772
▁chess	-5773
▁crazy	-5774
▁doubt	-5775
▁famil	-5776
▁lucky	-5777
▁polit	-5778
▁truck	-5779
▁北京比上海	-5780
▁我不知道他	-5781
▁affect	-5782
▁commit	-5783
▁commun	-5784
▁demand	-5785
▁effort	-5786
▁lately	-5787
▁showed	-5788
▁sooner	-5789
▁stupid	-5790
▁advised	-5791
▁covered	-5792
▁exhaust	-5793
▁follows	-5794
▁reached	-5795
▁tallest	-5796
akespeare	-5797
▁magazine	-5798
▁networks	-5799
▁passport	-5800
▁teaching	-5801
▁apologize	-5802
▁childhood	-5803
▁penetrate	-5804
▁situation	-5805
▁acquainted	-5806
▁discovered	-5807
▁development	-5808
▁difficulties	-5809
gu	-5810
▁倒	-5811
▁刮	-5812
▁口	-5813
▁古	-5814
▁向	-5815
▁块	-5816
▁扒	-5817
▁折	-5818
▁接	-5819
▁搅	-5820
▁既	-5821
▁本	-5822
▁盛	-5823
▁穿	-5824
▁肥	-5825
▁麻	-5826
▁黑	-5827
中午	-5828
串串	-5829
任务	-5830
健壮	-5831
偿还	-5832
公斤	-5833
功能	-5834
北斗	-5835
喧哗	-5836
在我	-5837
外国	-5838
家具	-5839
就像	-5840
幽幽	-5841
弹琴	-5842
影响	-5843
德行	-5844
必有	-5845
忠厚	-5846
思考	-5847
打开	-5848
打扰	-5849
旅馆	-5850
昆虫	-5851
景色	-5852
杜鹃	-5853
正常	-5854
犁板	-5855
玩耍	-5856
的目	-5857
看书	-5858
稠密	-5859
窗户	-5860
繁衍	-5861
联系	-5862
胡椒	-5863
词典	-5864
诙谐	-5865
赘婿	-5866
长的	-5867
香油	-5868
));	-5869
30。	-5870
37。	-5871
61。	-5872
een	-5873
mit	-5874
per	-5875
▁15	-5876
▁Mt	-5877
▁ai	-5878
▁mt	-5879
做完了	-5880
喝咖啡	-5881
服务器	-5882
桌子上	-5883
ency	-5884
eter	-5885
ings	-5886
medi	-5887
stru	-5888
teen	-5889
ygen	-5890
▁den	-5891
▁fle	-5892
▁low	-5893
▁ser	-5894
▁tre	-5895
▁他没有	-5896
▁医生在	-5897
▁彝族的	-5898
▁请帮我	-5899
很有意思	-5900
▁body	-5901
▁diet	-5902
▁duty	-5903
▁eats	-5904
▁hemp	-5905
▁inde	-5906
▁pers	-5907
▁pole	-5908
▁roof	-5909
▁我们不会	-5910
其含义为是	-5911
▁empty	-5912
▁exist	-5913
▁flies	-5914
▁gives	-5915
▁marry	-5916
▁spend	-5917
▁stick	-5918
▁这本书比那	-5919
▁cheese	-5920
▁fundam	-5921
▁houses	-5922
▁immedi	-5923
▁includ	-5924
▁neural	-5925
▁regard	-5926
▁silent	-5927
▁stands	-5928
ervation	-5929
▁England	-5930
▁changes	-5931
▁foolish	-5932
▁regular	-5933
▁今天天气怎么样	-5934
▁changing	-5935
▁painting	-5936
▁Christmas	-5937
▁chocolate	-5938
▁christmas	-5939
▁completely	-5940
▁fundamental	-5941
ae	-5942
bo	-5943
sc	-5944
uf	-5945
▁八	-5946
▁叠	-5947
▁合	-5948
▁啊	-5949
▁抖	-5950
▁排	-5951
▁根	-5952
▁游	-5953
▁片	-5954
▁画	-5955
▁還	-5956
一遍	-5957
三個	-5958
不出	-5959
不合	-5960
不少	-5961
不欲	-5962
不過	-5963
丟了	-5964
介紹	-5965
他很	-5966
价值	-5967
你有	-5968
允许	-5969
先前	-5970
农民	-5971
出國	-5972
刀子	-5973
勿施	-5974
十年	-5975
半夏	-5976
反对	-5977
发烧	-5978
和谐	-5979
城堡	-5980
報紙	-5981
处于	-5982
失敗	-5983
客店	-5984
小姐	-5985
就在	-5986
己所	-5987
幫你	-5988
平静	-5989
幾點	-5990
度假	-5991
德国	-5992
忙吗	-5993
忠告	-5994
快速	-5995
想像	-5996
懂得	-5997
我家	-5998
找我	-5999
把我	-6000
拘禁	-6001
损失	-6002
掺和	-6003
放棄	-6004
斑鸠	-6005
旅游	-6006
明了	-6007
有效	-6008
有點	-6009
欧洲	-6010
欺骗	-6011
比河	-6012
毛发	-6013
沉沉	-6014
沉默	-6015
河流	-6016
活泼	-6017
温柔	-6018
澳洲	-6019
照顾	-6020
物体	-6021
犯错	-6022
独自	-6023
生物	-6024
睡了	-6025
睾丸	-6026
禮貌	-6027
种子	-6028
程車	-6029
翻譯	-6030
联网	-6031
腳踏	-6032
至少	-6033
芦苇	-6034
苍蝇	-6035
荸荠	-6036
触动	-6037
让他	-6038
说的	-6039
说过	-6040
走不	-6041
這場	-6042
進行	-6043
過去	-6044
部族	-6045
里面	-6046
銀行	-6047
钢笔	-6048
長大	-6049
长度	-6050
開門	-6051
陌生	-6052
雖然	-6053
高爾	-6054
鹽遞	-6055
18。	-6056
44。	-6057
45。	-6058
66。	-6059
SOV	-6060
cum	-6061
gan	-6062
hat	-6063
ift	-6064
ium	-6065
let	-6066
oll	-6067
ows	-6068
ray	-6069
uge	-6070
▁上午	-6071
▁世界	-6072
▁任何	-6073
▁你对	-6074
▁您的	-6075
▁我下	-6076
▁我买	-6077
▁我問	-6078
▁折磨	-6079
▁是的	-6080
▁給我	-6081
▁这家	-6082
▁这张	-6083
▁這件	-6084
▁這台	-6085
▁這輛	-6086
▁除了	-6087
▁鮑勃	-6088
▁麻煩	-6089
下一步	-6090
下了一	-6091
不喜歡	-6092
什麼嗎	-6093
動物園	-6094
勿施于	-6095
十分鐘	-6096
告訴你	-6097
就可以	-6098
彈吉他	-6099
形容嚼	-6100
很好的	-6101
收到了	-6102
日本人	-6103
是什麼	-6104
杯咖啡	-6105
比农村	-6106
没见过	-6107
游泳很	-6108
發生的	-6109
的味道	-6110
的問題	-6111
的工作	-6112
的照片	-6113
看一下	-6114
睡觉了	-6115
红色的	-6116
给了我	-6117
腳踏車	-6118
部電影	-6119
0000	-6120
ator	-6121
ison	-6122
thod	-6123
vers	-6124
▁'((	-6125
▁Nob	-6126
▁ach	-6127
▁aud	-6128
▁bal	-6129
▁bow	-6130
▁cou	-6131
▁hid	-6132
▁hig	-6133
▁lau	-6134
▁pic	-6135
▁rul	-6136
▁vol	-6137
▁不要把	-6138
▁他已經	-6139
▁他是我	-6140
▁他非常	-6141
▁你到底	-6142
▁我以前	-6143
▁我住在	-6144
▁我听到	-6145
▁我在找	-6146
▁有一天	-6147
▁没有人	-6148
▁為什麼	-6149
▁这朵花	-6150
一點也不	-6151
丢了我的	-6152
做了一個	-6153
再見到你	-6154
己所不欲	-6155
每天早上	-6156
給我好嗎	-6157
這個消息	-6158
電話號碼	-6159
ances	-6160
anish	-6161
ories	-6162
ounds	-6163
unnan	-6164
▁cere	-6165
▁core	-6166
▁date	-6167
▁enem	-6168
▁hole	-6169
▁lead	-6170
▁pond	-6171
▁prep	-6172
▁rare	-6173
▁seas	-6174
▁serv	-6175
▁sock	-6176
▁thin	-6177
▁wake	-6178
▁wide	-6179
▁我很抱歉	-6180
▁我想离开	-6181
▁我會給你	-6182
▁請告訴我	-6183
▁这是一只	-6184
▁這是你的	-6185
ically	-6186
ission	-6187
▁delay	-6188
▁knock	-6189
▁monke	-6190
▁rumor	-6191
▁talks	-6192
▁walks	-6193
▁woods	-6194
▁城市比农村	-6195
▁我永遠不會	-6196
▁火车比汽车	-6197
▁Canada	-6198
▁German	-6199
▁bright	-6200
▁canada	-6201
▁classm	-6202
▁drinks	-6203
▁europe	-6204
▁german	-6205
▁method	-6206
▁nation	-6207
▁oxygen	-6208
▁shower	-6209
▁spread	-6210
▁transl	-6211
▁wallet	-6212
▁wealth	-6213
己所不欲勿施于	-6214
▁allowed	-6215
▁appears	-6216
▁ashamed	-6217
▁carried	-6218
▁chicken	-6219
▁created	-6220
▁dropped	-6221
▁economy	-6222
▁laughed	-6223
▁letters	-6224
▁ordered	-6225
▁profess	-6226
▁quality	-6227
▁anywhere	-6228
▁brothers	-6229
▁patience	-6230
▁necessary	-6231
▁difference	-6232
▁difficulty	-6233
▁neighborhood	-6234
▁。	-6235
▁坏	-6236
▁坐	-6237
▁塞	-6238
▁扳	-6239
▁护	-6240
▁拍	-6241
▁捆	-6242
▁推	-6243
▁撕	-6244
▁新	-6245
▁板	-6246
▁梅	-6247
▁次	-6248
▁猪	-6249
▁羊	-6250
▁觉	-6251
▁起	-6252
丈夫	-6253
专指	-6254
举行	-6255
以后	-6256
关节	-6257
准时	-6258
刺竹	-6259
周一	-6260
土坎	-6261
大量	-6262
姑父	-6263
当然	-6264
慎重	-6265
我想	-6266
招赘	-6267
拿着	-6268
挑箩	-6269
摔跤	-6270
旋转	-6271
树木	-6272
模拟	-6273
泥泞	-6274
活着	-6275
混合	-6276
然后	-6277
物品	-6278
生生	-6279
用品	-6280
男子	-6281
禁忌	-6282
筲箕	-6283
终于	-6284
经典	-6285
绳子	-6286
自豪	-6287
茨菇	-6288
蓑衣	-6289
蝴蝶	-6290
行星	-6291
街道	-6292
语系	-6293
赌咒	-6294
赔偿	-6295
赶上	-6296
锄头	-6297
锤子	-6298
韭菜	-6299
骑马	-6300
10。	-6301
24。	-6302
340	-6303
42。	-6304
55。	-6305
68。	-6306
acy	-6307
dry	-6308
mod	-6309
▁24	-6310
▁Ex	-6311
▁bi	-6312
▁pm	-6313
▁不是	-6314
▁学校	-6315
▁狮子	-6316
十分钟	-6317
取消了	-6318
是世界	-6319
最高的	-6320
的基础	-6321
的状态	-6322
相对论	-6323
青幽幽	-6324
ager	-6325
ices	-6326
ider	-6327
ique	-6328
▁But	-6329
▁Get	-6330
▁God	-6331
▁mic	-6332
▁oce	-6333
▁tou	-6334
▁今天的	-6335
▁彝文的	-6336
传说中的	-6337
是白色的	-6338
是蓝色的	-6339
比中文更	-6340
量子系统	-6341
cture	-6342
ences	-6343
essed	-6344
modal	-6345
orter	-6346
riend	-6347
▁Tony	-6348
▁cent	-6349
▁code	-6350
▁dece	-6351
▁dish	-6352
▁fear	-6353
▁grew	-6354
▁hang	-6355
▁june	-6356
▁mult	-6357
▁pull	-6358
▁smil	-6359
▁west	-6360
▁今天下午	-6361
▁我不明白	-6362
cooked	-6363
ichuan	-6364
powder	-6365
▁Betty	-6366
▁Never	-6367
▁bored	-6368
▁exact	-6369
▁occur	-6370
▁produ	-6371
▁solar	-6372
▁terri	-6373
itation	-6374
▁Nobody	-6375
▁attack	-6376
▁course	-6377
▁farmer	-6378
▁hardly	-6379
▁indust	-6380
▁mainly	-6381
▁modern	-6382
▁repeat	-6383
▁scared	-6384
▁social	-6385
▁source	-6386
▁warmer	-6387
▁writes	-6388
ointment	-6389
▁anybody	-6390
▁drawing	-6391
▁measure	-6392
▁princip	-6393
▁becoming	-6394
▁engineer	-6395
▁saturday	-6396
▁beginning	-6397
▁understood	-6398
?」	-6399
bs	-6400
ls	-6401
▁—	-6402
▁冰	-6403
▁动	-6404
▁哈	-6405
▁差	-6406
▁总	-6407
▁恶	-6408
▁為	-6409
▁米	-6410
▁罗	-6411
▁艾	-6412
▁說	-6413
▁警	-6414
▁辣	-6415
▁闭	-6416
▁麥	-6417
一件	-6418
一年	-6419
一間	-6420
下去	-6421
不久	-6422
不见	-6423
丢了	-6424
严肃	-6425
主修	-6426
争吵	-6427
亲家	-6428
令人	-6429
以後	-6430
你不	-6431
做到	-6432
傻子	-6433
免費	-6434
出来	-6435
勺子	-6436
发炎	-6437
受到	-6438
叹词	-6439
同学	-6440
后面	-6441
向我	-6442
向神	-6443
听到	-6444
和广	-6445
哪儿	-6446
喷嚏	-6447
在跑	-6448
墨水	-6449
夏威	-6450
多的	-6451
大雨	-6452
女儿	-6453
子弹	-6454
子裡	-6455
季节	-6456
宝宝	-6457
屋顶	-6458
山羊	-6459
并不	-6460
座位	-6461
建筑	-6462
怪味	-6463
恐惧	-6464
感动	-6465
成員	-6466
我能	-6467
戒烟	-6468
手臂	-6469
打了	-6470
打掃	-6471
拼搏	-6472
整個	-6473
斑纹	-6474
斗殴	-6475
断定	-6476
新車	-6477
早飯	-6478
明子	-6479
显然	-6480
晚了	-6481
會來	-6482
月份	-6483
有点	-6484
板上	-6485
枯萎	-6486
梭子	-6487
死板	-6488
比他	-6489
法國	-6490
浑浊	-6491
海邊	-6492
消失	-6493
清晰	-6494
游戏	-6495
物质	-6496
犯了	-6497
球拍	-6498
疑问	-6499
疤痕	-6500
病人	-6501
看过	-6502
真正	-6503
確定	-6504
神戶	-6505
科目	-6506
稍等	-6507
空气	-6508
空氣	-6509
精力	-6510
精通	-6511
糊糊	-6512
絕對	-6513
绵绵	-6514
考慮	-6515
而不	-6516
耳环	-6517
能够	-6518
膀胱	-6519
舞蹈	-6520
艘船	-6521
花瓶	-6522
行為	-6523
规矩	-6524
詞典	-6525
讀過	-6526
认真	-6527
词素	-6528
诱惑	-6529
说他	-6530
赶紧	-6531
跟著	-6532
辦法	-6533
這張	-6534
這本	-6535
這條	-6536
這種	-6537
還沒	-6538
醫院	-6539
開著	-6540
關門	-6541
隨便	-6542
饿了	-6543
鸽子	-6544
15。	-6545
19.	-6546
360	-6547
60。	-6548
67。	-6549
:((	-6550
aii	-6551
ako	-6552
bum	-6553
cts	-6554
cut	-6555
eds	-6556
ems	-6557
ged	-6558
han	-6559
iol	-6560
upt	-6561
▁(1	-6562
▁);	-6563
▁17	-6564
▁26	-6565
▁Fe	-6566
▁gh	-6567
▁你真	-6568
▁喬治	-6569
▁恐怕	-6570
▁我將	-6571
▁教育	-6572
▁有多	-6573
▁欢迎	-6574
▁茶比	-6575
▁許多	-6576
▁警方	-6577
▁这只	-6578
▁醫生	-6579
▁银行	-6580
▁飞机	-6581
一定是	-6582
一定會	-6583
一样高	-6584
不灵活	-6585
了你的	-6586
些什么	-6587
博物館	-6588
去世了	-6589
可能的	-6590
和他的	-6591
回到家	-6592
夏威夷	-6593
好主意	-6594
小孩子	-6595
很快乐	-6596
很漂亮	-6597
更喜欢	-6598
更强壮	-6599
棕色的	-6600
棟房子	-6601
正確的	-6602
比下午	-6603
比电脑	-6604
游泳嗎	-6605
灰色的	-6606
照相機	-6607
用你的	-6608
知道的	-6609
結婚了	-6610
绿色的	-6611
美麗的	-6612
計程車	-6613
講英語	-6614
长时间	-6615
agle	-6616
alse	-6617
book	-6618
ests	-6619
town	-6620
▁Meg	-6621
▁enc	-6622
▁jog	-6623
▁kid	-6624
▁owe	-6625
▁pun	-6626
▁raw	-6627
▁rid	-6628
▁tas	-6629
▁wis	-6630
▁他可能	-6631
▁你会说	-6632
▁你相信	-6633
▁你覺得	-6634
▁医生很	-6635
▁史密斯	-6636
▁太贵了	-6637
▁学生很	-6638
▁孩子很	-6639
▁我一直	-6640
▁我和他	-6641
▁我會在	-6642
▁我爸爸	-6643
▁我看見	-6644
▁我認為	-6645
▁最近的	-6646
▁老师很	-6647
▁謝謝你	-6648
为你服务	-6649
交通事故	-6650
他說的話	-6651
看看你的	-6652
高爾夫球	-6653
alian	-6654
ative	-6655
avior	-6656
ebook	-6657
hered	-6658
ipped	-6659
olved	-6660
ouder	-6661
wered	-6662
▁119.	-6663
▁Life	-6664
▁amaz	-6665
▁cash	-6666
▁drun	-6667
▁elev	-6668
▁else	-6669
▁fash	-6670
▁firm	-6671
▁joke	-6672
▁lack	-6673
▁perm	-6674
▁pink	-6675
▁poll	-6676
▁rome	-6677
▁rope	-6678
▁sens	-6679
▁soul	-6680
▁uses	-6681
▁whom	-6682
▁他把他的	-6683
▁你不應該	-6684
▁我還沒有	-6685
▁猫比狗更	-6686
▁苹果比梨	-6687
▁茶比咖啡	-6688
主要分布在	-6689
玩得很開心	-6690
omeday	-6691
thirty	-6692
uesday	-6693
verest	-6694
▁achie	-6695
▁album	-6696
▁anger	-6697
▁basic	-6698
▁cream	-6699
▁elder	-6700
▁eleph	-6701
▁exams	-6702
▁false	-6703
▁field	-6704
▁flood	-6705
▁loves	-6706
▁organ	-6707
▁pears	-6708
▁press	-6709
▁smile	-6710
▁south	-6711
▁spoke	-6712
▁storm	-6713
▁tears	-6714
▁threw	-6715
▁tower	-6716
▁上午比下午	-6717
▁手机比电脑	-6718
發生了什麼事	-6719
解決這個問題	-6720
▁Europe	-6721
▁Monday	-6722
▁admire	-6723
▁asking	-6724
▁beauty	-6725
▁breath	-6726
▁castle	-6727
▁clouds	-6728
▁cloudy	-6729
▁colder	-6730
▁couple	-6731
▁inside	-6732
▁lively	-6733
▁pierce	-6734
▁plenty	-6735
▁racket	-6736
▁singer	-6737
▁sounds	-6738
▁trying	-6739
▁yunnan	-6740
▁你叫什么名字	-6741
▁夏天比冬天更	-6742
▁Quantum	-6743
▁advance	-6744
▁applied	-6745
▁belongs	-6746
▁factory	-6747
▁fashion	-6748
▁message	-6749
▁snowing	-6750
▁treated	-6751
▁willing	-6752
▁己所不欲勿施于	-6753
▁这本书比那本书	-6754
▁absolute	-6755
▁accepted	-6756
▁answered	-6757
▁behavior	-6758
▁ceremony	-6759
▁followed	-6760
▁greatest	-6761
▁kindness	-6762
▁notebook	-6763
▁standing	-6764
▁surprise	-6765
▁australia	-6766
▁exhausted	-6767
▁newspaper	-6768
▁photograp	-6769
▁somewhere	-6770
▁discussion	-6771
▁examination	-6772
▁imagination	-6773
;)	-6774
cr	-6775
lu	-6776
▁凑	-6777
▁千	-6778
▁四	-6779
▁密	-6780
▁年	-6781
▁急	-6782
▁愈	-6783
▁扯	-6784
▁抢	-6785
▁捂	-6786
▁掩	-6787
▁摆	-6788
▁木	-6789
▁熊	-6790
▁电	-6791
▁百	-6792
▁纸	-6793
▁读	-6794
▁贫	-6795
▁超	-6796
▁阿	-6797
▁露	-6798
▁高	-6799
▁鹿	-6800
他做	-6801
你能	-6802
傍晚	-6803
剩下	-6804
匆匆	-6805
吃完	-6806
吃草	-6807
和水	-6808
喜鹊	-6809
基本	-6810
姊妹	-6811
少数	-6812
巴豆	-6813
市场	-6814
年龄	-6815
恩情	-6816
拳头	-6817
拾柴	-6818
早就	-6819
月亮	-6820
法帽	-6821
燕麦	-6822
用于	-6823
祖先	-6824
科技	-6825
能源	-6826
脖子	-6827
舅舅	-6828
节约	-6829
芒果	-6830
茯苓	-6831
行第	-6832
表格	-6833
袜子	-6834
过去	-6835
进步	-6836
远古	-6837
集中	-6838
黄果	-6839
黑色	-6840
21。	-6841
29。	-6842
36。	-6843
39。	-6844
41。	-6845
48。	-6846
58。	-6847
668	-6848
arm	-6849
iny	-6850
ude	-6851
▁Pe	-6852
▁ok	-6853
▁ra	-6854
▁健康	-6855
▁光速	-6856
▁第一	-6857
▁纠缠	-6858
▁老虎	-6859
▁音乐	-6860
不同的	-6861
今天的	-6862
出租车	-6863
未曾生	-6864
的发音	-6865
的气味	-6866
的首都	-6867
还没有	-6868
都可以	-6869
ilos	-6870
tern	-6871
urry	-6872
word	-6873
▁bun	-6874
▁ess	-6875
▁gun	-6876
▁ori	-6877
▁wol	-6878
▁你需要	-6879
▁我同意	-6880
▁我记得	-6881
▁这件事	-6882
不是我的	-6883
回答问题	-6884
anced	-6885
aving	-6886
light	-6887
lique	-6888
uster	-6889
▁calm	-6890
▁cred	-6891
▁effe	-6892
▁lone	-6893
▁sets	-6894
▁shed	-6895
▁spec	-6896
▁tend	-6897
▁我从来没	-6898
▁道法自然	-6899
▁量子纠缠	-6900
彝族家支名	-6901
毕摩的法帽	-6902
apping	-6903
ilosop	-6904
ointed	-6905
ongrat	-6906
▁After	-6907
▁Hurry	-6908
▁Smith	-6909
▁Water	-6910
▁below	-6911
▁const	-6912
▁freez	-6913
▁given	-6914
▁match	-6915
▁micro	-6916
▁renew	-6917
▁shock	-6918
▁smith	-6919
▁spell	-6920
▁steal	-6921
ributed	-6922
▁advant	-6923
▁amount	-6924
▁applic	-6925
▁bigger	-6926
▁charge	-6927
▁choice	-6928
▁double	-6929
▁nearly	-6930
▁united	-6931
▁unless	-6932
ulations	-6933
▁climate	-6934
▁content	-6935
▁sichuan	-6936
▁slanted	-6937
▁various	-6938
▁humanity	-6939
▁philosop	-6940
▁software	-6941
▁gentleman	-6942
▁appointment	-6943
▁immediately	-6944
!"	-6945
pa	-6946
▁丢	-6947
▁事	-6948
▁作	-6949
▁公	-6950
▁冲	-6951
▁凸	-6952
▁凿	-6953
▁刨	-6954
▁又	-6955
▁定	-6956
▁富	-6957
▁戏	-6958
▁按	-6959
▁挡	-6960
▁据	-6961
▁散	-6962
▁服	-6963
▁滚	-6964
▁燃	-6965
▁理	-6966
▁瑪	-6967
▁砍	-6968
▁简	-6969
▁胸	-6970
▁话	-6971
▁语	-6972
▁败	-6973
。。	-6974
一條	-6975
一輛	-6976
一边	-6977
一邊	-6978
七点	-6979
上午	-6980
下棋	-6981
下车	-6982
下面	-6983
不耐	-6984
乐部	-6985
九点	-6986
九點	-6987
互相	-6988
交付	-6989
他不	-6990
会来	-6991
位子	-6992
你要	-6993
來到	-6994
俗称	-6995
俱樂	-6996
全都	-6997
八點	-6998
再生	-6999
写的	-7000
农历	-7001
减少	-7002
凝固	-7003
出门	-7004
创造	-7005
到她	-7006
力量	-7007
加哥	-7008
去做	-7009
參觀	-7010
口水	-7011
句子	-7012
句話	-7013
吃過	-7014
吃飯	-7015
合一	-7016
吉利	-7017
后悔	-7018
吝啬	-7019
吸引	-7020
呼吸	-7021
嘴里	-7022
嚎叫	-7023
囫囵	-7024
圣诞	-7025
在他	-7026
地区	-7027
地支	-7028
坍缩	-7029
報告	-7030
奶油	-7031
婚配	-7032
安靜	-7033
將會	-7034
小偷	-7035
小的	-7036
屋檐	-7037
工程	-7038
平常	-7039
庆祝	-7040
康復	-7041
廚房	-7042
建築	-7043
开门	-7044
彻底	-7045
彼此	-7046
德语	-7047
心情	-7048
惦念	-7049
想你	-7050
愚蠢	-7051
抓住	-7052
拥挤	-7053
控制	-7054
控告	-7055
描述	-7056
收入	-7057
故障	-7058
教授	-7059
敬称	-7060
文明	-7061
文章	-7062
斷了	-7063
无力	-7064
昌盛	-7065
明媚	-7066
是他	-7067
暖和	-7068
暗示	-7069
暴露	-7070
最终	-7071
期望	-7072
材料	-7073
村庄	-7074
杨梅	-7075
歌手	-7076
歐洲	-7077
毫无	-7078
海拔	-7079
海边	-7080
清明	-7081
渡槽	-7082
游得	-7083
滿意	-7084
爆炸	-7085
猫头	-7086
班上	-7087
瑞士	-7088
生长	-7089
用水	-7090
畫的	-7091
癌症	-7092
的嗎	-7093
的水	-7094
盡力	-7095
相似	-7096
砧板	-7097
祭牲	-7098
禁闭	-7099
福禄	-7100
科學	-7101
称呼	-7102
程度	-7103
竟然	-7104
篮球	-7105
給了	-7106
經驗	-7107
繁殖	-7108
经验	-7109
绵羊	-7110
而是	-7111
聯絡	-7112
胡子	-7113
航班	-7114
荣华	-7115
蛆虫	-7116
街上	-7117
談談	-7118
請你	-7119
變得	-7120
让你	-7121
讽刺	-7122
诗人	-7123
请你	-7124
费用	-7125
赞成	-7126
輕鬆	-7127
轻轻	-7128
辨别	-7129
过来	-7130
连累	-7131
進步	-7132
過來	-7133
過馬	-7134
適合	-7135
震动	-7136
鼻涕	-7137
00。	-7138
23。	-7139
309	-7140
319	-7141
31。	-7142
40。	-7143
:30	-7144
?」「	-7145
ago	-7146
apt	-7147
itz	-7148
liv	-7149
ril	-7150
top	-7151
▁45	-7152
▁为了	-7153
▁京都	-7154
▁人生	-7155
▁他以	-7156
▁他要	-7157
▁会议	-7158
▁倫敦	-7159
▁傑克	-7160
▁卡羅	-7161
▁外面	-7162
▁女孩	-7163
▁小心	-7164
▁尽管	-7165
▁工作	-7166
▁怎么	-7167
▁我厌	-7168
▁房子	-7169
▁梅格	-7170
▁这把	-7171
▁這家	-7172
▁這把	-7173
▁雖然	-7174
一樣高	-7175
上你的	-7176
上個月	-7177
不容易	-7178
任何人	-7179
俱乐部	-7180
俱樂部	-7181
全世界	-7182
公園裡	-7183
六點鐘	-7184
出生的	-7185
努力地	-7186
去那裡	-7187
和量子	-7188
回来的	-7189
在那儿	-7190
失败了	-7191
年轻人	-7192
很大的	-7193
感興趣	-7194
感覺到	-7195
方位词	-7196
早起床	-7197
昏沉沉	-7198
星期五	-7199
是一位	-7200
是两个	-7201
是人类	-7202
是唯一	-7203
有空吗	-7204
比体育	-7205
比我的	-7206
澳大利	-7207
的基本	-7208
的女人	-7209
的生日	-7210
的第二	-7211
知道他	-7212
紅色的	-7213
給他的	-7214
给我的	-7215
芝加哥	-7216
讓我們	-7217
買了這	-7218
这条河	-7219
過馬路	-7220
還沒有	-7221
附近有	-7222
黏糊糊	-7223
點東西	-7224
119。	-7225
amin	-7226
cast	-7227
erry	-7228
ging	-7229
iche	-7230
lept	-7231
reek	-7232
roat	-7233
tage	-7234
▁(1.	-7235
▁Any	-7236
▁ant	-7237
▁dad	-7238
▁fit	-7239
▁fog	-7240
▁hyd	-7241
▁ign	-7242
▁imm	-7243
▁meg	-7244
▁rab	-7245
▁rap	-7246
▁shy	-7247
▁tal	-7248
▁他不會	-7249
▁他是個	-7250
▁他正在	-7251
▁你们很	-7252
▁你在看	-7253
▁你真的	-7254
▁很高兴	-7255
▁我一点	-7256
▁我去年	-7257
▁我寧願	-7258
▁我很好	-7259
▁我想你	-7260
▁我應該	-7261
▁我記得	-7262
▁火车站	-7263
▁语气词	-7264
▁這是我	-7265
▁這條河	-7266
▁那是一	-7267
一個朋友	-7268
一种野生	-7269
他的名字	-7270
你的名字	-7271
兩個小時	-7272
告诉我们	-7273
成為一個	-7274
我很舒服	-7275
时态助词	-7276
是最好的	-7277
没有任何	-7278
這個計劃	-7279
阳光明媚	-7280
骑自行车	-7281
);4、(	-7282
aired	-7283
apped	-7284
astic	-7285
ateri	-7286
ayama	-7287
ctive	-7288
ering	-7289
icago	-7290
itzer	-7291
pping	-7292
▁bike	-7293
▁bite	-7294
▁crit	-7295
▁dent	-7296
▁fare	-7297
▁flat	-7298
▁gift	-7299
▁harv	-7300
▁kick	-7301
▁path	-7302
▁rese	-7303
▁sort	-7304
▁upon	-7305
▁viol	-7306
▁wild	-7307
▁wise	-7308
▁wolf	-7309
▁他的故事	-7310
▁你是怎麼	-7311
▁你有沒有	-7312
▁当然可以	-7313
▁我們今天	-7314
▁我很高兴	-7315
▁我有很多	-7316
▁我買了一	-7317
▁语气助词	-7318
▁那是我的	-7319
过得怎么样	-7320
ermany	-7321
follow	-7322
fortun	-7323
ground	-7324
idence	-7325
ussian	-7326
▁ended	-7327
▁enemy	-7328
▁favor	-7329
▁gover	-7330
▁ideas	-7331
▁roses	-7332
▁share	-7333
▁skirt	-7334
▁sport	-7335
▁stops	-7336
▁thick	-7337
▁torch	-7338
▁weeks	-7339
▁worst	-7340
▁你為什麼不	-7341
一种野生植物	-7342
是我最喜歡的	-7343
ichever	-7344
oblique	-7345
onsense	-7346
▁author	-7347
▁circle	-7348
▁credit	-7349
▁ethnic	-7350
▁friday	-7351
▁lasted	-7352
▁likely	-7353
▁materi	-7354
▁member	-7355
▁murder	-7356
▁purple	-7357
▁repair	-7358
▁stitch	-7359
▁suspic	-7360
▁taught	-7361
▁throat	-7362
▁within	-7363
▁worker	-7364
▁bottles	-7365
▁cottage	-7366
▁courage	-7367
▁dentist	-7368
▁finding	-7369
▁journey	-7370
▁knowing	-7371
▁matters	-7372
▁reminds	-7373
▁someday	-7374
▁tickets	-7375
▁我永遠不會忘記	-7376
itzerland	-7377
▁audience	-7378
▁diseases	-7379
▁downtown	-7380
▁expected	-7381
▁includes	-7382
▁laughing	-7383
▁overtime	-7384
▁promised	-7385
▁repaired	-7386
▁己所不欲勿施于人	-7387
▁Australia	-7388
▁advantage	-7389
▁apartment	-7390
▁assistant	-7391
▁generally	-7392
▁intention	-7393
▁invention	-7394
▁particles	-7395
▁scientist	-7396
▁collecting	-7397
▁foundation	-7398
▁importance	-7399
▁opportunity	-7400
2)	-7401
ds	-7402
ev	-7403
ey	-7404
▁二	-7405
▁代	-7406
▁住	-7407
▁克	-7408
▁刀	-7409
▁划	-7410
▁吹	-7411
▁哄	-7412
▁壶	-7413
▁寻	-7414
▁归	-7415
▁慢	-7416
▁承	-7417
▁拱	-7418
▁拿	-7419
▁擦	-7420
▁此	-7421
▁气	-7422
▁油	-7423
▁漏	-7424
▁珠	-7425
▁离	-7426
▁笔	-7427
▁管	-7428
▁罩	-7429
▁蒸	-7430
▁衣	-7431
▁补	-7432
▁装	-7433
▁跳	-7434
▁逗	-7435
▁闲	-7436
▁领	-7437
▁齐	-7438
」,	-7439
三点	-7440
下的	-7441
也是	-7442
事件	-7443
优惠	-7444
偶然	-7445
六十	-7446
共同	-7447
冷了	-7448
动了	-7449
卦名	-7450
吓跳	-7451
坐下	-7452
埋怨	-7453
大家	-7454
好看	-7455
宫殿	-7456
害羞	-7457
家谱	-7458
容量	-7459
寄生	-7460
山上	-7461
帮你	-7462
快的	-7463
悠久	-7464
慢跑	-7465
懒惰	-7466
房前	-7467
打扫	-7468
投掷	-7469
撒遍	-7470
更高	-7471
有七	-7472
有三	-7473
有用	-7474
果吉	-7475
橘子	-7476
歌曲	-7477
母羊	-7478
每秒	-7479
汉字	-7480
沙拉	-7481
沿着	-7482
理论	-7483
生血	-7484
目标	-7485
砰砰	-7486
祝告	-7487
称为	-7488
粒子	-7489
纽襻	-7490
织布	-7491
绿色	-7492
胳膊	-7493
舒畅	-7494
芝麻	-7495
茶吗	-7496
融化	-7497
训练	-7498
语法	-7499
财富	-7500
部落	-7501
14。	-7502
16。	-7503
325	-7504
419	-7505
49。	-7506
65。	-7507
70。	-7508
73。	-7509
76。	-7510
hip	-7511
osh	-7512
ror	-7513
ury	-7514
▁Fu	-7515
▁Go	-7516
▁Se	-7517
▁公司	-7518
▁她会	-7519
▁把是	-7520
▁既然	-7521
▁生活	-7522
▁科学	-7523
▁通知	-7524
个字符	-7525
乐器的	-7526
去散步	-7527
和广西	-7528
地里的	-7529
寄生茶	-7530
更聪明	-7531
比英文	-7532
白生生	-7533
的重要	-7534
的食物	-7535
说英语	-7536
))).	-7537
arch	-7538
irts	-7539
line	-7540
more	-7541
rite	-7542
ship	-7543
tail	-7544
▁Car	-7545
▁Two	-7546
▁dam	-7547
▁deb	-7548
▁dna	-7549
▁dra	-7550
▁gar	-7551
▁iss	-7552
▁led	-7553
▁lin	-7554
▁non	-7555
▁obs	-7556
▁pan	-7557
▁他跑得	-7558
▁你不会	-7559
▁我有点	-7560
▁活到老	-7561
努力学习	-7562
发生什么	-7563
否定副词	-7564
和你聊天	-7565
彝族先民	-7566
形容嚼食	-7567
服务器上	-7568
cling	-7569
itive	-7570
▁Mari	-7571
▁Only	-7572
▁Were	-7573
▁beat	-7574
▁fort	-7575
▁iron	-7576
▁mill	-7577
▁nerv	-7578
▁page	-7579
▁phen	-7580
▁priv	-7581
▁surv	-7582
▁tony	-7583
▁彝文中是	-7584
▁这个问题	-7585
是什么时候	-7586
贵州和广西	-7587
estock	-7588
▁China	-7589
▁Somet	-7590
▁appro	-7591
▁betty	-7592
▁ocean	-7593
▁salad	-7594
▁sched	-7595
▁schol	-7596
▁serve	-7597
▁treat	-7598
▁我可以聊天	-7599
随时为你服务	-7600
inguish	-7601
▁France	-7602
▁George	-7603
▁Mayuko	-7604
▁United	-7605
▁george	-7606
▁lonely	-7607
▁louder	-7608
▁moving	-7609
▁proper	-7610
▁我在服务器上	-7611
很高兴和你聊天	-7612
ological	-7613
▁ability	-7614
▁convers	-7615
▁forgive	-7616
▁instead	-7617
▁manager	-7618
▁million	-7619
▁nervous	-7620
▁compared	-7621
▁password	-7622
▁phenomen	-7623
▁recently	-7624
▁teachers	-7625
▁visiting	-7626
▁buildings	-7627
▁discussed	-7628
▁mechanics	-7629
▁whichever	-7630
▁distributed	-7631
▁civilization	-7632
▁disappointed	-7633
06	-7634
fl	-7635
ta	-7636
xi	-7637
za	-7638
ǒu	-7639
▁x	-7640
▁了	-7641
▁件	-7642
▁会	-7643
▁使	-7644
▁兩	-7645
▁其	-7646
▁凡	-7647
▁同	-7648
▁吵	-7649
▁干	-7650
▁彼	-7651
▁拉	-7652
▁挺	-7653
▁数	-7654
▁林	-7655
▁栓	-7656
▁沒	-7657
▁牢	-7658
▁特	-7659
▁王	-7660
▁碰	-7661
▁站	-7662
▁端	-7663
▁给	-7664
▁绝	-7665
▁缺	-7666
▁罐	-7667
▁聽	-7668
▁荡	-7669
▁虎	-7670
▁贪	-7671
▁锁	-7672
▁隔	-7673
▁鼓	-7674
一把	-7675
一片	-7676
一门	-7677
一隻	-7678
上下	-7679
上升	-7680
上级	-7681
不下	-7682
不够	-7683
不對	-7684
不足	-7685
东方	-7686
乍鸟	-7687
也沒	-7688
买的	-7689
了三	-7690
了吧	-7691
二月	-7692
五点	-7693
他在	-7694
付款	-7695
以为	-7696
伶俐	-7697
作品	-7698
你说	-7699
侄子	-7700
來嗎	-7701
來越	-7702
倒霉	-7703
债务	-7704
假期	-7705
偶爾	-7706
傷了	-7707
全力	-7708
公寓	-7709
冻菌	-7710
几天	-7711
出国	-7712
出差	-7713
出殡	-7714
刀霍	-7715
分支	-7716
制的	-7717
加班	-7718
化学	-7719
北海	-7720
区块	-7721
反對	-7722
取名	-7723
古典	-7724
吃过	-7725
各种	-7726
向前	-7727
否則	-7728
响声	-7729
哪個	-7730
哼哈	-7731
唱片	-7732
嗜好	-7733
国外	-7734
在了	-7735
在你	-7736
在地	-7737
在床	-7738
填塞	-7739
增加	-7740
墨西	-7741
复活	-7742
外语	-7743
大約	-7744
大聲	-7745
天空	-7746
太空	-7747
头发	-7748
女士	-7749
好人	-7750
好运	-7751
學會	-7752
守卫	-7753
家的	-7754
容器	-7755
富有	-7756
对神	-7757
將在	-7758
對面	-7759
小了	-7760
小提	-7761
小说	-7762
尖的	-7763
尺寸	-7764
山茶	-7765
帘子	-7766
帮子	-7767
干嘛	-7768
年齡	-7769
并行	-7770
幸運	-7771
弗雷	-7772
当时	-7773
後悔	-7774
微笑	-7775
忙嗎	-7776
怜悯	-7777
我把	-7778
戒指	-7779
手提	-7780
打猎	-7781
抽烟	-7782
拒绝	-7783
拜訪	-7784
指望	-7785
挑战	-7786
捣衣	-7787
措施	-7788
摆夷	-7789
摆艺	-7790
摔倒	-7791
撒娇	-7792
教師	-7793
新鲜	-7794
无所	-7795
明智	-7796
晴天	-7797
暑假	-7798
暗了	-7799
未来	-7800
杏子	-7801
来吗	-7802
板栗	-7803
枝花	-7804
柏松	-7805
树叶	-7806
梨子	-7807
楼枕	-7808
概念	-7809
比如	-7810
沽湖	-7811
法律	-7812
泥土	-7813
洞口	-7814
溶化	-7815
演奏	-7816
灶孔	-7817
玻璃	-7818
瓜子	-7819
瓶子	-7820
生产	-7821
用功	-7822
申请	-7823
畜牲	-7824
畢業	-7825
病了	-7826
病魔	-7827
痛苦	-7828
的屁	-7829
皮肤	-7830
监牢	-7831
相處	-7832
睡眠	-7833
礼拜	-7834
神经	-7835
祭献	-7836
稀疏	-7837
笛子	-7838
第十	-7839
答應	-7840
籃球	-7841
經過	-7842
纽扣	-7843
组装	-7844
结构	-7845
给她	-7846
羡慕	-7847
群鸦	-7848
老板	-7849
而言	-7850
肋骨	-7851
胡琴	-7852
能夠	-7853
舅娘	-7854
舉行	-7855
节省	-7856
芫荽	-7857
花生	-7858
苗族	-7859
菌子	-7860
落下	-7861
蘑菇	-7862
虾子	-7863
行了	-7864
被盖	-7865
裡面	-7866
要花	-7867
見到	-7868
解说	-7869
設法	-7870
試著	-7871
誠實	-7872
說了	-7873
說的	-7874
說謊	-7875
试着	-7876
试试	-7877
豐富	-7878
负责	-7879
贿赂	-7880
赠送	-7881
超过	-7882
跟她	-7883
車嗎	-7884
辭職	-7885
过量	-7886
还有	-7887
进了	-7888
逝世	-7889
進入	-7890
道理	-7891
遗留	-7892
那時	-7893
部位	-7894
野餐	-7895
錯的	-7896
铃铛	-7897
铜等	-7898
铺盖	-7899
锦鸡	-7900
镰刀	-7901
阿姨	-7902
雨傘	-7903
零碎	-7904
馈赠	-7905
首长	-7906
香肠	-7907
驚訝	-7908
骨头	-7909
魔鬼	-7910
鲍勃	-7911
鳝鱼	-7912
麒麟	-7913
13。	-7914
33。	-7915
38。	-7916
427	-7917
46。	-7918
57。	-7919
641	-7920
71。	-7921
83。	-7922
The	-7923
amm	-7924
ays	-7925
con	-7926
iao	-7927
okk	-7928
tee	-7929
ule	-7930
val	-7931
xic	-7932
▁16	-7933
▁35	-7934
▁37	-7935
▁39	-7936
▁40	-7937
▁47	-7938
▁一些	-7939
▁他問	-7940
▁他能	-7941
▁你只	-7942
▁你對	-7943
▁你本	-7944
▁太陽	-7945
▁快点	-7946
▁您有	-7947
▁您能	-7948
▁我为	-7949
▁我付	-7950
▁我再	-7951
▁我好	-7952
▁我学	-7953
▁我将	-7954
▁我怕	-7955
▁我打	-7956
▁海倫	-7957
▁漂亮	-7958
▁當你	-7959
▁看看	-7960
▁移动	-7961
▁紐約	-7962
▁老人	-7963
▁蘇珊	-7964
▁这本	-7965
▁那座	-7966
▁那時	-7967
▁顺利	-7968
▁麥克	-7969
一封信	-7970
一點嗎	-7971
下雪了	-7972
不耐烦	-7973
中受了	-7974
互联网	-7975
什麼都	-7976
任何事	-7977
你喜歡	-7978
你自己	-7979
做的事	-7980
刀霍霍	-7981
北海道	-7982
区块链	-7983
博物馆	-7984
去睡覺	-7985
史密斯	-7986
呆多久	-7987
和我的	-7988
咖啡嗎	-7989
在這裏	-7990
墨西哥	-7991
天气热	-7992
学到老	-7993
學生都	-7994
學英文	-7995
小女孩	-7996
小提琴	-7997
工作了	-7998
巨大的	-7999
市中心	-8000
彝语说	-8001
很丰富	-8002
得開心	-8003
怎么做	-8004
我很懒	-8005
我是你	-8006
房间里	-8007
打破了	-8008
抓住了	-8009
捣衣棍	-8010
有一家	-8011
有五十	-8012
有需要	-8013
松明子	-8014
橙色的	-8015
比火车	-8016
泸沽湖	-8017
為甚麼	-8018
爱好是	-8019
甚麼事	-8020
的历史	-8021
的原因	-8022
的天氣	-8023
的學生	-8024
的消息	-8025
的那個	-8026
粉色的	-8027
紫色的	-8028
總是在	-8029
美国人	-8030
義大利	-8031
而尖的	-8032
▁	-8033
e	-8034
t	-8035
i	-8036
o	-8037
a	-8038
s	-8039
n	-8040
r	-8041
h	-8042
l	-8043
d	-8044
c	-8045
.	-8046
。	-8047
u	-8048
y	-8049
m	-8050
p	-8051
w	-8052
f	-8053
g	-8054
文	-8055
是	-8056
的	-8057
(	-8058
)	-8059
?	-8060
我	-8061
b	-8062
,	-8063
彝	-8064
'	-8065
k	-8066
v	-8067
字	-8068
了	-8069
这	-8070
Y	-8071
符	-8072
你	-8073
T	-8074
0	-8075
2	-8076
I	-8077
他	-8078
么	-8079
x	-8080
、	-8081
一	-8082
:	-8083
用	-8084
在	-8085
3	-8086
1	-8087
不	-8088
什	-8089
H	-8090
个	-8091
英	-8092
有	-8093
;	-8094
中	-8095
很	-8096
子	-8097
编	-8098
号	-8099
翻	-8100
译	-8101
5	-8102
4	-8103
天	-8104
要	-8105
6	-8106
两	-8107
合	-8108
C	-8109
人	-8110
這	-8111
组	-8112
上	-8113
词	-8114
作	-8115
|	-8116
9	-8117
通	-8118
8	-8119
请	-8120
和	-8121
7	-8122
去	-8123
到	-8124
多	-8125
好	-8126
表	-8127
W	-8128
们	-8129
怎	-8130
生	-8131
個	-8132
对	-8133
那	-8134
问	-8135
想	-8136
把	-8137
j	-8138
写	-8139
下	-8140
們	-8141
意	-8142
示	-8143
看	-8144
!	-8145
应	-8146
能	-8147
量	-8148
得	-8149
分	-8150
可	-8151
会	-8152
嗎	-8153
大	-8154
「	-8155
」	-8156
成	-8157
喜	-8158
以	-8159
家	-8160
语	-8161
都	-8162
地	-8163
比	-8164
学	-8165
来	-8166
會	-8167
吗	-8168
等	-8169
她	-8170
本	-8171
就	-8172
做	-8173
來	-8174
q	-8175
动	-8176
于	-8177
别	-8178
族	-8179
M	-8180
起	-8181
最	-8182
说	-8183
为	-8184
小	-8185
年	-8186
时	-8187
麼	-8188
里	-8189
水	-8190
打	-8191
吃	-8192
事	-8193
出	-8194
名	-8195
道	-8196
老	-8197
日	-8198
自	-8199
A	-8200
行	-8201
S	-8202
明	-8203
今	-8204
欢	-8205
知	-8206
時	-8207
工	-8208
车	-8209
过	-8210
没	-8211
沒	-8212
加	-8213
孩	-8214
少	-8215
前	-8216
更	-8217
化	-8218
常	-8219
D	-8220
法	-8221
快	-8222
点	-8223
气	-8224
裡	-8225
說	-8226
面	-8227
回	-8228
"	-8229
物	-8230
重	-8231
果	-8232
十	-8233
高	-8234
心	-8235
花	-8236
晚	-8237
早	-8238
集	-8239
每	-8240
車	-8241
火	-8242
哪	-8243
些	-8244
开	-8245
书	-8246
點	-8247
被	-8248
公	-8249
太	-8250
候	-8251
房	-8252
學	-8253
z	-8254
体	-8255
之	-8256
美	-8257
球	-8258
走	-8259
過	-8260
昨	-8261
正	-8262
国	-8263
也	-8264
對	-8265
然	-8266
手	-8267
請	-8268
開	-8269
如	-8270
定	-8271
解	-8272
发	-8273
系	-8274
J	-8275
头	-8276
位	-8277
為	-8278
給	-8279
感	-8280
机	-8281
相	-8282
完	-8283
使	-8284
儿	-8285
信	-8286
给	-8287
电	-8288
山	-8289
西	-8290
E	-8291
三	-8292
方	-8293
您	-8294
歡	-8295
间	-8296
着	-8297
音	-8298
饭	-8299
古	-8300
理	-8301
色	-8302
力	-8303
月	-8304
思	-8305
所	-8306
数	-8307
住	-8308
种	-8309
口	-8310
雨	-8311
書	-8312
再	-8313
P	-8314
放	-8315
真	-8316
需	-8317
只	-8318
义	-8319
容	-8320
叫	-8321
形	-8322
話	-8323
告	-8324
午	-8325
姆	-8326
路	-8327
话	-8328
传	-8329
語	-8330
世	-8331
见	-8332
必	-8333
部	-8334
服	-8335
同	-8336
样	-8337
吧	-8338
民	-8339
已	-8340
女	-8341
还	-8342
星	-8343
何	-8344
活	-8345
外	-8346
新	-8347
睡	-8348
友	-8349
L	-8350
電	-8351
从	-8352
后	-8353
次	-8354
现	-8355
空	-8356
跟	-8357
特	-8358
言	-8359
但	-8360
记	-8361
朋	-8362
任	-8363
全	-8364
始	-8365
期	-8366
間	-8367
男	-8368
N	-8369
声	-8370
己	-8371
游	-8372
非	-8373
國	-8374
衣	-8375
第	-8376
故	-8377
經	-8378
无	-8379
考	-8380
B	-8381
喝	-8382
件	-8383
含	-8384
经	-8385
利	-8386
直	-8387
该	-8388
接	-8389
觉	-8390
而	-8391
门	-8392
五	-8393
钱	-8394
安	-8395
校	-8396
受	-8397
狗	-8398
市	-8399
实	-8400
母	-8401
界	-8402
父	-8403
見	-8404
神	-8405
关	-8406
节	-8407
长	-8408
發	-8409
息	-8410
站	-8411
收	-8412
马	-8413
二	-8414
因	-8415
該	-8416
問	-8417
算	-8418
待	-8419
望	-8420
從	-8421
樣	-8422
現	-8423
著	-8424
医	-8425
先	-8426
习	-8427
跑	-8428
师	-8429
情	-8430
教	-8431
仅	-8432
答	-8433
菜	-8434
讓	-8435
乐	-8436
步	-8437
让	-8438
越	-8439
达	-8440
史	-8441
白	-8442
乘	-8443
亮	-8444
它	-8445
找	-8446
影	-8447
度	-8448
立	-8449
食	-8450
G	-8451
忙	-8452
助	-8453
久	-8454
兴	-8455
死	-8456
照	-8457
智	-8458
機	-8459
缀	-8460
功	-8461
班	-8462
六	-8463
包	-8464
弟	-8465
河	-8466
保	-8467
树	-8468
應	-8469
湯	-8470
無	-8471
O	-8472
承	-8473
听	-8474
近	-8475
城	-8476
结	-8477
餐	-8478
K	-8479
其	-8480
周	-8481
整	-8482
片	-8483
像	-8484
买	-8485
指	-8486
東	-8487
认	-8488
东	-8489
性	-8490
谢	-8491
难	-8492
统	-8493
還	-8494
祖	-8495
身	-8496
向	-8497
-	-8498
F	-8499
帮	-8500
眼	-8501
准	-8502
巴	-8503
牛	-8504
主	-8505
远	-8506
士	-8507
计	-8508
四	-8509
希	-8510
平	-8511
病	-8512
酒	-8513
题	-8514
京	-8515
支	-8516
海	-8517
爱	-8518
失	-8519
消	-8520
歌	-8521
盖	-8522
泳	-8523
交	-8524
姐	-8525
趣	-8526
錢	-8527
猫	-8528
克	-8529
历	-8530
氣	-8531
茶	-8532
裏	-8533
边	-8534
坐	-8535
聽	-8536
鱼	-8537
累	-8538
深	-8539
兒	-8540
变	-8541
由	-8542
态	-8543
条	-8544
忘	-8545
覺	-8546
几	-8547
拿	-8548
背	-8549
妹	-8550
康	-8551
後	-8552
漂	-8553
笑	-8554
桌	-8555
題	-8556
鸟	-8557
黑	-8558
健	-8559
读	-8560
便	-8561
穿	-8562
谁	-8563
朵	-8564
虑	-8565
清	-8566
建	-8567
载	-8568
风	-8569
台	-8570
米	-8571
洗	-8572
贵	-8573
味	-8574
格	-8575
草	-8576
兩	-8577
哥	-8578
玩	-8579
养	-8580
器	-8581
動	-8582
誰	-8583
详	-8584
冷	-8585
布	-8586
具	-8587
幫	-8588
强	-8589
於	-8590
親	-8591
爸	-8592
千	-8593
留	-8594
入	-8595
光	-8596
板	-8597
肯	-8598
長	-8599
咖	-8600
叔	-8601
提	-8602
约	-8603
刀	-8604
模	-8605
干	-8606
离	-8607
足	-8608
啡	-8609
处	-8610
幾	-8611
樂	-8612
石	-8613
雪	-8614
丽	-8615
减	-8616
注	-8617
甚	-8618
精	-8619
象	-8620
场	-8621
場	-8622
寫	-8623
流	-8624
床	-8625
元	-8626
旅	-8627
错	-8628
代	-8629
园	-8630
木	-8631
琴	-8632
运	-8633
掉	-8634
确	-8635
取	-8636
慢	-8637
论	-8638
送	-8639
“	-8640
叠	-8641
呢	-8642
当	-8643
皮	-8644
落	-8645
阳	-8646
乎	-8647
张	-8648
持	-8649
讀	-8650
怕	-8651
金	-8652
”	-8653
散	-8654
治	-8655
油	-8656
半	-8657
夏	-8658
烂	-8659
錯	-8660
份	-8661
痛	-8662
易	-8663
買	-8664
倒	-8665
富	-8666
慧	-8667
介	-8668
停	-8669
切	-8670
属	-8671
奶	-8672
录	-8673
當	-8674
称	-8675
独	-8676
鸡	-8677
许	-8678
进	-8679
門	-8680
八	-8681
轻	-8682
休	-8683
原	-8684
烟	-8685
者	-8686
啊	-8687
才	-8688
伤	-8689
吸	-8690
涵	-8691
修	-8692
別	-8693
灵	-8694
跳	-8695
唱	-8696
改	-8697
遗	-8698
须	-8699
产	-8700
客	-8701
识	-8702
座	-8703
杯	-8704
汤	-8705
百	-8706
目	-8707
飞	-8708
麻	-8709
亲	-8710
總	-8711
视	-8712
派	-8713
+	-8714
诉	-8715
野	-8716
育	-8717
松	-8718
满	-8719
努	-8720
吉	-8721
带	-8722
架	-8723
汉	-8724
典	-8725
師	-8726
往	-8727
热	-8728
蛋	-8729
料	-8730
与	-8731
业	-8732
命	-8733
折	-8734
试	-8735
转	-8736
又	-8737
店	-8738
條	-8739
約	-8740
鐘	-8741
難	-8742
箱	-8743
网	-8744
德	-8745
土	-8746
將	-8747
根	-8748
科	-8749
管	-8750
角	-8751
關	-8752
察	-8753
祭	-8754
首	-8755
票	-8756
認	-8757
婚	-8758
类	-8759
内	-8760
密	-8761
差	-8762
牙	-8763
福	-8764
香	-8765
盛	-8766
脑	-8767
Q	-8768
張	-8769
层	-8770
念	-8771
毛	-8772
猪	-8773
借	-8774
磨	-8775
耳	-8776
記	-8777
超	-8778
冬	-8779
单	-8780
求	-8781
豆	-8782
嘴	-8783
春	-8784
肉	-8785
須	-8786
麗	-8787
付	-8788
社	-8789
程	-8790
决	-8791
景	-8792
烧	-8793
聪	-8794
七	-8795
威	-8796
总	-8797
曾	-8798
红	-8799
羊	-8800
訴	-8801
警	-8802
進	-8803
术	-8804
舞	-8805
虎	-8806
南	-8807
底	-8808
式	-8809
飯	-8810
夫	-8811
北	-8812
厚	-8813
害	-8814
川	-8815
斯	-8816
速	-8817
遇	-8818
备	-8819
护	-8820
抽	-8821
制	-8822
夜	-8823
谷	-8824
造	-8825
画	-8826
万	-8827
帶	-8828
案	-8829
決	-8830
犯	-8831
礼	-8832
鞋	-8833
妈	-8834
弹	-8835
拉	-8836
拥	-8837
摆	-8838
脚	-8839
偷	-8840
愛	-8841
邊	-8842
封	-8843
敢	-8844
止	-8845
假	-8846
司	-8847
善	-8848
破	-8849
種	-8850
药	-8851
调	-8852
怪	-8853
汽	-8854
沉	-8855
值	-8856
困	-8857
幸	-8858
搭	-8859
習	-8860
興	-8861
云	-8862
价	-8863
叶	-8864
块	-8865
引	-8866
敦	-8867
议	-8868
附	-8869
随	-8870
品	-8871
帽	-8872
謝	-8873
祝	-8874
壮	-8875
温	-8876
瑪	-8877
離	-8878
丢	-8879
供	-8880
即	-8881
微	-8882
泡	-8883
连	-8884
占	-8885
挑	-8886
珍	-8887
視	-8888
费	-8889
刻	-8890
断	-8891
仍	-8892
窗	-8893
舒	-8894
院	-8895
席	-8896
棒	-8897
演	-8898
頭	-8899
依	-8900
将	-8901
懂	-8902
拍	-8903
笔	-8904
静	-8905
V	-8906
卡	-8907
突	-8908
計	-8909
論	-8910
遠	-8911
馆	-8912
银	-8913
除	-8914
九	-8915
缩	-8916
翰	-8917
刺	-8918
图	-8919
室	-8920
灰	-8921
秋	-8922
缺	-8923
讲	-8924
够	-8925
展	-8926
抱	-8927
結	-8928
群	-8929
馬	-8930
冰	-8931
勇	-8932
否	-8933
梦	-8934
迟	-8935
肚	-8936
隻	-8937
坏	-8938
岁	-8939
摇	-8940
状	-8941
園	-8942
妻	-8943
屋	-8944
枪	-8945
洲	-8946
糊	-8947
醫	-8948
务	-8949
斗	-8950
源	-8951
线	-8952
林	-8953
染	-8954
绍	-8955
試	-8956
唠	-8957
左	-8958
畜	-8959
区	-8960
复	-8961
奇	-8962
糕	-8963
議	-8964
週	-8965
饿	-8966
争	-8967
兄	-8968
反	-8969
尽	-8970
滇	-8971
选	-8972
基	-8973
报	-8974
R	-8975
响	-8976
黄	-8977
田	-8978
輛	-8979
钟	-8980
及	-8981
担	-8982
村	-8983
苹	-8984
践	-8985
未	-8986
核	-8987
浪	-8988
筆	-8989
缠	-8990
迎	-8991
達	-8992
型	-8993
弄	-8994
虫	-8995
装	-8996
青	-8997
永	-8998
熟	-8999
腿	-9000
船	-9001
袋	-9002
館	-9003
叨	-9004
员	-9005
洞	-9006
测	-9007
环	-9008
苦	-9009
共	-9010
句	-9011
泥	-9012
網	-9013
细	-9014
良	-9015
规	-9016
办	-9017
急	-9018
换	-9019
敬	-9020
查	-9021
此	-9022
讨	-9023
辆	-9024
迷	-9025
阿	-9026
倫	-9027
剛	-9028
据	-9029
禁	-9030
窝	-9031
划	-9032
危	-9033
右	-9034
州	-9035
牲	-9036
哭	-9037
套	-9038
柴	-9039
滿	-9040
許	-9041
變	-9042
酸	-9043
臭	-9044
锅	-9045
似	-9046
围	-9047
撒	-9048
爾	-9049
纠	-9050
胡	-9051
述	-9052
靠	-9053
黔	-9054
冒	-9055
寄	-9056
暖	-9057
洋	-9058
幽	-9059
準	-9060
移	-9061
稀	-9062
震	-9063
乌	-9064
惜	-9065
排	-9066
码	-9067
芋	-9068
免	-9069
冲	-9070
彈	-9071
律	-9072
推	-9073
瓜	-9074
瓶	-9075
畫	-9076
聊	-9077
課	-9078
责	-9079
串	-9080
恐	-9081
或	-9082
摩	-9083
项	-9084
吹	-9085
植	-9086
楼	-9087
灿	-9088
续	-9089
腰	-9090
融	-9091
败	-9092
质	-9093
運	-9094
零	-9095
农	-9096
塞	-9097
战	-9098
拌	-9099
烦	-9100
紧	-9101
观	-9102
陷	-9103
員	-9104
宜	-9105
挂	-9106
疑	-9107
租	-9108
談	-9109
輕	-9110
遲	-9111
露	-9112
堂	-9113
惊	-9114
碰	-9115
街	-9116
顺	-9117
参	-9118
單	-9119
實	-9120
技	-9121
暗	-9122
業	-9123
歉	-9124
沙	-9125
盐	-9126
聲	-9127
血	-9128
遍	-9129
骨	-9130
商	-9131
尼	-9132
毕	-9133
渐	-9134
碎	-9135
蓝	-9136
课	-9137
各	-9138
导	-9139
爬	-9140
碗	-9141
講	-9142
飛	-9143
齐	-9144
亚	-9145
伯	-9146
净	-9147
弃	-9148
蜂	-9149
劃	-9150
守	-9151
愿	-9152
懒	-9153
拜	-9154
數	-9155
曲	-9156
杆	-9157
粒	-9158
處	-9159
裙	-9160
魚	-9161
怨	-9162
恶	-9163
悲	-9164
操	-9165
竹	-9166
终	-9167
參	-9168
积	-9169
稍	-9170
腐	-9171
虽	-9172
隨	-9173
令	-9174
华	-9175
另	-9176
忍	-9177
戒	-9178
纸	-9179
嚼	-9180
姓	-9181
媽	-9182
尖	-9183
抓	-9184
播	-9185
楚	-9186
滑	-9187
煙	-9188
爷	-9189
確	-9190
绝	-9191
膀	-9192
钢	-9193
願	-9194
鸦	-9195
鼓	-9196
丰	-9197
嫩	-9198
摔	-9199
犁	-9200
糖	-9201
纽	-9202
脸	-9203
藏	-9204
补	-9205
鬼	-9206
严	-9207
则	-9208
吵	-9209
堵	-9210
存	-9211
宝	-9212
按	-9213
政	-9214
渴	-9215
湖	-9216
爽	-9217
禮	-9218
绵	-9219
識	-9220
预	-9221
魔	-9222
且	-9223
乱	-9224
低	-9225
娃	-9226
撞	-9227
末	-9228
沸	-9229
专	-9230
伦	-9231
倦	-9232
傷	-9233
升	-9234
呼	-9235
圆	-9236
婆	-9237
枝	-9238
液	-9239
王	-9240
章	-9241
简	-9242
繁	-9243
绿	-9244
肥	-9245
软	-9246
退	-9247
選	-9248
闲	-9249
幅	-9250
扇	-9251
搅	-9252
旧	-9253
昆	-9254
粉	-9255
误	-9256
谈	-9257
赶	-9258
伙	-9259
匙	-9260
博	-9261
奉	-9262
宗	-9263
熱	-9264
砂	-9265
脏	-9266
蘋	-9267
印	-9268
厌	-9269
呀	-9270
哈	-9271
姑	-9272
旁	-9273
炎	-9274
甜	-9275
耐	-9276
至	-9277
艺	-9278
释	-9279
充	-9280
凉	-9281
尔	-9282
戏	-9283
投	-9284
擦	-9285
歲	-9286
滴	-9287
素	-9288
络	-9289
裝	-9290
赘	-9291
鋼	-9292
闭	-9293
顶	-9294
體	-9295
吐	-9296
境	-9297
孔	-9298
扣	-9299
权	-9300
污	-9301
炸	-9302
睛	-9303
粗	-9304
胎	-9305
逃	-9306
骗	-9307
亡	-9308
倍	-9309
愈	-9310
敏	-9311
費	-9312
傲	-9313
季	-9314
居	-9315
怀	-9316
牢	-9317
研	-9318
端	-9319
箭	-9320
赛	-9321
双	-9322
撮	-9323
朗	-9324
杀	-9325
束	-9326
某	-9327
椅	-9328
珠	-9329
瘦	-9330
登	-9331
短	-9332
矮	-9333
砍	-9334
设	-9335
賽	-9336
默	-9337
井	-9338
创	-9339
棚	-9340
煮	-9341
荡	-9342
邀	-9343
鼻	-9344
內	-9345
圖	-9346
并	-9347
悄	-9348
戴	-9349
掌	-9350
煩	-9351
猜	-9352
疼	-9353
联	-9354
聚	-9355
追	-9356
配	-9357
骑	-9358
丝	-9359
乾	-9360
志	-9361
抖	-9362
损	-9363
救	-9364
究	-9365
蒂	-9366
隔	-9367
黎	-9368
刮	-9369
剪	-9370
址	-9371
墨	-9372
壞	-9373
寒	-9374
索	-9375
胸	-9376
舅	-9377
萄	-9378
葡	-9379
虚	-9380
诗	-9381
踢	-9382
雀	-9383
互	-9384
卖	-9385
卧	-9386
巧	-9387
庄	-9388
疾	-9389
胆	-9390
螂	-9391
诚	-9392
辣	-9393
铃	-9394
锁	-9395
闪	-9396
鹿	-9397
列	-9398
勝	-9399
卫	-9400
報	-9401
尾	-9402
戶	-9403
抢	-9404
替	-9405
桥	-9406
梅	-9407
澡	-9408
紅	-9409
置	-9410
芽	-9411
蔬	-9412
誤	-9413
适	-9414
險	-9415
骄	-9416
麦	-9417
众	-9418
帝	-9419
斑	-9420
朝	-9421
梯	-9422
燃	-9423
牵	-9424
玛	-9425
省	-9426
箩	-9427
辛	-9428
U	-9429
並	-9430
乳	-9431
備	-9432
凱	-9433
厅	-9434
喷	-9435
塘	-9436
怜	-9437
樹	-9438
欲	-9439
益	-9440
盡	-9441
胃	-9442
芦	-9443
裂	-9444
辦	-9445
風	-9446
丑	-9447
仿	-9448
允	-9449
填	-9450
材	-9451
沟	-9452
瓢	-9453
脱	-9454
输	-9455
阅	-9456
坎	-9457
夢	-9458
宇	-9459
尊	-9460
彩	-9461
惯	-9462
拾	-9463
李	-9464
申	-9465
罗	-9466
般	-9467
蒸	-9468
领	-9469
崽	-9470
慕	-9471
献	-9472
疲	-9473
蚂	-9474
降	-9475
债	-9476
初	-9477
喉	-9478
姊	-9479
宙	-9480
广	-9481
归	-9482
昌	-9483
池	-9484
泣	-9485
熊	-9486
狐	-9487
秘	-9488
稻	-9489
薄	-9490
逗	-9491
防	-9492
举	-9493
剩	-9494
扒	-9495
拼	-9496
槽	-9497
混	-9498
贫	-9499
避	-9500
醒	-9501
闹	-9502
阴	-9503
霍	-9504
魂	-9505
佩	-9506
偿	-9507
傻	-9508
固	-9509
坚	-9510
坟	-9511
户	-9512
招	-9513
挡	-9514
螳	-9515
雷	-9516
駕	-9517
鮑	-9518
丈	-9519
伴	-9520
凸	-9521
劳	-9522
圈	-9523
堆	-9524
壁	-9525
娇	-9526
杂	-9527
极	-9528
狸	-9529
童	-9530
罩	-9531
距	-9532
铅	-9533
卦	-9534
垫	-9535
夠	-9536
弱	-9537
挣	-9538
效	-9539
晴	-9540
桃	-9541
梨	-9542
欠	-9543
灯	-9544
祈	-9545
稠	-9546
節	-9547
粮	-9548
紙	-9549
级	-9550
织	-9551
罪	-9552
苗	-9553
討	-9554
谐	-9555
郵	-9556
钓	-9557
隊	-9558
额	-9559
鲁	-9560
偶	-9561
咽	-9562
尘	-9563
挺	-9564
控	-9565
笆	-9566
糟	-9567
资	-9568
隐	-9569
饮	-9570
鼠	-9571
优	-9572
勺	-9573
勾	-9574
序	-9575
怒	-9576
拐	-9577
挤	-9578
捆	-9579
捕	-9580
插	-9581
森	-9582
滚	-9583
灾	-9584
疮	-9585
笨	-9586
练	-9587
继	-9588
致	-9589
與	-9590
藤	-9591
號	-9592
财	-9593
較	-9594
递	-9595
勤	-9596
匹	-9597
团	-9598
均	-9599
屎	-9600
庭	-9601
恩	-9602
扫	-9603
摸	-9604
敲	-9605
施	-9606
欺	-9607
波	-9608
添	-9609
监	-9610
紫	-9611
纪	-9612
绕	-9613
蛇	-9614
迹	-9615
针	-9616
铁	-9617
雾	-9618
凝	-9619
压	-9620
呆	-9621
墓	-9622
增	-9623
慣	-9624
扳	-9625
拢	-9626
暴	-9627
歪	-9628
段	-9629
渡	-9630
烙	-9631
烫	-9632
爆	-9633
獨	-9634
率	-9635
盒	-9636
篾	-9637
耽	-9638
貌	-9639
貓	-9640
錶	-9641
雄	-9642
俄	-9643
局	-9644
托	-9645
握	-9646
普	-9647
玉	-9648
矩	-9649
穷	-9650
腾	-9651
莓	-9652
蒙	-9653
轴	-9654
铜	-9655
鸣	-9656
亞	-9657
侄	-9658
况	-9659
勃	-9660
咒	-9661
忠	-9662
揭	-9663
撕	-9664
暑	-9665
构	-9666
橙	-9667
祀	-9668
签	-9669
續	-9670
羅	-9671
获	-9672
谎	-9673
踏	-9674
透	-9675
遊	-9676
顽	-9677
饰	-9678
髮	-9679
龙	-9680
乍	-9681
仗	-9682
叹	-9683
圣	-9684
娘	-9685
惑	-9686
拱	-9687
杨	-9688
棍	-9689
棕	-9690
椒	-9691
瞄	-9692
祷	-9693
禄	-9694
篇	-9695
胜	-9696
芒	-9697
芝	-9698
苔	-9699
菌	-9700
裤	-9701
负	-9702
齿	-9703
傑	-9704
價	-9705
刨	-9706
副	-9707
嘛	-9708
捂	-9709
搬	-9710
擅	-9711
攻	-9712
樓	-9713
浮	-9714
漆	-9715
狠	-9716
盆	-9717
箕	-9718
紐	-9719
肮	-9720
蜴	-9721
衫	-9722
讶	-9723
险	-9724
顾	-9725
鲜	-9726
伞	-9727
勿	-9728
匆	-9729
咬	-9730
孕	-9731
孤	-9732
探	-9733
桶	-9734
湿	-9735
炉	-9736
瘪	-9737
缓	-9738
肿	-9739
胁	-9740
脊	-9741
腻	-9742
菇	-9743
蜥	-9744
遮	-9745
乒	-9746
估	-9747
侍	-9748
兔	-9749
刷	-9750
剥	-9751
唯	-9752
塊	-9753
塔	-9754
愉	-9755
扯	-9756
掩	-9757
棵	-9758
济	-9759
浓	-9760
溫	-9761
漏	-9762
灭	-9763
狮	-9764
硬	-9765
紀	-9766
終	-9767
肩	-9768
腦	-9769
舌	-9770
荒	-9771
触	-9772
趕	-9773
陶	-9774
饱	-9775
饼	-9776
駛	-9777
龄	-9778
嘎	-9779
嫁	-9780
宁	-9781
射	-9782
柔	-9783
泼	-9784
瓷	-9785
甩	-9786
盘	-9787
砰	-9788
篱	-9789
罢	-9790
耍	-9791
蓑	-9792
赌	-9793
黏	-9794
俗	-9795
冻	-9796
凿	-9797
忆	-9798
忌	-9799
慎	-9800
批	-9801
摘	-9802
棟	-9803
淋	-9804
潮	-9805
爭	-9806
瓦	-9807
皇	-9808
笼	-9809
組	-9810
羞	-9811
脾	-9812
荷	-9813
蕾	-9814
蘇	-9815
虐	-9816
蟹	-9817
貝	-9818
较	-9819
迪	-9820
遣	-9821
邁	-9822
驗	-9823
俏	-9824
吆	-9825
哎	-9826
喳	-9827
娶	-9828
寿	-9829
巢	-9830
彼	-9831
杖	-9832
灶	-9833
炒	-9834
烤	-9835
燕	-9836
猎	-9837
绞	-9838
贪	-9839
赠	-9840
赢	-9841
邻	-9842
锋	-9843
颗	-9844
驾	-9845
佛	-9846
則	-9847
削	-9848
務	-9849
叽	-9850
啤	-9851
喧	-9852
坑	-9853
夭	-9854
夷	-9855
奏	-9856
尺	-9857
愚	-9858
戰	-9859
扔	-9860
抚	-9861
擔	-9862
既	-9863
概	-9864
榫	-9865
款	-9866
毫	-9867
玻	-9868
砚	-9869
絕	-9870
纳	-9871
缝	-9872
脂	-9873
茎	-9874
荣	-9875
莎	-9876
虹	-9877
訂	-9878
训	-9879
跌	-9880
辨	-9881
連	-9882
采	-9883
凑	-9884
呕	-9885
奋	-9886
延	-9887
披	-9888
拔	-9889
标	-9890
泛	-9891
浊	-9892
溜	-9893
牌	-9894
耕	-9895
肋	-9896
臀	-9897
赏	-9898
遵	-9899
闩	-9900
鲸	-9901
鹰	-9902
丟	-9903
仔	-9904
俱	-9905
倾	-9906
傘	-9907
兵	-9908
寻	-9909
弯	-9910
強	-9911
惩	-9912
抵	-9913
抹	-9914
搁	-9915
擊	-9916
晕	-9917
栗	-9918
殡	-9919
汁	-9920
淡	-9921
潜	-9922
澳	-9923
燈	-9924
疏	-9925
私	-9926
稼	-9927
耗	-9928
肠	-9929
舊	-9930
莫	-9931
蝶	-9932
詞	-9933
赤	-9934
逝	-9935
链	-9936
顧	-9937
颤	-9938
鳝	-9939
判	-9940
哼	-9941
唇	-9942
坝	-9943
塑	-9944
屁	-9945
弓	-9946
惧	-9947
抬	-9948
捅	-9949
斜	-9950
昏	-9951
显	-9952
梭	-9953
浸	-9954
猴	-9955
筑	-9956
糙	-9957
罐	-9958
胀	-9959
若	-9960
螃	-9961
覆	-9962
踩	-9963
踪	-9964
迁	-9965
返	-9966
钥	-9967
镶	-9968
闷	-9969
闻	-9970
革	-9971
顿	-9972
凡	-9973
勒	-9974
厭	-9975
唤	-9976
啦	-9977
坍	-9978
埋	-9979
壤	-9980
夹	-9981
妇	-9982
妒	-9983
嬰	-9984
岩	-9985
征	-9986
復	-9987
戚	-9988
抛	-9989
拟	-9990
斤	-9991
殺	-9992
沿	-9993
牧	-9994
盗	-9995
舂	-9996
舍	-9997
苍	-9998
萬	-9999
蓬	-10000
蝴	-10001
衡	-10002
調	-10003
谤	-10004
逐	-10005
適	-10006
鉛	-10007
鏡	-10008
铺	-10009
队	-10010
阻	-10011
陈	-10012
響	-10013
验	-10014
鳥	-10015
鸭	-10016
ā	-10017
丧	-10018
仇	-10019
傣	-10020
兜	-10021
劝	-10022
卷	-10023
哄	-10024
哨	-10025
废	-10026
恸	-10027
旋	-10028
洁	-10029
炼	-10030
璃	-10031
皱	-10032
窄	-10033
笠	-10034
绪	-10035
职	-10036
萝	-10037
虾	-10038
蟀	-10039
货	-10040
逛	-10041
韭	-10042
鳅	-10043
/	-10044
丛	-10045
伸	-10046
劈	-10047
哲	-10048
噪	-10049
嚎	-10050
埂	-10051
堡	-10052
壶	-10053
宿	-10054
尝	-10055
峰	-10056
弩	-10057
择	-10058
搏	-10059
晰	-10060
栓	-10061
武	-10062
氧	-10063
江	-10064
泸	-10065
洛	-10066
溅	-10067
溢	-10068
灌	-10069
狱	-10070
疗	-10071
簡	-10072
聖	-10073
聞	-10074
腳	-10075
茅	-10076
菠	-10077
蚁	-10078
衍	-10079
裹	-10080
觀	-10081
诙	-10082
诺	-10083
诽	-10084
账	-10085
跤	-10086
钩	-10087
雙	-10088
雜	-10089
頂	-10090
預	-10091
页	-10092
養	-10093
鹽	-10094
乏	-10095
偏	-10096
凹	-10097
召	-10098
吓	-10099
呛	-10100
婴	-10101
嫉	-10102
孝	-10103
患	-10104
截	-10105
押	-10106
拨	-10107
掷	-10108
掺	-10109
擂	-10110
晃	-10111
枕	-10112
枯	-10113
柜	-10114
榴	-10115
横	-10116
毁	-10117
毡	-10118
汆	-10119
漫	-10120
猛	-10121
砖	-10122
砣	-10123
纹	-10124
股	-10125
膝	-10126
蜷	-10127
襟	-10128
豁	-10129
跨	-10130
钉	-10131
锦	-10132
镰	-10133
丸	-10134
仰	-10135
刚	-10136
喬	-10137
嗜	-10138
嘶	-10139
囤	-10140
墙	-10141
官	-10142
寸	-10143
帘	-10144
廚	-10145
悔	-10146
惠	-10147
援	-10148
旗	-10149
杜	-10150
泪	-10151
浆	-10152
激	-10153
焖	-10154
焰	-10155
燒	-10156
瓣	-10157
線	-10158
绳	-10159
聰	-10160
茧	-10161
茨	-10162
莉	-10163
蕉	-10164
蝼	-10165
襻	-10166
責	-10167
躺	-10168
轮	-10169
辈	-10170
銀	-10171
陽	-10172
霉	-10173
霭	-10174
餓	-10175
饲	-10176
髓	-10177
龟	-10178
例	-10179
击	-10180
剔	-10181
势	-10182
壳	-10183
奔	-10184
孙	-10185
帕	-10186
括	-10187
挎	-10188
柳	-10189
梳	-10190
毒	-10191
汗	-10192
疫	-10193
盯	-10194
竖	-10195
筒	-10196
胖	-10197
臼	-10198
葫	-10199
蒜	-10200
蚱	-10201
诱	-10202
谱	-10203
赡	-10204
锥	-10205
陀	-10206
鳞	-10207
丁	-10208
丘	-10209
仁	-10210
仓	-10211
俐	-10212
傳	-10213
君	-10214
嚴	-10215
囫	-10216
垭	-10217
塌	-10218
妮	-10219
婿	-10220
巨	-10221
幼	-10222
庆	-10223
抠	-10224
拒	-10225
摊	-10226
晨	-10227
杏	-10228
柏	-10229
橋	-10230
歐	-10231
歷	-10232
毯	-10233
況	-10234
浅	-10235
浴	-10236
疤	-10237
痴	-10238
竟	-10239
筲	-10240
籃	-10241
纵	-10242
绣	-10243
義	-10244
茯	-10245
襯	-10246
證	-10247
订	-10248
贏	-10249
赚	-10250
蹈	-10251
躲	-10252
轉	-10253
途	-10254
醉	-10255
雲	-10256
靜	-10257
飘	-10258
鸽	-10259
佑	-10260
侧	-10261
冠	-10262
吊	-10263
启	-10264
吼	-10265
呐	-10266
咐	-10267
嚏	-10268
坛	-10269
坡	-10270
培	-10271
姜	-10272
寡	-10273
寺	-10274
弦	-10275
悯	-10276
捷	-10277
攀	-10278
杉	-10279
殖	-10280
溶	-10281
濮	-10282
熄	-10283
熏	-10284
瘤	-10285
穗	-10286
笙	-10287
籽	-10288
腮	-10289
臂	-10290
茂	-10291
荫	-10292
营	-10293
葛	-10294
蛆	-10295
蜜	-10296
证	-10297
购	-10298
邮	-10299
镜	-10300
陪	-10301
颈	-10302
骂	-10303
鬃	-10304
—	-10305
伐	-10306
區	-10307
叙	-10308
吝	-10309
吞	-10310
吻	-10311
呲	-10312
咳	-10313
唆	-10314
寧	-10315
尿	-10316
憾	-10317
扬	-10318
拘	-10319
捉	-10320
換	-10321
擇	-10322
斥	-10323
斷	-10324
柄	-10325
栽	-10326
棉	-10327
槍	-10328
浑	-10329
涨	-10330
焦	-10331
爺	-10332
珊	-10333
盏	-10334
眉	-10335
睫	-10336
瞎	-10337
筋	-10338
繼	-10339
绊	-10340
缴	-10341
聯	-10342
職	-10343
胱	-10344
腌	-10345
苇	-10346
菱	-10347
蔼	-10348
蛙	-10349
術	-10350
袜	-10351
訪	-10352
誌	-10353
誕	-10354
護	-10355
谜	-10356
資	-10357
遞	-10358
釋	-10359
钻	-10360
铲	-10361
锄	-10362
飲	-10363
驚	-10364
驮	-10365
麒	-10366
啄	-10367
嘻	-10368
扰	-10369
掐	-10370
梁	-10371
槛	-10372
渣	-10373
煎	-10374
甸	-10375
畅	-10376
略	-10377
癞	-10378
睁	-10379
碓	-10380
竭	-10381
粥	-10382
翁	-10383
肤	-10384
胳	-10385
腹	-10386
舟	-10387
荸	-10388
萎	-10389
薯	-10390
薹	-10391
赊	-10392
轿	-10393
迈	-10394
逮	-10395
锤	-10396
阶	-10397
际	-10398
陋	-10399
限	-10400
伟	-10401
伶	-10402
催	-10403
兆	-10404
兰	-10405
兽	-10406
剃	-10407
叛	-10408
喂	-10409
囵	-10410
夺	-10411
姨	-10412
婪	-10413
婶	-10414
宫	-10415
寨	-10416
币	-10417
帳	-10418
库	-10419
庙	-10420
忧	-10421
恨	-10422
拙	-10423
挪	-10424
捞	-10425
授	-10426
朽	-10427
炮	-10428
獾	-10429
疹	-10430
痣	-10431
盔	-10432
盾	-10433
睾	-10434
瞒	-10435
砧	-10436
碼	-10437
策	-10438
箇	-10439
篮	-10440
綠	-10441
缘	-10442
脓	-10443
脫	-10444
舉	-10445
苓	-10446
茄	-10447
葱	-10448
藥	-10449
蝌	-10450
蟋	-10451
蠢	-10452
袍	-10453
览	-10454
詩	-10455
謊	-10456
貴	-10457
铐	-10458
锈	-10459
锣	-10460
镀	-10461
阪	-10462
阵	-10463
頓	-10464
顆	-10465
驰	-10466
鸠	-10467
麵	-10468
乃	-10469
佐	-10470
促	-10471
储	-10472
剖	-10473
哗	-10474
哮	-10475
夸	-10476
媳	-10477
嫌	-10478
幢	-10479
慌	-10480
执	-10481
拇	-10482
拳	-10483
掏	-10484
掼	-10485
描	-10486
揩	-10487
搜	-10488
株	-10489
桐	-10490
椿	-10491
殷	-10492
沾	-10493
洪	-10494
淀	-10495
淹	-10496
港	-10497
狭	-10498
瑰	-10499
痕	-10500
盟	-10501
禾	-10502
秃	-10503
秕	-10504
绸	-10505
聂	-10506
萨	-10507
蝇	-10508
蝗	-10509
裁	-10510
贿	-10511
趟	-10512
酌	-10513
醋	-10514
陡	-10515
障	-10516
馈	-10517
魄	-10518
$	-10519
=	-10520
厨	-10521
县	-10522
哑	-10523
唢	-10524
售	-10525
嘘	-10526
嫂	-10527
屏	-10528
彗	-10529
彻	-10530
忽	-10531
悬	-10532
惦	-10533
戲	-10534
戳	-10535
扎	-10536
拖	-10537
捏	-10538
撩	-10539
擀	-10540
據	-10541
敌	-10542
敗	-10543
旦	-10544
映	-10545
桑	-10546
棄	-10547
棺	-10548
椎	-10549
楂	-10550
檐	-10551
欧	-10552
沫	-10553
淨	-10554
漸	-10555
災	-10556
玫	-10557
疯	-10558
癌	-10559
瞧	-10560
瞪	-10561
笛	-10562
級	-10563
絲	-10564
绩	-10565
绺	-10566
缎	-10567
罚	-10568
羡	-10569
脖	-10570
航	-10571
艘	-10572
艾	-10573
藝	-10574
蘭	-10575
設	-10576
讽	-10577
贴	-10578
赞	-10579
鄂	-10580
酿	-10581
鎖	-10582
鐵	-10583
領	-10584
鬆	-10585
鹃	-10586
麝	-10587
麥	-10588
仪	-10589
俯	-10590
凶	-10591
卵	-10592
吠	-10593
呈	-10594
喊	-10595
嘱	-10596
墩	-10597
奴	-10598
宽	-10599
帐	-10600
弥	-10601
惰	-10602
晌	-10603
泞	-10604
津	-10605
淤	-10606
潭	-10607
瘌	-10608
瘾	-10609
砸	-10610
碾	-10611
祸	-10612
稳	-10613
簇	-10614
粪	-10615
翘	-10616
肺	-10617
芭	-10618
蚪	-10619
雹	-10620
鹤	-10621
余	-10622
係	-10623
傍	-10624
刊	-10625
剑	-10626
啬	-10627
嗷	-10628
坠	-10629
坯	-10630
妖	-10631
妨	-10632
岛	-10633
径	-10634
恃	-10635
悉	-10636
扑	-10637
扛	-10638
挖	-10639
捋	-10640
捣	-10641
掰	-10642
搖	-10643
枷	-10644
柩	-10645
柱	-10646
棋	-10647
檢	-10648
檬	-10649
殴	-10650
泄	-10651
淌	-10652
漱	-10653
爵	-10654
狡	-10655
疟	-10656
瘠	-10657
础	-10658
稱	-10659
維	-10660
緊	-10661
翔	-10662
脉	-10663
脐	-10664
荠	-10665
葵	-10666
蕨	-10667
蘑	-10668
蚕	-10669
蠕	-10670
誓	-10671
访	-10672
谋	-10673
豐	-10674
負	-10675
財	-10676
賣	-10677
賺	-10678
赔	-10679
蹬	-10680
載	-10681
郎	-10682
阔	-10683
陌	-10684
類	-10685
麟	-10686
乔	-10687
乖	-10688
卜	-10689
啸	-10690
嗽	-10691
域	-10692
孵	-10693
宣	-10694
抄	-10695
捡	-10696
撤	-10697
晒	-10698
晓	-10699
枣	-10700
栖	-10701
榔	-10702
樱	-10703
残	-10704
殿	-10705
澈	-10706
炕	-10707
燥	-10708
狼	-10709
獭	-10710
甲	-10711
眠	-10712
矛	-10713
秸	-10714
绎	-10715
绑	-10716
绘	-10717
芫	-10718
茁	-10719
荞	-10720
荨	-10721
蚌	-10722
蝉	-10723
蟑	-10724
裕	-10725
贱	-10726
赎	-10727
辫	-10728
驯	-10729
鹊	-10730
[	-10731
侦	-10732
傅	-10733
凤	-10734
凰	-10735
剧	-10736
割	-10737
呻	-10738
咂	-10739
哺	-10740
唾	-10741
嗅	-10742
坪	-10743
垂	-10744
垮	-10745
壽	-10746
奖	-10747
奢	-10748
專	-10749
屑	-10750
岱	-10751
島	-10752
幻	-10753
廳	-10754
愤	-10755
拈	-10756
捧	-10757
掃	-10758
措	-10759
搞	-10760
撑	-10761
旺	-10762
栋	-10763
歧	-10764
涂	-10765
涕	-10766
炖	-10767
炫	-10768
狂	-10769
獲	-10770
瑞	-10771
甥	-10772
症	-10773
碍	-10774
秒	-10775
税	-10776
穴	-10777
紹	-10778
統	-10779
練	-10780
绒	-10781
缸	-10782
翅	-10783
翠	-10784
肝	-10785
膊	-10786
臁	-10787
蜡	-10788
蜢	-10789
製	-10790
譯	-10791
豺	-10792
賴	-10793
跚	-10794
輪	-10795
辩	-10796
酵	-10797
锡	-10798
镇	-10799
闰	-10800
雅	-10801
雖	-10802
雳	-10803
鞘	-10804
韧	-10805
順	-10806
鼾	-10807
临	-10808
刃	-10809
厦	-10810
呃	-10811
咸	-10812
啃	-10813
尚	-10814
庇	-10815
彤	-10816
拆	-10817
掘	-10818
揉	-10819
摄	-10820
攒	-10821
旷	-10822
柿	-10823
梗	-10824
椽	-10825
沽	-10826
涧	-10827
爹	-10828
碑	-10829
秆	-10830
笃	-10831
簸	-10832
糠	-10833
纯	-10834
聋	-10835
聘	-10836
腼	-10837
艳	-10838
苏	-10839
蚯	-10840
蛄	-10841
蜓	-10842
蟒	-10843
褂	-10844
豪	-10845
赖	-10846
铠	-10847
鞍	-10848
馊	-10849
驶	-10850
鹌	-10851
亏	-10852
亿	-10853
伊	-10854
優	-10855
儴	-10856
军	-10857
劇	-10858
吟	-10859
唐	-10860
嗑	-10861
圍	-10862
團	-10863
屬	-10864
庶	-10865
弗	-10866
徙	-10867
慮	-10868
扭	-10869
扮	-10870
掀	-10871
揽	-10872
極	-10873
洱	-10874
浇	-10875
溃	-10876
滋	-10877
滤	-10878
爪	-10879
猬	-10880
產	-10881
畢	-10882
番	-10883
痒	-10884
眾	-10885
碧	-10886
禀	-10887
築	-10888
簧	-10889
粘	-10890
絡	-10891
肃	-10892
肾	-10893
胗	-10894
腋	-10895
膏	-10896
舔	-10897
芜	-10898
葬	-10899
褊	-10900
規	-10901
訊	-10902
诞	-10903
購	-10904
赂	-10905
蹋	-10906
辟	-10907
鈕	-10908
镊	-10909
閱	-10910
際	-10911
颜	-10912
驴	-10913
骟	-10914
骡	-10915
鹑	-10916
《	-10917
》	-10918
劫	-10919
叉	-10920
吩	-10921
哩	-10922
嘭	-10923
妥	-10924
宾	-10925
岸	-10926
崴	-10927
循	-10928
悠	-10929
憨	-10930
撵	-10931
杵	-10932
氏	-10933
沃	-10934
泻	-10935
洒	-10936
滥	-10937
犹	-10938
猖	-10939
瞅	-10940
祠	-10941
秧	-10942
窃	-10943
茸	-10944
荽	-10945
菲	-10946
蚓	-10947
蛾	-10948
蝙	-10949
裳	-10950
贝	-10951
跛	-10952
躁	-10953
鄙	-10954
铛	-10955
锐	-10956
雕	-10957
麸	-10958
黍	-10959
X	-10960
Z	-10961
匀	-10962
匠	-10963
卻	-10964
吮	-10965
咧	-10966
咱	-10967
哦	-10968
唸	-10969
嘟	-10970
噢	-10971
奈	-10972
妣	-10973
婢	-10974
媚	-10975
尸	-10976
崩	-10977
巽	-10978
巾	-10979
廣	-10980
弛	-10981
惬	-10982
愁	-10983
憶	-10984
扁	-10985
扶	-10986
挨	-10987
搛	-10988
擞	-10989
標	-10990
毀	-10991
涩	-10992
漢	-10993
版	-10994
犬	-10995
猾	-10996
獗	-10997
睬	-10998
矿	-10999
硌	-11000
硝	-11001
祟	-11002
窥	-11003
箍	-11004
篥	-11005
粱	-11006
細	-11007
耄	-11008
肌	-11009
脆	-11010
脯	-11011
臣	-11012
荐	-11013
莽	-11014
蜕	-11015
螺	-11016
蟆	-11017
衬	-11018
觅	-11019
誊	-11020
誠	-11021
谓	-11022
贊	-11023
軍	-11024
辭	-11025
鈴	-11026
鎮	-11027
锛	-11028
顯	-11029
骚	-11030
鹳	-11031
齡	-11032
乙	-11033
乞	-11034
乡	-11035
刁	-11036
呓	-11037
嚅	-11038
垢	-11039
巡	-11040
悴	-11041
惟	-11042
戈	-11043
拴	-11044
搂	-11045
斟	-11046
晾	-11047
梧	-11048
橘	-11049
沤	-11050
洼	-11051
漾	-11052
炭	-11053
痫	-11054
痰	-11055
癫	-11056
瞻	-11057
砌	-11058
禽	-11059
纬	-11060
缨	-11061
胶	-11062
腆	-11063
苤	-11064
荚	-11065
蘸	-11066
蛰	-11067
蜻	-11068
蝠	-11069
褛	-11070
襁	-11071
谚	-11072
贷	-11073
趁	-11074
跪	-11075
蹄	-11076
蹲	-11077
辑	-11078
辖	-11079
辱	-11080
阱	-11081
馁	-11082
%	-11083
à	-11084
ǒ	-11085
俊	-11086
凳	-11087
厂	-11088
唬	-11089
喘	-11090
嗫	-11091
嘗	-11092
嘲	-11093
囚	-11094
圓	-11095
坤	-11096
執	-11097
奮	-11098
委	-11099
宰	-11100
宴	-11101
寓	-11102
届	-11103
岭	-11104
幣	-11105
幹	-11106
廢	-11107
怂	-11108
恭	-11109
恿	-11110
抡	-11111
拦	-11112
揖	-11113
撥	-11114
斧	-11115
枋	-11116
枚	-11117
栏	-11118
桩	-11119
槟	-11120
沧	-11121
渗	-11122
減	-11123
渺	-11124
漠	-11125
濟	-11126
灘	-11127
焙	-11128
牆	-11129
犟	-11130
玷	-11131
疡	-11132
皆	-11133
眨	-11134
祛	-11135
稗	-11136
笋	-11137
筷	-11138
篦	-11139
维	-11140
耀	-11141
耙	-11142
耶	-11143
膛	-11144
臉	-11145
莲	-11146
葉	-11147
蒼	-11148
蓖	-11149
藍	-11150
藿	-11151
蜘	-11152
褥	-11153
訝	-11154
貨	-11155
趾	-11156
蹒	-11157
辞	-11158
農	-11159
鄉	-11160
釣	-11161
钳	-11162
键	-11163
镫	-11164
閃	-11165
閒	-11166
陸	-11167
雇	-11168
雞	-11169
靛	-11170
馍	-11171
騎	-11172
騙	-11173
驼	-11174
鲍	-11175
鹅	-11176
]	-11177
°	-11178
ó	-11179
予	-11180
享	-11181
剁	-11182
剐	-11183
咚	-11184
嗝	-11185
壬	-11186
奠	-11187
媒	-11188
峻	-11189
庸	-11190
戌	-11191
挽	-11192
揍	-11193
搔	-11194
敷	-11195
晋	-11196
樟	-11197
殊	-11198
浏	-11199
涉	-11200
淘	-11201
淬	-11202
炷	-11203
牺	-11204
獐	-11205
皴	-11206
穆	-11207
篓	-11208
簾	-11209
籍	-11210
糯	-11211
纱	-11212
纺	-11213
肘	-11214
舀	-11215
蓄	-11216
蓟	-11217
蔗	-11218
袖	-11219
讳	-11220
贩	-11221
赫	-11222
辕	-11223
酱	-11224
闯	-11225
阉	-11226
颊	-11227
馋	-11228
勸	-11229
匾	-11230
啥	-11231
圃	-11232
圪	-11233
垦	-11234
宠	-11235
導	-11236
屈	-11237
岔	-11238
庚	-11239
府	-11240
异	-11241
惡	-11242
懷	-11243
挜	-11244
撬	-11245
撲	-11246
擁	-11247
敵	-11248
桨	-11249
楔	-11250
欣	-11251
泉	-11252
泰	-11253
渍	-11254
渥	-11255
滓	-11256
滾	-11257
烈	-11258
猿	-11259
琳	-11260
環	-11261
疥	-11262
眩	-11263
瞌	-11264
碌	-11265
碳	-11266
祥	-11267
秀	-11268
窮	-11269
簽	-11270
粑	-11271
罵	-11272
耘	-11273
胞	-11274
膘	-11275
膻	-11276
萊	-11277
萌	-11278
蓋	-11279
藕	-11280
蛛	-11281
衛	-11282
裱	-11283
複	-11284
褶	-11285
評	-11286
諾	-11287
讥	-11288
诏	-11289
诵	-11290
谣	-11291
賞	-11292
質	-11293
赐	-11294
踫	-11295
辜	-11296
迂	-11297
酥	-11298
酪	-11299
銷	-11300
钹	-11301
隆	-11302
霜	-11303
霹	-11304
靈	-11305
項	-11306
黝	-11307
è	-11308
ū	-11309
兑	-11310
匪	-11311
哀	-11312
噎	-11313
嚷	-11314
央	-11315
宅	-11316
峭	-11317
幕	-11318
惨	-11319
挼	-11320
搓	-11321
旱	-11322
椆	-11323
櫱	-11324
湾	-11325
滗	-11326
煨	-11327
燎	-11328
瘫	-11329
眯	-11330
筐	-11331
筛	-11332
筹	-11333
纷	-11334
虱	-11335
诅	-11336
豌	-11337
锯	-11338
⋯	-11339
亦	-11340
亨	-11341
仙	-11342
伍	-11343
伺	-11344
佈	-11345
偉	-11346
冊	-11347
凍	-11348
剜	-11349
創	-11350
卓	-11351
卯	-11352
厕	-11353
厲	-11354
噗	-11355
圾	-11356
坦	-11357
垃	-11358
堅	-11359
壓	-11360
夾	-11361
奥	-11362
妙	-11363
婦	-11364
巫	-11365
恢	-11366
挥	-11367
捶	-11368
掛	-11369
摞	-11370
撂	-11371
擾	-11372
朱	-11373
杰	-11374
栘	-11375
检	-11376
榮	-11377
櫃	-11378
欄	-11379
權	-11380
歸	-11381
润	-11382
渠	-11383
濕	-11384
烏	-11385
營	-11386
獄	-11387
獎	-11388
甄	-11389
瘋	-11390
癣	-11391
瞀	-11392
碟	-11393
磅	-11394
秤	-11395
稣	-11396
筱	-11397
繩	-11398
繫	-11399
绾	-11400
罅	-11401
罔	-11402
翼	-11403
腊	-11404
臨	-11405
芤	-11406
莊	-11407
蔫	-11408
薪	-11409
蛤	-11410
褓	-11411
褙	-11412
褪	-11413
襪	-11414
评	-11415
诓	-11416
賭	-11417
贤	-11418
辔	-11419
遭	-11420
遺	-11421
酬	-11422
鑰	-11423
锻	-11424
镐	-11425
霧	-11426
頁	-11427
颅	-11428
飽	-11429
髒	-11430
僰	-11431
嘣	-11432
峨	-11433
幺	-11434
弘	-11435
慰	-11436
抗	-11437
抟	-11438
搾	-11439
昧	-11440
柚	-11441
柞	-11442
框	-11443
汇	-11444
泽	-11445
溯	-11446
潲	-11447
焉	-11448
煞	-11449
甘	-11450
疔	-11451
痘	-11452
盲	-11453
腥	-11454
苕	-11455
苣	-11456
荑	-11457
谅	-11458
豹	-11459
辰	-11460
隶	-11461
饺	-11462
鸯	-11463
鹞	-11464
ō	-11465
丹	-11466
佔	-11467
儘	-11468
劣	-11469
励	-11470
勢	-11471
嗨	-11472
嚇	-11473
嚨	-11474
塵	-11475
壯	-11476
寶	-11477
尤	-11478
尬	-11479
屉	-11480
廠	-11481
恒	-11482
恥	-11483
憔	-11484
拧	-11485
振	-11486
搶	-11487
擋	-11488
擠	-11489
攝	-11490
梢	-11491
榜	-11492
橡	-11493
檩	-11494
歹	-11495
涼	-11496
淚	-11497
測	-11498
澆	-11499
濃	-11500
狀	-11501
猶	-11502
痪	-11503
療	-11504
盤	-11505
瞭	-11506
碱	-11507
磁	-11508
禍	-11509
簿	-11510
績	-11511
署	-11512
胛	-11513
臥	-11514
艰	-11515
菸	-11516
蔺	-11517
薩	-11518
蘿	-11519
蜀	-11520
蠅	-11521
褲	-11522
訓	-11523
詢	-11524
詳	-11525
謀	-11526
谬	-11527
迅	-11528
迫	-11529
逼	-11530
销	-11531
镯	-11532
閉	-11533
闆	-11534
闺	-11535
隧	-11536
額	-11537
骈	-11538
髻	-11539
鮮	-11540
冥	-11541
呵	-11542
嗉	-11543
庹	-11544
擤	-11545
晶	-11546
殆	-11547
氢	-11548
涅	-11549
澜	-11550
烁	-11551
疚	-11552
瘊	-11553
睦	-11554
禅	-11555
耻	-11556
耿	-11557
肢	-11558
苋	-11559
褴	-11560
賨	-11561
酉	-11562
馒	-11563
·	-11564
í	-11565
‘	-11566
亂	-11567
企	-11568
僅	-11569
兼	-11570
凯	-11571
函	-11572
厘	-11573
喻	-11574
埃	-11575
夕	-11576
奧	-11577
寂	-11578
尋	-11579
尴	-11580
崎	-11581
巳	-11582
廁	-11583
弈	-11584
怖	-11585
惹	-11586
損	-11587
撫	-11588
擎	-11589
析	-11590
柵	-11591
橄	-11592
沖	-11593
沮	-11594
涌	-11595
溺	-11596
滅	-11597
潔	-11598
烛	-11599
爲	-11600
犀	-11601
獅	-11602
監	-11603
稚	-11604
積	-11605
穩	-11606
窟	-11607
箏	-11608
籠	-11609
糾	-11610
納	-11611
織	-11612
绅	-11613
膨	-11614
臘	-11615
臺	-11616
芬	-11617
莴	-11618
華	-11619
董	-11620
蔔	-11621
薅	-11622
藉	-11623
蟲	-11624
衰	-11625
詹	-11626
謬	-11627
贺	-11628
輸	-11629
逆	-11630
鄰	-11631
酷	-11632
錄	-11633
陰	-11634
隱	-11635
隸	-11636
靖	-11637
韩	-11638
顏	-11639
颠	-11640
颱	-11641
飄	-11642
餅	-11643
饥	-11644
鸳	-11645
鹇	-11646
麽	-11647
黃	-11648
齊	-11649
佳	-11650
僻	-11651
姻	-11652
愧	-11653
戟	-11654
棱	-11655
沼	-11656
瘿	-11657
瞬	-11658
缅	-11659
缆	-11660
肛	-11661
茬	-11662
菩	-11663
虻	-11664
逻	-11665
频	-11666
魅	-11667
\	-11668
á	-11669
ï	-11670
€	-11671
乓	-11672
亥	-11673
儀	-11674
册	-11675
凌	-11676
删	-11677
劲	-11678
勞	-11679
勵	-11680
協	-11681
却	-11682
厩	-11683
哇	-11684
喪	-11685
圳	-11686
墜	-11687
壺	-11688
寢	-11689
寬	-11690
層	-11691
岡	-11692
崇	-11693
幌	-11694
廈	-11695
廟	-11696
彎	-11697
役	-11698
徑	-11699
悅	-11700
悦	-11701
惫	-11702
態	-11703
慶	-11704
憤	-11705
懦	-11706
懶	-11707
拋	-11708
揮	-11709
摧	-11710
擺	-11711
暫	-11712
曬	-11713
柠	-11714
榄	-11715
橫	-11716
沌	-11717
洽	-11718
淇	-11719
溝	-11720
滨	-11721
滩	-11722
潛	-11723
澄	-11724
瀑	-11725
灑	-11726
灣	-11727
煤	-11728
熬	-11729
爛	-11730
瓊	-11731
畏	-11732
癒	-11733
盹	-11734
矶	-11735
稅	-11736
穫	-11737
窩	-11738
競	-11739
範	-11740
紳	-11741
緒	-11742
耢	-11743
膠	-11744
膩	-11745
臟	-11746
艇	-11747
芹	-11748
范	-11749
蔥	-11750
薦	-11751
蚊	-11752
襲	-11753
讯	-11754
谨	-11755
豚	-11756
豫	-11757
貞	-11758
貼	-11759
賀	-11760
賢	-11761
賬	-11762
贸	-11763
赴	-11764
跡	-11765
輯	-11766
辯	-11767
逊	-11768
郊	-11769
醬	-11770
釜	-11771
鋪	-11772
鐳	-11773
鑽	-11774
闖	-11775
靴	-11776
韓	-11777
顫	-11778
飢	-11779
騰	-11780
驱	-11781
鬍	-11782
鬧	-11783
鯨	-11784
鵡	-11785
鸚	-11786
丙	-11787
侣	-11788
壅	-11789
携	-11790
敞	-11791
楣	-11792
沄	-11793
焚	-11794
癸	-11795
督	-11796
芯	-11797
芸	-11798
蒿	-11799
诊	-11800
诡	-11801
钮	-11802
&	-11803
@	-11804
ǎ	-11805
→	-11806
丐	-11807
伏	-11808
侈	-11809
侵	-11810
俩	-11811
倆	-11812
倔	-11813
倡	-11814
傢	-11815
債	-11816
傾	-11817
僵	-11818
償	-11819
円	-11820
冤	-11821
凭	-11822
刑	-11823
券	-11824
刹	-11825
剎	-11826
劍	-11827
勉	-11828
协	-11829
