<pad>	0
<unk>	0
<s>	0
</s>	0
▁t	-0
▁i	-1
▁s	-2
he	-3
▁a	-4
▁to	-5
▁w	-6
ou	-7
in	-8
an	-9
re	-10
彝文	-11
▁m	-12
▁the	-13
at	-14
▁is	-15
▁我	-16
ri	-17
▁c	-18
er	-19
▁(	-20
on	-21
▁b	-22
▁h	-23
▁y	-24
▁in	-25
▁f	-26
▁d	-27
es	-28
or	-29
▁Y	-30
▁you	-31
▁sc	-32
▁l	-33
字符	-34
en	-35
pt	-36
▁这	-37
▁Yi	-38
ript	-39
▁script	-40
is	-41
彝文字符	-42
▁T	-43
ing	-44
▁p	-45
ay	-46
▁I	-47
ow	-48
▁这是	-49
as	-50
▁th	-51
ar	-52
ed	-53
ll	-54
文是	-55
▁g	-56
▁o	-57
ans	-58
▁n	-59
▁he	-60
ve	-61
▁H	-62
om	-63
ate	-64
xf	-65
什么	-66
▁你	-67
le	-68
▁他	-69
▁me	-70
it	-71
ic	-72
ot	-73
▁这是彝文字符	-74
的英	-75
rans	-76
late	-77
▁'	-78
ranslate	-79
的英文是	-80
▁of	-81
et	-82
▁for	-83
▁0	-84
▁e	-85
▁ha	-86
ver	-87
▁Translate	-88
编号	-89
翻译	-90
oo	-91
hin	-92
▁an	-93
).	-94
ke	-95
un	-96
ese	-97
▁say	-98
us	-99
▁How	-100
▁do	-101
ld	-102
▁The	-103
▁st	-104
▁be	-105
hinese	-106
▁li	-107
用彝文	-108
▁C	-109
个彝文字符	-110
im	-111
▁we	-112
▁翻译	-113
组合	-114
的组合	-115
▁这是两	-116
个彝文字符的组合	-117
▁这是两个彝文字符的组合	-118
al	-119
ter	-120
▁on	-121
▁this	-122
▁|	-123
▁are	-124
ent	-125
▁it	-126
ac	-127
gh	-128
▁re	-129
de	-130
▁请	-131
▁have	-132
▁Chinese	-133
▁my	-134
▁at	-135
ion	-136
▁W	-137
中文是	-138
very	-139
的英文是什么	-140
▁wh	-141
▁r	-142
▁It	-143
her	-144
▁was	-145
st	-146
id	-147
se	-148
am	-149
▁can	-150
ad	-151
ome	-152
▁彝文	-153
▁your	-154
怎么	-155
▁go	-156
ch	-157
ill	-158
ut	-159
ght	-160
ant	-161
ain	-162
▁He	-163
ir	-164
▁not	-165
ith	-166
▁like	-167
▁1	-168
▁that	-169
▁with	-170
▁ne	-171
ly	-172
表示	-173
ook	-174
▁k	-175
ce	-176
all	-177
ore	-178
;2	-179
▁very	-180
通用彝文	-181
;2、	-182
写作	-183
▁means	-184
out	-185
▁and	-186
▁as	-187
▁请问	-188
▁his	-189
ct	-190
'.	-191
op	-192
」。	-193
ur	-194
用彝文怎么	-195
用通用彝文	-196
用彝文怎么表示	-197
用通用彝文写作	-198
▁se	-199
ould	-200
▁這	-201
up	-202
▁sh	-203
▁un	-204
对应	-205
day	-206
ode	-207
ak	-208
ase	-209
)).	-210
▁wor	-211
▁te	-212
▁am	-213
ish	-214
one	-215
icode	-216
ge	-217
▁编号	-218
▁j	-219
▁ch	-220
ood	-221
▁sp	-222
th	-223
是什么	-224
)'	-225
ro	-226
1、	-227
ast	-228
▁will	-229
ong	-230
qu	-231
oun	-232
▁than	-233
ul	-234
ap	-235
ake	-236
▁tr	-237
um	-238
▁pl	-239
▁him	-240
▁has	-241
▁what	-242
il	-243
lease	-244
▁want	-245
end	-246
▁M	-247
▁fr	-248
▁ab	-249
▁((	-250
est	-251
▁le	-252
▁al	-253
▁us	-254
and	-255
▁2	-256
我的	-257
▁我们	-258
▁don	-259
▁up	-260
ation	-261
),	-262
)。	-263
now	-264
);	-265
分别	-266
分别是	-267
和编号	-268
分别是编号	-269
ust	-270
pp	-271
▁so	-272
▁en	-273
ry	-274
▁You	-275
ud	-276
▁there	-277
▁A	-278
▁com	-279
if	-280
▁我們	-281
▁more	-282
可以	-283
▁'(	-284
▁tim	-285
量词	-286
▁no	-287
喜欢	-288
ard	-289
你的	-290
ive	-291
▁Th	-292
▁whe	-293
▁ri	-294
▁from	-295
▁by	-296
▁ex	-297
▁chinese	-298
彝族	-299
▁did	-300
▁book	-301
▁know	-302
▁Wh	-303
ight	-304
our	-305
ort	-306
gl	-307
art	-308
ave	-309
ame	-310
▁get	-311
:(	-312
▁de	-313
▁man	-314
ble	-315
▁please	-316
▁S	-317
▁D	-318
ind	-319
ool	-320
等于	-321
▁how	-322
▁co	-323
▁time	-324
▁我不	-325
ure	-326
▁qu	-327
▁she	-328
▁We	-329
▁wat	-330
glish	-331
ang	-332
▁2.	-333
▁all	-334
▁彝文字	-335
ass	-336
ist	-337
are	-338
▁cl	-339
▁stud	-340
▁那	-341
ess	-342
了一	-343
▁spe	-344
今天	-345
ol	-346
fe	-347
▁good	-348
▁通	-349
▁1.	-350
中文	-351
te	-352
▁her	-353
ree	-354
▁lo	-355
ather	-356
30	-357
▁had	-358
ear	-359
▁here	-360
:0	-361
ers	-362
▁out	-363
ire	-364
ack	-365
▁work	-366
知道	-367
uch	-368
▁我想	-369
文化	-370
用彝文字符	-371
用彝文字符集	-372
unicode	-373
▁unicode	-374
▁通用彝文字符集	-375
▁too	-376
什么彝文	-377
▁come	-378
对应什么彝文	-379
对应彝文字符	-380
▁see	-381
ig	-382
ie	-383
alk	-384
▁day	-385
▁any	-386
▁play	-387
一个	-388
▁home	-389
▁about	-390
ck	-391
▁fe	-392
▁con	-393
other	-394
他的	-395
ine	-396
ning	-397
▁car	-398
▁one	-399
▁sch	-400
沒有	-401
os	-402
;2、(	-403
ice	-404
▁我的	-405
多少	-406
▁J	-407
▁translate	-408
▁af	-409
ound	-410
▁school	-411
ous	-412
▁不	-413
der	-414
▁v	-415
▁字符	-416
▁pe	-417
▁br	-418
ild	-419
▁ro	-420
31	-421
什麼	-422
ep	-423
▁mo	-424
ink	-425
ven	-426
▁tw	-427
etter	-428
32	-429
▁This	-430
工作	-431
▁E	-432
35	-433
36	-434
way	-435
▁long	-436
▁;	-437
ace	-438
own	-439
▁bo	-440
▁她	-441
▁ma	-442
▁speak	-443
一個	-444
▁ar	-445
ary	-446
▁last	-447
34	-448
▁every	-449
el	-450
喜歡	-451
▁ac	-452
▁year	-453
▁bus	-454
▁comp	-455
00	-456
29	-457
28	-458
▁sm	-459
ount	-460
ople	-461
翻译成	-462
▁eat	-463
▁sa	-464
▁pro	-465
▁look	-466
▁What	-467
▁people	-468
mp	-469
▁or	-470
▁today	-471
ity	-472
我們	-473
ark	-474
▁'1、	-475
▁請	-476
ren	-477
我们	-478
▁gr	-479
▁P	-480
apan	-481
▁yes	-482
▁should	-483
hing	-484
▁new	-485
▁read	-486
需要	-487
▁ag	-488
▁dr	-489
昨天	-490
▁some	-491
▁tom	-492
▁take	-493
terday	-494
▁does	-495
age	-496
文字	-497
ick	-498
▁teac	-499
res	-500
▁yesterday	-501
动词	-502
▁fl	-503
▁ten	-504
lf	-505
▁off	-506
意思	-507
▁child	-508
ect	-509
▁when	-510
▁请把	-511
▁su	-512
▁我在	-513
▁english	-514
這個	-515
▁would	-516
hed	-517
▁going	-518
▁now	-519
▁were	-520
▁got	-521
27	-522
ob	-523
很多	-524
▁My	-525
▁happ	-526
ved	-527
没有	-528
ag	-529
孩子	-530
▁old	-531
▁must	-532
ult	-533
▁who	-534
量子	-535
▁but	-536
lp	-537
▁many	-538
▁ear	-539
▁much	-540
▁sw	-541
翻译成中文	-542
▁请把彝文	-543
重要	-544
▁went	-545
朋友	-546
▁two	-547
到了	-548
▁L	-549
ought	-550
▁rain	-551
▁1、	-552
▁help	-553
▁fri	-554
▁if	-555
日本	-556
▁been	-557
▁made	-558
▁water	-559
▁bl	-560
▁teacher	-561
不是	-562
▁今天	-563
▁app	-564
▁我很	-565
▁where	-566
▁after	-567
▁"	-568
▁op	-569
▁ad	-570
▁N	-571
▁exp	-572
▁他的	-573
urn	-574
ting	-575
ory	-576
自己	-577
ouse	-578
▁friend	-579
▁pr	-580
彝语	-581
▁B	-582
row	-583
▁Do	-584
▁有	-585
ue	-586
▁在	-587
▁they	-588
▁bu	-589
▁think	-590
▁这个	-591
▁may	-592
ork	-593
▁make	-594
ose	-595
ally	-596
▁walk	-597
▁house	-598
等于多少	-599
▁student	-600
33	-601
▁dog	-602
▁our	-603
▁better	-604
▁lear	-605
oney	-606
▁There	-607
:1、	-608
▁En	-609
red	-610
▁ke	-611
▁po	-612
▁hard	-613
▁well	-614
▁over	-615
世界	-616
可能	-617
▁back	-618
这个	-619
ctor	-620
ty	-621
▁您	-622
ough	-623
▁down	-624
▁need	-625
▁wri	-626
▁give	-627
时候	-628
▁acc	-629
▁imp	-630
▁train	-631
av	-632
able	-633
▁money	-634
em	-635
体系	-636
ide	-637
含义	-638
reat	-639
有一	-640
ence	-641
▁call	-642
ky	-643
▁room	-644
▁mor	-645
▁could	-646
▁let	-647
ond	-648
ways	-649
▁night	-650
▁three	-651
中的	-652
非常	-653
▁always	-654
▁morning	-655
xt	-656
▁如	-657
時候	-658
not	-659
▁wr	-660
▁dri	-661
▁一	-662
fic	-663
正在	-664
les	-665
的彝文	-666
▁English	-667
ther	-668
▁cat	-669
ies	-670
self	-671
▁cannot	-672
▁doctor	-673
一下	-674
..	-675
▁把	-676
▁study	-677
本书	-678
很好	-679
▁G	-680
▁我要	-681
▁dis	-682
▁我喜欢	-683
▁mat	-684
▁years	-685
ict	-686
▁dif	-687
od	-688
ance	-689
▁part	-690
在哪	-691
);'	-692
▁never	-693
▁thing	-694
ca	-695
▁just	-696
▁mus	-697
色的	-698
ber	-699
▁ph	-700
ment	-701
tle	-702
37	-703
ile	-704
▁under	-705
中国	-706
▁你的	-707
在彝族	-708
omet	-709
▁int	-710
▁str	-711
英文	-712
▁yi	-713
ci	-714
ft	-715
aut	-716
▁right	-717
▁Please	-718
湯姆	-719
▁tell	-720
▁late	-721
ng	-722
irst	-723
▁Whe	-724
▁soon	-725
▁stay	-726
▁beaut	-727
▁如果	-728
▁way	-729
orrow	-730
▁inte	-731
ab	-732
▁K	-733
▁swim	-734
);2、(	-735
ite	-736
▁這個	-737
的人	-738
wer	-739
fore	-740
▁sun	-741
▁talk	-742
形容	-743
ten	-744
▁不要	-745
▁cold	-746
是一	-747
▁ask	-748
▁lik	-749
▁run	-750
▁came	-751
已經	-752
akes	-753
▁feel	-754
任何	-755
▁watch	-756
ank	-757
ock	-758
angu	-759
▁use	-760
之一	-761
50	-762
應該	-763
work	-764
thing	-765
▁before	-766
去了	-767
学习	-768
ves	-769
▁langu	-770
▁next	-771
▁老	-772
语言	-773
ired	-774
▁Tom	-775
▁only	-776
iful	-777
▁fin	-778
▁lar	-779
▁F	-780
hes	-781
ek	-782
▁beautiful	-783
▁sup	-784
▁weather	-785
au	-786
房子	-787
▁live	-788
▁music	-789
▁father	-790
▁brother	-791
▁japan	-792
▁bre	-793
▁lot	-794
▁river	-795
早上	-796
▁air	-797
词缀	-798
cle	-799
ving	-800
▁ans	-801
▁put	-802
▁forg	-803
給我	-804
▁far	-805
▁res	-806
▁week	-807
▁other	-808
oh	-809
天气	-810
rest	-811
现在	-812
eri	-813
▁didn	-814
是我	-815
▁station	-816
▁meet	-817
▁happy	-818
▁bought	-819
英語	-820
ress	-821
▁world	-822
port	-823
▁boy	-824
▁lit	-825
antum	-826
▁count	-827
air	-828
ition	-829
cl	-830
ait	-831
ters	-832
▁likes	-833
游泳	-834
ffe	-835
ich	-836
▁Japan	-837
ied	-838
mer	-839
▁他在	-840
▁mon	-841
▁hot	-842
▁again	-843
49	-844
星期	-845
民族	-846
给我	-847
▁name	-848
▁tomorrow	-849
ip	-850
表意	-851
ach	-852
▁tall	-853
字详	-854
ane	-855
字详解	-856
▁des	-857
19	-858
▁left	-859
▁took	-860
▁letter	-861
問題	-862
每天	-863
▁他们	-864
▁mind	-865
▁park	-866
▁wait	-867
▁learn	-868
▁somet	-869
▁little	-870
3、	-871
og	-872
▁word	-873
▁young	-874
iz	-875
▁big	-876
文字体系	-877
▁first	-878
明天	-879
火车	-880
blem	-881
▁fam	-882
▁rem	-883
▁said	-884
▁answer	-885
alth	-886
▁That	-887
▁door	-888
▁problem	-889
45	-890
咖啡	-891
use	-892
▁beg	-893
▁bel	-894
▁turn	-895
ily	-896
▁gir	-897
ident	-898
39	-899
ok	-900
表达	-901
ian	-902
ise	-903
▁won	-904
住在	-905
古老	-906
▁你不	-907
▁你在	-908
ried	-909
ix	-910
▁O	-911
考虑	-912
古老的	-913
▁cle	-914
▁pre	-915
▁flow	-916
▁gave	-917
▁into	-918
▁quantum	-919
医生	-920
问题	-921
使动	-922
故事	-923
ens	-924
▁他是	-925
▁湯姆	-926
▁five	-927
▁life	-928
▁these	-929
回家	-930
希望	-931
ffee	-932
▁keep	-933
▁language	-934
68	-935
現在	-936
甚麼	-937
ange	-938
▁pass	-939
▁children	-940
ficult	-941
▁difficult	-942
最好	-943
▁class	-944
▁coffee	-945
学生	-946
erson	-947
48	-948
iv	-949
▁天	-950
很高	-951
東西	-952
iss	-953
▁girl	-954
的彝文翻译	-955
▁leave	-956
act	-957
的文化	-958
▁mov	-959
▁彝文中	-960
▁care	-961
estion	-962
▁interest	-963
一起	-964
时间	-965
開始	-966
als	-967
);2、	-968
▁bir	-969
▁che	-970
10	-971
地位	-972
▁Don	-973
▁break	-974
▁great	-975
▁tired	-976
不仅	-977
历史	-978
anc	-979
ra	-980
智慧	-981
ody	-982
read	-983
▁import	-984
名词	-985
她的	-986
erm	-987
▁found	-988
ream	-989
▁fish	-990
▁compu	-991
下雨	-992
有很多	-993
▁busy	-994
47	-995
▁lun	-996
▁lost	-997
▁love	-998
▁used	-999
▁mount	-1000
▁health	-1001
▁question	-1002
38	-1003
▁大	-1004
学校	-1005
怎麼	-1006
nis	-1007
▁fo	-1008
▁eas	-1009
▁sur	-1010
▁hour	-1011
▁open	-1012
40	-1013
cc	-1014
名字	-1015
▁fast	-1016
▁rest	-1017
在彝族文化	-1018
▁mother	-1019
no	-1020
使用	-1021
▁start	-1022
城市	-1023
大的	-1024
很快	-1025
ope	-1026
▁sis	-1027
▁sing	-1028
不会	-1029
所有	-1030
llow	-1031
▁nothing	-1032
英语	-1033
▁gl	-1034
ject	-1035
▁tennis	-1036
1。	-1037
ts	-1038
成功	-1039
leep	-1040
▁hun	-1041
▁pen	-1042
60	-1043
自然	-1044
ful	-1045
▁你想	-1046
▁underst	-1047
aw	-1048
每个	-1049
ohn	-1050
ull	-1051
▁saw	-1052
ction	-1053
▁lunch	-1054
ia	-1055
▁war	-1056
▁best	-1057
58	-1058
ye	-1059
ail	-1060
▁孩子	-1061
▁彝语	-1062
健康	-1063
记录	-1064
▁gu	-1065
▁sl	-1066
▁人	-1067
传统	-1068
本書	-1069
男孩	-1070
▁Can	-1071
▁why	-1072
▁drink	-1073
▁mountain	-1074
应该	-1075
▁while	-1076
▁His	-1077
▁met	-1078
▁tea	-1079
ished	-1080
ne	-1081
▁homework	-1082
昨晚	-1083
是最	-1084
ars	-1085
▁你可以	-1086
▁days	-1087
▁doesn	-1088
东西	-1089
漂亮	-1090
46	-1091
起來	-1092
要考虑	-1093
orry	-1094
▁buy	-1095
▁large	-1096
▁太	-1097
ris	-1098
▁often	-1099
59	-1100
;'	-1101
ss	-1102
不起	-1103
了我	-1104
那个	-1105
ner	-1106
▁我會	-1107
▁wind	-1108
▁still	-1109
下午	-1110
衣服	-1111
▁even	-1112
▁pict	-1113
▁month	-1114
▁accident	-1115
)(	-1116
是中国	-1117
的時候	-1118
▁fire	-1119
▁picture	-1120
▁important	-1121
2。	-1122
不要	-1123
注意	-1124
igh	-1125
body	-1126
▁Let	-1127
一點	-1128
這裡	-1129
▁你有	-1130
为什么	-1131
▁sum	-1132
▁list	-1133
来了	-1134
走了	-1135
▁something	-1136
4。	-1137
ub	-1138
不會	-1139
就是	-1140
房間	-1141
▁什么	-1142
▁bed	-1143
▁kind	-1144
▁once	-1145
▁anything	-1146
57	-1147
努力	-1148
▁bro	-1149
▁pol	-1150
pl	-1151
▁量子	-1152
▁plan	-1153
▁understand	-1154
5。	-1155
▁Are	-1156
▁win	-1157
▁city	-1158
3。	-1159
▁你们	-1160
ited	-1161
▁arri	-1162
▁away	-1163
▁stop	-1164
▁playing	-1165
的事	-1166
oss	-1167
oth	-1168
▁free	-1169
▁hand	-1170
▁doing	-1171
▁country	-1172
计算	-1173
▁量词	-1174
▁cor	-1175
▁six	-1176
▁3	-1177
告诉	-1178
▁你是	-1179
世界上	-1180
▁wish	-1181
gry	-1182
▁你能	-1183
fast	-1184
▁yet	-1185
▁tele	-1186
▁sister	-1187
▁friends	-1188
属于	-1189
▁light	-1190
生活	-1191
umb	-1192
aking	-1193
▁such	-1194
▁breakfast	-1195
67	-1196
回答	-1197
真的	-1198
这里	-1199
int	-1200
▁mar	-1201
▁Where	-1202
▁drive	-1203
▁which	-1204
41	-1205
地方	-1206
女孩	-1207
必須	-1208
ated	-1209
ened	-1210
▁min	-1211
▁vis	-1212
▁上	-1213
开始	-1214
很有	-1215
▁昨天	-1216
▁phone	-1217
▁story	-1218
▁around	-1219
▁things	-1220
必须	-1221
感到	-1222
▁ever	-1223
▁books	-1224
▁sleep	-1225
▁summer	-1226
af	-1227
orse	-1228
▁job	-1229
gr	-1230
一直	-1231
告訴	-1232
容易	-1233
电影	-1234
電話	-1235
音乐	-1236
的时候	-1237
ball	-1238
▁adv	-1239
▁food	-1240
▁earth	-1241
▁wrong	-1242
▁strong	-1243
都有	-1244
ath	-1245
▁ele	-1246
oy	-1247
▁我会	-1248
▁這是	-1249
▁att	-1250
▁fore	-1251
▁show	-1252
▁movie	-1253
6。	-1254
美丽	-1255
hina	-1256
noon	-1257
▁rec	-1258
▁write	-1259
▁without	-1260
▁afternoon	-1261
▁red	-1262
any	-1263
ign	-1264
▁我有	-1265
▁我可以	-1266
▁miss	-1267
年的	-1268
▁mist	-1269
▁reading	-1270
▁finished	-1271
ph	-1272
▁老师	-1273
ital	-1274
▁cut	-1275
▁sal	-1276
."	-1277
▁是	-1278
一次	-1279
ife	-1280
oud	-1281
▁sec	-1282
以前	-1283
公园	-1284
相信	-1285
ori	-1286
ember	-1287
▁small	-1288
20	-1289
▁水	-1290
到你	-1291
多久	-1292
時間	-1293
▁getting	-1294
一定	-1295
ible	-1296
lain	-1297
▁bec	-1298
▁pri	-1299
▁我不知道	-1300
▁asked	-1301
▁sorry	-1302
pe	-1303
學校	-1304
晚上	-1305
face	-1306
▁bad	-1307
▁chang	-1308
▁party	-1309
ord	-1310
ring	-1311
ross	-1312
▁inv	-1313
▁road	-1314
▁belie	-1315
▁looking	-1316
休息	-1317
聪明	-1318
▁Is	-1319
▁early	-1320
▁heard	-1321
已经	-1322
的最	-1323
语气	-1324
ike	-1325
怎么样	-1326
形容词缀	-1327
night	-1328
ondon	-1329
▁most	-1330
總是	-1331
▁我是	-1332
rench	-1333
做了	-1334
kyo	-1335
▁;.	-1336
ates	-1337
cation	-1338
▁dream	-1339
br	-1340
we	-1341
冬天	-1342
夏天	-1343
發生	-1344
起来	-1345
▁医生	-1346
▁我看	-1347
▁usu	-1348
▁cook	-1349
▁pres	-1350
▁matter	-1351
▁yourself	-1352
vel	-1353
▁mean	-1354
得很	-1355
电话	-1356
看看	-1357
▁few	-1358
▁isn	-1359
▁我今天	-1360
▁snow	-1361
▁china	-1362
手机	-1363
ost	-1364
自己的	-1365
▁Who	-1366
▁disc	-1367
▁easy	-1368
▁seen	-1369
▁family	-1370
▁winter	-1371
42	-1372
上了	-1373
了嗎	-1374
完成	-1375
ert	-1376
▁他很	-1377
了我的	-1378
ming	-1379
▁times	-1380
▁students	-1381
56	-1382
ms	-1383
▁hur	-1384
az	-1385
一点	-1386
學生	-1387
独立	-1388
3、(	-1389
uth	-1390
▁dec	-1391
▁sky	-1392
▁cont	-1393
▁minut	-1394
▁computer	-1395
so	-1396
不能	-1397
ics	-1398
▁fall	-1399
▁table	-1400
▁remember	-1401
了他	-1402
做的	-1403
無法	-1404
icy	-1405
led	-1406
▁bri	-1407
▁ran	-1408
▁什么是	-1409
属于表意	-1410
▁four	-1411
▁looks	-1412
彝文属于表意	-1413
▁地	-1414
男人	-1415
▁sk	-1416
▁being	-1417
▁comes	-1418
▁彝族	-1419
ical	-1420
raid	-1421
iness	-1422
▁afraid	-1423
▁小	-1424
▁用	-1425
在家	-1426
oes	-1427
▁find	-1428
▁forgot	-1429
一天	-1430
意义	-1431
父親	-1432
ier	-1433
了一個	-1434
在哪里	-1435
為什麼	-1436
▁end	-1437
▁mil	-1438
▁per	-1439
▁你應該	-1440
先生	-1441
让我	-1442
ell	-1443
ped	-1444
▁To	-1445
aper	-1446
ient	-1447
▁cam	-1448
▁bird	-1449
▁hear	-1450
▁thank	-1451
人都	-1452
想要	-1453
社会	-1454
ted	-1455
uck	-1456
独立的	-1457
▁sit	-1458
▁try	-1459
▁'1、(	-1460
▁pain	-1461
▁true	-1462
▁police	-1463
彝文属于表意文字体系	-1464
睡觉	-1465
orm	-1466
▁我把	-1467
ater	-1468
ready	-1469
是什么意思	-1470
▁already	-1471
?"	-1472
▁)	-1473
▁讓	-1474
了吗	-1475
介绍	-1476
如何	-1477
汤姆	-1478
精神	-1479
音樂	-1480
era	-1481
ote	-1482
是一個	-1483
的传统	-1484
▁add	-1485
▁med	-1486
▁dist	-1487
▁them	-1488
▁trave	-1489
▁follow	-1490
▁learning	-1491
51	-1492
件事	-1493
是我的	-1494
olog	-1495
▁我希望	-1496
clock	-1497
▁cons	-1498
▁near	-1499
▁place	-1500
▁window	-1501
▁meeting	-1502
▁山	-1503
拥有	-1504
电脑	-1505
美國	-1506
ons	-1507
▁你要	-1508
aven	-1509
▁din	-1510
▁equ	-1511
▁dark	-1512
▁desk	-1513
▁news	-1514
▁lives	-1515
十分	-1516
▁介绍	-1517
iver	-1518
▁ago	-1519
▁bag	-1520
cause	-1521
▁told	-1522
▁grand	-1523
ff	-1524
关系	-1525
去上	-1526
多个	-1527
好了	-1528
字形	-1529
覺得	-1530
谢谢	-1531
oke	-1532
很高兴	-1533
tory	-1534
字符都有	-1535
▁When	-1536
▁char	-1537
独立的含义	-1538
每个字符都有	-1539
▁apples	-1540
▁another	-1541
每个字符都有独立的含义	-1542
▁interesting	-1543
但是	-1544
桌子	-1545
▁Ken	-1546
▁gre	-1547
▁tri	-1548
▁Have	-1549
▁eight	-1550
52	-1551
61	-1552
午饭	-1553
古语	-1554
是誰	-1555
的字	-1556
还是	-1557
那裡	-1558
get	-1559
▁An	-1560
▁bet	-1561
▁dep	-1562
▁pay	-1563
▁pop	-1564
▁sub	-1565
▁thr	-1566
▁flowers	-1567
io	-1568
▁因	-1569
一些	-1570
实践	-1571
苹果	-1572
运动	-1573
▁high	-1574
▁Would	-1575
▁begin	-1576
▁evening	-1577
mb	-1578
▁R	-1579
▁要	-1580
旅行	-1581
瑪麗	-1582
附近	-1583
電視	-1584
▁他不	-1585
▁学生	-1586
▁日本	-1587
▁那个	-1588
ched	-1589
oking	-1590
▁less	-1591
▁smart	-1592
▁dinner	-1593
▁believe	-1594
▁history	-1595
▁working	-1596
▁“	-1597
助词	-1598
000	-1599
ple	-1600
得很好	-1601
augh	-1602
▁Did	-1603
▁exc	-1604
▁ide	-1605
▁stand	-1606
▁forget	-1607
▁longer	-1608
▁spring	-1609
好嗎	-1610
房间	-1611
的話	-1612
直接	-1613
▁Why	-1614
▁full	-1615
▁broke	-1616
▁uncle	-1617
▁wants	-1618
▁coming	-1619
▁watching	-1620
声词	-1621
消息	-1622
特性	-1623
起床	-1624
▁他把	-1625
千年的	-1626
象声词	-1627
▁own	-1628
▁我要去	-1629
▁done	-1630
▁exam	-1631
ousand	-1632
▁those	-1633
▁person	-1634
▁because	-1635
▁好	-1636
▁花	-1637
传承	-1638
准确	-1639
吃了	-1640
火車	-1641
盖了	-1642
網球	-1643
食物	-1644
▁这朵	-1645
ince	-1646
rect	-1647
▁我昨天	-1648
▁comm	-1649
▁clean	-1650
▁usually	-1651
gg	-1652
叔叔	-1653
觉得	-1654
说话	-1655
iet	-1656
orn	-1657
▁pa	-1658
▁sy	-1659
▁我能	-1660
orts	-1661
▁fun	-1662
▁reg	-1663
▁also	-1664
▁goes	-1665
▁hope	-1666
▁oper	-1667
iction	-1668
▁short	-1669
▁wrote	-1670
▁enough	-1671
▁others	-1672
))	-1673
8。	-1674
▁再	-1675
▁肯	-1676
一样	-1677
工具	-1678
最近	-1679
用词	-1680
那么	-1681
joy	-1682
▁sol	-1683
ention	-1684
▁camera	-1685
▁through	-1686
买了	-1687
彝文的	-1688
▁abs	-1689
anger	-1690
▁bank	-1691
▁alone	-1692
▁travel	-1693
▁5	-1694
人民	-1695
在彝	-1696
每一	-1697
和准确	-1698
在彝汉	-1699
实践中	-1700
的字是	-1701
▁May	-1702
▁hum	-1703
▁我想要	-1704
文字之一	-1705
是最直接	-1706
表意特性	-1707
需要注意	-1708
aught	-1709
erica	-1710
▁bicy	-1711
在彝汉翻译	-1712
对应的字是	-1713
的彝文表达	-1714
的彝文翻译是	-1715
彝文的表意特性	-1716
是最直接和准确	-1717
▁arrived	-1718
在彝汉翻译实践中	-1719
需要注意彝文的表意特性	-1720
是最直接和准确的彝文表达	-1721
仅是	-1722
去年	-1723
叠加	-1724
aren	-1725
ience	-1726
▁pian	-1727
▁same	-1728
▁hours	-1729
古老的文字之一	-1730
▁thousand	-1731
62	-1732
7。	-1733
▁只	-1734
▁猫	-1735
出去	-1736
完全	-1737
电视	-1738
自行	-1739
ash	-1740
man	-1741
语言的	-1742
onom	-1743
▁art	-1744
▁sim	-1745
▁这本书	-1746
▁enjoy	-1747
▁popul	-1748
▁their	-1749
▁office	-1750
▁airport	-1751
明白	-1752
答案	-1753
old	-1754
ared	-1755
▁rad	-1756
▁我们在	-1757
民族之一	-1758
▁fail	-1759
翻译成彝文	-1760
▁truth	-1761
▁learned	-1762
44	-1763
上有	-1764
也不	-1765
占有	-1766
和你	-1767
完整	-1768
层面	-1769
春天	-1770
遗产	-1771
ove	-1772
▁汤姆	-1773
▁沒有	-1774
ward	-1775
▁ret	-1776
的文化遗产	-1777
▁bicycle	-1778
▁married	-1779
上的	-1780
仍在	-1781
作为	-1782
同意	-1783
所以	-1784
父母	-1785
爸爸	-1786
通常	-1787
都是	-1788
ger	-1789
ret	-1790
▁10	-1791
reet	-1792
▁box	-1793
仍在使用	-1794
数千年的	-1795
▁anim	-1796
仍在使用的最	-1797
ossible	-1798
▁change	-1799
古老的民族之一	-1800
▁japanese	-1801
世界上仍在使用的最	-1802
世界上仍在使用的最古老的文字之一	-1803
be	-1804
▁对	-1805
小時	-1806
数词	-1807
是个	-1808
是個	-1809
更是	-1810
這麼	-1811
▁No	-1812
▁他們	-1813
中占有	-1814
涵盖了	-1815
看起來	-1816
等多个	-1817
ries	-1818
▁ind	-1819
▁rep	-1820
▁wom	-1821
中的地位	-1822
重要地位	-1823
arket	-1824
▁Good	-1825
▁Your	-1826
▁clim	-1827
▁doll	-1828
▁drop	-1829
体系中占有	-1830
涵盖了自然	-1831
等多个层面	-1832
person	-1833
▁words	-1834
彝族文字体系	-1835
▁heaven	-1836
精神等多个层面	-1837
▁diction	-1838
彝族文字体系完整	-1839
▁studying	-1840
体系中占有重要地位	-1841
在彝族文化中的地位	-1842
▁dictionary	-1843
在彝族文化体系中占有重要地位	-1844
▁它	-1845
唱歌	-1846
部电影	-1847
▁sat	-1848
cient	-1849
▁John	-1850
▁game	-1851
▁listen	-1852
▁street	-1853
▁correct	-1854
9。	-1855
QS	-1856
ax	-1857
今晚	-1858
回來	-1859
忘了	-1860
我很	-1861
灿烂	-1862
这儿	-1863
QSM	-1864
lic	-1865
▁In	-1866
彝族人民	-1867
▁rich	-1868
▁running	-1869
▁writing	-1870
▁happened	-1871
▁8	-1872
▁中	-1873
之前	-1874
人名	-1875
会儿	-1876
的载	-1877
和历史	-1878
的载体	-1879
▁rel	-1880
不仅仅是	-1881
中的一个	-1882
什么时候	-1883
arden	-1884
brary	-1885
▁mine	-1886
▁sick	-1887
▁then	-1888
▁glass	-1889
▁horse	-1890
▁makes	-1891
▁teleph	-1892
▁library	-1893
▁present	-1894
▁Japanese	-1895
66	-1896
▁對	-1897
人的	-1898
内涵	-1899
承载	-1900
突然	-1901
給你	-1902
承载着	-1903
的意义	-1904
....	-1905
road	-1906
▁swe	-1907
都承载着	-1908
aster	-1909
icket	-1910
rious	-1911
▁gone	-1912
▁nice	-1913
了彝族人民	-1914
的传统文化	-1915
的文化内涵	-1916
▁garden	-1917
▁ticket	-1918
▁changed	-1919
▁minutes	-1920
▁tonight	-1921
▁谁	-1922
事故	-1923
会说	-1924
小时	-1925
川黔	-1926
意为	-1927
数学	-1928
深厚	-1929
▁他有	-1930
▁现在	-1931
川黔贵	-1932
ceed	-1933
▁bas	-1934
彝文作为	-1935
拥有灿烂	-1936
滇川黔贵	-1937
▁sure	-1938
▁介绍彝文	-1939
彝族是中国	-1940
智慧和历史	-1941
▁Every	-1942
都承载着深厚	-1943
osition	-1944
每一个彝文字符	-1945
记录了彝族人民	-1946
滇川黔贵通用彝文	-1947
拥有灿烂的文化遗产	-1948
数千年的智慧和历史	-1949
都承载着深厚的文化内涵	-1950
彝族是中国古老的民族之一	-1951
记录了彝族人民数千年的智慧和历史	-1952
常常	-1953
帽子	-1954
年轻	-1955
點鐘	-1956
▁19	-1957
了他的	-1958
其含义	-1959
在哪裡	-1960
ancy	-1961
most	-1962
传承民族	-1963
其含义为	-1964
重要字符	-1965
▁milk	-1966
▁wife	-1967
▁我不喜欢	-1968
智慧的载体	-1969
记录语言的	-1970
▁lived	-1971
▁since	-1972
文字不仅仅是	-1973
更是传承民族	-1974
的传统文化中	-1975
▁saying	-1976
记录语言的工具	-1977
▁talking	-1978
中的一个重要字符	-1979
在彝族的传统文化中	-1980
是滇川黔贵通用彝文	-1981
更是传承民族智慧的载体	-1982
文字不仅仅是记录语言的工具	-1983
)、	-1984
去哪	-1985
妹妹	-1986
封信	-1987
纠缠	-1988
老师	-1989
认识	-1990
ial	-1991
▁ken	-1992
▁mac	-1993
▁set	-1994
▁idea	-1995
▁piano	-1996
哥哥	-1997
完了	-1998
老師	-1999
警察	-2000
醫生	-2001
▁Am	-2002
▁im	-2003
做什麼	-2004
在彝文	-2005
很快就	-2006
计算机	-2007
hine	-2008
ious	-2009
side	-2010
▁aut	-2011
▁cap	-2012
▁son	-2013
▁你喜欢	-2014
在彝文中	-2015
illed	-2016
▁able	-2017
arents	-2018
▁medic	-2019
▁explain	-2020
▁watched	-2021
55	-2022
ai	-2023
ys	-2024
▁别	-2025
▁比	-2026
二十	-2027
字面	-2028
散步	-2029
是不	-2030
的一	-2031
背景	-2032
时不仅	-2033
ason	-2034
ense	-2035
▁act	-2036
字面意思	-2037
怎么表达	-2038
文化背景	-2039
还要考虑	-2040
ision	-2041
▁hair	-2042
翻译时不仅	-2043
▁quite	-2044
在彝文中写作	-2045
▁danger	-2046
▁hungry	-2047
要考虑字面意思	-2048
▁surface	-2049
▁彝文中怎么表达	-2050
还要考虑文化背景	-2051
▁medicine	-2052
翻译时不仅要考虑字面意思	-2053
;.	-2054
。”	-2055
了那	-2056
作业	-2057
保持	-2058
公車	-2059
和我	-2060
比我	-2061
的是	-2062
跟我	-2063
電影	-2064
irt	-2065
oto	-2066
uss	-2067
▁你很	-2068
语气词	-2069
▁你知道	-2070
▁base	-2071
▁今天天气	-2072
▁build	-2073
▁radio	-2074
▁shoes	-2075
▁yours	-2076
▁abroad	-2077
▁across	-2078
▁called	-2079
▁wonder	-2080
▁smoking	-2081
▁business	-2082
▁swimming	-2083
▁火	-2084
▁生	-2085
来的	-2086
osp	-2087
叠加态	-2088
▁gen	-2089
▁mom	-2090
▁suc	-2091
ature	-2092
▁Mary	-2093
▁clot	-2094
▁leav	-2095
▁moon	-2096
▁cloud	-2097
▁succeed	-2098
▁󲊂	-2099
兄弟	-2100
决定	-2101
到他	-2102
幸福	-2103
死了	-2104
派對	-2105
牛奶	-2106
舒服	-2107
說話	-2108
fer	-2109
cend	-2110
cept	-2111
ided	-2112
rees	-2113
stem	-2114
▁dire	-2115
▁trad	-2116
▁seems	-2117
▁almost	-2118
▁caught	-2119
▁really	-2120
▁location	-2121
ib	-2122
its	-2123
▁cup	-2124
feren	-2125
▁each	-2126
▁mary	-2127
▁resp	-2128
ensive	-2129
▁along	-2130
▁inter	-2131
▁sunday	-2132
▁parents	-2133
▁questions	-2134
值得	-2135
公司	-2136
您的	-2137
每個	-2138
的话	-2139
計劃	-2140
▁火车	-2141
▁All	-2142
▁ate	-2143
▁我喜歡	-2144
quare	-2145
▁slow	-2146
▁green	-2147
▁univer	-2148
▁raining	-2149
▁很	-2150
无法	-2151
离开	-2152
erc	-2153
▁3,	-2154
▁ox	-2155
▁可以	-2156
▁我对	-2157
的意思	-2158
ific	-2159
▁1、(	-2160
▁law	-2161
▁unt	-2162
▁both	-2163
▁hosp	-2164
▁seven	-2165
▁hospital	-2166
▁telephone	-2167
一杯	-2168
出生	-2169
勇敢	-2170
去看	-2171
幫我	-2172
弟弟	-2173
早餐	-2174
智能	-2175
理解	-2176
約翰	-2177
美国	-2178
足球	-2179
離開	-2180
ces	-2181
▁ed	-2182
▁我對	-2183
在這裡	-2184
所有的	-2185
打網球	-2186
这本书	-2187
ween	-2188
▁sad	-2189
▁agree	-2190
▁began	-2191
▁birth	-2192
▁sports	-2193
▁everything	-2194
12	-2195
70	-2196
▁发	-2197
不同	-2198
比特	-2199
▁tv	-2200
▁你好	-2201
▁我從	-2202
form	-2203
▁fav	-2204
▁its	-2205
▁conc	-2206
▁line	-2207
▁worth	-2208
▁別	-2209
学了	-2210
帮助	-2211
放在	-2212
母親	-2213
照片	-2214
网球	-2215
▁請你	-2216
告訴我	-2217
▁你最好	-2218
ouble	-2219
place	-2220
▁born	-2221
▁chair	-2222
▁operate	-2223
▁baseball	-2224
▁tradition	-2225
65	-2226
来越	-2227
经常	-2228
▁If	-2229
不知道	-2230
越来越	-2231
enty	-2232
fect	-2233
▁Sun	-2234
▁tow	-2235
▁如果你	-2236
▁cult	-2237
▁john	-2238
▁bring	-2239
▁catch	-2240
▁hotel	-2241
▁Sunday	-2242
▁rather	-2243
▁waiting	-2244
▁everyone	-2245
ny	-2246
他們	-2247
动物	-2248
改变	-2249
棒球	-2250
發現	-2251
看到	-2252
蘋果	-2253
这条	-2254
ural	-2255
▁hat	-2256
▁ste	-2257
affic	-2258
▁cake	-2259
▁shop	-2260
▁black	-2261
▁quiet	-2262
▁system	-2263
▁walked	-2264
▁machine	-2265
▁mistake	-2266
▁traffic	-2267
▁direction	-2268
▁expensive	-2269
11	-2270
▁多	-2271
便宜	-2272
出了	-2273
姐姐	-2274
科学	-2275
蛋糕	-2276
▁ap	-2277
告诉我	-2278
有什么	-2279
ival	-2280
oint	-2281
outh	-2282
▁hon	-2283
inion	-2284
▁Will	-2285
▁case	-2286
▁dogs	-2287
▁head	-2288
▁rice	-2289
▁climb	-2290
▁haven	-2291
▁taking	-2292
▁building	-2293
du	-2294
▁从	-2295
兩個	-2296
太阳	-2297
好的	-2298
收音	-2299
東京	-2300
永遠	-2301
走路	-2302
银行	-2303
開車	-2304
ors	-2305
▁我听	-2306
▁这些	-2307
了一个	-2308
我們的	-2309
yoto	-2310
▁pat	-2311
▁yen	-2312
ating	-2313
▁numb	-2314
▁succ	-2315
▁exerc	-2316
▁visit	-2317
▁charac	-2318
▁eating	-2319
▁myself	-2320
lt	-2321
▁三	-2322
▁哪	-2323
▁放	-2324
▁能	-2325
帮我	-2326
打算	-2327
第二	-2328
can	-2329
eye	-2330
umn	-2331
yes	-2332
▁Ne	-2333
come	-2334
▁ent	-2335
▁为什么	-2336
▁blue	-2337
▁coll	-2338
▁tree	-2339
▁close	-2340
▁human	-2341
▁opinion	-2342
▁下	-2343
▁前	-2344
▁快	-2345
▁當	-2346
來說	-2347
倫敦	-2348
安全	-2349
年了	-2350
强壮	-2351
我就	-2352
早饭	-2353
汽车	-2354
用的	-2355
ize	-2356
▁你會	-2357
▁太阳	-2358
▁瑪麗	-2359
自行车	-2360
▁bab	-2361
▁我们很	-2362
▁讓我們	-2363
▁cars	-2364
▁side	-2365
▁warm	-2366
▁elect	-2367
▁heart	-2368
▁equals	-2369
▁success	-2370
有趣	-2371
虽然	-2372
app	-2373
erg	-2374
▁ca	-2375
▁ob	-2376
▁早上	-2377
做什么	-2378
ured	-2379
▁She	-2380
▁num	-2381
▁他喜欢	-2382
);3、(	-2383
▁math	-2384
▁song	-2385
▁thir	-2386
▁angry	-2387
▁point	-2388
▁partic	-2389
▁between	-2390
▁healthy	-2391
▁differen	-2392
64	-2393
cy	-2394
▁晚	-2395
一樣	-2396
下來	-2397
了這	-2398
交通	-2399
住了	-2400
和他	-2401
年前	-2402
总是	-2403
想吃	-2404
找到	-2405
美元	-2406
这么	-2407
還是	-2408
cil	-2409
lla	-2410
▁她很	-2411
ages	-2412
▁Our	-2413
▁我們在	-2414
▁我知道	-2415
什麼時候	-2416
▁baby	-2417
▁died	-2418
▁glad	-2419
▁salt	-2420
▁Could	-2421
▁apple	-2422
▁dress	-2423
▁knows	-2424
▁older	-2425
▁order	-2426
▁quick	-2427
▁flower	-2428
▁pencil	-2429
▁return	-2430
▁started	-2431
▁4	-2432
▁z	-2433
发生	-2434
机场	-2435
模型	-2436
鞋子	-2437
erv	-2438
new	-2439
▁kn	-2440
▁ru	-2441
cess	-2442
▁Bob	-2443
▁cry	-2444
▁sil	-2445
▁我需要	-2446
▁surp	-2447
▁until	-2448
▁london	-2449
▁clothes	-2450
▁computers	-2451
,(	-2452
▁但	-2453
上學	-2454
京都	-2455
你们	-2456
处理	-2457
天氣	-2458
學習	-2459
意外	-2460
成為	-2461
清楚	-2462
秋天	-2463
系统	-2464
認識	-2465
跳舞	-2466
llo	-2467
▁Mr	-2468
▁mr	-2469
▁你們	-2470
▁没有	-2471
▁這些	-2472
成英文	-2473
打電話	-2474
dred	-2475
land	-2476
ness	-2477
▁umb	-2478
grass	-2479
▁Jane	-2480
▁deep	-2481
▁prop	-2482
▁sent	-2483
object	-2484
▁tokyo	-2485
▁touch	-2486
▁trans	-2487
▁umbre	-2488
▁moment	-2489
▁seeing	-2490
▁support	-2491
▁birthday	-2492
▁interested	-2493
18	-2494
ko	-2495
▁说	-2496
可惜	-2497
感觉	-2498
ced	-2499
▁TV	-2500
vent	-2501
▁trip	-2502
▁French	-2503
▁french	-2504
▁number	-2505
▁speaks	-2506
▁himself	-2507
▁umbrella	-2508
▁祝	-2509
两个	-2510
价格	-2511
我不	-2512
決定	-2513
跟你	-2514
車站	-2515
里的	-2516
ton	-2517
udd	-2518
▁夏天	-2519
一会儿	-2520
的東西	-2521
:1、(	-2522
ledge	-2523
▁bill	-2524
▁felt	-2525
▁wood	-2526
▁woman	-2527
▁London	-2528
▁famous	-2529
▁dollars	-2530
▁叫	-2531
▁看	-2532
▁雨	-2533
也许	-2534
有多	-2535
聊天	-2536
记得	-2537
ime	-2538
▁她在	-2539
▁春天	-2540
gest	-2541
▁bit	-2542
ology	-2543
▁cost	-2544
▁fest	-2545
▁nine	-2546
▁wall	-2547
▁writ	-2548
father	-2549
▁Tokyo	-2550
▁hands	-2551
▁paper	-2552
▁address	-2553
▁driving	-2554
▁hundred	-2555
ze	-2556
▁,	-2557
▁珍	-2558
▁过	-2559
不如	-2560
为了	-2561
動物	-2562
參加	-2563
国家	-2564
國家	-2565
小孩	-2566
幾乎	-2567
方法	-2568
日元	-2569
是谁	-2570
相機	-2571
睡覺	-2572
許多	-2573
鋼琴	-2574
高兴	-2575
1、(	-2576
▁Ch	-2577
▁St	-2578
▁我用	-2579
▁有人	-2580
的地方	-2581
fort	-2582
▁他们很	-2583
▁我不能	-2584
▁cats	-2585
▁town	-2586
▁你為什麼	-2587
▁speed	-2588
▁翻译成英文	-2589
▁autumn	-2590
▁played	-2591
▁superm	-2592
▁company	-2593
▁foreign	-2594
▁supermarket	-2595
54	-2596
ee	-2597
oe	-2598
sh	-2599
▁狗	-2600
不好	-2601
之间	-2602
伦敦	-2603
哪里	-2604
坐在	-2605
声音	-2606
巴黎	-2607
新的	-2608
生日	-2609
知识	-2610
认为	-2611
跑得	-2612
身体	-2613
车站	-2614
ari	-2615
dge	-2616
在这里	-2617
less	-2618
osed	-2619
heart	-2620
ility	-2621
▁They	-2622
▁pret	-2623
▁drank	-2624
▁white	-2625
▁advice	-2626
▁depend	-2627
▁honest	-2628
▁decided	-2629
▁exercise	-2630
15	-2631
ug	-2632
事情	-2633
去過	-2634
多了	-2635
年輕	-2636
椅子	-2637
解释	-2638
讓我	-2639
這些	-2640
這樣	-2641
那個	-2642
怎么说	-2643
是你的	-2644
最大的	-2645
here	-2646
ised	-2647
rive	-2648
▁age	-2649
▁fly	-2650
▁pur	-2651
▁sus	-2652
▁bath	-2653
▁wool	-2654
▁我不喜歡	-2655
▁brave	-2656
▁later	-2657
▁novel	-2658
▁couldn	-2659
▁discuss	-2660
▁traditional	-2661
▁安	-2662
不到	-2663
女人	-2664
忘记	-2665
提供	-2666
植物	-2667
要去	-2668
eth	-2669
oup	-2670
▁动词	-2671
rise	-2672
wood	-2673
▁men	-2674
▁pie	-2675
▁fact	-2676
▁hold	-2677
▁lend	-2678
▁luck	-2679
▁pick	-2680
▁temp	-2681
▁wear	-2682
▁store	-2683
▁second	-2684
▁festival	-2685
ef	-2686
▁7	-2687
▁空	-2688
▁马	-2689
他们	-2690
他是	-2691
公室	-2692
幫助	-2693
来说	-2694
测量	-2695
超市	-2696
重字	-2697
aur	-2698
chn	-2699
▁那個	-2700
打电话	-2701
漂亮的	-2702
說英語	-2703
ains	-2704
hind	-2705
ones	-2706
rist	-2707
▁adm	-2708
▁vac	-2709
asure	-2710
▁card	-2711
▁jack	-2712
▁seat	-2713
▁suit	-2714
▁grass	-2715
▁laugh	-2716
▁sweet	-2717
▁behind	-2718
▁intell	-2719
▁pictures	-2720
90	-2721
eb	-2722
ji	-2723
▁q	-2724
▁十	-2725
▁月	-2726
东京	-2727
兴趣	-2728
准备	-2729
妈妈	-2730
;3、	-2731
hen	-2732
▁中国	-2733
▁冬天	-2734
▁明天	-2735
▁我有一	-2736
▁face	-2737
▁grow	-2738
▁noon	-2739
▁check	-2740
▁clear	-2741
▁having	-2742
▁brought	-2743
▁trouble	-2744
▁grandfather	-2745
1.	-2746
21	-2747
▁走	-2748
主意	-2749
來了	-2750
善良	-2751
大利	-2752
很大	-2753
很忙	-2754
得到	-2755
忘記	-2756
感冒	-2757
法语	-2758
灵活	-2759
第一	-2760
uan	-2761
▁50	-2762
▁As	-2763
▁約翰	-2764
hand	-2765
▁fif	-2766
▁mem	-2767
▁你今天	-2768
▁我想去	-2769
▁我覺得	-2770
這個問題	-2771
horse	-2772
▁eyes	-2773
▁prom	-2774
▁runs	-2775
▁tast	-2776
atever	-2777
gether	-2778
▁known	-2779
▁techn	-2780
▁whole	-2781
ancient	-2782
position	-2783
▁serious	-2784
▁thought	-2785
▁mistakes	-2786
▁together	-2787
▁knowledge	-2788
25	-2789
74	-2790
▁无	-2791
书馆	-2792
五十	-2793
我都	-2794
服务	-2795
考试	-2796
而且	-2797
葡萄	-2798
部分	-2799
ada	-2800
amp	-2801
图书馆	-2802
最好的	-2803
amed	-2804
cket	-2805
fire	-2806
used	-2807
▁dry	-2808
▁flo	-2809
▁ill	-2810
▁mid	-2811
的意思是	-2812
▁gray	-2813
▁half	-2814
▁birds	-2815
▁gener	-2816
▁hurry	-2817
▁comple	-2818
22	-2819
▁吉	-2820
上去	-2821
下了	-2822
丰富	-2823
似乎	-2824
体育	-2825
在那	-2826
好像	-2827
小心	-2828
就要	-2829
很远	-2830
很难	-2831
怎樣	-2832
接受	-2833
有空	-2834
無論	-2835
见过	-2836
認為	-2837
计划	-2838
飞机	-2839
hem	-2840
ilt	-2841
ont	-2842
ric	-2843
▁因为	-2844
▁我找	-2845
▁这里	-2846
▁這條	-2847
下雨了	-2848
为彝文	-2849
我们的	-2850
最喜歡	-2851
有多少	-2852
,000	-2853
ache	-2854
ames	-2855
jing	-2856
▁她喜欢	-2857
▁我們的	-2858
▁這本書	-2859
▁conf	-2860
▁fell	-2861
▁fool	-2862
▁poor	-2863
erican	-2864
▁翻译为彝文	-2865
▁became	-2866
▁expect	-2867
▁living	-2868
▁looked	-2869
▁wanted	-2870
▁animals	-2871
erposition	-2872
13	-2873
nt	-2874
▁9	-2875
▁U	-2876
▁当	-2877
▁打	-2878
▁没	-2879
下一	-2880
医院	-2881
可爱	-2882
妻子	-2883
开车	-2884
折磨	-2885
方式	-2886
机器	-2887
比赛	-2888
确定	-2889
mon	-2890
▁你会	-2891
工智能	-2892
ergy	-2893
room	-2894
▁tax	-2895
orite	-2896
▁Some	-2897
▁heav	-2898
▁lake	-2899
ations	-2900
▁shall	-2901
▁smoke	-2902
▁become	-2903
▁against	-2904
▁favorite	-2905
▁intellig	-2906
▁possible	-2907
▁dangerous	-2908
23	-2909
▁從	-2910
▁最	-2911
▁誰	-2912
個月	-2913
口袋	-2914
吃饭	-2915
字典	-2916
巴士	-2917
我是	-2918
滿了	-2919
节日	-2920
许多	-2921
過了	-2922
開心	-2923
cow	-2924
ins	-2925
str	-2926
une	-2927
▁em	-2928
▁谢谢	-2929
一起去	-2930
不是嗎	-2931
aken	-2932
▁mag	-2933
▁我昨晚	-2934
▁我現在	-2935
uring	-2936
▁jane	-2937
▁kept	-2938
▁past	-2939
▁till	-2940
aurant	-2941
vision	-2942
▁These	-2943
▁ready	-2944
▁sound	-2945
▁prefer	-2946
▁taller	-2947
▁america	-2948
▁capital	-2949
▁popular	-2950
▁strange	-2951
▁restaurant	-2952
▁television	-2953
17	-2954
by	-2955
co	-2956
li	-2957
▁去	-2958
一种	-2959
北京	-2960
去过	-2961
回来	-2962
因为	-2963
宇宙	-2964
ech	-2965
▁我从	-2966
ived	-2967
sity	-2968
▁sea	-2969
lcome	-2970
▁fine	-2971
▁guit	-2972
▁comput	-2973
▁energy	-2974
▁faster	-2975
▁making	-2976
▁movies	-2977
14	-2978
▁半	-2979
▁等	-2980
▁鸟	-2981
不了	-2982
唠叨	-2983
喝了	-2984
在這	-2985
家都	-2986
想法	-2987
抱歉	-2988
會議	-2989
法語	-2990
生病	-2991
的書	-2992
相对	-2993
真相	-2994
col	-2995
ipe	-2996
ned	-2997
▁地球	-2998
▁请用	-2999
形容词	-3000
很重要	-3001
看電視	-3002
見到你	-3003
omed	-3004
▁bei	-3005
▁對不起	-3006
▁我已經	-3007
gland	-3008
udden	-3009
▁rece	-3010
▁send	-3011
▁team	-3012
▁sight	-3013
▁belong	-3014
▁reason	-3015
▁secret	-3016
▁stayed	-3017
▁beijing	-3018
▁culture	-3019
▁feeling	-3020
▁largest	-3021
▁visited	-3022
▁walking	-3023
▁vacation	-3024
ao	-3025
dd	-3026
▁今	-3027
▁做	-3028
▁教	-3029
修理	-3030
地址	-3031
子的	-3032
安静	-3033
害怕	-3034
技术	-3035
有人	-3036
父亲	-3037
裙子	-3038
诚实	-3039
读书	-3040
跑步	-3041
ken	-3042
med	-3043
▁ce	-3044
▁ec	-3045
在一起	-3046
;3、(	-3047
▁egg	-3048
▁ski	-3049
drive	-3050
▁race	-3051
▁Thank	-3052
▁stone	-3053
▁finish	-3054
▁guitar	-3055
▁passed	-3056
▁speech	-3057
▁thirst	-3058
▁science	-3059
▁complain	-3060
▁speaking	-3061
▁whatever	-3062
75	-3063
伤口	-3064
发现	-3065
只是	-3066
失败	-3067
得了	-3068
想去	-3069
感覺	-3070
成了	-3071
才能	-3072
掉了	-3073
是在	-3074
比賽	-3075
毕摩	-3076
準備	-3077
米饭	-3078
给你	-3079
肯定	-3080
見過	-3081
起了	-3082
辆车	-3083
风箱	-3084
;).	-3085
ata	-3086
bit	-3087
▁請把	-3088
說的話	-3089
ccer	-3090
gram	-3091
ized	-3092
oose	-3093
rowd	-3094
▁bot	-3095
▁我买了	-3096
▁我忘了	-3097
▁prov	-3098
▁says	-3099
▁star	-3100
▁wrap	-3101
▁Which	-3102
▁noise	-3103
ination	-3104
▁accept	-3105
▁excuse	-3106
▁pretty	-3107
▁stopped	-3108
▁subject	-3109
▁younger	-3110
16	-3111
hy	-3112
▁和	-3113
▁牛	-3114
下雪	-3115
吉他	-3116
同时	-3117
味道	-3118
更多	-3119
状态	-3120
砂锅	-3121
缀词	-3122
词头	-3123
通过	-3124
rit	-3125
ual	-3126
▁gi	-3127
head	-3128
nect	-3129
▁QSM	-3130
▁bob	-3131
▁det	-3132
▁edu	-3133
▁eye	-3134
▁inc	-3135
▁kil	-3136
▁opp	-3137
hemat	-3138
▁club	-3139
▁dead	-3140
▁foot	-3141
▁test	-3142
▁vill	-3143
though	-3144
▁Nancy	-3145
▁mouth	-3146
▁plays	-3147
▁takes	-3148
▁attend	-3149
▁bridge	-3150
▁harder	-3151
▁leaves	-3152
▁twenty	-3153
▁someone	-3154
▁surpris	-3155
▁different	-3156
▁superposition	-3157
24	-3158
26	-3159
▁书	-3160
不多	-3161
主要	-3162
云南	-3163
介意	-3164
危險	-3165
家人	-3166
對的	-3167
小說	-3168
想念	-3169
我也	-3170
担心	-3171
的书	-3172
祖父	-3173
箱子	-3174
累了	-3175
結婚	-3176
興趣	-3177
芋头	-3178
英國	-3179
解決	-3180
謝謝	-3181
除了	-3182
骄傲	-3183
麻煩	-3184
rap	-3185
▁下午	-3186
▁不好	-3187
▁你看	-3188
▁我没	-3189
▁请你	-3190
中文说	-3191
份工作	-3192
很容易	-3193
很聪明	-3194
怎麼樣	-3195
是真的	-3196
發生了	-3197
這本書	-3198
aged	-3199
imes	-3200
▁har	-3201
▁对不起	-3202
ained	-3203
▁danc	-3204
▁knew	-3205
▁supp	-3206
▁wine	-3207
square	-3208
▁above	-3209
▁crowd	-3210
▁plane	-3211
▁whose	-3212
▁easily	-3213
▁slowly	-3214
▁soccer	-3215
▁forward	-3216
▁problems	-3217
87	-3218
▁吸	-3219
出发	-3220
干净	-3221
方便	-3222
行动	-3223
连接	-3224
coh	-3225
ket	-3226
ral	-3227
sky	-3228
uit	-3229
▁ty	-3230
一个人	-3231
很有趣	-3232
迟到了	-3233
lier	-3234
oken	-3235
olut	-3236
ored	-3237
ower	-3238
▁New	-3239
▁eng	-3240
▁leg	-3241
▁lie	-3242
▁ple	-3243
▁我每天	-3244
人名用词	-3245
语气助词	-3246
cohol	-3247
▁meat	-3248
▁sign	-3249
▁cross	-3250
▁death	-3251
▁请用中文说	-3252
▁arrive	-3253
▁during	-3254
▁inform	-3255
▁staying	-3256
▁whether	-3257
▁sleeping	-3258
▁countries	-3259
▁education	-3260
▁everybody	-3261
▁languages	-3262
▁sometimes	-3263
85	-3264
ec	-3265
▁吃	-3266
▁鮑	-3267
下来	-3268
保护	-3269
儿子	-3270
兒子	-3271
公交	-3272
公園	-3273
到達	-3274
加拿	-3275
地球	-3276
姐妹	-3277
建议	-3278
成的	-3279
星星	-3280
更好	-3281
期待	-3282
眼睛	-3283
研究	-3284
结果	-3285
给了	-3286
習慣	-3287
聽到	-3288
跑了	-3289
重叠	-3290
錯誤	-3291
飛機	-3292
iew	-3293
▁Sh	-3294
▁我一	-3295
▁虽然	-3296
▁这条	-3297
不可能	-3298
也沒有	-3299
星期天	-3300
hood	-3301
ping	-3302
rove	-3303
ully	-3304
▁(1、	-3305
▁aff	-3306
▁cal	-3307
▁nat	-3308
▁你必须	-3309
▁我不想	-3310
▁我们的	-3311
▁我無法	-3312
重叠词缀	-3313
velop	-3314
▁boat	-3315
▁data	-3316
▁hurt	-3317
▁front	-3318
▁sense	-3319
▁basket	-3320
▁single	-3321
▁sudden	-3322
▁turned	-3323
▁worked	-3324
▁America	-3325
▁alcohol	-3326
▁studied	-3327
▁listened	-3328
▁listening	-3329
▁intelligence	-3330
43	-3331
69	-3332
99	-3333
▁6	-3334
▁泡	-3335
▁海	-3336
习惯	-3337
人类	-3338
大了	-3339
得多	-3340
必要	-3341
成为	-3342
我去	-3343
放弃	-3344
是用	-3345
核心	-3346
螳螂	-3347
ush	-3348
▁晚上	-3349
叫什么	-3350
hair	-3351
ions	-3352
oice	-3353
resh	-3354
erman	-3355
▁Bill	-3356
▁pron	-3357
▁real	-3358
......	-3359
▁among	-3360
▁eaten	-3361
▁round	-3362
▁works	-3363
▁worry	-3364
ificial	-3365
▁grandm	-3366
▁result	-3367
hematics	-3368
▁earlier	-3369
▁quickly	-3370
▁although	-3371
bb	-3372
▁收	-3373
一名	-3374
但我	-3375
偷了	-3376
写了	-3377
几点	-3378
到老	-3379
参加	-3380
很冷	-3381
很難	-3382
愉快	-3383
晚飯	-3384
森林	-3385
浪费	-3386
滑雪	-3387
玛丽	-3388
说了	-3389
贵州	-3390
这样	-3391
週日	-3392
遲到	-3393
首歌	-3394
big	-3395
mas	-3396
omp	-3397
▁12	-3398
▁di	-3399
▁ve	-3400
▁昨晚	-3401
▁最近	-3402
▁無論	-3403
▁現在	-3404
一個人	-3405
多少钱	-3406
很美丽	-3407
收音機	-3408
有沒有	-3409
給了我	-3410
这条路	-3411
ever	-3412
olen	-3413
over	-3414
▁Jim	-3415
▁Yes	-3416
▁请给我	-3417
每個人都	-3418
甚麼時候	-3419
ented	-3420
fully	-3421
omach	-3422
▁cour	-3423
▁cute	-3424
▁expl	-3425
▁poet	-3426
▁daugh	-3427
▁twice	-3428
▁waste	-3429
ristmas	-3430
▁absent	-3431
▁appear	-3432
▁experi	-3433
▁months	-3434
▁player	-3435
▁stolen	-3436
▁enjoyed	-3437
▁program	-3438
▁village	-3439
▁written	-3440
▁thinking	-3441
▁surprised	-3442
▁technology	-3443
▁Q	-3444
▁家	-3445
▁让	-3446
三个	-3447
几乎	-3448
别人	-3449
原因	-3450
周日	-3451
坚持	-3452
惊讶	-3453
明的	-3454
的基	-3455
继续	-3456
肚子	-3457
鸡蛋	-3458
ade	-3459
gen	-3460
rib	-3461
▁cr	-3462
▁那是	-3463
是量子	-3464
比冬天	-3465
angh	-3466
▁cow	-3467
▁deg	-3468
▁die	-3469
▁ext	-3470
▁fut	-3471
ither	-3472
veral	-3473
where	-3474
▁Mike	-3475
▁taxi	-3476
anghai	-3477
▁built	-3478
▁pract	-3479
▁price	-3480
▁trees	-3481
▁spoken	-3482
▁states	-3483
▁fishing	-3484
▁perfect	-3485
▁several	-3486
80	-3487
bc	-3488
fa	-3489
▁就	-3490
▁道	-3491
他会	-3492
你了	-3493
凱特	-3494
功課	-3495
外面	-3496
奇怪	-3497
對我	-3498
得不	-3499
手錶	-3500
抱怨	-3501
数据	-3502
旁边	-3503
更快	-3504
比你	-3505
比較	-3506
立刻	-3507
紐約	-3508
约翰	-3509
見了	-3510
豆腐	-3511
遇到	-3512
都很	-3513
))'	-3514
ney	-3515
que	-3516
▁30	-3517
▁中文	-3518
▁他一	-3519
▁我家	-3520
▁每天	-3521
▁英語	-3522
了這個	-3523
hemp	-3524
ists	-3525
odel	-3526
ular	-3527
▁arm	-3528
▁maj	-3529
▁net	-3530
▁oil	-3531
▁top	-3532
▁他们在	-3533
▁我去了	-3534
▁我正在	-3535
▁我觉得	-3536
那个故事	-3537
▁gold	-3538
▁prin	-3539
▁wasn	-3540
▁york	-3541
escend	-3542
▁fresh	-3543
▁broken	-3544
▁future	-3545
▁comfort	-3546
▁connect	-3547
▁stomach	-3548
▁thirsty	-3549
▁electric	-3550
▁artificial	-3551
53	-3552
86	-3553
88	-3554
94	-3555
;。	-3556
da	-3557
▁自	-3558
▁长	-3559
其他	-3560
叶子	-3561
威胁	-3562
家庭	-3563
开了	-3564
开心	-3565
操作	-3566
矮小	-3567
纽约	-3568
路上	-3569
过了	-3570
高的	-3571
ape	-3572
▁ye	-3573
▁中午	-3574
▁他被	-3575
▁所有	-3576
erve	-3577
▁Ann	-3578
▁key	-3579
▁我没有	-3580
ables	-3581
▁Tell	-3582
▁eggs	-3583
▁gent	-3584
▁move	-3585
▁prot	-3586
▁不好意思	-3587
▁solve	-3588
▁conven	-3589
▁econom	-3590
▁trains	-3591
▁develop	-3592
▁respons	-3593
▁singing	-3594
▁welcome	-3595
▁shanghai	-3596
▁character	-3597
81	-3598
89	-3599
95	-3600
▁关	-3601
三十	-3602
作業	-3603
來的	-3604
利用	-3605
到底	-3606
唯一	-3607
啤酒	-3608
大学	-3609
左右	-3610
打開	-3611
昆明	-3612
正確	-3613
生气	-3614
生氣	-3615
讀書	-3616
駕駛	-3617
高興	-3618
bye	-3619
ief	-3620
isf	-3621
▁20	-3622
▁我该	-3623
▁我跟	-3624
▁祝你	-3625
▁老師	-3626
▁讓我	-3627
一定要	-3628
公交车	-3629
加拿大	-3630
去上班	-3631
把你的	-3632
有一個	-3633
第一次	-3634
见到你	-3635
atop	-3636
cial	-3637
ding	-3638
oeia	-3639
olid	-3640
▁del	-3641
▁par	-3642
▁你应该	-3643
▁你怎么	-3644
▁孩子们	-3645
▁火车比	-3646
▁請給我	-3647
了一本书	-3648
angle	-3649
iling	-3650
urope	-3651
▁Jack	-3652
▁boys	-3653
▁deal	-3654
▁draw	-3655
▁form	-3656
▁lock	-3657
▁rang	-3658
▁ship	-3659
▁sold	-3660
reated	-3661
▁Hello	-3662
▁chose	-3663
▁dance	-3664
▁girls	-3665
▁stamp	-3666
▁taken	-3667
▁meters	-3668
atopoeia	-3669
▁glasses	-3670
▁network	-3671
▁outside	-3672
▁protect	-3673
▁computing	-3674
▁impossible	-3675
▁grandmother	-3676
77	-3677
92	-3678
98	-3679
▁分	-3680
▁祭	-3681
▁越	-3682
▁雪	-3683
▁鱼	-3684
一位	-3685
佩服	-3686
发展	-3687
困难	-3688
坟墓	-3689
快乐	-3690
我会	-3691
水果	-3692
温暖	-3693
狮子	-3694
立即	-3695
这种	-3696
野生	-3697
钓鱼	-3698
随时	-3699
19。	-3700
▁cy	-3701
▁晚安	-3702
airs	-3703
▁env	-3704
▁ice	-3705
▁nor	-3706
▁这是一	-3707
mbers	-3708
▁Take	-3709
▁York	-3710
▁bear	-3711
▁beer	-3712
▁held	-3713
▁land	-3714
▁mike	-3715
▁wash	-3716
▁fruit	-3717
▁ought	-3718
▁stars	-3719
▁veget	-3720
▁begins	-3721
▁common	-3722
▁gentle	-3723
▁temper	-3724
▁members	-3725
▁complete	-3726
▁university	-3727
onomatopoeia	-3728
▁information	-3729
4、	-3730
96	-3731
?”	-3732
▁与	-3733
▁两	-3734
▁喝	-3735
▁学	-3736
▁布	-3737
▁明	-3738
▁由	-3739
▁盖	-3740
▁金	-3741
▁风	-3742
一切	-3743
傑克	-3744
古代	-3745
媽媽	-3746
寫信	-3747
就能	-3748
座山	-3749
建議	-3750
忍受	-3751
战争	-3752
收到	-3753
日语	-3754
曾經	-3755
液体	-3756
盒子	-3757
瞄准	-3758
艺术	-3759
英国	-3760
裡的	-3761
討論	-3762
讓他	-3763
車子	-3764
運動	-3765
邁克	-3766
都不	-3767
隻狗	-3768
顺利	-3769
332	-3770
aka	-3771
ior	-3772
omm	-3773
oub	-3774
▁但願	-3775
▁再见	-3776
▁只有	-3777
▁我和	-3778
▁我被	-3779
了一些	-3780
在这儿	-3781
彈鋼琴	-3782
新手机	-3783
是一个	-3784
是多少	-3785
的英語	-3786
orge	-3787
▁Not	-3788
▁ass	-3789
▁eff	-3790
▁hob	-3791
▁kit	-3792
▁我哥哥	-3793
▁我打算	-3794
▁我沒有	-3795
▁我相信	-3796
▁老师在	-3797
很快就會	-3798
▁Give	-3799
▁susp	-3800
休息一会儿	-3801
ustral	-3802
▁bread	-3803
▁heavy	-3804
▁least	-3805
▁magaz	-3806
▁smell	-3807
▁action	-3808
▁filled	-3809
▁killed	-3810
▁satisf	-3811
▁comfortable	-3812
05	-3813
72	-3814
;,	-3815
dc	-3816
me	-3817
▁出	-3818
▁即	-3819
▁尽	-3820
▁来	-3821
▁模	-3822
▁的	-3823
▁茶	-3824
▁门	-3825
中最	-3826
到达	-3827
十二	-3828
周围	-3829
娃娃	-3830
愿意	-3831
把节	-3832
污染	-3833
石头	-3834
要求	-3835
责任	-3836
ama	-3837
eng	-3838
ipp	-3839
ube	-3840
▁fa	-3841
彝语指	-3842
的名字	-3843
重要的	-3844
ants	-3845
ents	-3846
▁cur	-3847
▁ins	-3848
ately	-3849
icate	-3850
ities	-3851
▁ball	-3852
▁grad	-3853
▁post	-3854
▁redu	-3855
▁requ	-3856
ertain	-3857
oliday	-3858
▁blame	-3859
▁carry	-3860
▁fifty	-3861
▁rains	-3862
▁anyone	-3863
▁thirty	-3864
▁holiday	-3865
▁pronoun	-3866
▁midnight	-3867
▁convenient	-3868
,"	-3869
71	-3870
83	-3871
dy	-3872
na	-3873
▁光	-3874
▁每	-3875
▁真	-3876
。"	-3877
上班	-3878
不可	-3879
並不	-3880
为你	-3881
依靠	-3882
做完	-3883
做饭	-3884
凉爽	-3885
分鐘	-3886
去世	-3887
商店	-3888
地上	-3889
密斯	-3890
寒冷	-3891
年紀	-3892
很累	-3893
很美	-3894
我會	-3895
整天	-3896
早起	-3897
是由	-3898
桌上	-3899
歡迎	-3900
牲畜	-3901
疾病	-3902
看了	-3903
简单	-3904
給他	-3905
蔬菜	-3906
虐待	-3907
蜥蜴	-3908
见面	-3909
買了	-3910
距离	-3911
辛苦	-3912
那些	-3913
那里	-3914
里有	-3915
钥匙	-3916
错误	-3917
ety	-3918
gar	-3919
oin	-3920
unt	-3921
▁Pa	-3922
▁他從	-3923
▁他會	-3924
▁我還	-3925
▁猫比	-3926
▁警察	-3927
不喜欢	-3928
办公室	-3929
去上学	-3930
去哪裡	-3931
吃早饭	-3932
唠叨叨	-3933
很强壮	-3934
很高興	-3935
感兴趣	-3936
把我的	-3937
每天都	-3938
看起来	-3939
買了一	-3940
fall	-3941
ling	-3942
▁bat	-3943
▁col	-3944
▁tie	-3945
▁他昨天	-3946
▁你昨天	-3947
▁大家都	-3948
▁我不会	-3949
▁我吃了	-3950
▁我明天	-3951
▁我非常	-3952
▁用英文	-3953
唠唠叨叨	-3954
比冬天更	-3955
量子比特	-3956
ached	-3957
color	-3958
▁acqu	-3959
▁aunt	-3960
▁coat	-3961
▁gets	-3962
▁paid	-3963
▁pipe	-3964
▁sour	-3965
▁step	-3966
▁tong	-3967
▁他是我的	-3968
▁Kyoto	-3969
▁guess	-3970
▁kyoto	-3971
▁offer	-3972
▁spent	-3973
descend	-3974
▁animal	-3975
▁choose	-3976
▁dreams	-3977
▁forest	-3978
▁intern	-3979
▁orange	-3980
▁stream	-3981
ustralia	-3982
▁concert	-3983
▁washing	-3984
▁weekend	-3985
▁policeman	-3986
97	-3987
ba	-3988
▁史	-3989
▁心	-3990
▁白	-3991
▁种	-3992
▁背	-3993
▁菜	-3994
▁还	-3995
个月	-3996
了解	-3997
侍从	-3998
停止	-3999
幽默	-4000
庄稼	-4001
文件	-4002
渐渐	-4003
结婚	-4004
耳朵	-4005
能力	-4006
陶瓷	-4007
300	-4008
350	-4009
ets	-4010
▁On	-4011
▁名词	-4012
▁天空	-4013
▁秋天	-4014
是一种	-4015
白色的	-4016
ases	-4017
ines	-4018
ware	-4019
▁beh	-4020
▁ben	-4021
▁lay	-4022
这个问题	-4023
ental	-4024
ently	-4025
▁cool	-4026
▁hasn	-4027
▁ride	-4028
▁safe	-4029
▁cheap	-4030
▁model	-4031
▁borrow	-4032
▁corner	-4033
▁nobody	-4034
▁degrees	-4035
▁earthqu	-4036
▁excited	-4037
▁process	-4038
▁studies	-4039
▁shopping	-4040
▁mathematics	-4041
73	-4042
91	-4043
93	-4044
▁全	-4045
▁到	-4046
▁卡	-4047
▁挑	-4048
▁正	-4049
▁河	-4050
▁知	-4051
▁破	-4052
他會	-4053
你會	-4054
写字	-4055
副词	-4056
南希	-4057
博物	-4058
只有	-4059
噪音	-4060
困難	-4061
圖書	-4062
堵塞	-4063
外套	-4064
大學	-4065
对我	-4066
就会	-4067
幾個	-4068
康复	-4069
强调	-4070
换了	-4071
擅長	-4072
晚餐	-4073
根本	-4074
機場	-4075
流利	-4076
爷爷	-4077
环境	-4078
相机	-4079
禮物	-4080
窗戶	-4081
算了	-4082
粮食	-4083
网络	-4084
考試	-4085
花了	-4086
行李	-4087
裡有	-4088
要做	-4089
解决	-4090
語言	-4091
选了	-4092
鉛筆	-4093
铅笔	-4094
...	-4095
eum	-4096
iko	-4097
ues	-4098
urb	-4099
uri	-4100
▁1,	-4101
▁今晚	-4102
▁他说	-4103
▁你该	-4104
▁我读	-4105
▁比爾	-4106
▁這裏	-4107
▁那些	-4108
名用词	-4109
圖書館	-4110
打网球	-4111
的生活	-4112
的英文	-4113
ides	-4114
ighb	-4115
ying	-4116
▁inj	-4117
▁pub	-4118
▁zoo	-4119
▁你不能	-4120
▁你必須	-4121
▁我做了	-4122
▁我妹妹	-4123
▁我必須	-4124
▁我期待	-4125
▁我看见	-4126
▁我走了	-4127
▁早上好	-4128
▁昨天我	-4129
▁现在是	-4130
eorge	-4131
urday	-4132
▁area	-4133
▁cast	-4134
▁chat	-4135
▁golf	-4136
▁join	-4137
▁rise	-4138
▁save	-4139
▁airpl	-4140
▁apply	-4141
▁beach	-4142
▁floor	-4143
▁space	-4144
▁什么是量子	-4145
ibility	-4146
▁helped	-4147
▁memory	-4148
▁minute	-4149
▁museum	-4150
▁nature	-4151
▁neighb	-4152
▁phones	-4153
▁remind	-4154
▁tongue	-4155
▁yellow	-4156
▁cooking	-4157
▁leaving	-4158
▁natural	-4159
▁painted	-4160
▁attention	-4161
▁mountains	-4162
▁satisfied	-4163
63	-4164
76	-4165
79	-4166
aa	-4167
▁想	-4168
▁点	-4169
▁神	-4170
▁第	-4171
一百	-4172
会议	-4173
哪个	-4174
月琴	-4175
死亡	-4176
比那	-4177
洗澡	-4178
的首	-4179
移动	-4180
稍微	-4181
迷路	-4182
钢琴	-4183
鼻子	-4184
100	-4185
ery	-4186
▁sn	-4187
▁只要	-4188
感到很	-4189
比昨天	-4190
ract	-4191
▁ann	-4192
▁cir	-4193
▁cra	-4194
▁due	-4195
▁如果我	-4196
▁象声词	-4197
gress	-4198
point	-4199
▁Look	-4200
▁imag	-4201
▁pity	-4202
▁plus	-4203
▁ring	-4204
▁text	-4205
▁brown	-4206
▁needs	-4207
▁season	-4208
▁finally	-4209
▁shoulder	-4210
▁女	-4211
▁法	-4212
▁结	-4213
上学	-4214
上海	-4215
不想	-4216
不用	-4217
不錯	-4218
严重	-4219
他有	-4220
公里	-4221
出門	-4222
分钟	-4223
到我	-4224
勝過	-4225
午飯	-4226
受了	-4227
吸煙	-4228
咽喉	-4229
喝點	-4230
嬰兒	-4231
家支	-4232
彩虹	-4233
恐怕	-4234
意見	-4235
感谢	-4236
方面	-4237
旅館	-4238
日語	-4239
时态	-4240
是你	-4241
最后	-4242
有五	-4243
欢迎	-4244
汽車	-4245
派对	-4246
玉米	-4247
秘密	-4248
笑了	-4249
篱笆	-4250
肮脏	-4251
被子	-4252
道歉	-4253
那儿	-4254
錯了	-4255
電腦	-4256
饮食	-4257
高中	-4258
nic	-4259
ole	-4260
rew	-4261
▁Sm	-4262
▁Un	-4263
▁ev	-4264
▁半夜	-4265
▁城市	-4266
▁很多	-4267
▁我也	-4268
▁朋友	-4269
▁這本	-4270
了很多	-4271
什麼事	-4272
前缀词	-4273
去学校	-4274
可能會	-4275
吃午饭	-4276
多少錢	-4277
是一種	-4278
是彝族	-4279
的女孩	-4280
的朋友	-4281
的男人	-4282
看上去	-4283
种语言	-4284
case	-4285
urch	-4286
▁100	-4287
▁jim	-4288
▁ref	-4289
▁tig	-4290
▁他總是	-4291
▁你喜歡	-4292
▁你想要	-4293
▁我叔叔	-4294
▁我听了	-4295
▁我喝了	-4296
▁我来了	-4297
▁我用了	-4298
▁我看了	-4299
▁我给了	-4300
▁我说了	-4301
那部电影	-4302
class	-4303
▁Does	-4304
▁aren	-4305
▁inst	-4306
▁king	-4307
▁main	-4308
▁none	-4309
▁今天早上	-4310
▁形容词缀	-4311
了那部电影	-4312
ommend	-4313
▁hobby	-4314
▁keeps	-4315
▁neare	-4316
▁paris	-4317
▁sugar	-4318
▁tried	-4319
▁你什麼時候	-4320
▁apolog	-4321
▁clever	-4322
▁driver	-4323
▁princi	-4324
▁subway	-4325
▁account	-4326
▁acquain	-4327
▁climbed	-4328
▁patient	-4329
▁respect	-4330
▁shouldn	-4331
▁airplane	-4332
▁daughter	-4333
▁distance	-4334
▁recommend	-4335
▁population	-4336
((	-4337
78	-4338
db	-4339
my	-4340
▁听	-4341
▁回	-4342
▁抽	-4343
▁早	-4344
▁清	-4345
▁细	-4346
▁融	-4347
▁里	-4348
▁钱	-4349
▁香	-4350
万物	-4351
代表	-4352
你在	-4353
信息	-4354
儿语	-4355
分布	-4356
包括	-4357
取消	-4358
和平	-4359
好吗	-4360
意见	-4361
来自	-4362
物理	-4363
生意	-4364
疲倦	-4365
的大	-4366
的第	-4367
真是	-4368
足够	-4369
阳光	-4370
ses	-4371
▁es	-4372
▁fu	-4373
▁我叫	-4374
▁数学	-4375
▁爸爸	-4376
▁让我	-4377
完成了	-4378
ires	-4379
iron	-4380
pose	-4381
▁fro	-4382
▁hit	-4383
▁今天是	-4384
▁我想吃	-4385
anges	-4386
oming	-4387
rance	-4388
▁Come	-4389
▁burn	-4390
▁cond	-4391
▁dare	-4392
▁loss	-4393
▁prof	-4394
ompany	-4395
thread	-4396
▁allow	-4397
▁fight	-4398
▁knife	-4399
▁nancy	-4400
▁piece	-4401
▁power	-4402
▁trust	-4403
▁church	-4404
▁engine	-4405
▁master	-4406
▁monday	-4407
▁simple	-4408
▁square	-4409
▁useful	-4410
ironment	-4411
▁certain	-4412
▁purpose	-4413
▁indicate	-4414
▁practice	-4415
▁sentence	-4416
▁wherever	-4417
▁basketball	-4418
▁characters	-4419
▁environment	-4420
df	-4421
▁/	-4422
▁节	-4423
▁行	-4424
▁貝	-4425
乘以	-4426
仍然	-4427
作家	-4428
傣族	-4429
兴奋	-4430
加入	-4431
发音	-4432
在天	-4433
士山	-4434
导致	-4435
小声	-4436
幫忙	-4437
很少	-4438
手表	-4439
摆摆	-4440
摇摇	-4441
擔心	-4442
數學	-4443
法国	-4444
流行	-4445
爬山	-4446
狗更	-4447
理由	-4448
的地	-4449
礼物	-4450
祖母	-4451
组成	-4452
罢了	-4453
群众	-4454
輛車	-4455
那樣	-4456
都會	-4457
难过	-4458
餐厅	-4459
饱满	-4460
馬上	-4461
280	-4462
320	-4463
oof	-4464
unn	-4465
▁Af	-4466
▁吉姆	-4467
▁因為	-4468
▁我聽	-4469
▁美國	-4470
▁這張	-4471
來沒有	-4472
在哪裏	-4473
太多了	-4474
富士山	-4475
就是我	-4476
差不多	-4477
很可爱	-4478
很善良	-4479
打棒球	-4480
是不是	-4481
的一个	-4482
的房子	-4483
看电视	-4484
遲到了	-4485
hest	-4486
irty	-4487
osal	-4488
time	-4489
▁dem	-4490
▁div	-4491
▁jud	-4492
▁mad	-4493
▁nur	-4494
▁wit	-4495
▁他喜歡	-4496
▁他是个	-4497
▁他沒有	-4498
▁我写了	-4499
▁我学了	-4500
▁我弟弟	-4501
▁我找了	-4502
▁我换了	-4503
▁我无法	-4504
▁我读了	-4505
▁我跑了	-4506
▁我选了	-4507
▁这是我	-4508
▁這是一	-4509
摇摇摆摆	-4510
是世界上	-4511
永遠不會	-4512
▁Many	-4513
▁boss	-4514
▁farm	-4515
▁lies	-4516
▁ripe	-4517
▁scen	-4518
▁shut	-4519
叫什么名字	-4520
▁alive	-4521
▁colle	-4522
▁fault	-4523
▁group	-4524
▁moved	-4525
▁shirt	-4526
▁worse	-4527
▁failed	-4528
▁flying	-4529
▁market	-4530
▁opened	-4531
▁scient	-4532
▁talked	-4533
▁用英文怎么说	-4534
▁Goodbye	-4535
▁depends	-4536
▁descend	-4537
▁injured	-4538
▁nearest	-4539
▁sisters	-4540
▁decision	-4541
▁discount	-4542
▁invented	-4543
▁received	-4544
▁classroom	-4545
▁wonderful	-4546
82	-4547
wo	-4548
▁张	-4549
▁树	-4550
▁烧	-4551
▁编	-4552
▁腰	-4553
不但	-4554
不懂	-4555
乐器	-4556
农村	-4557
几个	-4558
出现	-4559
出的	-4560
只猫	-4561
名的	-4562
壁虎	-4563
嫉妒	-4564
很久	-4565
支系	-4566
架子	-4567
洞房	-4568
满了	-4569
生命	-4570
留在	-4571
的气	-4572
看法	-4573
礼节	-4574
祖宗	-4575
祭祀	-4576
老虎	-4577
老鼠	-4578
耐心	-4579
臭味	-4580
螃蟹	-4581
饲养	-4582
马上	-4583
336	-4584
iri	-4585
ony	-4586
▁AI	-4587
▁At	-4588
▁Ke	-4589
▁他去	-4590
▁使动	-4591
▁苹果	-4592
老朋友	-4593
蓝色的	-4594
ilar	-4595
ivil	-4596
lves	-4597
reed	-4598
wine	-4599
▁exh	-4600
▁fil	-4601
▁flu	-4602
▁inf	-4603
▁occ	-4604
anted	-4605
olute	-4606
▁Kate	-4607
▁size	-4608
▁sugg	-4609
▁人工智能	-4610
▁Sorry	-4611
▁block	-4612
▁gradu	-4613
▁proud	-4614
▁rainy	-4615
▁button	-4616
▁dishes	-4617
▁ancient	-4618
▁careful	-4619
▁collect	-4620
▁england	-4621
▁project	-4622
▁provide	-4623
▁similar	-4624
▁teaches	-4625
▁drinking	-4626
▁carefully	-4627
▁condition	-4628
▁vegetables	-4629
▁temperature	-4630
ns	-4631
▁「	-4632
▁五	-4633
▁传	-4634
▁修	-4635
▁后	-4636
▁工	-4637
▁开	-4638
▁愛	-4639
▁消	-4640
▁问	-4641
。」	-4642
一家	-4643
一張	-4644
上面	-4645
不上	-4646
不在	-4647
乌鸦	-4648
了个	-4649
云雀	-4650
人生	-4651
他了	-4652
他说	-4653
你会	-4654
停了	-4655
六点	-4656
到家	-4657
剛剛	-4658
午餐	-4659
只狗	-4660
否定	-4661
哪裡	-4662
喝酒	-4663
坏了	-4664
壞了	-4665
太多	-4666
太太	-4667
夫球	-4668
奉养	-4669
慢慢	-4670
改變	-4671
教室	-4672
明年	-4673
晚饭	-4674
母亲	-4675
画画	-4676
的那	-4677
看我	-4678
眼鏡	-4679
簡單	-4680
粗糙	-4681
結束	-4682
經常	-4683
美的	-4684
腿肚	-4685
臭虫	-4686
花园	-4687
記得	-4688
說得	-4689
谷鸟	-4690
踪迹	-4691
身上	-4692
过分	-4693
这些	-4694
這裏	-4695
通知	-4696
進了	-4697
遗传	-4698
酒店	-4699
頭髮	-4700
预备	-4701
20。	-4702
331	-4703
370	-4704
obe	-4705
oms	-4706
oon	-4707
zen	-4708
▁25	-4709
▁Be	-4710
▁el	-4711
▁凱特	-4712
▁北京	-4713
▁天氣	-4714
▁我受	-4715
▁我沒	-4716
▁我為	-4717
▁我請	-4718
▁有些	-4719
▁每个	-4720
▁玛丽	-4721
▁當我	-4722
▁这种	-4723
一直在	-4724
什么都	-4725
但是我	-4726
值得一	-4727
做午饭	-4728
在哪儿	-4729
在日本	-4730
就好了	-4731
很勇敢	-4732
收音机	-4733
有一些	-4734
毕摩的	-4735
生病了	-4736
的英语	-4737
黑色的	-4738
);3、	-4739
aces	-4740
chen	-4741
ches	-4742
entl	-4743
oses	-4744
saka	-4745
uary	-4746
yond	-4747
▁Bet	-4748
▁ash	-4749
▁bar	-4750
▁fix	-4751
▁map	-4752
▁mur	-4753
▁rev	-4754
▁他不是	-4755
▁你介意	-4756
▁我现在	-4757
▁没关系	-4758
一杯咖啡	-4759
對我來說	-4760
里有很多	-4761
ograp	-4762
rison	-4763
▁dise	-4764
▁doub	-4765
▁fond	-4766
▁hate	-4767
▁lion	-4768
▁meal	-4769
▁phys	-4770
▁roll	-4771
▁rule	-4772
▁stri	-4773
▁每個人都	-4774
▁这是我的	-4775
overed	-4776
▁ahead	-4777
▁civil	-4778
▁delic	-4779
▁enter	-4780
▁nurse	-4781
▁peace	-4782
▁third	-4783
▁turns	-4784
▁women	-4785
▁你什么时候	-4786
artment	-4787
ometers	-4788
working	-4789
▁artist	-4790
▁asleep	-4791
▁chance	-4792
▁missed	-4793
▁necess	-4794
▁skiing	-4795
▁tastes	-4796
▁college	-4797
▁kitchen	-4798
▁prevent	-4799
▁sitting	-4800
▁progress	-4801
▁proposal	-4802
▁returned	-4803
▁suddenly	-4804
▁universe	-4805
▁happiness	-4806
bf	-4807
▁少	-4808
▁拌	-4809
▁搭	-4810
▁沉	-4811
▁活	-4812
▁深	-4813
▁灵	-4814
▁睡	-4815
▁磨	-4816
▁肉	-4817
▁草	-4818
▁软	-4819
▁间	-4820
▁青	-4821
人口	-4822
你去	-4823
全部	-4824
力学	-4825
叫我	-4826
娇气	-4827
崽的	-4828
悄悄	-4829
悲恸	-4830
我要	-4831
教育	-4832
日期	-4833
有个	-4834
梦想	-4835
狐狸	-4836
看见	-4837
稻子	-4838
经济	-4839
老人	-4840
议论	-4841
质量	-4842
过得	-4843
避免	-4844
arp	-4845
ead	-4846
irm	-4847
ots	-4848
▁).	-4849
▁11	-4850
▁Sp	-4851
▁不管	-4852
我可以	-4853
火车站	-4854
的故事	-4855
chan	-4856
elve	-4857
sing	-4858
uted	-4859
▁One	-4860
▁cot	-4861
▁def	-4862
▁ter	-4863
▁他不会	-4864
▁孩子在	-4865
ality	-4866
owder	-4867
▁Keep	-4868
▁bell	-4869
▁fill	-4870
▁pack	-4871
▁phot	-4872
▁soup	-4873
▁我们必须	-4874
▁Paris	-4875
▁bound	-4876
▁incre	-4877
▁liked	-4878
▁relax	-4879
▁sharp	-4880
▁量子叠加态	-4881
▁beyond	-4882
▁object	-4883
▁rained	-4884
▁report	-4885
▁twelve	-4886
▁weight	-4887
▁wouldn	-4888
▁今天天气很好	-4889
▁dancing	-4890
▁meaning	-4891
▁worried	-4892
▁American	-4893
▁american	-4894
▁internet	-4895
▁particle	-4896
▁Everybody	-4897
▁classical	-4898
▁traveling	-4899
84	-4900
VO	-4901
bd	-4902
bi	-4903
cf	-4904
ea	-4905
uā	-4906
yd	-4907
▁先	-4908
▁土	-4909
▁撮	-4910
▁松	-4911
▁洗	-4912
▁滴	-4913
▁相	-4914
▁闪	-4915
一本	-4916
三次	-4917
上床	-4918
中有	-4919
人们	-4920
人在	-4921
今年	-4922
你是	-4923
來自	-4924
供养	-4925
個人	-4926
公共	-4927
六月	-4928
出發	-4929
動了	-4930
原子	-4931
合作	-4932
名称	-4933
周末	-4934
响了	-4935
四川	-4936
地震	-4937
大阪	-4938
夭折	-4939
女生	-4940
好好	-4941
好是	-4942
尊敬	-4943
就會	-4944
平安	-4945
快樂	-4946
感謝	-4947
戰爭	-4948
打破	-4949
拍照	-4950
支持	-4951
有四	-4952
榫头	-4953
永远	-4954
準時	-4955
灰尘	-4956
照顧	-4957
玩具	-4958
的吗	-4959
的小	-4960
砚台	-4961
窝棚	-4962
終於	-4963
繼續	-4964
给他	-4965
聖誕	-4966
胎子	-4967
花園	-4968
襯衫	-4969
見面	-4970
规律	-4971
解釋	-4972
还没	-4973
选择	-4974
選擇	-4975
邀請	-4976
隨時	-4977
4、(	-4978
50。	-4979
ale	-4980
aro	-4981
cer	-4982
dle	-4983
len	-4984
ron	-4985
uān	-4986
▁Me	-4987
▁一个	-4988
▁与其	-4989
▁当然	-4990
▁我每	-4991
▁男孩	-4992
▁謝謝	-4993
不是吗	-4994
任何你	-4995
去學校	-4996
小腿肚	-4997
改变了	-4998
星期一	-4999
是誰的	-5000
的事情	-5001
的時間	-5002
美丽的	-5003
自行車	-5004
該怎麼	-5005
踢足球	-5006
itch	-5007
lder	-5008
omen	-5009
rodu	-5010
star	-5011
tain	-5012
uiri	-5013
▁See	-5014
▁anx	-5015
▁blo	-5016
▁emb	-5017
▁gas	-5018
▁god	-5019
▁lad	-5020
▁pot	-5021
▁我父親	-5022
▁我通常	-5023
▁把你的	-5024
▁有什么	-5025
▁請你把	-5026
▁這隻狗	-5027
看起來很	-5028
ortun	-5029
ution	-5030
▁cust	-5031
▁desc	-5032
▁dest	-5033
▁heat	-5034
▁incl	-5035
▁loud	-5036
▁rock	-5037
▁seem	-5038
▁term	-5039
▁我把我的	-5040
uiriel	-5041
▁cance	-5042
▁feels	-5043
▁fever	-5044
▁major	-5045
▁miles	-5046
▁newsp	-5047
▁sheep	-5048
▁teeth	-5049
▁tiger	-5050
▁usual	-5051
ization	-5052
▁afford	-5053
▁assist	-5054
▁bottle	-5055
▁concer	-5056
▁flight	-5057
▁ground	-5058
▁happen	-5059
▁jacket	-5060
▁larger	-5061
▁public	-5062
▁record	-5063
▁silver	-5064
▁stamps	-5065
▁anxious	-5066
▁crowded	-5067
▁missing	-5068
anglement	-5069
▁headache	-5070
▁neighbor	-5071
▁opportun	-5072
▁pleasure	-5073
▁delicious	-5074
▁kilometers	-5075
▁countryside	-5076
cb	-5077
▁也	-5078
▁入	-5079
▁加	-5080
▁台	-5081
▁嫩	-5082
▁往	-5083
▁爱	-5084
▁牵	-5085
▁直	-5086
▁祖	-5087
▁耳	-5088
▁野	-5089
一般	-5090
关于	-5091
出租	-5092
变得	-5093
变成	-5094
喝茶	-5095
存在	-5096
客气	-5097
怀孕	-5098
斗笠	-5099
有益	-5100
果子	-5101
母畜	-5102
爽快	-5103
皇帝	-5104
监狱	-5105
祈求	-5106
禁止	-5107
等了	-5108
绞痛	-5109
菠萝	-5110
蟋蟀	-5111
认错	-5112
讨论	-5113
进行	-5114
都在	-5115
290	-5116
35。	-5117
Ent	-5118
ism	-5119
ued	-5120
▁Al	-5121
▁ju	-5122
▁va	-5123
▁事故	-5124
▁他会	-5125
▁可惜	-5126
▁学习	-5127
▁手机	-5128
▁无论	-5129
▁时间	-5130
▁突然	-5131
▁英文	-5132
▁重字	-5133
之间的	-5134
好朋友	-5135
孩子们	-5136
所以我	-5137
的核心	-5138
这件事	-5139
迷路了	-5140
EntL	-5141
anch	-5142
ined	-5143
oned	-5144
▁Put	-5145
▁bur	-5146
▁cri	-5147
▁esc	-5148
▁eth	-5149
▁mis	-5150
▁mot	-5151
▁tor	-5152
▁不客气	-5153
▁他常常	-5154
▁你想吃	-5155
▁越来越	-5156
休息一下	-5157
彝族家支	-5158
▁Turn	-5159
▁ears	-5160
▁inno	-5161
▁jour	-5162
▁kate	-5163
▁kill	-5164
▁pear	-5165
▁Whose	-5166
▁breat	-5167
▁hello	-5168
▁qentl	-5169
▁state	-5170
▁今天比昨天	-5171
▁branch	-5172
▁closed	-5173
▁crying	-5174
▁either	-5175
▁france	-5176
▁happens	-5177
▁consists	-5178
▁football	-5179
▁accompany	-5180
▁earthquake	-5181
▁electricity	-5182
▁hardworking	-5183
▁responsibility	-5184
;(	-5185
▁$	-5186
▁刺	-5187
▁印	-5188
▁取	-5189
▁喬	-5190
▁圆	-5191
▁成	-5192
▁撒	-5193
▁脚	-5194
▁饭	-5195
三天	-5196
中心	-5197
之後	-5198
也會	-5199
书包	-5200
人是	-5201
何時	-5202
作物	-5203
俏皮	-5204
六祖	-5205
六點	-5206
再來	-5207
再次	-5208
出來	-5209
出席	-5210
制造	-5211
勾引	-5212
升起	-5213
危险	-5214
原理	-5215
变化	-5216
向你	-5217
喷水	-5218
在一	-5219
夢想	-5220
岁了	-5221
幾天	-5222
底下	-5223
建造	-5224
很热	-5225
性的	-5226
情况	-5227
情況	-5228
惩治	-5229
想起	-5230
打仗	-5231
托尼	-5232
政治	-5233
新年	-5234
是嗎	-5235
是很	-5236
普及	-5237
會兒	-5238
木板	-5239
機會	-5240
歷史	-5241
沸腾	-5242
泥鳅	-5243
浪費	-5244
特的	-5245
玩笑	-5246
玫瑰	-5247
班牙	-5248
百姓	-5249
的词	-5250
看過	-5251
石油	-5252
神位	-5253
祷告	-5254
糟糕	-5255
结束	-5256
老实	-5257
聰明	-5258
聲音	-5259
葫芦	-5260
行为	-5261
讨厌	-5262
郵票	-5263
锋利	-5264
错了	-5265
间的	-5266
随便	-5267
非洲	-5268
面前	-5269
顽皮	-5270
12。	-5271
334	-5272
aid	-5273
aly	-5274
ara	-5275
etr	-5276
hou	-5277
iar	-5278
uko	-5279
▁18	-5280
▁但是	-5281
▁南希	-5282
▁去年	-5283
▁天气	-5284
▁妈妈	-5285
▁我上	-5286
▁我寧	-5287
▁我爱	-5288
▁月亮	-5289
▁约翰	-5290
▁给我	-5291
▁英语	-5292
▁貝蒂	-5293
▁這樣	-5294
做了一	-5295
十年了	-5296
危險的	-5297
去上學	-5298
另一个	-5299
吃早餐	-5300
含义是	-5301
喷水枪	-5302
在那裡	-5303
多久了	-5304
布谷鸟	-5305
待在家	-5306
意大利	-5307
成功的	-5308
把他的	-5309
星期六	-5310
是一名	-5311
是日本	-5312
更重要	-5313
最喜欢	-5314
比中文	-5315
玩得很	-5316
給我們	-5317
给我们	-5318
西班牙	-5319
说中的	-5320
這件事	-5321
bits	-5322
edge	-5323
ilet	-5324
ldom	-5325
mony	-5326
rica	-5327
▁cho	-5328
▁dut	-5329
▁laz	-5330
▁rum	-5331
▁wet	-5332
▁我不太	-5333
▁我完全	-5334
▁我必须	-5335
▁我要回	-5336
▁火把节	-5337
▁让我们	-5338
▁请解释	-5339
人工智能	-5340
任何東西	-5341
努力工作	-5342
可以同时	-5343
喜歡音樂	-5344
成為一名	-5345
inite	-5346
▁Here	-5347
▁appl	-5348
▁auth	-5349
▁craz	-5350
▁hill	-5351
▁mess	-5352
▁quar	-5353
▁reap	-5354
▁rent	-5355
▁repe	-5356
▁rude	-5357
▁self	-5358
▁sell	-5359
▁situ	-5360
▁soft	-5361
▁vase	-5362
▁virt	-5363
▁我想和你	-5364
▁我的房間	-5365
最大的城市	-5366
▁clock	-5367
▁event	-5368
▁games	-5369
▁judge	-5370
▁might	-5371
▁named	-5372
▁prize	-5373
▁reach	-5374
▁thief	-5375
▁tooth	-5376
▁voice	-5377
▁wound	-5378
▁我今天早上	-5379
ustomed	-5380
▁eleven	-5381
▁island	-5382
▁penetr	-5383
▁pocket	-5384
▁prison	-5385
▁regret	-5386
▁salary	-5387
▁toilet	-5388
▁washed	-5389
▁cheaper	-5390
▁disturb	-5391
▁elected	-5392
▁introdu	-5393
▁invited	-5394
▁managed	-5395
▁suitcase	-5396
▁pronounce	-5397
▁accustomed	-5398
▁complaining	-5399
▁entanglement	-5400
cd	-5401
gn	-5402
▁云	-5403
▁伤	-5404
▁依	-5405
▁头	-5406
▁巴	-5407
▁带	-5408
▁强	-5409
▁手	-5410
▁挣	-5411
▁整	-5412
▁烙	-5413
▁调	-5414
▁转	-5415
▁酸	-5416
▁鸡	-5417
一份	-5418
位词	-5419
凝结	-5420
前面	-5421
区别	-5422
卧倒	-5423
叫声	-5424
四十	-5425
囤箩	-5426
好梦	-5427
将要	-5428
或者	-5429
拐杖	-5430
日子	-5431
来没	-5432
柴刀	-5433
毡子	-5434
池塘	-5435
点儿	-5436
猴子	-5437
生的	-5438
的主	-5439
石榴	-5440
稀烂	-5441
红色	-5442
经过	-5443
耽搁	-5444
脾气	-5445
臀部	-5446
自动	-5447
薄荷	-5448
藤子	-5449
蚂蝗	-5450
诽谤	-5451
赡养	-5452
迟到	-5453
速度	-5454
都会	-5455
阴茎	-5456
隐瞒	-5457
面包	-5458
额头	-5459
餐具	-5460
鸣叫	-5461
500	-5462
dam	-5463
ram	-5464
rat	-5465
▁Qu	-5466
▁aw	-5467
▁er	-5468
▁je	-5469
▁lu	-5470
▁即使	-5471
▁数词	-5472
▁正在	-5473
度学习	-5474
弹钢琴	-5475
的一种	-5476
砍柴刀	-5477
遇到了	-5478
ners	-5479
pack	-5480
uish	-5481
▁dev	-5482
▁emp	-5483
▁jum	-5484
▁sew	-5485
▁他比我	-5486
▁她不会	-5487
▁学生在	-5488
▁我们会	-5489
▁我会说	-5490
▁苹果比	-5491
主要分布	-5492
ciate	-5493
cious	-5494
ollow	-5495
ooked	-5496
urity	-5497
▁bags	-5498
▁mail	-5499
▁quit	-5500
▁type	-5501
▁view	-5502
selves	-5503
▁Those	-5504
▁blind	-5505
▁blood	-5506
▁chick	-5507
▁helps	-5508
▁moder	-5509
▁sunny	-5510
▁量子计算机	-5511
▁bucket	-5512
▁butter	-5513
▁cancer	-5514
▁contin	-5515
▁disapp	-5516
▁except	-5517
▁mechan	-5518
▁seldom	-5519
▁slight	-5520
▁theory	-5521
▁waited	-5522
▁failure	-5523
▁hearing	-5524
▁oranges	-5525
▁smaller	-5526
▁suggest	-5527
▁wearing	-5528
▁Everyone	-5529
▁requires	-5530
▁somebody	-5531
▁president	-5532
▁experience	-5533
OV	-5534
fb	-5535
fc	-5536
fd	-5537
ks	-5538
sm	-5539
▁保	-5540
▁切	-5541
▁可	-5542
▁堆	-5543
▁挂	-5544
▁温	-5545
▁漂	-5546
▁烟	-5547
▁积	-5548
▁答	-5549
▁船	-5550
▁蘇	-5551
▁进	-5552
▁除	-5553
▁飞	-5554
一张	-5555
一支	-5556
一条	-5557
一班	-5558
不去	-5559
不太	-5560
不然	-5561
丑陋	-5562
丢失	-5563
乾淨	-5564
以為	-5565
你把	-5566
倒了	-5567
借我	-5568
像个	-5569
先民	-5570
克力	-5571
兔子	-5572
其中	-5573
別人	-5574
办法	-5575
叙述	-5576
另外	-5577
只能	-5578
后天	-5579
呕吐	-5580
哭了	-5581
唢呐	-5582
因為	-5583
國外	-5584
士比	-5585
外國	-5586
天干	-5587
失望	-5588
女兒	-5589
奶奶	-5590
婴儿	-5591
对的	-5592
平均	-5593
引述	-5594
快要	-5595
怀疑	-5596
怎样	-5597
想到	-5598
我有	-5599
所知	-5600
把它	-5601
报纸	-5602
收集	-5603
故意	-5604
教堂	-5605
早點	-5606
更加	-5607
更难	-5608
最後	-5609
會去	-5610
未曾	-5611
模仿	-5612
模样	-5613
機器	-5614
檢查	-5615
步行	-5616
河裡	-5617
满意	-5618
潮湿	-5619
火災	-5620
点了	-5621
獨自	-5622
用手	-5623
男生	-5624
目前	-5625
等待	-5626
缺席	-5627
美麗	-5628
老婆	-5629
舌头	-5630
英里	-5631
虚词	-5632
號碼	-5633
袋子	-5634
规则	-5635
角落	-5636
讓你	-5637
贵了	-5638
跟他	-5639
适合	-5640
遇見	-5641
遗憾	-5642
遵守	-5643
那麼	-5644
關係	-5645
關於	-5646
阅读	-5647
雜誌	-5648
領帶	-5649
项目	-5650
马路	-5651
鲸鱼	-5652
麵包	-5653
310	-5654
330	-5655
335	-5656
59。	-5657
:00	-5658
?”“	-5659
SVO	-5660
ils	-5661
oul	-5662
pty	-5663
the	-5664
▁14	-5665
▁49	-5666
▁av	-5667
▁ow	-5668
▁一個	-5669
▁不用	-5670
▁也许	-5671
▁今年	-5672
▁他从	-5673
▁他对	-5674
▁他對	-5675
▁他比	-5676
▁体育	-5677
▁古语	-5678
▁可能	-5679
▁希望	-5680
▁我去	-5681
▁請問	-5682
▁许多	-5683
▁這座	-5684
▁這裡	-5685
▁邁克	-5686
▁鮑伯	-5687
一杯水	-5688
下一站	-5689
你可以	-5690
出去了	-5691
到日本	-5692
去哪儿	-5693
吃完了	-5694
回家了	-5695
学英语	-5696
小男孩	-5697
巧克力	-5698
待多久	-5699
感冒了	-5700
搭公車	-5701
星期日	-5702
是對的	-5703
更漂亮	-5704
桌上有	-5705
比上海	-5706
法自然	-5707
照相机	-5708
的东西	-5709
的男孩	-5710
看到了	-5711
真的很	-5712
英语说	-5713
莎士比	-5714
葡萄酒	-5715
被偷了	-5716
说什么	-5717
辦公室	-5718
那件事	-5719
ased	-5720
aust	-5721
cent	-5722
ered	-5723
ghed	-5724
hess	-5725
ield	-5726
like	-5727
upid	-5728
▁Mon	-5729
▁fat	-5730
▁sho	-5731
▁他已经	-5732
▁你怎麼	-5733
▁你觉得	-5734
▁告訴我	-5735
▁告诉我	-5736
▁我最近	-5737
▁所有的	-5738
▁沒有人	-5739
▁这辆车	-5740
去看電影	-5741
我很高兴	-5742
是中国最	-5743
最喜歡的	-5744
机器学习	-5745
要做什麼	-5746
這份工作	-5747
atoes	-5748
dered	-5749
ended	-5750
ierce	-5751
iting	-5752
ouses	-5753
peare	-5754
under	-5755
vered	-5756
▁bott	-5757
▁capt	-5758
▁east	-5759
▁fair	-5760
▁film	-5761
▁lazy	-5762
▁rack	-5763
▁tube	-5764
▁介绍一下	-5765
▁你为什么	-5766
▁孩子们在	-5767
▁我有一个	-5768
▁重叠词缀	-5769
colate	-5770
▁board	-5771
▁cards	-5772
▁cause	-5773
▁chess	-5774
▁crazy	-5775
▁doubt	-5776
▁famil	-5777
▁lucky	-5778
▁polit	-5779
▁truck	-5780
▁北京比上海	-5781
▁我不知道他	-5782
▁affect	-5783
▁commit	-5784
▁commun	-5785
▁demand	-5786
▁effort	-5787
▁lately	-5788
▁showed	-5789
▁sooner	-5790
▁stupid	-5791
▁advised	-5792
▁covered	-5793
▁exhaust	-5794
▁follows	-5795
▁reached	-5796
▁tallest	-5797
akespeare	-5798
▁magazine	-5799
▁networks	-5800
▁passport	-5801
▁teaching	-5802
▁apologize	-5803
▁childhood	-5804
▁penetrate	-5805
▁situation	-5806
▁acquainted	-5807
▁discovered	-5808
▁development	-5809
▁difficulties	-5810
gu	-5811
▁倒	-5812
▁刮	-5813
▁口	-5814
▁古	-5815
▁向	-5816
▁块	-5817
▁扒	-5818
▁折	-5819
▁接	-5820
▁搅	-5821
▁既	-5822
▁本	-5823
▁盛	-5824
▁穿	-5825
▁肥	-5826
▁麻	-5827
▁黑	-5828
中午	-5829
串串	-5830
任务	-5831
健壮	-5832
偿还	-5833
公斤	-5834
功能	-5835
北斗	-5836
喧哗	-5837
在我	-5838
外国	-5839
家具	-5840
就像	-5841
幽幽	-5842
弹琴	-5843
影响	-5844
德行	-5845
必有	-5846
忠厚	-5847
思考	-5848
打开	-5849
打扰	-5850
旅馆	-5851
昆虫	-5852
景色	-5853
杜鹃	-5854
正常	-5855
犁板	-5856
玩耍	-5857
的目	-5858
看书	-5859
稠密	-5860
窗户	-5861
繁衍	-5862
联系	-5863
胡椒	-5864
词典	-5865
诙谐	-5866
赘婿	-5867
长的	-5868
香油	-5869
));	-5870
30。	-5871
37。	-5872
61。	-5873
een	-5874
mit	-5875
per	-5876
▁15	-5877
▁Mt	-5878
▁ai	-5879
▁mt	-5880
做完了	-5881
喝咖啡	-5882
服务器	-5883
桌子上	-5884
ency	-5885
eter	-5886
ings	-5887
medi	-5888
stru	-5889
teen	-5890
ygen	-5891
▁den	-5892
▁fle	-5893
▁low	-5894
▁ser	-5895
▁tre	-5896
▁他没有	-5897
▁医生在	-5898
▁彝族的	-5899
▁请帮我	-5900
很有意思	-5901
▁body	-5902
▁diet	-5903
▁duty	-5904
▁eats	-5905
▁hemp	-5906
▁inde	-5907
▁pers	-5908
▁pole	-5909
▁roof	-5910
▁我们不会	-5911
其含义为是	-5912
▁empty	-5913
▁exist	-5914
▁flies	-5915
▁gives	-5916
▁marry	-5917
▁spend	-5918
▁stick	-5919
▁这本书比那	-5920
▁cheese	-5921
▁fundam	-5922
▁houses	-5923
▁immedi	-5924
▁includ	-5925
▁neural	-5926
▁regard	-5927
▁silent	-5928
▁stands	-5929
ervation	-5930
▁England	-5931
▁changes	-5932
▁foolish	-5933
▁regular	-5934
▁今天天气怎么样	-5935
▁changing	-5936
▁painting	-5937
▁Christmas	-5938
▁chocolate	-5939
▁christmas	-5940
▁completely	-5941
▁fundamental	-5942
ae	-5943
bo	-5944
sc	-5945
uf	-5946
▁八	-5947
▁叠	-5948
▁合	-5949
▁啊	-5950
▁抖	-5951
▁排	-5952
▁根	-5953
▁游	-5954
▁片	-5955
▁画	-5956
▁還	-5957
一遍	-5958
三個	-5959
不出	-5960
不合	-5961
不少	-5962
不欲	-5963
不過	-5964
丟了	-5965
介紹	-5966
他很	-5967
价值	-5968
你有	-5969
允许	-5970
先前	-5971
农民	-5972
出國	-5973
刀子	-5974
勿施	-5975
十年	-5976
半夏	-5977
反对	-5978
发烧	-5979
和谐	-5980
城堡	-5981
報紙	-5982
处于	-5983
失敗	-5984
客店	-5985
小姐	-5986
就在	-5987
己所	-5988
幫你	-5989
平静	-5990
幾點	-5991
度假	-5992
德国	-5993
忙吗	-5994
忠告	-5995
快速	-5996
想像	-5997
懂得	-5998
我家	-5999
找我	-6000
把我	-6001
拘禁	-6002
损失	-6003
掺和	-6004
放棄	-6005
斑鸠	-6006
旅游	-6007
明了	-6008
有效	-6009
有點	-6010
欧洲	-6011
欺骗	-6012
比河	-6013
毛发	-6014
沉沉	-6015
沉默	-6016
河流	-6017
活泼	-6018
温柔	-6019
澳洲	-6020
照顾	-6021
物体	-6022
犯错	-6023
独自	-6024
生物	-6025
睡了	-6026
睾丸	-6027
禮貌	-6028
种子	-6029
程車	-6030
翻譯	-6031
联网	-6032
腳踏	-6033
至少	-6034
芦苇	-6035
苍蝇	-6036
荸荠	-6037
触动	-6038
让他	-6039
说的	-6040
说过	-6041
走不	-6042
這場	-6043
進行	-6044
過去	-6045
部族	-6046
里面	-6047
銀行	-6048
钢笔	-6049
長大	-6050
长度	-6051
開門	-6052
陌生	-6053
雖然	-6054
高爾	-6055
鹽遞	-6056
18。	-6057
44。	-6058
45。	-6059
66。	-6060
SOV	-6061
cum	-6062
gan	-6063
hat	-6064
ift	-6065
ium	-6066
let	-6067
oll	-6068
ows	-6069
ray	-6070
uge	-6071
▁上午	-6072
▁世界	-6073
▁任何	-6074
▁你对	-6075
▁您的	-6076
▁我下	-6077
▁我买	-6078
▁我問	-6079
▁折磨	-6080
▁是的	-6081
▁給我	-6082
▁这家	-6083
▁这张	-6084
▁這件	-6085
▁這台	-6086
▁這輛	-6087
▁除了	-6088
▁鮑勃	-6089
▁麻煩	-6090
下一步	-6091
下了一	-6092
不喜歡	-6093
什麼嗎	-6094
動物園	-6095
勿施于	-6096
十分鐘	-6097
告訴你	-6098
就可以	-6099
彈吉他	-6100
形容嚼	-6101
很好的	-6102
收到了	-6103
日本人	-6104
是什麼	-6105
杯咖啡	-6106
比农村	-6107
没见过	-6108
游泳很	-6109
發生的	-6110
的味道	-6111
的問題	-6112
的工作	-6113
的照片	-6114
看一下	-6115
睡觉了	-6116
红色的	-6117
给了我	-6118
腳踏車	-6119
部電影	-6120
0000	-6121
ator	-6122
ison	-6123
thod	-6124
vers	-6125
▁'((	-6126
▁Nob	-6127
▁ach	-6128
▁aud	-6129
▁bal	-6130
▁bow	-6131
▁cou	-6132
▁hid	-6133
▁hig	-6134
▁lau	-6135
▁pic	-6136
▁rul	-6137
▁vol	-6138
▁不要把	-6139
▁他已經	-6140
▁他是我	-6141
▁他非常	-6142
▁你到底	-6143
▁我以前	-6144
▁我住在	-6145
▁我听到	-6146
▁我在找	-6147
▁有一天	-6148
▁没有人	-6149
▁為什麼	-6150
▁这朵花	-6151
一點也不	-6152
丢了我的	-6153
做了一個	-6154
再見到你	-6155
己所不欲	-6156
每天早上	-6157
給我好嗎	-6158
這個消息	-6159
電話號碼	-6160
ances	-6161
anish	-6162
ories	-6163
ounds	-6164
unnan	-6165
▁cere	-6166
▁core	-6167
▁date	-6168
▁enem	-6169
▁hole	-6170
▁lead	-6171
▁pond	-6172
▁prep	-6173
▁rare	-6174
▁seas	-6175
▁serv	-6176
▁sock	-6177
▁thin	-6178
▁wake	-6179
▁wide	-6180
▁我很抱歉	-6181
▁我想离开	-6182
▁我會給你	-6183
▁請告訴我	-6184
▁这是一只	-6185
▁這是你的	-6186
ically	-6187
ission	-6188
▁delay	-6189
▁knock	-6190
▁monke	-6191
▁rumor	-6192
▁talks	-6193
▁walks	-6194
▁woods	-6195
▁城市比农村	-6196
▁我永遠不會	-6197
▁火车比汽车	-6198
▁Canada	-6199
▁German	-6200
▁bright	-6201
▁canada	-6202
▁classm	-6203
▁drinks	-6204
▁europe	-6205
▁german	-6206
▁method	-6207
▁nation	-6208
▁oxygen	-6209
▁shower	-6210
▁spread	-6211
▁transl	-6212
▁wallet	-6213
▁wealth	-6214
己所不欲勿施于	-6215
▁allowed	-6216
▁appears	-6217
▁ashamed	-6218
▁carried	-6219
▁chicken	-6220
▁created	-6221
▁dropped	-6222
▁economy	-6223
▁laughed	-6224
▁letters	-6225
▁ordered	-6226
▁profess	-6227
▁quality	-6228
▁anywhere	-6229
▁brothers	-6230
▁patience	-6231
▁necessary	-6232
▁difference	-6233
▁difficulty	-6234
▁neighborhood	-6235
▁。	-6236
▁坏	-6237
▁坐	-6238
▁塞	-6239
▁扳	-6240
▁护	-6241
▁拍	-6242
▁捆	-6243
▁推	-6244
▁撕	-6245
▁新	-6246
▁板	-6247
▁梅	-6248
▁次	-6249
▁猪	-6250
▁羊	-6251
▁觉	-6252
▁起	-6253
丈夫	-6254
专指	-6255
举行	-6256
以后	-6257
关节	-6258
准时	-6259
刺竹	-6260
周一	-6261
土坎	-6262
大量	-6263
姑父	-6264
当然	-6265
慎重	-6266
我想	-6267
招赘	-6268
拿着	-6269
挑箩	-6270
摔跤	-6271
旋转	-6272
树木	-6273
模拟	-6274
泥泞	-6275
活着	-6276
混合	-6277
然后	-6278
物品	-6279
生生	-6280
用品	-6281
男子	-6282
禁忌	-6283
筲箕	-6284
终于	-6285
经典	-6286
绳子	-6287
自豪	-6288
茨菇	-6289
蓑衣	-6290
蝴蝶	-6291
行星	-6292
街道	-6293
语系	-6294
赌咒	-6295
赔偿	-6296
赶上	-6297
锄头	-6298
锤子	-6299
韭菜	-6300
骑马	-6301
10。	-6302
24。	-6303
340	-6304
42。	-6305
55。	-6306
68。	-6307
acy	-6308
dry	-6309
mod	-6310
▁24	-6311
▁Ex	-6312
▁bi	-6313
▁pm	-6314
▁不是	-6315
▁学校	-6316
▁狮子	-6317
十分钟	-6318
取消了	-6319
是世界	-6320
最高的	-6321
的基础	-6322
的状态	-6323
相对论	-6324
青幽幽	-6325
ager	-6326
ices	-6327
ider	-6328
ique	-6329
▁But	-6330
▁Get	-6331
▁God	-6332
▁mic	-6333
▁oce	-6334
▁tou	-6335
▁今天的	-6336
▁彝文的	-6337
传说中的	-6338
是白色的	-6339
是蓝色的	-6340
比中文更	-6341
量子系统	-6342
cture	-6343
ences	-6344
essed	-6345
modal	-6346
orter	-6347
riend	-6348
▁Tony	-6349
▁cent	-6350
▁code	-6351
▁dece	-6352
▁dish	-6353
▁fear	-6354
▁grew	-6355
▁hang	-6356
▁june	-6357
▁mult	-6358
▁pull	-6359
▁smil	-6360
▁west	-6361
▁今天下午	-6362
▁我不明白	-6363
cooked	-6364
ichuan	-6365
powder	-6366
▁Betty	-6367
▁Never	-6368
▁bored	-6369
▁exact	-6370
▁occur	-6371
▁produ	-6372
▁solar	-6373
▁terri	-6374
itation	-6375
▁Nobody	-6376
▁attack	-6377
▁course	-6378
▁farmer	-6379
▁hardly	-6380
▁indust	-6381
▁mainly	-6382
▁modern	-6383
▁repeat	-6384
▁scared	-6385
▁social	-6386
▁source	-6387
▁warmer	-6388
▁writes	-6389
ointment	-6390
▁anybody	-6391
▁drawing	-6392
▁measure	-6393
▁princip	-6394
▁becoming	-6395
▁engineer	-6396
▁saturday	-6397
▁beginning	-6398
▁understood	-6399
?」	-6400
bs	-6401
ls	-6402
▁—	-6403
▁冰	-6404
▁动	-6405
▁哈	-6406
▁差	-6407
▁总	-6408
▁恶	-6409
▁為	-6410
▁米	-6411
▁罗	-6412
▁艾	-6413
▁說	-6414
▁警	-6415
▁辣	-6416
▁闭	-6417
▁麥	-6418
一件	-6419
一年	-6420
一間	-6421
下去	-6422
不久	-6423
不见	-6424
丢了	-6425
严肃	-6426
主修	-6427
争吵	-6428
亲家	-6429
令人	-6430
以後	-6431
你不	-6432
做到	-6433
傻子	-6434
免費	-6435
出来	-6436
勺子	-6437
发炎	-6438
受到	-6439
叹词	-6440
同学	-6441
后面	-6442
向我	-6443
向神	-6444
听到	-6445
和广	-6446
哪儿	-6447
喷嚏	-6448
在跑	-6449
墨水	-6450
夏威	-6451
多的	-6452
大雨	-6453
女儿	-6454
子弹	-6455
子裡	-6456
季节	-6457
宝宝	-6458
屋顶	-6459
山羊	-6460
并不	-6461
座位	-6462
建筑	-6463
怪味	-6464
恐惧	-6465
感动	-6466
成員	-6467
我能	-6468
戒烟	-6469
手臂	-6470
打了	-6471
打掃	-6472
拼搏	-6473
整個	-6474
斑纹	-6475
斗殴	-6476
断定	-6477
新車	-6478
早飯	-6479
明子	-6480
显然	-6481
晚了	-6482
會來	-6483
月份	-6484
有点	-6485
板上	-6486
枯萎	-6487
梭子	-6488
死板	-6489
比他	-6490
法國	-6491
浑浊	-6492
海邊	-6493
消失	-6494
清晰	-6495
游戏	-6496
物质	-6497
犯了	-6498
球拍	-6499
疑问	-6500
疤痕	-6501
病人	-6502
看过	-6503
真正	-6504
確定	-6505
神戶	-6506
科目	-6507
稍等	-6508
空气	-6509
空氣	-6510
精力	-6511
精通	-6512
糊糊	-6513
絕對	-6514
绵绵	-6515
考慮	-6516
而不	-6517
耳环	-6518
能够	-6519
膀胱	-6520
舞蹈	-6521
艘船	-6522
花瓶	-6523
行為	-6524
规矩	-6525
詞典	-6526
讀過	-6527
认真	-6528
词素	-6529
诱惑	-6530
说他	-6531
赶紧	-6532
跟著	-6533
辦法	-6534
這張	-6535
這本	-6536
這條	-6537
這種	-6538
還沒	-6539
醫院	-6540
開著	-6541
關門	-6542
隨便	-6543
饿了	-6544
鸽子	-6545
15。	-6546
19.	-6547
360	-6548
60。	-6549
67。	-6550
:((	-6551
aii	-6552
ako	-6553
bum	-6554
cts	-6555
cut	-6556
eds	-6557
ems	-6558
ged	-6559
han	-6560
iol	-6561
upt	-6562
▁(1	-6563
▁);	-6564
▁17	-6565
▁26	-6566
▁Fe	-6567
▁gh	-6568
▁你真	-6569
▁喬治	-6570
▁恐怕	-6571
▁我將	-6572
▁教育	-6573
▁有多	-6574
▁欢迎	-6575
▁茶比	-6576
▁許多	-6577
▁警方	-6578
▁这只	-6579
▁醫生	-6580
▁银行	-6581
▁飞机	-6582
一定是	-6583
一定會	-6584
一样高	-6585
不灵活	-6586
了你的	-6587
些什么	-6588
博物館	-6589
去世了	-6590
可能的	-6591
和他的	-6592
回到家	-6593
夏威夷	-6594
好主意	-6595
小孩子	-6596
很快乐	-6597
很漂亮	-6598
更喜欢	-6599
更强壮	-6600
棕色的	-6601
棟房子	-6602
正確的	-6603
比下午	-6604
比电脑	-6605
游泳嗎	-6606
灰色的	-6607
照相機	-6608
用你的	-6609
知道的	-6610
結婚了	-6611
绿色的	-6612
美麗的	-6613
計程車	-6614
講英語	-6615
长时间	-6616
agle	-6617
alse	-6618
book	-6619
ests	-6620
town	-6621
▁Meg	-6622
▁enc	-6623
▁jog	-6624
▁kid	-6625
▁owe	-6626
▁pun	-6627
▁raw	-6628
▁rid	-6629
▁tas	-6630
▁wis	-6631
▁他可能	-6632
▁你会说	-6633
▁你相信	-6634
▁你覺得	-6635
▁医生很	-6636
▁史密斯	-6637
▁太贵了	-6638
▁学生很	-6639
▁孩子很	-6640
▁我一直	-6641
▁我和他	-6642
▁我會在	-6643
▁我爸爸	-6644
▁我看見	-6645
▁我認為	-6646
▁最近的	-6647
▁老师很	-6648
▁謝謝你	-6649
为你服务	-6650
交通事故	-6651
他說的話	-6652
看看你的	-6653
高爾夫球	-6654
alian	-6655
ative	-6656
avior	-6657
ebook	-6658
hered	-6659
ipped	-6660
olved	-6661
ouder	-6662
wered	-6663
▁119.	-6664
▁Life	-6665
▁amaz	-6666
▁cash	-6667
▁drun	-6668
▁elev	-6669
▁else	-6670
▁fash	-6671
▁firm	-6672
▁joke	-6673
▁lack	-6674
▁perm	-6675
▁pink	-6676
▁poll	-6677
▁rome	-6678
▁rope	-6679
▁sens	-6680
▁soul	-6681
▁uses	-6682
▁whom	-6683
▁他把他的	-6684
▁你不應該	-6685
▁我還沒有	-6686
▁猫比狗更	-6687
▁苹果比梨	-6688
▁茶比咖啡	-6689
主要分布在	-6690
玩得很開心	-6691
omeday	-6692
thirty	-6693
uesday	-6694
verest	-6695
▁achie	-6696
▁album	-6697
▁anger	-6698
▁basic	-6699
▁cream	-6700
▁elder	-6701
▁eleph	-6702
▁exams	-6703
▁false	-6704
▁field	-6705
▁flood	-6706
▁loves	-6707
▁organ	-6708
▁pears	-6709
▁press	-6710
▁smile	-6711
▁south	-6712
▁spoke	-6713
▁storm	-6714
▁tears	-6715
▁threw	-6716
▁tower	-6717
▁上午比下午	-6718
▁手机比电脑	-6719
發生了什麼事	-6720
解決這個問題	-6721
▁Europe	-6722
▁Monday	-6723
▁admire	-6724
▁asking	-6725
▁beauty	-6726
▁breath	-6727
▁castle	-6728
▁clouds	-6729
▁cloudy	-6730
▁colder	-6731
▁couple	-6732
▁inside	-6733
▁lively	-6734
▁pierce	-6735
▁plenty	-6736
▁racket	-6737
▁singer	-6738
▁sounds	-6739
▁trying	-6740
▁yunnan	-6741
▁你叫什么名字	-6742
▁夏天比冬天更	-6743
▁Quantum	-6744
▁advance	-6745
▁applied	-6746
▁belongs	-6747
▁factory	-6748
▁fashion	-6749
▁message	-6750
▁snowing	-6751
▁treated	-6752
▁willing	-6753
▁己所不欲勿施于	-6754
▁这本书比那本书	-6755
▁absolute	-6756
▁accepted	-6757
▁answered	-6758
▁behavior	-6759
▁ceremony	-6760
▁followed	-6761
▁greatest	-6762
▁kindness	-6763
▁notebook	-6764
▁standing	-6765
▁surprise	-6766
▁australia	-6767
▁exhausted	-6768
▁newspaper	-6769
▁photograp	-6770
▁somewhere	-6771
▁discussion	-6772
▁examination	-6773
▁imagination	-6774
;)	-6775
cr	-6776
lu	-6777
▁凑	-6778
▁千	-6779
▁四	-6780
▁密	-6781
▁年	-6782
▁急	-6783
▁愈	-6784
▁扯	-6785
▁抢	-6786
▁捂	-6787
▁掩	-6788
▁摆	-6789
▁木	-6790
▁熊	-6791
▁电	-6792
▁百	-6793
▁纸	-6794
▁读	-6795
▁贫	-6796
▁超	-6797
▁阿	-6798
▁露	-6799
▁高	-6800
▁鹿	-6801
他做	-6802
你能	-6803
傍晚	-6804
剩下	-6805
匆匆	-6806
吃完	-6807
吃草	-6808
和水	-6809
喜鹊	-6810
基本	-6811
姊妹	-6812
少数	-6813
巴豆	-6814
市场	-6815
年龄	-6816
恩情	-6817
拳头	-6818
拾柴	-6819
早就	-6820
月亮	-6821
法帽	-6822
燕麦	-6823
用于	-6824
祖先	-6825
科技	-6826
能源	-6827
脖子	-6828
舅舅	-6829
节约	-6830
芒果	-6831
茯苓	-6832
行第	-6833
表格	-6834
袜子	-6835
过去	-6836
进步	-6837
远古	-6838
集中	-6839
黄果	-6840
黑色	-6841
21。	-6842
29。	-6843
36。	-6844
39。	-6845
41。	-6846
48。	-6847
58。	-6848
668	-6849
arm	-6850
iny	-6851
ude	-6852
▁Pe	-6853
▁ok	-6854
▁ra	-6855
▁健康	-6856
▁光速	-6857
▁第一	-6858
▁纠缠	-6859
▁老虎	-6860
▁音乐	-6861
不同的	-6862
今天的	-6863
出租车	-6864
未曾生	-6865
的发音	-6866
的气味	-6867
的首都	-6868
还没有	-6869
都可以	-6870
ilos	-6871
tern	-6872
urry	-6873
word	-6874
▁bun	-6875
▁ess	-6876
▁gun	-6877
▁ori	-6878
▁wol	-6879
▁你需要	-6880
▁我同意	-6881
▁我记得	-6882
▁这件事	-6883
不是我的	-6884
回答问题	-6885
anced	-6886
aving	-6887
light	-6888
lique	-6889
uster	-6890
▁calm	-6891
▁cred	-6892
▁effe	-6893
▁lone	-6894
▁sets	-6895
▁shed	-6896
▁spec	-6897
▁tend	-6898
▁我从来没	-6899
▁道法自然	-6900
▁量子纠缠	-6901
彝族家支名	-6902
毕摩的法帽	-6903
apping	-6904
ilosop	-6905
ointed	-6906
ongrat	-6907
▁After	-6908
▁Hurry	-6909
▁Smith	-6910
▁Water	-6911
▁below	-6912
▁const	-6913
▁freez	-6914
▁given	-6915
▁match	-6916
▁micro	-6917
▁renew	-6918
▁shock	-6919
▁smith	-6920
▁spell	-6921
▁steal	-6922
ributed	-6923
▁advant	-6924
▁amount	-6925
▁applic	-6926
▁bigger	-6927
▁charge	-6928
▁choice	-6929
▁double	-6930
▁nearly	-6931
▁united	-6932
▁unless	-6933
ulations	-6934
▁climate	-6935
▁content	-6936
▁sichuan	-6937
▁slanted	-6938
▁various	-6939
▁humanity	-6940
▁philosop	-6941
▁software	-6942
▁gentleman	-6943
▁appointment	-6944
▁immediately	-6945
!"	-6946
pa	-6947
▁丢	-6948
▁事	-6949
▁作	-6950
▁公	-6951
▁冲	-6952
▁凸	-6953
▁凿	-6954
▁刨	-6955
▁又	-6956
▁定	-6957
▁富	-6958
▁戏	-6959
▁按	-6960
▁挡	-6961
▁据	-6962
▁散	-6963
▁服	-6964
▁滚	-6965
▁燃	-6966
▁理	-6967
▁瑪	-6968
▁砍	-6969
▁简	-6970
▁胸	-6971
▁话	-6972
▁语	-6973
▁败	-6974
。。	-6975
一條	-6976
一輛	-6977
一边	-6978
一邊	-6979
七点	-6980
上午	-6981
下棋	-6982
下车	-6983
下面	-6984
不耐	-6985
乐部	-6986
九点	-6987
九點	-6988
互相	-6989
交付	-6990
他不	-6991
会来	-6992
位子	-6993
你要	-6994
來到	-6995
俗称	-6996
俱樂	-6997
全都	-6998
八點	-6999
再生	-7000
写的	-7001
农历	-7002
减少	-7003
凝固	-7004
出门	-7005
创造	-7006
到她	-7007
力量	-7008
加哥	-7009
去做	-7010
參觀	-7011
口水	-7012
句子	-7013
句話	-7014
吃過	-7015
吃飯	-7016
合一	-7017
吉利	-7018
后悔	-7019
吝啬	-7020
吸引	-7021
呼吸	-7022
嘴里	-7023
嚎叫	-7024
囫囵	-7025
圣诞	-7026
在他	-7027
地区	-7028
地支	-7029
坍缩	-7030
報告	-7031
奶油	-7032
婚配	-7033
安靜	-7034
將會	-7035
小偷	-7036
小的	-7037
屋檐	-7038
工程	-7039
平常	-7040
庆祝	-7041
康復	-7042
廚房	-7043
建築	-7044
开门	-7045
彻底	-7046
彼此	-7047
德语	-7048
心情	-7049
惦念	-7050
想你	-7051
愚蠢	-7052
抓住	-7053
拥挤	-7054
控制	-7055
控告	-7056
描述	-7057
收入	-7058
故障	-7059
教授	-7060
敬称	-7061
文明	-7062
文章	-7063
斷了	-7064
无力	-7065
昌盛	-7066
明媚	-7067
是他	-7068
暖和	-7069
暗示	-7070
暴露	-7071
最终	-7072
期望	-7073
材料	-7074
村庄	-7075
杨梅	-7076
歌手	-7077
歐洲	-7078
毫无	-7079
海拔	-7080
海边	-7081
清明	-7082
渡槽	-7083
游得	-7084
滿意	-7085
爆炸	-7086
猫头	-7087
班上	-7088
瑞士	-7089
生长	-7090
用水	-7091
畫的	-7092
癌症	-7093
的嗎	-7094
的水	-7095
盡力	-7096
相似	-7097
砧板	-7098
祭牲	-7099
禁闭	-7100
福禄	-7101
科學	-7102
称呼	-7103
程度	-7104
竟然	-7105
篮球	-7106
給了	-7107
經驗	-7108
繁殖	-7109
经验	-7110
绵羊	-7111
而是	-7112
聯絡	-7113
胡子	-7114
航班	-7115
荣华	-7116
蛆虫	-7117
街上	-7118
談談	-7119
請你	-7120
變得	-7121
让你	-7122
讽刺	-7123
诗人	-7124
请你	-7125
费用	-7126
赞成	-7127
輕鬆	-7128
轻轻	-7129
辨别	-7130
过来	-7131
连累	-7132
進步	-7133
過來	-7134
過馬	-7135
適合	-7136
震动	-7137
鼻涕	-7138
00。	-7139
23。	-7140
309	-7141
319	-7142
31。	-7143
40。	-7144
:30	-7145
?」「	-7146
ago	-7147
apt	-7148
itz	-7149
liv	-7150
ril	-7151
top	-7152
▁45	-7153
▁为了	-7154
▁京都	-7155
▁人生	-7156
▁他以	-7157
▁他要	-7158
▁会议	-7159
▁倫敦	-7160
▁傑克	-7161
▁卡羅	-7162
▁外面	-7163
▁女孩	-7164
▁小心	-7165
▁尽管	-7166
▁工作	-7167
▁怎么	-7168
▁我厌	-7169
▁房子	-7170
▁梅格	-7171
▁这把	-7172
▁這家	-7173
▁這把	-7174
▁雖然	-7175
一樣高	-7176
上你的	-7177
上個月	-7178
不容易	-7179
任何人	-7180
俱乐部	-7181
俱樂部	-7182
全世界	-7183
公園裡	-7184
六點鐘	-7185
出生的	-7186
努力地	-7187
去那裡	-7188
和量子	-7189
回来的	-7190
在那儿	-7191
失败了	-7192
年轻人	-7193
很大的	-7194
感興趣	-7195
感覺到	-7196
方位词	-7197
早起床	-7198
昏沉沉	-7199
星期五	-7200
是一位	-7201
是两个	-7202
是人类	-7203
是唯一	-7204
有空吗	-7205
比体育	-7206
比我的	-7207
澳大利	-7208
的基本	-7209
的女人	-7210
的生日	-7211
的第二	-7212
知道他	-7213
紅色的	-7214
給他的	-7215
给我的	-7216
芝加哥	-7217
讓我們	-7218
買了這	-7219
这条河	-7220
過馬路	-7221
還沒有	-7222
附近有	-7223
黏糊糊	-7224
點東西	-7225
119。	-7226
amin	-7227
cast	-7228
erry	-7229
ging	-7230
iche	-7231
lept	-7232
reek	-7233
roat	-7234
tage	-7235
▁(1.	-7236
▁Any	-7237
▁ant	-7238
▁dad	-7239
▁fit	-7240
▁fog	-7241
▁hyd	-7242
▁ign	-7243
▁imm	-7244
▁meg	-7245
▁rab	-7246
▁rap	-7247
▁shy	-7248
▁tal	-7249
▁他不會	-7250
▁他是個	-7251
▁他正在	-7252
▁你们很	-7253
▁你在看	-7254
▁你真的	-7255
▁很高兴	-7256
▁我一点	-7257
▁我去年	-7258
▁我寧願	-7259
▁我很好	-7260
▁我想你	-7261
▁我應該	-7262
▁我記得	-7263
▁火车站	-7264
▁语气词	-7265
▁這是我	-7266
▁這條河	-7267
▁那是一	-7268
一個朋友	-7269
一种野生	-7270
他的名字	-7271
你的名字	-7272
兩個小時	-7273
告诉我们	-7274
成為一個	-7275
我很舒服	-7276
时态助词	-7277
是最好的	-7278
没有任何	-7279
這個計劃	-7280
阳光明媚	-7281
骑自行车	-7282
);4、(	-7283
aired	-7284
apped	-7285
astic	-7286
ateri	-7287
ayama	-7288
ctive	-7289
ering	-7290
icago	-7291
itzer	-7292
pping	-7293
▁bike	-7294
▁bite	-7295
▁crit	-7296
▁dent	-7297
▁fare	-7298
▁flat	-7299
▁gift	-7300
▁harv	-7301
▁kick	-7302
▁path	-7303
▁rese	-7304
▁sort	-7305
▁upon	-7306
▁viol	-7307
▁wild	-7308
▁wise	-7309
▁wolf	-7310
▁他的故事	-7311
▁你是怎麼	-7312
▁你有沒有	-7313
▁当然可以	-7314
▁我們今天	-7315
▁我很高兴	-7316
▁我有很多	-7317
▁我買了一	-7318
▁语气助词	-7319
▁那是我的	-7320
过得怎么样	-7321
ermany	-7322
follow	-7323
fortun	-7324
ground	-7325
idence	-7326
ussian	-7327
▁ended	-7328
▁enemy	-7329
▁favor	-7330
▁gover	-7331
▁ideas	-7332
▁roses	-7333
▁share	-7334
▁skirt	-7335
▁sport	-7336
▁stops	-7337
▁thick	-7338
▁torch	-7339
▁weeks	-7340
▁worst	-7341
▁你為什麼不	-7342
一种野生植物	-7343
是我最喜歡的	-7344
ichever	-7345
oblique	-7346
onsense	-7347
▁author	-7348
▁circle	-7349
▁credit	-7350
▁ethnic	-7351
▁friday	-7352
▁lasted	-7353
▁likely	-7354
▁materi	-7355
▁member	-7356
▁murder	-7357
▁purple	-7358
▁repair	-7359
▁stitch	-7360
▁suspic	-7361
▁taught	-7362
▁throat	-7363
▁within	-7364
▁worker	-7365
▁bottles	-7366
▁cottage	-7367
▁courage	-7368
▁dentist	-7369
▁finding	-7370
▁journey	-7371
▁knowing	-7372
▁matters	-7373
▁reminds	-7374
▁someday	-7375
▁tickets	-7376
▁我永遠不會忘記	-7377
itzerland	-7378
▁audience	-7379
▁diseases	-7380
▁downtown	-7381
▁expected	-7382
▁includes	-7383
▁laughing	-7384
▁overtime	-7385
▁promised	-7386
▁repaired	-7387
▁己所不欲勿施于人	-7388
▁Australia	-7389
▁advantage	-7390
▁apartment	-7391
▁assistant	-7392
▁generally	-7393
▁intention	-7394
▁invention	-7395
▁particles	-7396
▁scientist	-7397
▁collecting	-7398
▁foundation	-7399
▁importance	-7400
▁opportunity	-7401
2)	-7402
ds	-7403
ev	-7404
ey	-7405
▁二	-7406
▁代	-7407
▁住	-7408
▁克	-7409
▁刀	-7410
▁划	-7411
▁吹	-7412
▁哄	-7413
▁壶	-7414
▁寻	-7415
▁归	-7416
▁慢	-7417
▁承	-7418
▁拱	-7419
▁拿	-7420
▁擦	-7421
▁此	-7422
▁气	-7423
▁油	-7424
▁漏	-7425
▁珠	-7426
▁离	-7427
▁笔	-7428
▁管	-7429
▁罩	-7430
▁蒸	-7431
▁衣	-7432
▁补	-7433
▁装	-7434
▁跳	-7435
▁逗	-7436
▁闲	-7437
▁领	-7438
▁齐	-7439
」,	-7440
三点	-7441
下的	-7442
也是	-7443
事件	-7444
优惠	-7445
偶然	-7446
六十	-7447
共同	-7448
冷了	-7449
动了	-7450
卦名	-7451
吓跳	-7452
坐下	-7453
埋怨	-7454
大家	-7455
好看	-7456
宫殿	-7457
害羞	-7458
家谱	-7459
容量	-7460
寄生	-7461
山上	-7462
帮你	-7463
快的	-7464
悠久	-7465
慢跑	-7466
懒惰	-7467
房前	-7468
打扫	-7469
投掷	-7470
撒遍	-7471
更高	-7472
有七	-7473
有三	-7474
有用	-7475
果吉	-7476
橘子	-7477
歌曲	-7478
母羊	-7479
每秒	-7480
汉字	-7481
沙拉	-7482
沿着	-7483
理论	-7484
生血	-7485
目标	-7486
砰砰	-7487
祝告	-7488
称为	-7489
粒子	-7490
纽襻	-7491
织布	-7492
绿色	-7493
胳膊	-7494
舒畅	-7495
芝麻	-7496
茶吗	-7497
融化	-7498
训练	-7499
语法	-7500
财富	-7501
部落	-7502
14。	-7503
16。	-7504
325	-7505
419	-7506
49。	-7507
65。	-7508
70。	-7509
73。	-7510
76。	-7511
hip	-7512
osh	-7513
ror	-7514
ury	-7515
▁Fu	-7516
▁Go	-7517
▁Se	-7518
▁公司	-7519
▁她会	-7520
▁把是	-7521
▁既然	-7522
▁生活	-7523
▁科学	-7524
▁通知	-7525
个字符	-7526
乐器的	-7527
去散步	-7528
和广西	-7529
地里的	-7530
寄生茶	-7531
更聪明	-7532
比英文	-7533
白生生	-7534
的重要	-7535
的食物	-7536
说英语	-7537
))).	-7538
arch	-7539
irts	-7540
line	-7541
more	-7542
rite	-7543
ship	-7544
tail	-7545
▁Car	-7546
▁Two	-7547
▁dam	-7548
▁deb	-7549
▁dna	-7550
▁dra	-7551
▁gar	-7552
▁iss	-7553
▁led	-7554
▁lin	-7555
▁non	-7556
▁obs	-7557
▁pan	-7558
▁他跑得	-7559
▁你不会	-7560
▁我有点	-7561
▁活到老	-7562
努力学习	-7563
发生什么	-7564
否定副词	-7565
和你聊天	-7566
彝族先民	-7567
形容嚼食	-7568
服务器上	-7569
cling	-7570
itive	-7571
▁Mari	-7572
▁Only	-7573
▁Were	-7574
▁beat	-7575
▁fort	-7576
▁iron	-7577
▁mill	-7578
▁nerv	-7579
▁page	-7580
▁phen	-7581
▁priv	-7582
▁surv	-7583
▁tony	-7584
▁彝文中是	-7585
▁这个问题	-7586
是什么时候	-7587
贵州和广西	-7588
estock	-7589
▁China	-7590
▁Somet	-7591
▁appro	-7592
▁betty	-7593
▁ocean	-7594
▁salad	-7595
▁sched	-7596
▁schol	-7597
▁serve	-7598
▁treat	-7599
▁我可以聊天	-7600
随时为你服务	-7601
inguish	-7602
▁France	-7603
▁George	-7604
▁Mayuko	-7605
▁United	-7606
▁george	-7607
▁lonely	-7608
▁louder	-7609
▁moving	-7610
▁proper	-7611
▁我在服务器上	-7612
很高兴和你聊天	-7613
ological	-7614
▁ability	-7615
▁convers	-7616
▁forgive	-7617
▁instead	-7618
▁manager	-7619
▁million	-7620
▁nervous	-7621
▁compared	-7622
▁password	-7623
▁phenomen	-7624
▁recently	-7625
▁teachers	-7626
▁visiting	-7627
▁buildings	-7628
▁discussed	-7629
▁mechanics	-7630
▁whichever	-7631
▁distributed	-7632
▁civilization	-7633
▁disappointed	-7634
06	-7635
fl	-7636
ta	-7637
xi	-7638
za	-7639
ǒu	-7640
▁x	-7641
▁了	-7642
▁件	-7643
▁会	-7644
▁使	-7645
▁兩	-7646
▁其	-7647
▁凡	-7648
▁同	-7649
▁吵	-7650
▁干	-7651
▁彼	-7652
▁拉	-7653
▁挺	-7654
▁数	-7655
▁林	-7656
▁栓	-7657
▁沒	-7658
▁牢	-7659
▁特	-7660
▁王	-7661
▁碰	-7662
▁站	-7663
▁端	-7664
▁给	-7665
▁绝	-7666
▁缺	-7667
▁罐	-7668
▁聽	-7669
▁荡	-7670
▁虎	-7671
▁贪	-7672
▁锁	-7673
▁隔	-7674
▁鼓	-7675
▁󲈮	-7676
一把	-7677
一片	-7678
一门	-7679
一隻	-7680
上下	-7681
上升	-7682
上级	-7683
不下	-7684
不够	-7685
不對	-7686
不足	-7687
东方	-7688
乍鸟	-7689
也沒	-7690
买的	-7691
了三	-7692
了吧	-7693
二月	-7694
五点	-7695
他在	-7696
付款	-7697
以为	-7698
伶俐	-7699
作品	-7700
你说	-7701
侄子	-7702
來嗎	-7703
來越	-7704
倒霉	-7705
债务	-7706
假期	-7707
偶爾	-7708
傷了	-7709
全力	-7710
公寓	-7711
冻菌	-7712
几天	-7713
出国	-7714
出差	-7715
出殡	-7716
刀霍	-7717
分支	-7718
制的	-7719
加班	-7720
化学	-7721
北海	-7722
区块	-7723
反對	-7724
取名	-7725
古典	-7726
吃过	-7727
各种	-7728
向前	-7729
否則	-7730
响声	-7731
哪個	-7732
哼哈	-7733
唱片	-7734
嗜好	-7735
国外	-7736
在了	-7737
在你	-7738
在地	-7739
在床	-7740
填塞	-7741
增加	-7742
墨西	-7743
复活	-7744
外语	-7745
大約	-7746
大聲	-7747
天空	-7748
太空	-7749
头发	-7750
女士	-7751
好人	-7752
好运	-7753
學會	-7754
守卫	-7755
家的	-7756
容器	-7757
富有	-7758
对神	-7759
將在	-7760
對面	-7761
小了	-7762
小提	-7763
小说	-7764
尖的	-7765
尺寸	-7766
山茶	-7767
帘子	-7768
帮子	-7769
干嘛	-7770
年齡	-7771
并行	-7772
幸運	-7773
弗雷	-7774
当时	-7775
後悔	-7776
微笑	-7777
忙嗎	-7778
怜悯	-7779
我把	-7780
戒指	-7781
手提	-7782
打猎	-7783
抽烟	-7784
拒绝	-7785
拜訪	-7786
指望	-7787
挑战	-7788
捣衣	-7789
措施	-7790
摆夷	-7791
摆艺	-7792
摔倒	-7793
撒娇	-7794
教師	-7795
新鲜	-7796
无所	-7797
明智	-7798
晴天	-7799
暑假	-7800
暗了	-7801
未来	-7802
杏子	-7803
来吗	-7804
板栗	-7805
枝花	-7806
柏松	-7807
树叶	-7808
梨子	-7809
楼枕	-7810
概念	-7811
比如	-7812
沽湖	-7813
法律	-7814
泥土	-7815
洞口	-7816
溶化	-7817
演奏	-7818
灶孔	-7819
玻璃	-7820
瓜子	-7821
瓶子	-7822
生产	-7823
用功	-7824
申请	-7825
畜牲	-7826
畢業	-7827
病了	-7828
病魔	-7829
痛苦	-7830
的屁	-7831
皮肤	-7832
监牢	-7833
相處	-7834
睡眠	-7835
礼拜	-7836
神经	-7837
祭献	-7838
稀疏	-7839
笛子	-7840
第十	-7841
答應	-7842
籃球	-7843
經過	-7844
纽扣	-7845
组装	-7846
结构	-7847
给她	-7848
羡慕	-7849
群鸦	-7850
老板	-7851
而言	-7852
肋骨	-7853
胡琴	-7854
能夠	-7855
舅娘	-7856
舉行	-7857
节省	-7858
芫荽	-7859
花生	-7860
苗族	-7861
菌子	-7862
落下	-7863
蘑菇	-7864
虾子	-7865
行了	-7866
被盖	-7867
裡面	-7868
要花	-7869
見到	-7870
解说	-7871
設法	-7872
試著	-7873
誠實	-7874
說了	-7875
說的	-7876
說謊	-7877
试着	-7878
试试	-7879
豐富	-7880
负责	-7881
贿赂	-7882
赠送	-7883
超过	-7884
跟她	-7885
車嗎	-7886
辭職	-7887
过量	-7888
还有	-7889
进了	-7890
逝世	-7891
進入	-7892
道理	-7893
遗留	-7894
那時	-7895
部位	-7896
野餐	-7897
錯的	-7898
铃铛	-7899
铜等	-7900
铺盖	-7901
锦鸡	-7902
镰刀	-7903
阿姨	-7904
雨傘	-7905
零碎	-7906
馈赠	-7907
首长	-7908
香肠	-7909
驚訝	-7910
骨头	-7911
魔鬼	-7912
鲍勃	-7913
鳝鱼	-7914
麒麟	-7915
13。	-7916
33。	-7917
38。	-7918
427	-7919
46。	-7920
57。	-7921
641	-7922
71。	-7923
83。	-7924
The	-7925
amm	-7926
ays	-7927
con	-7928
iao	-7929
okk	-7930
tee	-7931
ule	-7932
val	-7933
xic	-7934
▁16	-7935
▁35	-7936
▁37	-7937
▁39	-7938
▁40	-7939
▁47	-7940
▁一些	-7941
▁他問	-7942
▁他能	-7943
▁你只	-7944
▁你對	-7945
▁你本	-7946
▁太陽	-7947
▁快点	-7948
▁您有	-7949
▁您能	-7950
▁我为	-7951
▁我付	-7952
▁我再	-7953
▁我好	-7954
▁我学	-7955
▁我将	-7956
▁我怕	-7957
▁我打	-7958
▁海倫	-7959
▁漂亮	-7960
▁當你	-7961
▁看看	-7962
▁移动	-7963
▁紐約	-7964
▁老人	-7965
▁蘇珊	-7966
▁这本	-7967
▁那座	-7968
▁那時	-7969
▁顺利	-7970
▁麥克	-7971
一封信	-7972
一點嗎	-7973
下雪了	-7974
不耐烦	-7975
中受了	-7976
互联网	-7977
什麼都	-7978
任何事	-7979
你喜歡	-7980
你自己	-7981
做的事	-7982
刀霍霍	-7983
北海道	-7984
区块链	-7985
博物馆	-7986
去睡覺	-7987
史密斯	-7988
呆多久	-7989
和我的	-7990
咖啡嗎	-7991
在這裏	-7992
墨西哥	-7993
天气热	-7994
学到老	-7995
學生都	-7996
學英文	-7997
小女孩	-7998
小提琴	-7999
工作了	-8000
巨大的	-8001
市中心	-8002
彝语说	-8003
很丰富	-8004
得開心	-8005
怎么做	-8006
我很懒	-8007
我是你	-8008
房间里	-8009
打破了	-8010
抓住了	-8011
捣衣棍	-8012
有一家	-8013
有五十	-8014
有需要	-8015
松明子	-8016
橙色的	-8017
比火车	-8018
泸沽湖	-8019
為甚麼	-8020
爱好是	-8021
甚麼事	-8022
的历史	-8023
的原因	-8024
的天氣	-8025
的學生	-8026
的消息	-8027
的那個	-8028
粉色的	-8029
紫色的	-8030
總是在	-8031
美国人	-8032
義大利	-8033
而尖的	-8034
腮帮子	-8035
自己做	-8036
英文是	-8037
裝滿了	-8038
這封信	-8039
通常比	-8040
遇見了	-8041
部族名	-8042
金色的	-8043
银铜等	-8044
陌生人	-8045
高中生	-8046
黄色的	-8047
aido	-8048
aily	-8049
aped	-8050
aves	-8051
▁	-8052
e	-8053
t	-8054
i	-8055
o	-8056
a	-8057
s	-8058
n	-8059
r	-8060
h	-8061
l	-8062
d	-8063
c	-8064
.	-8065
。	-8066
u	-8067
y	-8068
m	-8069
p	-8070
w	-8071
f	-8072
g	-8073
文	-8074
是	-8075
的	-8076
(	-8077
)	-8078
?	-8079
我	-8080
b	-8081
,	-8082
彝	-8083
'	-8084
k	-8085
v	-8086
字	-8087
了	-8088
这	-8089
Y	-8090
符	-8091
你	-8092
T	-8093
0	-8094
2	-8095
I	-8096
他	-8097
么	-8098
x	-8099
、	-8100
一	-8101
:	-8102
用	-8103
在	-8104
3	-8105
1	-8106
不	-8107
什	-8108
H	-8109
个	-8110
英	-8111
有	-8112
;	-8113
中	-8114
很	-8115
子	-8116
编	-8117
号	-8118
翻	-8119
译	-8120
5	-8121
4	-8122
天	-8123
要	-8124
6	-8125
两	-8126
合	-8127
C	-8128
人	-8129
這	-8130
组	-8131
上	-8132
词	-8133
作	-8134
|	-8135
9	-8136
通	-8137
8	-8138
请	-8139
和	-8140
7	-8141
去	-8142
到	-8143
多	-8144
好	-8145
表	-8146
W	-8147
们	-8148
怎	-8149
生	-8150
個	-8151
对	-8152
那	-8153
问	-8154
想	-8155
把	-8156
j	-8157
写	-8158
下	-8159
們	-8160
意	-8161
示	-8162
看	-8163
!	-8164
应	-8165
能	-8166
量	-8167
得	-8168
分	-8169
可	-8170
会	-8171
嗎	-8172
大	-8173
「	-8174
」	-8175
成	-8176
喜	-8177
以	-8178
家	-8179
语	-8180
都	-8181
地	-8182
比	-8183
学	-8184
来	-8185
會	-8186
吗	-8187
等	-8188
她	-8189
本	-8190
就	-8191
做	-8192
來	-8193
q	-8194
动	-8195
于	-8196
别	-8197
族	-8198
M	-8199
起	-8200
最	-8201
说	-8202
为	-8203
小	-8204
年	-8205
时	-8206
麼	-8207
里	-8208
水	-8209
打	-8210
吃	-8211
事	-8212
出	-8213
名	-8214
道	-8215
老	-8216
日	-8217
自	-8218
A	-8219
行	-8220
S	-8221
明	-8222
今	-8223
欢	-8224
知	-8225
時	-8226
工	-8227
车	-8228
过	-8229
没	-8230
沒	-8231
加	-8232
孩	-8233
少	-8234
前	-8235
更	-8236
化	-8237
常	-8238
D	-8239
法	-8240
快	-8241
点	-8242
气	-8243
裡	-8244
說	-8245
面	-8246
回	-8247
"	-8248
物	-8249
重	-8250
果	-8251
十	-8252
高	-8253
心	-8254
花	-8255
晚	-8256
早	-8257
集	-8258
每	-8259
車	-8260
火	-8261
哪	-8262
些	-8263
开	-8264
书	-8265
點	-8266
被	-8267
公	-8268
太	-8269
候	-8270
房	-8271
學	-8272
z	-8273
体	-8274
之	-8275
美	-8276
球	-8277
走	-8278
過	-8279
昨	-8280
正	-8281
国	-8282
也	-8283
對	-8284
然	-8285
手	-8286
請	-8287
開	-8288
如	-8289
定	-8290
解	-8291
发	-8292
系	-8293
J	-8294
头	-8295
位	-8296
為	-8297
給	-8298
感	-8299
机	-8300
相	-8301
完	-8302
使	-8303
儿	-8304
信	-8305
给	-8306
电	-8307
山	-8308
西	-8309
E	-8310
三	-8311
方	-8312
您	-8313
歡	-8314
间	-8315
着	-8316
音	-8317
饭	-8318
古	-8319
理	-8320
色	-8321
力	-8322
月	-8323
思	-8324
所	-8325
数	-8326
住	-8327
种	-8328
口	-8329
雨	-8330
書	-8331
再	-8332
P	-8333
放	-8334
真	-8335
需	-8336
只	-8337
义	-8338
容	-8339
叫	-8340
形	-8341
話	-8342
告	-8343
午	-8344
姆	-8345
路	-8346
话	-8347
传	-8348
語	-8349
世	-8350
见	-8351
必	-8352
部	-8353
服	-8354
同	-8355
样	-8356
吧	-8357
民	-8358
已	-8359
女	-8360
还	-8361
星	-8362
何	-8363
活	-8364
外	-8365
新	-8366
睡	-8367
友	-8368
L	-8369
電	-8370
从	-8371
后	-8372
次	-8373
现	-8374
空	-8375
跟	-8376
特	-8377
言	-8378
但	-8379
记	-8380
朋	-8381
任	-8382
全	-8383
始	-8384
期	-8385
間	-8386
男	-8387
N	-8388
声	-8389
己	-8390
游	-8391
非	-8392
國	-8393
衣	-8394
第	-8395
故	-8396
經	-8397
无	-8398
考	-8399
B	-8400
喝	-8401
件	-8402
含	-8403
经	-8404
利	-8405
直	-8406
该	-8407
接	-8408
觉	-8409
而	-8410
门	-8411
五	-8412
钱	-8413
安	-8414
校	-8415
受	-8416
狗	-8417
市	-8418
实	-8419
母	-8420
界	-8421
父	-8422
見	-8423
神	-8424
关	-8425
节	-8426
长	-8427
發	-8428
息	-8429
站	-8430
收	-8431
马	-8432
二	-8433
因	-8434
該	-8435
問	-8436
算	-8437
待	-8438
望	-8439
從	-8440
樣	-8441
現	-8442
著	-8443
医	-8444
先	-8445
习	-8446
跑	-8447
师	-8448
情	-8449
教	-8450
仅	-8451
答	-8452
菜	-8453
讓	-8454
乐	-8455
步	-8456
让	-8457
越	-8458
达	-8459
史	-8460
白	-8461
乘	-8462
亮	-8463
它	-8464
找	-8465
影	-8466
度	-8467
立	-8468
食	-8469
G	-8470
忙	-8471
助	-8472
久	-8473
兴	-8474
死	-8475
照	-8476
智	-8477
機	-8478
缀	-8479
功	-8480
班	-8481
六	-8482
包	-8483
弟	-8484
河	-8485
保	-8486
树	-8487
應	-8488
湯	-8489
無	-8490
O	-8491
承	-8492
听	-8493
近	-8494
城	-8495
结	-8496
餐	-8497
K	-8498
其	-8499
周	-8500
整	-8501
片	-8502
像	-8503
买	-8504
指	-8505
東	-8506
认	-8507
东	-8508
性	-8509
谢	-8510
难	-8511
统	-8512
還	-8513
祖	-8514
身	-8515
向	-8516
-	-8517
F	-8518
帮	-8519
眼	-8520
准	-8521
巴	-8522
牛	-8523
主	-8524
远	-8525
士	-8526
计	-8527
四	-8528
希	-8529
平	-8530
病	-8531
酒	-8532
题	-8533
京	-8534
支	-8535
海	-8536
爱	-8537
失	-8538
消	-8539
歌	-8540
盖	-8541
泳	-8542
交	-8543
姐	-8544
趣	-8545
錢	-8546
猫	-8547
克	-8548
历	-8549
氣	-8550
茶	-8551
裏	-8552
边	-8553
坐	-8554
聽	-8555
鱼	-8556
累	-8557
深	-8558
兒	-8559
变	-8560
由	-8561
态	-8562
条	-8563
忘	-8564
覺	-8565
几	-8566
拿	-8567
背	-8568
妹	-8569
康	-8570
後	-8571
漂	-8572
笑	-8573
桌	-8574
題	-8575
鸟	-8576
黑	-8577
健	-8578
读	-8579
便	-8580
穿	-8581
谁	-8582
朵	-8583
虑	-8584
清	-8585
建	-8586
载	-8587
风	-8588
台	-8589
米	-8590
洗	-8591
贵	-8592
味	-8593
格	-8594
草	-8595
兩	-8596
哥	-8597
玩	-8598
养	-8599
器	-8600
動	-8601
誰	-8602
详	-8603
冷	-8604
布	-8605
具	-8606
幫	-8607
强	-8608
於	-8609
親	-8610
爸	-8611
千	-8612
留	-8613
入	-8614
光	-8615
板	-8616
肯	-8617
長	-8618
咖	-8619
叔	-8620
提	-8621
约	-8622
刀	-8623
模	-8624
干	-8625
离	-8626
足	-8627
啡	-8628
处	-8629
幾	-8630
樂	-8631
石	-8632
雪	-8633
丽	-8634
减	-8635
注	-8636
甚	-8637
精	-8638
象	-8639
场	-8640
場	-8641
寫	-8642
流	-8643
床	-8644
元	-8645
旅	-8646
错	-8647
代	-8648
园	-8649
木	-8650
琴	-8651
运	-8652
掉	-8653
确	-8654
取	-8655
慢	-8656
论	-8657
送	-8658
“	-8659
叠	-8660
呢	-8661
当	-8662
皮	-8663
落	-8664
阳	-8665
乎	-8666
张	-8667
持	-8668
讀	-8669
怕	-8670
金	-8671
”	-8672
散	-8673
治	-8674
油	-8675
半	-8676
夏	-8677
烂	-8678
錯	-8679
份	-8680
痛	-8681
易	-8682
買	-8683
倒	-8684
富	-8685
慧	-8686
介	-8687
停	-8688
切	-8689
属	-8690
奶	-8691
录	-8692
當	-8693
称	-8694
独	-8695
鸡	-8696
许	-8697
进	-8698
門	-8699
八	-8700
轻	-8701
休	-8702
原	-8703
烟	-8704
者	-8705
啊	-8706
才	-8707
伤	-8708
吸	-8709
涵	-8710
修	-8711
別	-8712
灵	-8713
跳	-8714
唱	-8715
改	-8716
遗	-8717
须	-8718
产	-8719
客	-8720
识	-8721
座	-8722
杯	-8723
汤	-8724
百	-8725
目	-8726
飞	-8727
麻	-8728
亲	-8729
總	-8730
视	-8731
派	-8732
+	-8733
诉	-8734
野	-8735
育	-8736
松	-8737
满	-8738
努	-8739
吉	-8740
带	-8741
架	-8742
汉	-8743
典	-8744
師	-8745
往	-8746
热	-8747
蛋	-8748
料	-8749
与	-8750
业	-8751
命	-8752
折	-8753
试	-8754
转	-8755
又	-8756
店	-8757
條	-8758
約	-8759
鐘	-8760
難	-8761
箱	-8762
网	-8763
德	-8764
土	-8765
將	-8766
根	-8767
科	-8768
管	-8769
角	-8770
關	-8771
察	-8772
祭	-8773
首	-8774
票	-8775
認	-8776
婚	-8777
类	-8778
内	-8779
密	-8780
差	-8781
牙	-8782
福	-8783
香	-8784
盛	-8785
脑	-8786
Q	-8787
張	-8788
层	-8789
念	-8790
毛	-8791
猪	-8792
借	-8793
磨	-8794
耳	-8795
記	-8796
超	-8797
冬	-8798
单	-8799
求	-8800
豆	-8801
嘴	-8802
春	-8803
肉	-8804
須	-8805
麗	-8806
付	-8807
社	-8808
程	-8809
决	-8810
景	-8811
烧	-8812
聪	-8813
七	-8814
威	-8815
总	-8816
曾	-8817
红	-8818
羊	-8819
訴	-8820
警	-8821
進	-8822
术	-8823
舞	-8824
虎	-8825
南	-8826
底	-8827
式	-8828
飯	-8829
夫	-8830
北	-8831
厚	-8832
害	-8833
川	-8834
斯	-8835
速	-8836
遇	-8837
备	-8838
护	-8839
抽	-8840
制	-8841
夜	-8842
谷	-8843
造	-8844
画	-8845
万	-8846
帶	-8847
案	-8848
決	-8849
犯	-8850
礼	-8851
鞋	-8852
妈	-8853
弹	-8854
拉	-8855
拥	-8856
摆	-8857
脚	-8858
偷	-8859
愛	-8860
邊	-8861
封	-8862
敢	-8863
止	-8864
假	-8865
司	-8866
善	-8867
破	-8868
種	-8869
药	-8870
调	-8871
怪	-8872
汽	-8873
沉	-8874
值	-8875
困	-8876
幸	-8877
搭	-8878
習	-8879
興	-8880
云	-8881
价	-8882
叶	-8883
块	-8884
引	-8885
敦	-8886
议	-8887
附	-8888
随	-8889
品	-8890
帽	-8891
謝	-8892
祝	-8893
壮	-8894
温	-8895
瑪	-8896
離	-8897
丢	-8898
供	-8899
即	-8900
微	-8901
泡	-8902
连	-8903
占	-8904
挑	-8905
珍	-8906
視	-8907
费	-8908
󲊂	-8909
刻	-8910
断	-8911
仍	-8912
窗	-8913
舒	-8914
院	-8915
席	-8916
棒	-8917
演	-8918
頭	-8919
依	-8920
将	-8921
懂	-8922
拍	-8923
笔	-8924
静	-8925
V	-8926
卡	-8927
突	-8928
計	-8929
論	-8930
遠	-8931
馆	-8932
银	-8933
除	-8934
九	-8935
缩	-8936
翰	-8937
刺	-8938
图	-8939
室	-8940
灰	-8941
秋	-8942
缺	-8943
讲	-8944
够	-8945
展	-8946
抱	-8947
結	-8948
群	-8949
馬	-8950
冰	-8951
勇	-8952
否	-8953
梦	-8954
迟	-8955
肚	-8956
隻	-8957
坏	-8958
岁	-8959
摇	-8960
状	-8961
園	-8962
妻	-8963
屋	-8964
枪	-8965
洲	-8966
糊	-8967
醫	-8968
务	-8969
斗	-8970
源	-8971
线	-8972
林	-8973
染	-8974
绍	-8975
試	-8976
唠	-8977
左	-8978
畜	-8979
区	-8980
复	-8981
奇	-8982
糕	-8983
議	-8984
週	-8985
饿	-8986
争	-8987
兄	-8988
反	-8989
尽	-8990
滇	-8991
选	-8992
基	-8993
报	-8994
R	-8995
响	-8996
黄	-8997
田	-8998
輛	-8999
钟	-9000
及	-9001
担	-9002
村	-9003
苹	-9004
践	-9005
未	-9006
核	-9007
浪	-9008
筆	-9009
缠	-9010
迎	-9011
達	-9012
型	-9013
弄	-9014
虫	-9015
装	-9016
青	-9017
永	-9018
熟	-9019
腿	-9020
船	-9021
袋	-9022
館	-9023
叨	-9024
员	-9025
洞	-9026
测	-9027
环	-9028
苦	-9029
共	-9030
句	-9031
泥	-9032
網	-9033
细	-9034
良	-9035
规	-9036
办	-9037
急	-9038
换	-9039
敬	-9040
查	-9041
此	-9042
讨	-9043
辆	-9044
迷	-9045
阿	-9046
倫	-9047
剛	-9048
据	-9049
禁	-9050
窝	-9051
划	-9052
危	-9053
右	-9054
州	-9055
牲	-9056
哭	-9057
套	-9058
柴	-9059
滿	-9060
許	-9061
變	-9062
酸	-9063
臭	-9064
锅	-9065
似	-9066
围	-9067
撒	-9068
爾	-9069
纠	-9070
胡	-9071
述	-9072
靠	-9073
黔	-9074
冒	-9075
寄	-9076
暖	-9077
洋	-9078
幽	-9079
準	-9080
移	-9081
稀	-9082
震	-9083
乌	-9084
惜	-9085
排	-9086
码	-9087
芋	-9088
免	-9089
冲	-9090
彈	-9091
律	-9092
推	-9093
瓜	-9094
瓶	-9095
畫	-9096
聊	-9097
課	-9098
责	-9099
串	-9100
恐	-9101
或	-9102
摩	-9103
项	-9104
吹	-9105
植	-9106
楼	-9107
灿	-9108
续	-9109
腰	-9110
融	-9111
败	-9112
质	-9113
運	-9114
零	-9115
农	-9116
塞	-9117
战	-9118
拌	-9119
烦	-9120
紧	-9121
观	-9122
陷	-9123
員	-9124
宜	-9125
挂	-9126
疑	-9127
租	-9128
談	-9129
輕	-9130
遲	-9131
露	-9132
堂	-9133
惊	-9134
碰	-9135
街	-9136
顺	-9137
参	-9138
單	-9139
實	-9140
技	-9141
暗	-9142
業	-9143
歉	-9144
沙	-9145
盐	-9146
聲	-9147
血	-9148
遍	-9149
骨	-9150
商	-9151
尼	-9152
毕	-9153
渐	-9154
碎	-9155
蓝	-9156
课	-9157
各	-9158
导	-9159
爬	-9160
碗	-9161
講	-9162
飛	-9163
齐	-9164
亚	-9165
伯	-9166
净	-9167
弃	-9168
蜂	-9169
劃	-9170
守	-9171
愿	-9172
懒	-9173
拜	-9174
數	-9175
曲	-9176
杆	-9177
粒	-9178
處	-9179
裙	-9180
魚	-9181
怨	-9182
恶	-9183
悲	-9184
操	-9185
竹	-9186
终	-9187
參	-9188
积	-9189
稍	-9190
腐	-9191
虽	-9192
隨	-9193
令	-9194
华	-9195
另	-9196
忍	-9197
戒	-9198
纸	-9199
嚼	-9200
姓	-9201
媽	-9202
尖	-9203
抓	-9204
播	-9205
楚	-9206
滑	-9207
煙	-9208
爷	-9209
確	-9210
绝	-9211
膀	-9212
钢	-9213
願	-9214
鸦	-9215
鼓	-9216
丰	-9217
嫩	-9218
摔	-9219
犁	-9220
糖	-9221
纽	-9222
脸	-9223
藏	-9224
补	-9225
鬼	-9226
严	-9227
则	-9228
吵	-9229
堵	-9230
存	-9231
宝	-9232
按	-9233
政	-9234
渴	-9235
湖	-9236
爽	-9237
禮	-9238
绵	-9239
識	-9240
预	-9241
魔	-9242
且	-9243
乱	-9244
低	-9245
娃	-9246
撞	-9247
末	-9248
沸	-9249
专	-9250
伦	-9251
倦	-9252
傷	-9253
升	-9254
呼	-9255
圆	-9256
婆	-9257
枝	-9258
液	-9259
王	-9260
章	-9261
简	-9262
繁	-9263
绿	-9264
肥	-9265
软	-9266
退	-9267
選	-9268
闲	-9269
幅	-9270
扇	-9271
搅	-9272
旧	-9273
昆	-9274
粉	-9275
误	-9276
谈	-9277
赶	-9278
伙	-9279
匙	-9280
博	-9281
奉	-9282
宗	-9283
熱	-9284
砂	-9285
脏	-9286
蘋	-9287
印	-9288
厌	-9289
呀	-9290
哈	-9291
姑	-9292
旁	-9293
炎	-9294
甜	-9295
耐	-9296
至	-9297
艺	-9298
释	-9299
充	-9300
凉	-9301
尔	-9302
戏	-9303
投	-9304
擦	-9305
歲	-9306
滴	-9307
素	-9308
络	-9309
裝	-9310
赘	-9311
鋼	-9312
闭	-9313
顶	-9314
體	-9315
吐	-9316
境	-9317
孔	-9318
扣	-9319
权	-9320
污	-9321
炸	-9322
睛	-9323
粗	-9324
胎	-9325
逃	-9326
骗	-9327
亡	-9328
倍	-9329
愈	-9330
敏	-9331
費	-9332
傲	-9333
季	-9334
居	-9335
怀	-9336
牢	-9337
研	-9338
端	-9339
箭	-9340
赛	-9341
双	-9342
撮	-9343
朗	-9344
杀	-9345
束	-9346
某	-9347
椅	-9348
珠	-9349
瘦	-9350
登	-9351
短	-9352
矮	-9353
砍	-9354
设	-9355
賽	-9356
默	-9357
井	-9358
创	-9359
棚	-9360
煮	-9361
荡	-9362
邀	-9363
鼻	-9364
內	-9365
圖	-9366
并	-9367
悄	-9368
戴	-9369
掌	-9370
煩	-9371
猜	-9372
疼	-9373
联	-9374
聚	-9375
追	-9376
配	-9377
骑	-9378
丝	-9379
乾	-9380
志	-9381
抖	-9382
损	-9383
救	-9384
究	-9385
蒂	-9386
隔	-9387
黎	-9388
刮	-9389
剪	-9390
址	-9391
墨	-9392
壞	-9393
寒	-9394
索	-9395
胸	-9396
舅	-9397
萄	-9398
葡	-9399
虚	-9400
诗	-9401
踢	-9402
雀	-9403
互	-9404
卖	-9405
卧	-9406
巧	-9407
庄	-9408
疾	-9409
胆	-9410
螂	-9411
诚	-9412
辣	-9413
铃	-9414
锁	-9415
闪	-9416
鹿	-9417
列	-9418
勝	-9419
卫	-9420
報	-9421
尾	-9422
戶	-9423
抢	-9424
替	-9425
桥	-9426
梅	-9427
澡	-9428
紅	-9429
置	-9430
芽	-9431
蔬	-9432
誤	-9433
适	-9434
險	-9435
骄	-9436
麦	-9437
众	-9438
帝	-9439
斑	-9440
朝	-9441
梯	-9442
燃	-9443
牵	-9444
玛	-9445
省	-9446
箩	-9447
辛	-9448
U	-9449
並	-9450
乳	-9451
備	-9452
凱	-9453
厅	-9454
喷	-9455
塘	-9456
怜	-9457
樹	-9458
欲	-9459
益	-9460
盡	-9461
胃	-9462
芦	-9463
裂	-9464
辦	-9465
風	-9466
丑	-9467
仿	-9468
允	-9469
填	-9470
材	-9471
沟	-9472
瓢	-9473
脱	-9474
输	-9475
阅	-9476
坎	-9477
夢	-9478
宇	-9479
尊	-9480
彩	-9481
惯	-9482
拾	-9483
李	-9484
申	-9485
罗	-9486
般	-9487
蒸	-9488
领	-9489
崽	-9490
慕	-9491
献	-9492
疲	-9493
蚂	-9494
降	-9495
债	-9496
初	-9497
喉	-9498
姊	-9499
宙	-9500
广	-9501
归	-9502
昌	-9503
池	-9504
泣	-9505
熊	-9506
狐	-9507
秘	-9508
稻	-9509
薄	-9510
逗	-9511
防	-9512
举	-9513
剩	-9514
扒	-9515
拼	-9516
槽	-9517
混	-9518
贫	-9519
避	-9520
醒	-9521
闹	-9522
阴	-9523
霍	-9524
魂	-9525
佩	-9526
偿	-9527
傻	-9528
固	-9529
坚	-9530
坟	-9531
户	-9532
招	-9533
挡	-9534
螳	-9535
雷	-9536
駕	-9537
鮑	-9538
丈	-9539
伴	-9540
凸	-9541
劳	-9542
圈	-9543
堆	-9544
壁	-9545
娇	-9546
杂	-9547
极	-9548
狸	-9549
童	-9550
罩	-9551
距	-9552
铅	-9553
卦	-9554
垫	-9555
夠	-9556
弱	-9557
挣	-9558
效	-9559
晴	-9560
桃	-9561
梨	-9562
欠	-9563
灯	-9564
祈	-9565
稠	-9566
節	-9567
粮	-9568
紙	-9569
级	-9570
织	-9571
罪	-9572
苗	-9573
討	-9574
谐	-9575
郵	-9576
钓	-9577
隊	-9578
额	-9579
鲁	-9580
偶	-9581
咽	-9582
尘	-9583
挺	-9584
控	-9585
笆	-9586
糟	-9587
资	-9588
隐	-9589
饮	-9590
鼠	-9591
优	-9592
勺	-9593
勾	-9594
序	-9595
怒	-9596
拐	-9597
挤	-9598
捆	-9599
捕	-9600
插	-9601
森	-9602
滚	-9603
灾	-9604
疮	-9605
笨	-9606
练	-9607
继	-9608
致	-9609
與	-9610
藤	-9611
號	-9612
财	-9613
較	-9614
递	-9615
勤	-9616
匹	-9617
团	-9618
均	-9619
屎	-9620
庭	-9621
恩	-9622
扫	-9623
摸	-9624
敲	-9625
施	-9626
欺	-9627
波	-9628
添	-9629
监	-9630
紫	-9631
纪	-9632
绕	-9633
蛇	-9634
迹	-9635
针	-9636
铁	-9637
雾	-9638
凝	-9639
压	-9640
呆	-9641
墓	-9642
增	-9643
慣	-9644
扳	-9645
拢	-9646
暴	-9647
歪	-9648
段	-9649
渡	-9650
烙	-9651
烫	-9652
爆	-9653
獨	-9654
率	-9655
盒	-9656
篾	-9657
耽	-9658
貌	-9659
貓	-9660
錶	-9661
雄	-9662
俄	-9663
局	-9664
托	-9665
握	-9666
普	-9667
玉	-9668
矩	-9669
穷	-9670
腾	-9671
莓	-9672
蒙	-9673
轴	-9674
铜	-9675
鸣	-9676
亞	-9677
侄	-9678
况	-9679
勃	-9680
咒	-9681
忠	-9682
揭	-9683
撕	-9684
暑	-9685
构	-9686
橙	-9687
祀	-9688
签	-9689
續	-9690
羅	-9691
获	-9692
谎	-9693
踏	-9694
透	-9695
遊	-9696
顽	-9697
饰	-9698
髮	-9699
龙	-9700
乍	-9701
仗	-9702
叹	-9703
圣	-9704
娘	-9705
惑	-9706
拱	-9707
杨	-9708
棍	-9709
棕	-9710
椒	-9711
瞄	-9712
祷	-9713
禄	-9714
篇	-9715
胜	-9716
芒	-9717
芝	-9718
苔	-9719
菌	-9720
裤	-9721
负	-9722
齿	-9723
傑	-9724
價	-9725
刨	-9726
副	-9727
嘛	-9728
捂	-9729
搬	-9730
擅	-9731
攻	-9732
樓	-9733
浮	-9734
漆	-9735
狠	-9736
盆	-9737
箕	-9738
紐	-9739
肮	-9740
蜴	-9741
衫	-9742
讶	-9743
险	-9744
顾	-9745
鲜	-9746
伞	-9747
勿	-9748
匆	-9749
咬	-9750
孕	-9751
孤	-9752
探	-9753
桶	-9754
湿	-9755
炉	-9756
瘪	-9757
缓	-9758
肿	-9759
胁	-9760
脊	-9761
腻	-9762
菇	-9763
蜥	-9764
遮	-9765
乒	-9766
估	-9767
侍	-9768
兔	-9769
刷	-9770
剥	-9771
唯	-9772
塊	-9773
塔	-9774
愉	-9775
扯	-9776
掩	-9777
棵	-9778
济	-9779
浓	-9780
溫	-9781
漏	-9782
灭	-9783
狮	-9784
硬	-9785
紀	-9786
終	-9787
肩	-9788
腦	-9789
舌	-9790
荒	-9791
触	-9792
趕	-9793
陶	-9794
饱	-9795
饼	-9796
駛	-9797
龄	-9798
嘎	-9799
嫁	-9800
宁	-9801
射	-9802
柔	-9803
泼	-9804
瓷	-9805
甩	-9806
盘	-9807
砰	-9808
篱	-9809
罢	-9810
耍	-9811
蓑	-9812
赌	-9813
黏	-9814
俗	-9815
冻	-9816
凿	-9817
忆	-9818
忌	-9819
慎	-9820
批	-9821
摘	-9822
棟	-9823
淋	-9824
潮	-9825
爭	-9826
瓦	-9827
皇	-9828
笼	-9829
組	-9830
羞	-9831
脾	-9832
荷	-9833
蕾	-9834
蘇	-9835
虐	-9836
蟹	-9837
貝	-9838
较	-9839
迪	-9840
遣	-9841
邁	-9842
驗	-9843
俏	-9844
吆	-9845
哎	-9846
喳	-9847
娶	-9848
寿	-9849
巢	-9850
彼	-9851
杖	-9852
灶	-9853
炒	-9854
烤	-9855
燕	-9856
猎	-9857
绞	-9858
贪	-9859
赠	-9860
赢	-9861
邻	-9862
锋	-9863
颗	-9864
驾	-9865
佛	-9866
則	-9867
削	-9868
務	-9869
叽	-9870
啤	-9871
喧	-9872
坑	-9873
夭	-9874
夷	-9875
奏	-9876
尺	-9877
愚	-9878
戰	-9879
扔	-9880
抚	-9881
擔	-9882
既	-9883
概	-9884
榫	-9885
款	-9886
毫	-9887
玻	-9888
砚	-9889
絕	-9890
纳	-9891
缝	-9892
脂	-9893
茎	-9894
荣	-9895
莎	-9896
虹	-9897
訂	-9898
训	-9899
跌	-9900
辨	-9901
連	-9902
采	-9903
凑	-9904
呕	-9905
奋	-9906
延	-9907
披	-9908
拔	-9909
标	-9910
泛	-9911
浊	-9912
溜	-9913
牌	-9914
耕	-9915
肋	-9916
臀	-9917
赏	-9918
遵	-9919
闩	-9920
鲸	-9921
鹰	-9922
丟	-9923
仔	-9924
俱	-9925
倾	-9926
傘	-9927
兵	-9928
寻	-9929
弯	-9930
強	-9931
惩	-9932
抵	-9933
抹	-9934
搁	-9935
擊	-9936
晕	-9937
栗	-9938
殡	-9939
汁	-9940
淡	-9941
潜	-9942
澳	-9943
燈	-9944
疏	-9945
私	-9946
稼	-9947
耗	-9948
肠	-9949
舊	-9950
莫	-9951
蝶	-9952
詞	-9953
赤	-9954
逝	-9955
链	-9956
顧	-9957
颤	-9958
鳝	-9959
判	-9960
哼	-9961
唇	-9962
坝	-9963
塑	-9964
屁	-9965
弓	-9966
惧	-9967
抬	-9968
捅	-9969
斜	-9970
昏	-9971
显	-9972
梭	-9973
浸	-9974
猴	-9975
筑	-9976
糙	-9977
罐	-9978
胀	-9979
若	-9980
螃	-9981
覆	-9982
踩	-9983
踪	-9984
迁	-9985
返	-9986
钥	-9987
镶	-9988
闷	-9989
闻	-9990
革	-9991
顿	-9992
凡	-9993
勒	-9994
厭	-9995
唤	-9996
啦	-9997
坍	-9998
埋	-9999
壤	-10000
夹	-10001
妇	-10002
妒	-10003
嬰	-10004
岩	-10005
征	-10006
復	-10007
戚	-10008
抛	-10009
拟	-10010
斤	-10011
殺	-10012
沿	-10013
牧	-10014
盗	-10015
舂	-10016
舍	-10017
苍	-10018
萬	-10019
蓬	-10020
蝴	-10021
衡	-10022
調	-10023
谤	-10024
逐	-10025
適	-10026
鉛	-10027
鏡	-10028
铺	-10029
队	-10030
阻	-10031
陈	-10032
響	-10033
验	-10034
鳥	-10035
鸭	-10036
ā	-10037
丧	-10038
仇	-10039
傣	-10040
兜	-10041
劝	-10042
卷	-10043
哄	-10044
哨	-10045
废	-10046
恸	-10047
旋	-10048
洁	-10049
炼	-10050
璃	-10051
皱	-10052
窄	-10053
笠	-10054
绪	-10055
职	-10056
萝	-10057
虾	-10058
蟀	-10059
货	-10060
逛	-10061
韭	-10062
鳅	-10063
/	-10064
丛	-10065
伸	-10066
劈	-10067
哲	-10068
噪	-10069
嚎	-10070
埂	-10071
堡	-10072
壶	-10073
宿	-10074
尝	-10075
峰	-10076
弩	-10077
择	-10078
搏	-10079
晰	-10080
栓	-10081
武	-10082
氧	-10083
江	-10084
泸	-10085
洛	-10086
溅	-10087
溢	-10088
灌	-10089
狱	-10090
疗	-10091
簡	-10092
聖	-10093
聞	-10094
腳	-10095
茅	-10096
菠	-10097
蚁	-10098
衍	-10099
裹	-10100
觀	-10101
诙	-10102
诺	-10103
诽	-10104
账	-10105
跤	-10106
钩	-10107
雙	-10108
雜	-10109
頂	-10110
預	-10111
页	-10112
養	-10113
鹽	-10114
乏	-10115
偏	-10116
凹	-10117
召	-10118
吓	-10119
呛	-10120
婴	-10121
嫉	-10122
孝	-10123
患	-10124
截	-10125
押	-10126
拨	-10127
掷	-10128
掺	-10129
擂	-10130
晃	-10131
枕	-10132
枯	-10133
柜	-10134
榴	-10135
横	-10136
毁	-10137
毡	-10138
汆	-10139
漫	-10140
猛	-10141
砖	-10142
砣	-10143
纹	-10144
股	-10145
膝	-10146
蜷	-10147
襟	-10148
豁	-10149
跨	-10150
钉	-10151
锦	-10152
镰	-10153
丸	-10154
仰	-10155
刚	-10156
喬	-10157
嗜	-10158
嘶	-10159
囤	-10160
墙	-10161
官	-10162
寸	-10163
帘	-10164
廚	-10165
悔	-10166
惠	-10167
援	-10168
旗	-10169
杜	-10170
泪	-10171
浆	-10172
激	-10173
焖	-10174
焰	-10175
燒	-10176
瓣	-10177
線	-10178
绳	-10179
聰	-10180
茧	-10181
茨	-10182
莉	-10183
蕉	-10184
蝼	-10185
襻	-10186
責	-10187
躺	-10188
轮	-10189
辈	-10190
銀	-10191
陽	-10192
霉	-10193
霭	-10194
餓	-10195
饲	-10196
髓	-10197
龟	-10198
󲵾	-10199
例	-10200
击	-10201
剔	-10202
势	-10203
壳	-10204
奔	-10205
孙	-10206
帕	-10207
括	-10208
挎	-10209
柳	-10210
梳	-10211
毒	-10212
汗	-10213
疫	-10214
盯	-10215
竖	-10216
筒	-10217
胖	-10218
臼	-10219
葫	-10220
蒜	-10221
蚱	-10222
诱	-10223
谱	-10224
赡	-10225
锥	-10226
陀	-10227
鳞	-10228
丁	-10229
丘	-10230
仁	-10231
仓	-10232
俐	-10233
傳	-10234
君	-10235
嚴	-10236
囫	-10237
垭	-10238
塌	-10239
妮	-10240
婿	-10241
巨	-10242
幼	-10243
庆	-10244
抠	-10245
拒	-10246
摊	-10247
晨	-10248
杏	-10249
柏	-10250
橋	-10251
歐	-10252
歷	-10253
毯	-10254
況	-10255
浅	-10256
浴	-10257
疤	-10258
痴	-10259
竟	-10260
筲	-10261
籃	-10262
纵	-10263
绣	-10264
義	-10265
茯	-10266
襯	-10267
證	-10268
订	-10269
贏	-10270
赚	-10271
蹈	-10272
躲	-10273
轉	-10274
途	-10275
醉	-10276
雲	-10277
靜	-10278
飘	-10279
鸽	-10280
󲹙	-10281
佑	-10282
侧	-10283
冠	-10284
吊	-10285
启	-10286
吼	-10287
呐	-10288
咐	-10289
嚏	-10290
坛	-10291
坡	-10292
培	-10293
姜	-10294
寡	-10295
寺	-10296
弦	-10297
悯	-10298
捷	-10299
攀	-10300
杉	-10301
殖	-10302
溶	-10303
濮	-10304
熄	-10305
熏	-10306
瘤	-10307
穗	-10308
笙	-10309
籽	-10310
腮	-10311
臂	-10312
茂	-10313
荫	-10314
营	-10315
葛	-10316
蛆	-10317
蜜	-10318
证	-10319
购	-10320
邮	-10321
镜	-10322
陪	-10323
颈	-10324
骂	-10325
鬃	-10326
󲠷	-10327
󲯷	-10328
󲺛	-10329
󳌶	-10330
—	-10331
伐	-10332
區	-10333
叙	-10334
吝	-10335
吞	-10336
吻	-10337
呲	-10338
咳	-10339
唆	-10340
寧	-10341
尿	-10342
憾	-10343
扬	-10344
拘	-10345
捉	-10346
換	-10347
擇	-10348
斥	-10349
斷	-10350
柄	-10351
栽	-10352
棉	-10353
槍	-10354
浑	-10355
涨	-10356
焦	-10357
爺	-10358
珊	-10359
盏	-10360
眉	-10361
睫	-10362
瞎	-10363
筋	-10364
繼	-10365
绊	-10366
缴	-10367
聯	-10368
職	-10369
胱	-10370
腌	-10371
苇	-10372
菱	-10373
蔼	-10374
蛙	-10375
術	-10376
袜	-10377
訪	-10378
誌	-10379
誕	-10380
護	-10381
谜	-10382
資	-10383
遞	-10384
釋	-10385
钻	-10386
铲	-10387
锄	-10388
飲	-10389
驚	-10390
驮	-10391
麒	-10392
󲣌	-10393
󲾥	-10394
󳖀	-10395
啄	-10396
嘻	-10397
扰	-10398
掐	-10399
梁	-10400
槛	-10401
渣	-10402
煎	-10403
甸	-10404
畅	-10405
略	-10406
癞	-10407
睁	-10408
碓	-10409
竭	-10410
粥	-10411
翁	-10412
肤	-10413
胳	-10414
腹	-10415
舟	-10416
荸	-10417
萎	-10418
薯	-10419
薹	-10420
赊	-10421
轿	-10422
迈	-10423
逮	-10424
锤	-10425
阶	-10426
际	-10427
陋	-10428
限	-10429
󲠇	-10430
󲦌	-10431
󲧯	-10432
󲶉	-10433
󲽹	-10434
󳈕	-10435
󳉁	-10436
󳉝	-10437
伟	-10438
伶	-10439
催	-10440
兆	-10441
兰	-10442
兽	-10443
剃	-10444
叛	-10445
喂	-10446
囵	-10447
夺	-10448
姨	-10449
婪	-10450
婶	-10451
宫	-10452
寨	-10453
币	-10454
帳	-10455
库	-10456
庙	-10457
忧	-10458
恨	-10459
拙	-10460
挪	-10461
捞	-10462
授	-10463
朽	-10464
炮	-10465
獾	-10466
疹	-10467
痣	-10468
盔	-10469
盾	-10470
睾	-10471
瞒	-10472
砧	-10473
碼	-10474
策	-10475
箇	-10476
篮	-10477
綠	-10478
缘	-10479
脓	-10480
脫	-10481
舉	-10482
苓	-10483
茄	-10484
葱	-10485
藥	-10486
蝌	-10487
蟋	-10488
蠢	-10489
袍	-10490
览	-10491
詩	-10492
謊	-10493
貴	-10494
铐	-10495
锈	-10496
锣	-10497
镀	-10498
阪	-10499
阵	-10500
頓	-10501
顆	-10502
驰	-10503
鸠	-10504
麵	-10505
󲢟	-10506
󲨰	-10507
󲩂	-10508
󲮂	-10509
󲰺	-10510
󲴒	-10511
󲽬	-10512
󲾵	-10513
󳆦	-10514
󳈘	-10515
󳎄	-10516
乃	-10517
佐	-10518
促	-10519
储	-10520
剖	-10521
哗	-10522
哮	-10523
夸	-10524
媳	-10525
嫌	-10526
幢	-10527
慌	-10528
执	-10529
拇	-10530
拳	-10531
掏	-10532
掼	-10533
描	-10534
揩	-10535
搜	-10536
株	-10537
桐	-10538
椿	-10539
殷	-10540
沾	-10541
洪	-10542
淀	-10543
淹	-10544
港	-10545
狭	-10546
瑰	-10547
痕	-10548
盟	-10549
禾	-10550
秃	-10551
秕	-10552
绸	-10553
聂	-10554
萨	-10555
蝇	-10556
蝗	-10557
裁	-10558
贿	-10559
趟	-10560
酌	-10561
醋	-10562
陡	-10563
障	-10564
馈	-10565
魄	-10566
󲞰	-10567
󲭻	-10568
󲱷	-10569
󲳫	-10570
󲷾	-10571
󲸤	-10572
󲸷	-10573
󲹅	-10574
󲼷	-10575
󲽏	-10576
󳀇	-10577
󳄫	-10578
󳅶	-10579
󳇰	-10580
󳊃	-10581
󳑥	-10582
󳙼	-10583
󳤣	-10584
$	-10585
=	-10586
厨	-10587
县	-10588
哑	-10589
唢	-10590
售	-10591
嘘	-10592
嫂	-10593
屏	-10594
彗	-10595
彻	-10596
忽	-10597
悬	-10598
惦	-10599
戲	-10600
戳	-10601
扎	-10602
拖	-10603
捏	-10604
撩	-10605
擀	-10606
據	-10607
敌	-10608
敗	-10609
旦	-10610
映	-10611
桑	-10612
棄	-10613
棺	-10614
椎	-10615
楂	-10616
檐	-10617
欧	-10618
沫	-10619
淨	-10620
漸	-10621
災	-10622
玫	-10623
疯	-10624
癌	-10625
瞧	-10626
瞪	-10627
笛	-10628
級	-10629
絲	-10630
绩	-10631
绺	-10632
缎	-10633
罚	-10634
羡	-10635
脖	-10636
航	-10637
艘	-10638
艾	-10639
藝	-10640
蘭	-10641
設	-10642
讽	-10643
贴	-10644
赞	-10645
鄂	-10646
酿	-10647
鎖	-10648
鐵	-10649
領	-10650
鬆	-10651
鹃	-10652
麝	-10653
麥	-10654
󲝒	-10655
󲞟	-10656
󲞥	-10657
󲡛	-10658
󲥓	-10659
󲪌	-10660
󲪲	-10661
󲬃	-10662
󲭃	-10663
󲰙	-10664
󲰡	-10665
󲳁	-10666
󲼡	-10667
󲿅	-10668
󳆕	-10669
󳆛	-10670
󳇊	-10671
󳈪	-10672
󳈲	-10673
󳈹	-10674
󳉒	-10675
󳊊	-10676
󳋐	-10677
󳒩	-10678
󳙦	-10679
仪	-10680
俯	-10681
凶	-10682
卵	-10683
吠	-10684
呈	-10685
喊	-10686
嘱	-10687
墩	-10688
奴	-10689
宽	-10690
帐	-10691
弥	-10692
惰	-10693
晌	-10694
泞	-10695
津	-10696
淤	-10697
潭	-10698
瘌	-10699
瘾	-10700
砸	-10701
碾	-10702
祸	-10703
稳	-10704
簇	-10705
粪	-10706
翘	-10707
肺	-10708
芭	-10709
蚪	-10710
雹	-10711
鹤	-10712
󲝂	-10713
󲝈	-10714
󲡅	-10715
󲡘	-10716
󲤗	-10717
󲤢	-10718
󲦘	-10719
󲧣	-10720
󲧪	-10721
󲭛	-10722
󲰌	-10723
󲶑	-10724
󲹋	-10725
󲹼	-10726
󲺇	-10727
󲼛	-10728
󲼞	-10729
󲾞	-10730
󳁅	-10731
󳁥	-10732
󳂏	-10733
󳂕	-10734
󳃕	-10735
󳅑	-10736
󳆽	-10737
󳇚	-10738
󳇭	-10739
󳇴	-10740
󳌏	-10741
󳌨	-10742
󳍚	-10743
󳖼	-10744
󳘲	-10745
󳚒	-10746
余	-10747
係	-10748
傍	-10749
刊	-10750
剑	-10751
啬	-10752
嗷	-10753
坠	-10754
坯	-10755
妖	-10756
妨	-10757
岛	-10758
径	-10759
恃	-10760
悉	-10761
扑	-10762
扛	-10763
挖	-10764
捋	-10765
捣	-10766
掰	-10767
搖	-10768
枷	-10769
柩	-10770
柱	-10771
棋	-10772
檢	-10773
檬	-10774
殴	-10775
泄	-10776
淌	-10777
漱	-10778
爵	-10779
狡	-10780
疟	-10781
瘠	-10782
础	-10783
稱	-10784
維	-10785
緊	-10786
翔	-10787
脉	-10788
脐	-10789
荠	-10790
葵	-10791
蕨	-10792
蘑	-10793
蚕	-10794
蠕	-10795
誓	-10796
访	-10797
谋	-10798
豐	-10799
負	-10800
財	-10801
賣	-10802
賺	-10803
赔	-10804
蹬	-10805
載	-10806
郎	-10807
阔	-10808
陌	-10809
類	-10810
麟	-10811
󲝷	-10812
󲟘	-10813
󲟡	-10814
󲠛	-10815
󲡶	-10816
󲡿	-10817
󲢸	-10818
󲣽	-10819
󲥃	-10820
󲥑	-10821
󲨌	-10822
󲨶	-10823
󲩖	-10824
󲪤	-10825
󲫸	-10826
󲭯	-10827
󲰷	-10828
󲱜	-10829
󲱢	-10830
󲱩	-10831
󲲅	-10832
󲲠	-10833
󲲺	-10834
󲴇	-10835
󲵴	-10836
󲷅	-10837
󲷈	-10838
󲷵	-10839
󲸡	-10840
󲹂	-10841
󲹌	-10842
󲹢	-10843
󲺈	-10844
󲻨	-10845
󲼈	-10846
󲼨	-10847
󲼰	-10848
󲽱	-10849
󲿧	-10850
󳁘	-10851
󳁠	-10852
󳁩	-10853
󳁷	-10854
󳅖	-10855
󳆖	-10856
󳉔	-10857
󳉰	-10858
󳊠	-10859
󳊳	-10860
󳌇	-10861
󳍥	-10862
󳎫	-10863
󳑐	-10864
󳑤	-10865
󳔐	-10866
󳔗	-10867
󳔠	-10868
󳔵	-10869
󳕡	-10870
󳗟	-10871
󳙟	-10872
󳚘	-10873
󳛛	-10874
乔	-10875
乖	-10876
卜	-10877
啸	-10878
嗽	-10879
域	-10880
孵	-10881
宣	-10882
抄	-10883
捡	-10884
撤	-10885
晒	-10886
晓	-10887
枣	-10888
栖	-10889
榔	-10890
樱	-10891
残	-10892
殿	-10893
澈	-10894
炕	-10895
燥	-10896
狼	-10897
獭	-10898
甲	-10899
眠	-10900
矛	-10901
秸	-10902
绎	-10903
绑	-10904
绘	-10905
芫	-10906
茁	-10907
荞	-10908
荨	-10909
蚌	-10910
蝉	-10911
蟑	-10912
裕	-10913
贱	-10914
赎	-10915
辫	-10916
驯	-10917
鹊	-10918
󲜐	-10919
󲜫	-10920
󲝎	-10921
󲝗	-10922
󲞀	-10923
󲞐	-10924
󲞶	-10925
󲟕	-10926
󲟬	-10927
󲟭	-10928
󲠍	-10929
󲡋	-10930
󲢪	-10931
󲢷	-10932
󲢻	-10933
󲢼	-10934
󲣍	-10935
󲣏	-10936
󲣺	-10937
󲤉	-10938
󲤞	-10939
󲤮	-10940
󲤿	-10941
󲦮	-10942
󲧧	-10943
󲨯	-10944
󲨲	-10945
󲩷	-10946
󲪂	-10947
󲪔	-10948
󲪴	-10949
󲫜	-10950
󲬚	-10951
󲬦	-10952
󲯨	-10953
󲯶	-10954
󲰃	-10955
󲱈	-10956
󲲹	-10957
󲳗	-10958
󲴗	-10959
󲵠	-10960
󲶻	-10961
󲷦	-10962
󲷯	-10963
󲷸	-10964
󲸳	-10965
󲸴	-10966
󲹀	-10967
󲹘	-10968
󲹹	-10969
󲻺	-10970
󲼀	-10971
󲼑	-10972
󲽈	-10973
󲾊	-10974
󳀈	-10975
󳀫	-10976
󳂡	-10977
󳂤	-10978
󳄶	-10979
󳅉	-10980
󳆥	-10981
󳇑	-10982
󳇩	-10983
󳇶	-10984
󳈜	-10985
󳉤	-10986
󳉥	-10987
󳋋	-10988
󳋡	-10989
󳋽	-10990
󳌳	-10991
󳍤	-10992
󳏃	-10993
󳏆	-10994
󳐂	-10995
󳐚	-10996
󳐦	-10997
󳐴	-10998
󳑈	-10999
󳑧	-11000
󳑴	-11001
󳑸	-11002
󳒼	-11003
󳓆	-11004
󳔴	-11005
󳗏	-11006
󳘿	-11007
󳙃	-11008
󳙠	-11009
󳜗	-11010
[	-11011
侦	-11012
傅	-11013
凤	-11014
凰	-11015
剧	-11016
割	-11017
呻	-11018
咂	-11019
哺	-11020
唾	-11021
嗅	-11022
坪	-11023
垂	-11024
垮	-11025
壽	-11026
奖	-11027
奢	-11028
專	-11029
屑	-11030
岱	-11031
島	-11032
幻	-11033
廳	-11034
愤	-11035
拈	-11036
捧	-11037
掃	-11038
措	-11039
搞	-11040
撑	-11041
旺	-11042
栋	-11043
歧	-11044
涂	-11045
涕	-11046
炖	-11047
炫	-11048
狂	-11049
獲	-11050
瑞	-11051
甥	-11052
症	-11053
碍	-11054
秒	-11055
税	-11056
穴	-11057
紹	-11058
統	-11059
練	-11060
绒	-11061
缸	-11062
翅	-11063
翠	-11064
肝	-11065
膊	-11066
臁	-11067
蜡	-11068
蜢	-11069
製	-11070
譯	-11071
豺	-11072
賴	-11073
跚	-11074
輪	-11075
辩	-11076
酵	-11077
锡	-11078
镇	-11079
闰	-11080
雅	-11081
雖	-11082
雳	-11083
鞘	-11084
韧	-11085
順	-11086
鼾	-11087
󲜣	-11088
󲝉	-11089
󲝫	-11090
󲞆	-11091
󲟯	-11092
󲟼	-11093
󲠉	-11094
󲠟	-11095
󲠩	-11096
󲡡	-11097
󲡴	-11098
󲡾	-11099
󲢭	-11100
󲣜	-11101
󲣯	-11102
󲤵	-11103
󲤶	-11104
󲤽	-11105
󲦈	-11106
󲦕	-11107
󲦨	-11108
󲧽	-11109
󲨄	-11110
󲨗	-11111
󲨧	-11112
󲩗	-11113
󲩲	-11114
󲪆	-11115
󲪎	-11116
󲪻	-11117
󲫂	-11118
󲫛	-11119
󲫧	-11120
󲫨	-11121
󲬻	-11122
󲭄	-11123
󲮍	-11124
󲮘	-11125
󲮦	-11126
󲯖	-11127
󲯘	-11128
󲯬	-11129
󲯴	-11130
󲯵	-11131
󲱬	-11132
󲱿	-11133
󲲃	-11134
󲲨	-11135
󲲱	-11136
󲳸	-11137
󲶕	-11138
󲷆	-11139
󲷎	-11140
󲷐	-11141
󲷶	-11142
󲸃	-11143
󲸙	-11144
󲹍	-11145
󲹓	-11146
󲹦	-11147
󲹾	-11148
󲺻	-11149
󲻔	-11150
󲻛	-11151
󲻟	-11152
󲻠	-11153
󲻯	-11154
󲻿	-11155
󲼃	-11156
󲽔	-11157
󲽲	-11158
󲾁	-11159
󲾗	-11160
󲾶	-11161
󲿗	-11162
󳀕	-11163
󳀣	-11164
󳀨	-11165
󳁉	-11166
󳁋	-11167
󳂗	-11168
󳂲	-11169
󳃐	-11170
󳃚	-11171
󳃳	-11172
󳃹	-11173
󳄂	-11174
󳄅	-11175
󳄚	-11176
󳄦	-11177
󳄲	-11178
󳅈	-11179
󳅎	-11180
󳅙	-11181
󳅩	-11182
󳆳	-11183
󳇗	-11184
󳇝	-11185
󳈫	-11186
󳈼	-11187
󳉆	-11188
󳊌	-11189
󳊗	-11190
󳋁	-11191
󳋪	-11192
󳋫	-11193
󳋬	-11194
󳋷	-11195
󳌥	-11196
󳌸	-11197
󳍋	-11198
󳍑	-11199
󳍔	-11200
󳍷	-11201
󳍿	-11202
󳎝	-11203
󳎬	-11204
󳏒	-11205
󳏗	-11206
󳏪	-11207
󳏶	-11208
󳐀	-11209
󳐇	-11210
󳐡	-11211
󳐷	-11212
󳐺	-11213
󳐼	-11214
󳒏	-11215
󳒖	-11216
󳔄	-11217
󳔆	-11218
󳖇	-11219
󳗈	-11220
󳗑	-11221
󳘡	-11222
󳙙	-11223
󳚀	-11224
󳚎	-11225
临	-11226
刃	-11227
厦	-11228
呃	-11229
咸	-11230
啃	-11231
尚	-11232
庇	-11233
彤	-11234
拆	-11235
掘	-11236
揉	-11237
摄	-11238
攒	-11239
旷	-11240
柿	-11241
梗	-11242
椽	-11243
沽	-11244
涧	-11245
爹	-11246
碑	-11247
秆	-11248
笃	-11249
簸	-11250
糠	-11251
纯	-11252
聋	-11253
聘	-11254
腼	-11255
艳	-11256
苏	-11257
蚯	-11258
蛄	-11259
蜓	-11260
蟒	-11261
褂	-11262
豪	-11263
赖	-11264
铠	-11265
鞍	-11266
馊	-11267
驶	-11268
鹌	-11269
󲜳	-11270
󲝐	-11271
󲞕	-11272
󲟲	-11273
󲠊	-11274
󲠌	-11275
󲠒	-11276
󲠫	-11277
󲠮	-11278
󲠳	-11279
󲠾	-11280
󲡏	-11281
󲡢	-11282
󲡯	-11283
󲢑	-11284
󲢲	-11285
󲢺	-11286
󲣋	-11287
󲣒	-11288
󲣔	-11289
󲣕	-11290
󲣙	-11291
󲣴	-11292
󲤁	-11293
󲤚	-11294
󲤳	-11295
󲥏	-11296
󲦁	-11297
󲦫	-11298
󲦻	-11299
󲧃	-11300
󲧎	-11301
󲧘	-11302
󲨨	-11303
󲨳	-11304
󲨼	-11305
󲩭	-11306
󲩳	-11307
󲪖	-11308
󲪜	-11309
󲫋	-11310
󲫾	-11311
󲬯	-11312
󲬴	-11313
󲬵	-11314
󲭋	-11315
󲭢	-11316
󲭨	-11317
󲭴	-11318
󲮡	-11319
󲮰	-11320
󲯊	-11321
󲯧	-11322
󲰎	-11323
󲱨	-11324
󲱹	-11325
󲱾	-11326
󲲰	-11327
󲳆	-11328
󲳠	-11329
󲴊	-11330
󲴘	-11331
󲴹	-11332
󲵆	-11333
󲵞	-11334
󲵟	-11335
󲵻	-11336
󲶙	-11337
󲶺	-11338
󲷔	-11339
󲷭	-11340
󲷼	-11341
󲸌	-11342
󲸓	-11343
󲸚	-11344
󲸟	-11345
󲸱	-11346
󲸲	-11347
󲸺	-11348
󲹞	-11349
󲹩	-11350
󲹪	-11351
󲹸	-11352
󲺃	-11353
󲺆	-11354
󲺏	-11355
󲺚	-11356
󲺫	-11357
󲻂	-11358
󲻕	-11359
󲻬	-11360
󲼠	-11361
󲼯	-11362
󲽄	-11363
󲽨	-11364
󲽿	-11365
󲾓	-11366
󲾚	-11367
󲾫	-11368
󲾺	-11369
󲿃	-11370
󲿖	-11371
󳀠	-11372
󳀪	-11373
󳀷	-11374
󳀼	-11375
󳁖	-11376
󳁫	-11377
󳁼	-11378
󳂞	-11379
󳂼	-11380
󳂾	-11381
󳃱	-11382
󳃼	-11383
󳄁	-11384
󳄆	-11385
󳄌	-11386
󳄔	-11387
󳄜	-11388
󳄯	-11389
󳄾	-11390
󳅝	-11391
󳅱	-11392
󳆄	-11393
󳆤	-11394
󳆩	-11395
󳆪	-11396
󳆶	-11397
󳆿	-11398
󳇉	-11399
󳇓	-11400
󳇢	-11401
󳇯	-11402
󳈬	-11403
󳉓	-11404
󳊂	-11405
󳊓	-11406
󳊚	-11407
󳊽	-11408
󳋂	-11409
󳋞	-11410
󳋧	-11411
󳋱	-11412
󳋿	-11413
󳌄	-11414
󳌚	-11415
󳍆	-11416
󳍟	-11417
󳎷	-11418
󳎼	-11419
󳏞	-11420
󳏲	-11421
󳏴	-11422
󳐓	-11423
󳐞	-11424
󳐫	-11425
󳒇	-11426
󳒫	-11427
󳓇	-11428
󳓊	-11429
󳓘	-11430
󳔋	-11431
󳔰	-11432
󳕊	-11433
󳕠	-11434
󳕥	-11435
󳕦	-11436
󳕬	-11437
󳕰	-11438
󳖻	-11439
󳗛	-11440
󳗸	-11441
󳘋	-11442
󳙬	-11443
󳙯	-11444
󳚏	-11445
󳛉	-11446
󳛋	-11447
󳛸	-11448
󳛿	-11449
亏	-11450
亿	-11451
伊	-11452
優	-11453
儴	-11454
军	-11455
劇	-11456
吟	-11457
唐	-11458
嗑	-11459
圍	-11460
團	-11461
屬	-11462
庶	-11463
弗	-11464
徙	-11465
慮	-11466
扭	-11467
扮	-11468
掀	-11469
揽	-11470
極	-11471
洱	-11472
浇	-11473
溃	-11474
滋	-11475
滤	-11476
爪	-11477
猬	-11478
產	-11479
畢	-11480
番	-11481
痒	-11482
眾	-11483
碧	-11484
禀	-11485
築	-11486
簧	-11487
粘	-11488
絡	-11489
肃	-11490
肾	-11491
胗	-11492
腋	-11493
膏	-11494
舔	-11495
芜	-11496
葬	-11497
褊	-11498
規	-11499
訊	-11500
诞	-11501
購	-11502
赂	-11503
蹋	-11504
辟	-11505
鈕	-11506
镊	-11507
閱	-11508
際	-11509
颜	-11510
驴	-11511
骟	-11512
骡	-11513
鹑	-11514
󲜩	-11515
󲜰	-11516
󲜸	-11517
󲝺	-11518
󲞊	-11519
󲞣	-11520
󲟦	-11521
󲟿	-11522
󲠤	-11523
󲠨	-11524
󲠺	-11525
󲡂	-11526
󲡆	-11527
󲡈	-11528
󲡉	-11529
󲡕	-11530
󲡚	-11531
󲡦	-11532
󲡮	-11533
󲡳	-11534
󲢈	-11535
󲢋	-11536
󲢖	-11537
󲢚	-11538
󲢛	-11539
󲢜	-11540
󲢢	-11541
󲢣	-11542
󲣀	-11543
󲣁	-11544
󲣎	-11545
󲣥	-11546
󲣵	-11547
󲤜	-11548
󲤥	-11549
󲤧	-11550
󲤷	-11551
󲥀	-11552
󲥐	-11553
󲥔	-11554
󲥧	-11555
󲥭	-11556
󲥸	-11557
󲥼	-11558
󲦣	-11559
󲦴	-11560
󲧄	-11561
󲧈	-11562
󲧨	-11563
󲧭	-11564
󲧮	-11565
󲨙	-11566
󲨚	-11567
󲨜	-11568
󲩅	-11569
󲩐	-11570
󲩤	-11571
󲩻	-11572
󲩼	-11573
󲪇	-11574
󲪕	-11575
󲫇	-11576
󲫤	-11577
󲫫	-11578
󲫴	-11579
󲫵	-11580
󲫺	-11581
󲬇	-11582
󲬉	-11583
󲬠	-11584
󲬨	-11585
󲬲	-11586
󲬼	-11587
󲬾	-11588
󲭁	-11589
󲭚	-11590
󲭫	-11591
󲮃	-11592
󲮅	-11593
󲮉	-11594
󲮭	-11595
󲮼	-11596
󲯕	-11597
󲯛	-11598
󲯜	-11599
󲯸	-11600
󲯺	-11601
󲰇	-11602
󲰈	-11603
󲰑	-11604
󲰛	-11605
󲰹	-11606
󲰻	-11607
󲱡	-11608
󲱦	-11609
󲲉	-11610
󲲍	-11611
󲲖	-11612
󲲘	-11613
󲲧	-11614
󲲭	-11615
󲲲	-11616
󲳏	-11617
󲳔	-11618
󲳯	-11619
󲳽	-11620
󲳾	-11621
󲴠	-11622
󲴡	-11623
󲴧	-11624
󲴵	-11625
󲴷	-11626
󲶏	-11627
󲶠	-11628
󲶯	-11629
󲶲	-11630
󲶾	-11631
󲷰	-11632
󲷿	-11633
󲸋	-11634
󲸎	-11635
󲸏	-11636
󲹲	-11637
󲺉	-11638
󲺤	-11639
󲺧	-11640
󲻆	-11641
󲻞	-11642
󲻤	-11643
󲻰	-11644
󲼇	-11645
󲼊	-11646
󲼎	-11647
󲼣	-11648
󲼴	-11649
󲽎	-11650
󲽐	-11651
󲽞	-11652
󲽶	-11653
󲾌	-11654
󲾑	-11655
󲾔	-11656
󲾭	-11657
󲾹	-11658
󲾿	-11659
󲿂	-11660
󲿏	-11661
󲿣	-11662
󳀓	-11663
󳀔	-11664
󳀙	-11665
󳀽	-11666
󳁁	-11667
󳁎	-11668
󳁙	-11669
󳁾	-11670
󳂇	-11671
󳂈	-11672
󳂐	-11673
󳂪	-11674
󳂫	-11675
󳂬	-11676
󳃓	-11677
󳃔	-11678
󳃝	-11679
󳃰	-11680
󳃵	-11681
󳃶	-11682
󳃸	-11683
󳄉	-11684
󳄟	-11685
󳄥	-11686
󳄴	-11687
󳅪	-11688
󳅹	-11689
󳅼	-11690
󳆘	-11691
󳆬	-11692
󳆷	-11693
󳇂	-11694
󳈖	-11695
󳈥	-11696
󳈦	-11697
󳈰	-11698
󳈾	-11699
󳉌	-11700
󳉸	-11701
󳊍	-11702
󳊏	-11703
󳊡	-11704
󳋕	-11705
󳋼	-11706
󳌁	-11707
󳌋	-11708
󳌐	-11709
󳌾	-11710
󳍙	-11711
󳍝	-11712
󳍣	-11713
󳍪	-11714
󳍺	-11715
󳍼	-11716
󳎂	-11717
󳎨	-11718
󳎮	-11719
󳎽	-11720
󳎾	-11721
󳏐	-11722
󳏽	-11723
󳏾	-11724
󳐍	-11725
󳐬	-11726
󳐮	-11727
󳐱	-11728
󳑿	-11729
󳒅	-11730
󳒌	-11731
󳒯	-11732
󳒻	-11733
󳓻	-11734
󳔌	-11735
󳔓	-11736
󳔕	-11737
󳔧	-11738
󳔮	-11739
󳔿	-11740
󳕗	-11741
󳕴	-11742
󳕺	-11743
󳖋	-11744
󳖝	-11745
󳖯	-11746
󳗇	-11747
󳗧	-11748
󳗻	-11749
󳘃	-11750
󳘭	-11751
󳙈	-11752
󳙽	-11753
󳚡	-11754
󳛂	-11755
󳛎	-11756
󳛡	-11757
󳛥	-11758
󳛲	-11759
󳜢	-11760
《	-11761
》	-11762
劫	-11763
叉	-11764
吩	-11765
哩	-11766
嘭	-11767
妥	-11768
宾	-11769
岸	-11770
崴	-11771
循	-11772
悠	-11773
憨	-11774
撵	-11775
杵	-11776
氏	-11777
沃	-11778
泻	-11779
洒	-11780
滥	-11781
犹	-11782
猖	-11783
瞅	-11784
祠	-11785
秧	-11786
窃	-11787
茸	-11788
荽	-11789
菲	-11790
蚓	-11791
蛾	-11792
蝙	-11793
裳	-11794
贝	-11795
跛	-11796
躁	-11797
鄙	-11798
铛	-11799
锐	-11800
雕	-11801
麸	-11802
黍	-11803
󲜓	-11804
󲜕	-11805
󲜗	-11806
󲜴	-11807
󲜵	-11808
󲝘	-11809
󲝱	-11810
󲝴	-11811
󲞩	-11812
󲞯	-11813
󲞻	-11814
󲟋	-11815
󲟐	-11816
󲟛	-11817
󲟧	-11818
󲠃	-11819
󲠈	-11820
󲠥	-11821
󲠯	-11822
󲠹	-11823
󲠿	-11824
󲡎	-11825
󲡐	-11826
󲡫	-11827
󲢆	-11828
󲢗	-11829
󲢧	-11830
󲣐	-11831
󲣑	-11832
󲣖	-11833
󲣝	-11834
󲣱	-11835
󲤇	-11836
󲤌	-11837
󲤍	-11838
󲤕	-11839
󲤭	-11840
󲤲	-11841
󲥄	-11842
󲥆	-11843
󲥋	-11844
󲥘	-11845
󲥴	-11846
󲥽	-11847
󲦛	-11848
󲦡	-11849
󲦪	-11850
󲦭	-11851
󲦱	-11852
󲦸	-11853
󲧀	-11854
󲧆	-11855
󲧊	-11856
󲧖	-11857
󲨊	-11858
󲨍	-11859
󲨔	-11860
󲨛	-11861
󲨵	-11862
󲩆	-11863
󲩒	-11864
󲩣	-11865
󲪑	-11866
󲪹	-11867
󲫄	-11868
󲫙	-11869
󲫱	-11870
󲫼	-11871
󲬄	-11872
󲬋	-11873
󲬍	-11874
󲬓	-11875
󲬪	-11876
󲭂	-11877
󲭆	-11878
󲭈	-11879
󲭏	-11880
󲭠	-11881
󲭣	-11882
󲮇	-11883
󲮓	-11884
󲮣	-11885
󲮯	-11886
󲮸	-11887
󲯆	-11888
󲯍	-11889
󲯚	-11890
󲰄	-11891
󲰆	-11892
󲰊	-11893
󲰘	-11894
󲰜	-11895
󲰳	-11896
󲱃	-11897
󲱯	-11898
󲱲	-11899
󲱸	-11900
󲱺	-11901
󲲣	-11902
󲲩	-11903
󲲸	-11904
󲳈	-11905
󲳛	-11906
󲳝	-11907
󲳰	-11908
󲳻	-11909
󲴔	-11910
󲴙	-11911
󲴞	-11912
󲴤	-11913
󲴦	-11914
󲴯	-11915
󲵋	-11916
󲵖	-11917
󲵥	-11918
󲵫	-11919
󲶌	-11920
󲶗	-11921
󲷀	-11922
󲷘	-11923
󲸇	-11924
󲹕	-11925
󲹱	-11926
󲺋	-11927
󲺍	-11928
󲺕	-11929
󲺜	-11930
󲺷	-11931
󲺺	-11932
󲻉	-11933
󲻡	-11934
󲻣	-11935
󲻧	-11936
󲻩	-11937
󲻲	-11938
󲼄	-11939
󲼉	-11940
󲼮	-11941
󲽂	-11942
󲽕	-11943
󲽢	-11944
󲽪	-11945
󲽮	-11946
󲾩	-11947
󲾴	-11948
󲾷	-11949
󲾸	-11950
󲾻	-11951
󲾽	-11952
󲿇	-11953
󲿕	-11954
󲿙	-11955
󲿜	-11956
󲿝	-11957
󲿞	-11958
󲿰	-11959
󲿻	-11960
󳀎	-11961
󳀟	-11962
󳀳	-11963
󳀴	-11964
󳀹	-11965
󳁀	-11966
󳁇	-11967
󳁺	-11968
󳁽	-11969
󳂃	-11970
󳂊	-11971
󳂚	-11972
󳂶	-11973
󳃊	-11974
󳃎	-11975
󳃮	-11976
󳃻	-11977
󳄏	-11978
󳄨	-11979
󳅅	-11980
󳅍	-11981
󳅧	-11982
󳅨	-11983
󳅵	-11984
󳅾	-11985
󳆂	-11986
󳆊	-11987
󳆢	-11988
󳆮	-11989
󳆵	-11990
󳆸	-11991
󳇈	-11992
󳇌	-11993
󳇍	-11994
󳇖	-11995
󳇜	-11996
󳇨	-11997
󳇻	-11998
󳈇	-11999
󳈉	-12000
󳈊	-12001
󳈋	-12002
󳈤	-12003
󳈳	-12004
󳈴	-12005
󳈻	-12006
󳉞	-12007
󳊋	-12008
󳊎	-12009
󳊟	-12010
󳊹	-12011
󳋔	-12012
󳋲	-12013
󳋸	-12014
󳌂	-12015
󳌓	-12016
󳌙	-12017
󳌪	-12018
󳌭	-12019
󳌱	-12020
󳌲	-12021
󳍰	-12022
󳍸	-12023
󳍾	-12024
󳎏	-12025
󳎐	-12026
󳎓	-12027
󳏭	-12028
󳏹	-12029
󳏼	-12030
󳐛	-12031
󳐥	-12032
󳑂	-12033
󳑩	-12034
󳑯	-12035
󳑵	-12036
󳒉	-12037
󳓕	-12038
󳓣	-12039
󳓤	-12040
󳔒	-12041
󳔦	-12042
󳔬	-12043
󳔭	-12044
󳔷	-12045
󳔼	-12046
󳕂	-12047
󳕌	-12048
󳕷	-12049
󳕼	-12050
󳕾	-12051
󳖞	-12052
󳖶	-12053
󳗙	-12054
󳗚	-12055
󳗠	-12056
󳗵	-12057
󳗿	-12058
󳘄	-12059
󳘏	-12060
󳙑	-12061
󳙨	-12062
󳚉	-12063
󳚜	-12064
󳚰	-12065
󳛱	-12066
󳜇	-12067
󳜏	-12068
󳜔	-12069
X	-12070
Z	-12071
匀	-12072
匠	-12073
卻	-12074
吮	-12075
咧	-12076
咱	-12077
哦	-12078
唸	-12079
嘟	-12080
噢	-12081
奈	-12082
妣	-12083
婢	-12084
媚	-12085
尸	-12086
崩	-12087
巽	-12088
巾	-12089
廣	-12090
弛	-12091
惬	-12092
愁	-12093
憶	-12094
扁	-12095
扶	-12096
挨	-12097
搛	-12098
擞	-12099
標	-12100
毀	-12101
涩	-12102
漢	-12103
版	-12104
犬	-12105
猾	-12106
獗	-12107
睬	-12108
矿	-12109
硌	-12110
硝	-12111
祟	-12112
窥	-12113
箍	-12114
篥	-12115
粱	-12116
細	-12117
耄	-12118
肌	-12119
脆	-12120
脯	-12121
臣	-12122
荐	-12123
莽	-12124
蜕	-12125
螺	-12126
蟆	-12127
衬	-12128
觅	-12129
誊	-12130
誠	-12131
谓	-12132
贊	-12133
軍	-12134
辭	-12135
鈴	-12136
鎮	-12137
锛	-12138
顯	-12139
骚	-12140
鹳	-12141
齡	-12142
󲉖	-12143
󲜺	-12144
󲜿	-12145
󲝄	-12146
󲝓	-12147
󲝝	-12148
󲝧	-12149
󲝭	-12150
󲝵	-12151
󲝽	-12152
󲞔	-12153
󲞗	-12154
󲞠	-12155
󲞸	-12156
󲟒	-12157
󲟫	-12158
󲟮	-12159
󲟱	-12160
󲟳	-12161
󲟵	-12162
󲠐	-12163
󲠝	-12164
󲠡	-12165
󲠢	-12166
󲠣	-12167
󲠭	-12168
󲠱	-12169
󲠲	-12170
󲠴	-12171
󲡹	-12172
󲡽	-12173
󲢁	-12174
󲢠	-12175
󲣓	-12176
󲣛	-12177
󲣞	-12178
󲣭	-12179
󲣿	-12180
󲤐	-12181
󲤔	-12182
󲤙	-12183
󲤦	-12184
󲤱	-12185
󲤴	-12186
󲥊	-12187
󲥡	-12188
󲥨	-12189
󲥫	-12190
󲥬	-12191
󲥮	-12192
󲥷	-12193
󲦠	-12194
󲦢	-12195
󲦰	-12196
󲦶	-12197
󲦺	-12198
󲧏	-12199
󲧛	-12200
󲧠	-12201
󲧢	-12202
󲧿	-12203
󲨈	-12204
󲨖	-12205
󲨘	-12206
󲨠	-12207
󲨣	-12208
󲨬	-12209
󲨾	-12210
󲩄	-12211
󲩈	-12212
󲩎	-12213
󲩱	-12214
󲪀	-12215
󲪰	-12216
󲪷	-12217
󲫅	-12218
󲫍	-12219
󲫡	-12220
󲫮	-12221
󲫶	-12222
󲫿	-12223
󲬑	-12224
󲬛	-12225
󲬧	-12226
󲬽	-12227
󲭬	-12228
󲭷	-12229
󲮄	-12230
󲮆	-12231
󲮎	-12232
󲮙	-12233
󲮚	-12234
󲮛	-12235
󲮬	-12236
󲮱	-12237
󲯁	-12238
󲯂	-12239
󲯝	-12240
󲯮	-12241
󲰁	-12242
󲰏	-12243
󲰒	-12244
󲰠	-12245
󲰦	-12246
󲱙	-12247
󲱤	-12248
󲱪	-12249
󲱵	-12250
󲲳	-12251
󲲷	-12252
󲲻	-12253
󲳃	-12254
󲳋	-12255
󲳎	-12256
󲳢	-12257
󲳱	-12258
󲳲	-12259
󲳳	-12260
󲴉	-12261
󲴎	-12262
󲴏	-12263
󲴓	-12264
󲴜	-12265
󲴝	-12266
󲴻	-12267
󲴾	-12268
󲵃	-12269
󲵅	-12270
󲵪	-12271
󲵵	-12272
󲶀	-12273
󲶰	-12274
󲷡	-12275
󲷢	-12276
󲷪	-12277
󲷬	-12278
󲸁	-12279
󲸗	-12280
󲸢	-12281
󲸦	-12282
󲸪	-12283
󲸭	-12284
󲹃	-12285
󲹒	-12286
󲹤	-12287
󲹴	-12288
󲺂	-12289
󲺅	-12290
󲺌	-12291
󲺔	-12292
󲺙	-12293
󲺵	-12294
󲺹	-12295
󲺼	-12296
󲻊	-12297
󲻥	-12298
󲻼	-12299
󲼒	-12300
󲼗	-12301
󲼘	-12302
󲼤	-12303
󲼭	-12304
󲼹	-12305
󲼺	-12306
󲽁	-12307
󲽑	-12308
󲽗	-12309
󲽝	-12310
󲽫	-12311
󲽯	-12312
󲽰	-12313
󲽸	-12314
󲾍	-12315
󲾝	-12316
󲾢	-12317
󲾤	-12318
󲾰	-12319
󲿈	-12320
󲿊	-12321
󲿍	-12322
󲿫	-12323
󲿮	-12324
󲿲	-12325
󲿵	-12326
󲿼	-12327
󳀜	-12328
󳀿	-12329
󳁂	-12330
󳁚	-12331
󳁜	-12332
󳁡	-12333
󳁢	-12334
󳁴	-12335
󳂌	-12336
󳂔	-12337
󳂖	-12338
󳂢	-12339
󳂻	-12340
󳃋	-12341
󳃩	-12342
󳄍	-12343
󳄒	-12344
󳄸	-12345
󳄻	-12346
󳅋	-12347
󳅽	-12348
󳆀	-12349
󳆉	-12350
󳆍	-12351
󳆐	-12352
󳆑	-12353
󳆜	-12354
󳆼	-12355
󳇁	-12356
󳇡	-12357
󳇣	-12358
󳈛	-12359
󳈝	-12360
󳈢	-12361
󳈷	-12362
󳉟	-12363
󳊁	-12364
󳊆	-12365
󳊒	-12366
󳊦	-12367
󳋅	-12368
󳋚	-12369
󳋜	-12370
󳋭	-12371
󳌅	-12372
󳌆	-12373
󳌍	-12374
󳌒	-12375
󳌢	-12376
󳌦	-12377
󳌧	-12378
󳌹	-12379
󳌿	-12380
󳍅	-12381
󳍇	-12382
󳍌	-12383
󳍛	-12384
󳍬	-12385
󳎭	-12386
󳎻	-12387
󳏀	-12388
󳏄	-12389
󳏉	-12390
󳏍	-12391
󳏚	-12392
󳏛	-12393
󳐉	-12394
󳐧	-12395
󳐭	-12396
󳑜	-12397
󳑞	-12398
󳑭	-12399
󳒋	-12400
󳒓	-12401
󳒙	-12402
󳒤	-12403
󳒦	-12404
󳒮	-12405
󳓙	-12406
󳓱	-12407
󳓴	-12408
󳔀	-12409
󳔍	-12410
󳔜	-12411
󳔩	-12412
󳔯	-12413
󳔺	-12414
󳕓	-12415
󳕕	-12416
󳖅	-12417
󳖆	-12418
󳖎	-12419
󳖒	-12420
󳖲	-12421
󳗂	-12422
󳗃	-12423
󳗦	-12424
󳗨	-12425
󳗳	-12426
󳘅	-12427
󳘩	-12428
󳙝	-12429
󳙥	-12430
󳙰	-12431
󳚔	-12432
󳚕	-12433
󳚚	-12434
󳚫	-12435
󳛓	-12436
󳛯	-12437
󳛶	-12438
󳜜	-12439
乙	-12440
乞	-12441
乡	-12442
刁	-12443
呓	-12444
嚅	-12445
垢	-12446
巡	-12447
悴	-12448
惟	-12449
戈	-12450
拴	-12451
搂	-12452
斟	-12453
晾	-12454
梧	-12455
橘	-12456
沤	-12457
洼	-12458
漾	-12459
炭	-12460
痫	-12461
痰	-12462
癫	-12463
瞻	-12464
砌	-12465
禽	-12466
纬	-12467
缨	-12468
胶	-12469
腆	-12470
苤	-12471
荚	-12472
蘸	-12473
蛰	-12474
蜻	-12475
蝠	-12476
褛	-12477
襁	-12478
谚	-12479
贷	-12480
趁	-12481
跪	-12482
蹄	-12483
蹲	-12484
辑	-12485
辖	-12486
辱	-12487
阱	-12488
馁	-12489
󲜒	-12490
󲜪	-12491
󲝃	-12492
󲝇	-12493
󲝔	-12494
󲝦	-12495
󲝮	-12496
󲞬	-12497
󲞭	-12498
󲞮	-12499
󲟀	-12500
󲟁	-12501
󲟣	-12502
󲟽	-12503
󲠁	-12504
󲠏	-12505
󲠶	-12506
󲠻	-12507
󲡍	-12508
󲡞	-12509
󲡠	-12510
󲡥	-12511
󲡩	-12512
󲡭	-12513
󲡵	-12514
󲢕	-12515
󲢘	-12516
󲢡	-12517
󲢤	-12518
󲢦	-12519
󲢩	-12520
󲢮	-12521
󲢰	-12522
󲢵	-12523
󲣉	-12524
󲣟	-12525
󲤖	-12526
󲤨	-12527
󲥌	-12528
󲥕	-12529
󲥥	-12530
󲥻	-12531
󲥾	-12532
󲦀	-12533
󲦄	-12534
󲦆	-12535
󲦎	-12536
󲦑	-12537
󲦒	-12538
󲦜	-12539
󲦾	-12540
󲧉	-12541
󲧚	-12542
󲧡	-12543
󲧤	-12544
󲧱	-12545
󲧸	-12546
󲧾	-12547
󲨉	-12548
󲨝	-12549
󲨫	-12550
󲨱	-12551
󲨻	-12552
󲩊	-12553
󲩑	-12554
󲩞	-12555
󲩡	-12556
󲩪	-12557
󲩫	-12558
󲪉	-12559
󲪋	-12560
󲪒	-12561
󲪡	-12562
󲪣	-12563
󲪨	-12564
󲪭	-12565
󲪵	-12566
󲫊	-12567
󲫦	-12568
󲫪	-12569
󲫳	-12570
󲫽	-12571
󲬀	-12572
󲬒	-12573
󲬔	-12574
󲬙	-12575
󲬜	-12576
󲬞	-12577
󲬟	-12578
󲬣	-12579
󲬬	-12580
󲭅	-12581
󲭊	-12582
󲭮	-12583
󲭰	-12584
󲮀	-12585
󲮗	-12586
󲮞	-12587
󲮫	-12588
󲮴	-12589
󲮻	-12590
󲮽	-12591
󲯀	-12592
󲯃	-12593
󲯄	-12594
󲯅	-12595
󲯏	-12596
󲯩	-12597
󲯲	-12598
󲯹	-12599
󲰥	-12600
󲰱	-12601
󲰼	-12602
󲰾	-12603
󲱁	-12604
󲱐	-12605
󲱕	-12606
󲱠	-12607
󲱰	-12608
󲲂	-12609
󲲊	-12610
󲲏	-12611
󲲜	-12612
󲲟	-12613
󲲴	-12614
󲲾	-12615
󲳕	-12616
󲳘	-12617
󲳣	-12618
󲳦	-12619
󲳨	-12620
󲳭	-12621
󲳺	-12622
󲴂	-12623
󲴃	-12624
󲴈	-12625
󲴖	-12626
󲴮	-12627
󲴴	-12628
󲵓	-12629
󲵚	-12630
󲵣	-12631
󲵬	-12632
󲵲	-12633
󲵶	-12634
󲶅	-12635
󲶋	-12636
󲶎	-12637
󲶐	-12638
󲶔	-12639
󲶢	-12640
󲶧	-12641
󲶭	-12642
󲷉	-12643
󲷍	-12644
󲷑	-12645
󲷗	-12646
󲷣	-12647
󲷲	-12648
󲷻	-12649
󲷽	-12650
󲸜	-12651
󲸨	-12652
󲹏	-12653
󲹐	-12654
󲹖	-12655
󲹝	-12656
󲹠	-12657
󲹫	-12658
󲹳	-12659
󲹷	-12660
󲺎	-12661
󲺐	-12662
󲺖	-12663
󲺟	-12664
󲺩	-12665
󲺰	-12666
󲺱	-12667
󲺸	-12668
󲻝	-12669
󲻶	-12670
󲼁	-12671
󲼶	-12672
󲽃	-12673
󲽉	-12674
󲽙	-12675
󲽟	-12676
󲽺	-12677
󲽻	-12678
󲽽	-12679
󲾙	-12680
󲾬	-12681
󲾳	-12682
󲿓	-12683
󲿱	-12684
󲿿	-12685
󳀀	-12686
󳀃	-12687
󳀗	-12688
󳀘	-12689
󳀤	-12690
󳀲	-12691
󳀻	-12692
󳀾	-12693
󳁔	-12694
󳁱	-12695
󳂭	-12696
󳃒	-12697
󳃠	-12698
󳃣	-12699
󳃬	-12700
󳄑	-12701
󳄖	-12702
󳄗	-12703
󳄙	-12704
󳄣	-12705
󳄬	-12706
󳄰	-12707
󳅁	-12708
󳅂	-12709
󳅏	-12710
󳅞	-12711
󳅟	-12712
󳅣	-12713
󳅴	-12714
󳅺	-12715
󳆈	-12716
󳆗	-12717
󳆡	-12718
󳇃	-12719
󳇙	-12720
󳇫	-12721
󳇮	-12722
󳇿	-12723
󳈄	-12724
󳈅	-12725
󳈆	-12726
󳈍	-12727
󳈓	-12728
󳈙	-12729
󳈮	-12730
󳈿	-12731
󳉑	-12732
󳉮	-12733
󳉱	-12734
󳉴	-12735
󳉵	-12736
󳊈	-12737
󳊜	-12738
󳊪	-12739
󳊬	-12740
󳊵	-12741
󳊸	-12742
󳋄	-12743
󳋈	-12744
󳋍	-12745
󳋒	-12746
󳋛	-12747
󳋝	-12748
󳋣	-12749
󳋾	-12750
󳌎	-12751
󳌖	-12752
󳌮	-12753
󳌯	-12754
󳌷	-12755
󳍁	-12756
󳍃	-12757
󳍄	-12758
󳍐	-12759
󳍘	-12760
󳍜	-12761
󳍠	-12762
󳍱	-12763
󳍵	-12764
󳍹	-12765
󳎇	-12766
󳎊	-12767
󳎡	-12768
󳎸	-12769
󳎺	-12770
󳏂	-12771
󳏋	-12772
󳏙	-12773
󳏨	-12774
󳏳	-12775
󳐁	-12776
󳐆	-12777
󳐟	-12778
󳐪	-12779
󳑊	-12780
󳑋	-12781
󳑏	-12782
󳑘	-12783
󳑙	-12784
󳑫	-12785
󳑮	-12786
󳑹	-12787
󳒀	-12788
󳒊	-12789
󳒑	-12790
󳒘	-12791
󳒰	-12792
󳓃	-12793
󳓅	-12794
󳓯	-12795
󳓷	-12796
󳓼	-12797
󳓾	-12798
󳔉	-12799
󳔻	-12800
󳕟	-12801
󳕣	-12802
󳕭	-12803
󳕮	-12804
󳖏	-12805
󳖰	-12806
󳖷	-12807
󳗎	-12808
󳗘	-12809
󳗩	-12810
󳗪	-12811
󳗼	-12812
󳘍	-12813
󳘟	-12814
󳘼	-12815
󳙌	-12816
󳙚	-12817
󳙳	-12818
󳚆	-12819
󳚗	-12820
󳚶	-12821
󳛀	-12822
󳛔	-12823
󳛖	-12824
󳛺	-12825
󳜁	-12826
󳜃	-12827
%	-12828
à	-12829
ǒ	-12830
俊	-12831
凳	-12832
厂	-12833
唬	-12834
喘	-12835
嗫	-12836
嘗	-12837
嘲	-12838
囚	-12839
圓	-12840
坤	-12841
執	-12842
奮	-12843
委	-12844
宰	-12845
宴	-12846
寓	-12847
届	-12848
岭	-12849
幣	-12850
幹	-12851
廢	-12852
怂	-12853
恭	-12854
恿	-12855
抡	-12856
拦	-12857
揖	-12858
撥	-12859
斧	-12860
枋	-12861
枚	-12862
栏	-12863
桩	-12864
槟	-12865
沧	-12866
渗	-12867
減	-12868
渺	-12869
漠	-12870
濟	-12871
灘	-12872
焙	-12873
牆	-12874
犟	-12875
玷	-12876
疡	-12877
皆	-12878
眨	-12879
祛	-12880
稗	-12881
笋	-12882
筷	-12883
篦	-12884
维	-12885
耀	-12886
耙	-12887
耶	-12888
膛	-12889
臉	-12890
莲	-12891
葉	-12892
蒼	-12893
蓖	-12894
藍	-12895
藿	-12896
蜘	-12897
褥	-12898
訝	-12899
貨	-12900
趾	-12901
蹒	-12902
辞	-12903
農	-12904
鄉	-12905
釣	-12906
钳	-12907
键	-12908
镫	-12909
閃	-12910
閒	-12911
陸	-12912
雇	-12913
雞	-12914
靛	-12915
馍	-12916
騎	-12917
騙	-12918
驼	-12919
鲍	-12920
鹅	-12921
󲈮	-12922
󲜙	-12923
󲜟	-12924
󲜲	-12925
󲜹	-12926
󲜻	-12927
󲝙	-12928
󲝟	-12929
󲝥	-12930
󲝶	-12931
󲞁	-12932
󲞒	-12933
󲞚	-12934
󲟇	-12935
󲟟	-12936
󲟨	-12937
󲟩	-12938
󲟪	-12939
󲠄	-12940
󲠕	-12941
󲠸	-12942
󲠼	-12943
󲡃	-12944
󲡇	-12945
󲡌	-12946
󲡑	-12947
󲡜	-12948
󲡲	-12949
󲡺	-12950
󲢇	-12951
󲢉	-12952
󲢙	-12953
󲢥	-12954
󲢯	-12955
󲢶	-12956
󲣂	-12957
󲣊	-12958
󲣣	-12959
󲣦	-12960
󲣮	-12961
󲤂	-12962
󲤅	-12963
󲤑	-12964
󲤓	-12965
󲤛	-12966
󲤟	-12967
󲤡	-12968
󲤩	-12969
󲤰	-12970
󲤻	-12971
󲤾	-12972
󲥎	-12973
󲥟	-12974
󲥦	-12975
󲦋	-12976
󲦖	-12977
󲦝	-12978
󲦟	-12979
󲦯	-12980
󲦽	-12981
󲦿	-12982
󲧌	-12983
󲧍	-12984
󲧩	-12985
󲧺	-12986
󲨀	-12987
󲨇	-12988
󲨒	-12989
󲨞	-12990
󲨟	-12991
󲨢	-12992
󲨽	-12993
󲩇	-12994
󲩯	-12995
󲩵	-12996
󲪈	-12997
󲪓	-12998
󲪘	-12999
󲪪	-13000
󲪬	-13001
󲪼	-13002
󲪾	-13003
󲫒	-13004
󲫕	-13005
󲫞	-13006
󲫢	-13007
󲫷	-13008
󲫹	-13009
󲬂	-13010
󲬆	-13011
󲬎	-13012
󲬖	-13013
󲬘	-13014
󲬥	-13015
󲭑	-13016
󲭓	-13017
󲭖	-13018
󲭙	-13019
󲭡	-13020
󲭤	-13021
󲭿	-13022
󲮈	-13023
󲮧	-13024
󲮮	-13025
󲮺	-13026
󲯇	-13027
󲯑	-13028
󲯔	-13029
󲯠	-13030
󲯦	-13031
󲯭	-13032
󲯯	-13033
󲯻	-13034
󲰅	-13035
󲰗	-13036
󲰟	-13037
󲰢	-13038
󲰪	-13039
󲰫	-13040
󲰯	-13041
󲰵	-13042
󲱊	-13043
󲱒	-13044
󲱖	-13045
󲱣	-13046
󲱳	-13047
󲲀	-13048
󲲌	-13049
󲲤	-13050
󲲥	-13051
󲲬	-13052
󲲼	-13053
󲳉	-13054
󲳚	-13055
󲳼	-13056
󲴀	-13057
󲴆	-13058
󲴍	-13059
󲴛	-13060
󲴩	-13061
󲴺	-13062
󲴼	-13063
󲵕	-13064
󲵛	-13065
󲵤	-13066
󲵱	-13067
󲶃	-13068
󲶄	-13069
󲶆	-13070
󲶈	-13071
󲶍	-13072
󲶞	-13073
󲶬	-13074
󲶮	-13075
󲶱	-13076
󲷕	-13077
󲷞	-13078
󲷟	-13079
󲷴	-13080
󲸀	-13081
󲸫	-13082
󲸻	-13083
󲹁	-13084
󲹇	-13085
󲹊	-13086
󲹑	-13087
󲹔	-13088
󲹚	-13089
󲹟	-13090
󲹰	-13091
󲺡	-13092
󲺬	-13093
󲺭	-13094
󲺮	-13095
󲺴	-13096
󲺾	-13097
󲺿	-13098
󲻅	-13099
󲻌	-13100
󲻏	-13101
󲻒	-13102
󲻙	-13103
󲻪	-13104
󲻫	-13105
󲻭	-13106
󲼌	-13107
󲼕	-13108
󲼢	-13109
󲼿	-13110
󲽒	-13111
󲽡	-13112
󲾏	-13113
󲾘	-13114
󲾲	-13115
󲾾	-13116
󲿀	-13117
󲿎	-13118
󲿑	-13119
󲿘	-13120
󲿴	-13121
󳀄	-13122
󳀉	-13123
󳀏	-13124
󳀡	-13125
󳀦	-13126
󳀮	-13127
󳀱	-13128
󳁌	-13129
󳁗	-13130
󳁬	-13131
󳂆	-13132
󳂙	-13133
󳂣	-13134
󳂨	-13135
󳂵	-13136
󳃃	-13137
󳃇	-13138
󳃘	-13139
󳃞	-13140
󳃥	-13141
󳃨	-13142
󳃫	-13143
󳃯	-13144
󳄃	-13145
󳄋	-13146
󳄘	-13147
󳄡	-13148
󳄧	-13149
󳄮	-13150
󳄱	-13151
󳄷	-13152
󳄼	-13153
󳅛	-13154
󳅦	-13155
󳆎	-13156
󳆙	-13157
󳆨	-13158
󳆭	-13159
󳆱	-13160
󳆲	-13161
󳆻	-13162
󳇇	-13163
󳇐	-13164
󳇤	-13165
󳇪	-13166
󳇺	-13167
󳇼	-13168
󳇾	-13169
󳈌	-13170
󳈔	-13171
󳈣	-13172
󳈨	-13173
󳉇	-13174
󳉍	-13175
󳉡	-13176
󳉳	-13177
󳊑	-13178
󳊖	-13179
󳊘	-13180
󳊶	-13181
󳊼	-13182
󳋊	-13183
󳋌	-13184
󳋮	-13185
󳌈	-13186
󳌉	-13187
󳌑	-13188
󳌗	-13189
󳌘	-13190
󳌞	-13191
󳌬	-13192
󳍒	-13193
󳍗	-13194
󳍴	-13195
󳍶	-13196
󳎑	-13197
󳎗	-13198
󳎢	-13199
󳎥	-13200
󳎲	-13201
󳎿	-13202
󳏏	-13203
󳏩	-13204
󳏫	-13205
󳏬	-13206
󳏸	-13207
󳏺	-13208
󳐈	-13209
󳐕	-13210
󳐨	-13211
󳐯	-13212
󳐰	-13213
󳐸	-13214
󳐹	-13215
󳑆	-13216
󳑇	-13217
󳑓	-13218
󳑔	-13219
󳑕	-13220
󳑗	-13221
󳑛	-13222
󳑝	-13223
󳑣	-13224
󳑶	-13225
󳑼	-13226
󳒈	-13227
󳒝	-13228
󳒳	-13229
󳓖	-13230
󳓡	-13231
󳓦	-13232
󳓬	-13233
󳓳	-13234
󳔂	-13235
󳔅	-13236
󳔏	-13237
󳔑	-13238
󳔚	-13239
󳔥	-13240
󳔫	-13241
󳕙	-13242
󳕯	-13243
󳕹	-13244
󳖈	-13245
󳖊	-13246
󳖡	-13247
󳖣	-13248
󳖱	-13249
󳗒	-13250
󳗯	-13251
󳗶	-13252
󳗷	-13253
󳗾	-13254
󳘐	-13255
󳘣	-13256
󳘤	-13257
󳘨	-13258
󳘸	-13259
󳘺	-13260
󳙇	-13261
󳙋	-13262
󳙣	-13263
󳙤	-13264
󳙧	-13265
󳙿	-13266
󳚇	-13267
󳚈	-13268
󳚍	-13269
󳚖	-13270
󳚠	-13271
󳚩	-13272
󳚪	-13273
󳚭	-13274
󳛇	-13275
󳛈	-13276
󳛌	-13277
󳛙	-13278
󳛻	-13279
󳜅	-13280
󳜌	-13281
󳜝	-13282
]	-13283
°	-13284
ó	-13285
予	-13286
享	-13287
剁	-13288
剐	-13289
咚	-13290
嗝	-13291
壬	-13292
奠	-13293
媒	-13294
峻	-13295
庸	-13296
戌	-13297
挽	-13298
揍	-13299
搔	-13300
敷	-13301
晋	-13302
樟	-13303
殊	-13304
浏	-13305
涉	-13306
淘	-13307
淬	-13308
炷	-13309
牺	-13310
獐	-13311
皴	-13312
穆	-13313
篓	-13314
簾	-13315
籍	-13316
糯	-13317
纱	-13318
纺	-13319
肘	-13320
舀	-13321
蓄	-13322
蓟	-13323
蔗	-13324
袖	-13325
讳	-13326
贩	-13327
赫	-13328
辕	-13329
酱	-13330
闯	-13331
阉	-13332
颊	-13333
馋	-13334
󲜑	-13335
󲜥	-13336
󲜷	-13337
󲜽	-13338
󲝊	-13339
󲝍	-13340
󲝨	-13341
󲝬	-13342
󲝹	-13343
󲞈	-13344
󲞋	-13345
󲞌	-13346
󲞏	-13347
󲞑	-13348
󲞫	-13349
󲞷	-13350
󲞼	-13351
󲞾	-13352
󲟆	-13353
󲟜	-13354
󲟞	-13355
󲟥	-13356
󲟹	-13357
󲠂	-13358
󲠋	-13359
󲠖	-13360
󲠜	-13361
󲠞	-13362
󲠵	-13363
󲡓	-13364
󲡔	-13365
󲡤	-13366
󲡼	-13367
󲢅	-13368
󲢓	-13369
󲢹	-13370
󲢾	-13371
󲢿	-13372
󲣧	-13373
󲣩	-13374
󲣶	-13375
󲤀	-13376
󲤄	-13377
󲤎	-13378
󲤣	-13379
󲤤	-13380
󲤫	-13381
󲤯	-13382
󲤹	-13383
󲥁	-13384
󲥅	-13385
󲥇	-13386
󲥉	-13387
󲥗	-13388
󲥞	-13389
󲥩	-13390
󲥪	-13391
󲥶	-13392
󲦍	-13393
󲦔	-13394
󲦙	-13395
󲦦	-13396
󲧅	-13397
󲧗	-13398
󲧙	-13399
󲧟	-13400
󲨁	-13401
󲨤	-13402
󲨪	-13403
󲨿	-13404
󲩉	-13405
󲩏	-13406
󲩧	-13407
󲩰	-13408
󲩺	-13409
󲪊	-13410
󲪠	-13411
󲪱	-13412
󲪽	-13413
󲫎	-13414
󲫏	-13415
󲫭	-13416
󲬅	-13417
󲬈	-13418
󲬊	-13419
󲬐	-13420
󲬝	-13421
󲬡	-13422
󲬤	-13423
󲬳	-13424
󲭀	-13425
󲭱	-13426
󲭲	-13427
󲭺	-13428
󲮜	-13429
󲮟	-13430
󲮠	-13431
󲮢	-13432
󲯤	-13433
󲰋	-13434
󲰖	-13435
󲰚	-13436
󲰤	-13437
󲰮	-13438
󲱍	-13439
󲱑	-13440
󲱗	-13441
󲱥	-13442
󲱧	-13443
󲱽	-13444
󲲄	-13445
󲲈	-13446
󲲐	-13447
󲲒	-13448
󲲛	-13449
󲲝	-13450
󲲦	-13451
󲲫	-13452
󲲵	-13453
󲳂	-13454
󲳌	-13455
󲳐	-13456
󲳒	-13457
󲳥	-13458
󲳮	-13459
󲴁	-13460
󲴋	-13461
󲴟	-13462
󲴫	-13463
󲴸	-13464
󲵂	-13465
󲵑	-13466
󲵢	-13467
󲵮	-13468
󲵯	-13469
󲵼	-13470
󲶚	-13471
󲶡	-13472
󲶫	-13473
󲶳	-13474
󲶴	-13475
󲶵	-13476
󲶽	-13477
󲷂	-13478
󲷨	-13479
󲷫	-13480
󲷮	-13481
󲷱	-13482
󲷳	-13483
󲷺	-13484
󲸐	-13485
󲸒	-13486
󲸠	-13487
󲸣	-13488
󲸯	-13489
󲹎	-13490
󲹧	-13491
󲹬	-13492
󲺀	-13493
󲺊	-13494
󲺝	-13495
󲺦	-13496
󲺯	-13497
󲻃	-13498
󲻖	-13499
󲻘	-13500
󲻱	-13501
󲻵	-13502
󲼂	-13503
󲼓	-13504
󲼔	-13505
󲼙	-13506
󲼜	-13507
󲼪	-13508
󲼱	-13509
󲼻	-13510
󲼼	-13511
󲽀	-13512
󲽓	-13513
󲽖	-13514
󲽜	-13515
󲽠	-13516
󲽴	-13517
󲾀	-13518
󲾄	-13519
󲾒	-13520
󲾖	-13521
󲾛	-13522
󲾡	-13523
󲾦	-13524
󲾨	-13525
󲿄	-13526
󲿆	-13527
󲿉	-13528
󲿢	-13529
󲿬	-13530
󲿳	-13531
󳀢	-13532
󳀰	-13533
󳀵	-13534
󳀶	-13535
󳁒	-13536
󳁓	-13537
󳁕	-13538
󳁝	-13539
󳁤	-13540
󳁯	-13541
󳁳	-13542
󳁻	-13543
󳂁	-13544
󳂄	-13545
󳂑	-13546
󳂘	-13547
󳂥	-13548
󳂩	-13549
󳂮	-13550
󳂷	-13551
󳃁	-13552
󳃑	-13553
󳃢	-13554
󳃧	-13555
󳃴	-13556
󳄀	-13557
󳄄	-13558
󳄠	-13559
󳄢	-13560
󳄤	-13561
󳄹	-13562
󳅄	-13563
󳅊	-13564
󳅕	-13565
󳅗	-13566
󳅘	-13567
󳅚	-13568
󳅠	-13569
󳅫	-13570
󳆅	-13571
󳆆	-13572
󳆔	-13573
󳆚	-13574
󳆠	-13575
󳆹	-13576
󳇀	-13577
󳇔	-13578
󳇞	-13579
󳇠	-13580
󳇵	-13581
󳇷	-13582
󳈏	-13583
󳈚	-13584
󳈵	-13585
󳈸	-13586
󳉄	-13587
󳉋	-13588
󳉐	-13589
󳉕	-13590
󳉧	-13591
󳉩	-13592
󳉬	-13593
󳉲	-13594
󳊀	-13595
󳊅	-13596
󳊉	-13597
󳊔	-13598
󳊛	-13599
󳊝	-13600
󳊤	-13601
󳊧	-13602
󳊨	-13603
󳊩	-13604
󳊰	-13605
󳊷	-13606
󳊿	-13607
󳋀	-13608
󳋇	-13609
󳋦	-13610
󳌃	-13611
󳌊	-13612
󳌜	-13613
󳌴	-13614
󳌼	-13615
󳍉	-13616
󳍏	-13617
󳍞	-13618
󳍧	-13619
󳍭	-13620
󳍽	-13621
󳎃	-13622
󳎅	-13623
󳎆	-13624
󳎍	-13625
󳎒	-13626
󳎔	-13627
󳎦	-13628
󳎳	-13629
󳏓	-13630
󳏢	-13631
󳐅	-13632
󳐏	-13633
󳐐	-13634
󳐾	-13635
󳑉	-13636
󳑎	-13637
󳑟	-13638
󳑦	-13639
󳑪	-13640
󳑻	-13641
󳒎	-13642
󳒐	-13643
󳒨	-13644
󳒹	-13645
󳓈	-13646
󳓏	-13647
󳓝	-13648
󳓥	-13649
󳓭	-13650
󳓸	-13651
󳔊	-13652
󳔘	-13653
󳔛	-13654
󳔟	-13655
󳔱	-13656
󳔹	-13657
󳕃	-13658
󳕉	-13659
󳕏	-13660
󳕒	-13661
󳕪	-13662
󳕸	-13663
󳖉	-13664
󳖘	-13665
󳖤	-13666
󳖦	-13667
󳖸	-13668
󳖹	-13669
󳗀	-13670
󳗉	-13671
󳗊	-13672
󳗐	-13673
󳗞	-13674
󳗬	-13675
󳗲	-13676
󳘊	-13677
󳘙	-13678
󳘛	-13679
󳘮	-13680
󳙁	-13681
󳙓	-13682
󳙜	-13683
󳙡	-13684
󳙴	-13685
󳚊	-13686
󳚟	-13687
󳚢	-13688
󳚱	-13689
󳚻	-13690
󳛚	-13691
󳛭	-13692
󳜎	-13693
勸	-13694
匾	-13695
啥	-13696
圃	-13697
圪	-13698
垦	-13699
宠	-13700
導	-13701
屈	-13702
岔	-13703
庚	-13704
府	-13705
异	-13706
惡	-13707
懷	-13708
挜	-13709
撬	-13710
撲	-13711
擁	-13712
敵	-13713
桨	-13714
楔	-13715
欣	-13716
泉	-13717
泰	-13718
渍	-13719
渥	-13720
滓	-13721
滾	-13722
烈	-13723
猿	-13724
琳	-13725
環	-13726
疥	-13727
眩	-13728
瞌	-13729
碌	-13730
碳	-13731
祥	-13732
秀	-13733
窮	-13734
簽	-13735
粑	-13736
罵	-13737
耘	-13738
胞	-13739
膘	-13740
膻	-13741
萊	-13742
萌	-13743
蓋	-13744
藕	-13745
蛛	-13746
衛	-13747
裱	-13748
複	-13749
褶	-13750
評	-13751
諾	-13752
讥	-13753
诏	-13754
诵	-13755
谣	-13756
賞	-13757
質	-13758
赐	-13759
踫	-13760
辜	-13761
迂	-13762
酥	-13763
酪	-13764
銷	-13765
钹	-13766
隆	-13767
霜	-13768
霹	-13769
靈	-13770
項	-13771
黝	-13772
󲜘	-13773
󲜠	-13774
󲜡	-13775
󲜨	-13776
󲜬	-13777
󲜯	-13778
󲝕	-13779
󲝚	-13780
󲝞	-13781
󲝤	-13782
󲝩	-13783
󲝯	-13784
󲝸	-13785
󲝼	-13786
󲞄	-13787
󲞉	-13788
󲞎	-13789
󲞖	-13790
󲞘	-13791
󲞛	-13792
󲞤	-13793
󲞱	-13794
󲞴	-13795
󲟄	-13796
󲟈	-13797
󲟉	-13798
󲟌	-13799
󲟍	-13800
󲟖	-13801
󲟙	-13802
󲟻	-13803
󲠑	-13804
󲠙	-13805
󲠚	-13806
󲠧	-13807
󲠬	-13808
󲡖	-13809
󲡗	-13810
󲡙	-13811
󲡝	-13812
󲡬	-13813
󲡰	-13814
󲡸	-13815
󲡻	-13816
󲢀	-13817
󲢂	-13818
󲢃	-13819
󲢐	-13820
󲢔	-13821
󲢱	-13822
󲢴	-13823
󲣃	-13824
󲣆	-13825
󲣚	-13826
󲣤	-13827
󲣬	-13828
󲣸	-13829
󲣻	-13830
󲤆	-13831
󲤈	-13832
󲤋	-13833
󲤒	-13834
󲤘	-13835
󲤝	-13836
󲤸	-13837
󲥒	-13838
󲥙	-13839
󲥛	-13840
󲥠	-13841
󲥹	-13842
󲦗	-13843
󲦤	-13844
󲧂	-13845
󲧕	-13846
󲧝	-13847
󲧞	-13848
󲧴	-13849
󲨆	-13850
󲨏	-13851
󲩌	-13852
󲩓	-13853
󲩔	-13854
󲩕	-13855
󲩙	-13856
󲩜	-13857
󲩝	-13858
󲩬	-13859
󲩶	-13860
󲪁	-13861
󲪃	-13862
󲪄	-13863
󲪐	-13864
󲪗	-13865
󲪙	-13866
󲪚	-13867
󲪫	-13868
󲪿	-13869
󲫈	-13870
󲫉	-13871
󲫑	-13872
󲫗	-13873
󲫟	-13874
󲫣	-13875
󲫩	-13876
󲫲	-13877
󲬏	-13878
󲬩	-13879
󲬶	-13880
󲭉	-13881
󲭍	-13882
󲭔	-13883
󲭜	-13884
󲭝	-13885
󲭞	-13886
󲭦	-13887
󲭩	-13888
󲭽	-13889
󲮊	-13890
󲮐	-13891
󲮑	-13892
󲮤	-13893
󲮥	-13894
󲮲	-13895
󲮷	-13896
󲯉	-13897
󲯢	-13898
󲯫	-13899
󲯳	-13900
󲯽	-13901
󲰉	-13902
󲰩	-13903
󲰭	-13904
󲰶	-13905
󲱇	-13906
󲱌	-13907
󲱓	-13908
󲱛	-13909
󲱭	-13910
󲱻	-13911
󲱼	-13912
󲲇	-13913
󲲋	-13914
󲲚	-13915
󲲞	-13916
󲲯	-13917
󲲶	-13918
󲲽	-13919
󲳄	-13920
󲳊	-13921
󲳙	-13922
󲳪	-13923
󲳶	-13924
󲳹	-13925
󲴄	-13926
󲴅	-13927
󲴚	-13928
󲴥	-13929
󲴪	-13930
󲴬	-13931
󲴰	-13932
󲴽	-13933
󲵁	-13934
󲵊	-13935
󲵒	-13936
󲵸	-13937
󲶛	-13938
󲶝	-13939
󲶷	-13940
󲷃	-13941
󲷊	-13942
󲷒	-13943
󲷚	-13944
󲷛	-13945
󲷜	-13946
󲷠	-13947
󲸂	-13948
󲸄	-13949
󲸆	-13950
󲸉	-13951
󲸑	-13952
󲸕	-13953
󲸝	-13954
󲸞	-13955
󲸧	-13956
󲸮	-13957
󲸰	-13958
󲸹	-13959
󲹆	-13960
󲹗	-13961
󲹛	-13962
󲹡	-13963
󲹣	-13964
󲹭	-13965
󲹿	-13966
󲺗	-13967
󲺠	-13968
󲺳	-13969
󲺶	-13970
󲻀	-13971
󲻁	-13972
󲻍	-13973
󲻎	-13974
󲻐	-13975
󲻳	-13976
󲻴	-13977
󲻷	-13978
󲻹	-13979
󲻾	-13980
󲼅	-13981
󲼋	-13982
󲼍	-13983
󲼏	-13984
󲼖	-13985
󲼩	-13986
󲼸	-13987
󲽌	-13988
󲽍	-13989
󲽥	-13990
󲽩	-13991
󲽷	-13992
󲽼	-13993
󲾣	-13994
󲾮	-13995
󲾯	-13996
󲿔	-13997
󲿚	-13998
󲿠	-13999
󲿤	-14000
󲿪	-14001
󲿸	-14002
󳀅	-14003
󳀍	-14004
󳀒	-14005
󳀚	-14006
󳀩	-14007
󳀯	-14008
󳀸	-14009
󳁄	-14010
󳁆	-14011
󳁊	-14012
󳁐	-14013
󳁭	-14014
󳁲	-14015
󳂂	-14016
󳂉	-14017
󳂋	-14018
󳂎	-14019
󳂛	-14020
󳃅	-14021
󳃷	-14022
󳄐	-14023
󳄿	-14024
󳅃	-14025
󳅇	-14026
󳅒	-14027
󳅢	-14028
󳅥	-14029
󳅲	-14030
󳅻	-14031
󳆇	-14032
󳆏	-14033
󳆝	-14034
󳇅	-14035
󳇆	-14036
󳇎	-14037
󳇟	-14038
󳇽	-14039
󳈃	-14040
󳈞	-14041
󳈧	-14042
󳈩	-14043
󳈱	-14044
󳈺	-14045
󳉀	-14046
󳉏	-14047
󳉘	-14048
󳉙	-14049
󳉹	-14050
󳉺	-14051
󳉻	-14052
󳊐	-14053
󳊣	-14054
󳊥	-14055
󳊫	-14056
󳊴	-14057
󳊺	-14058
󳋃	-14059
󳋑	-14060
󳋠	-14061
󳋩	-14062
󳋳	-14063
󳋹	-14064
󳋺	-14065
󳋻	-14066
󳌀	-14067
󳌫	-14068
󳌵	-14069
󳌻	-14070
󳌽	-14071
󳍂	-14072
󳍈	-14073
󳍓	-14074
󳍕	-14075
󳍨	-14076
󳍯	-14077
󳎈	-14078
󳎙	-14079
󳎜	-14080
󳎩	-14081
󳎶	-14082
󳏅	-14083
󳏔	-14084
󳏕	-14085
󳏖	-14086
󳏵	-14087
󳏿	-14088
󳐋	-14089
󳐘	-14090
󳐙	-14091
󳐤	-14092
󳐻	-14093
󳐿	-14094
󳑑	-14095
󳑚	-14096
󳑰	-14097
󳑲	-14098
󳑺	-14099
󳒆	-14100
󳒒	-14101
󳒟	-14102
󳒢	-14103
󳒴	-14104
󳒽	-14105
󳒿	-14106
󳓛	-14107
󳓟	-14108
󳓠	-14109
󳓽	-14110
󳔖	-14111
󳔢	-14112
󳔣	-14113
󳔪	-14114
󳕄	-14115
󳕍	-14116
󳕎	-14117
󳕨	-14118
󳕿	-14119
󳖁	-14120
󳖌	-14121
󳖍	-14122
󳖐	-14123
󳖓	-14124
󳖕	-14125
󳖙	-14126
󳖠	-14127
󳖢	-14128
󳖥	-14129
󳖮	-14130
󳖳	-14131
󳖴	-14132
󳖾	-14133
󳖿	-14134
󳗆	-14135
󳗋	-14136
󳗌	-14137
󳗗	-14138
󳗡	-14139
󳗢	-14140
󳗮	-14141
󳗴	-14142
󳗹	-14143
󳘀	-14144
󳘁	-14145
󳘎	-14146
󳘧	-14147
󳘱	-14148
󳘻	-14149
󳙒	-14150
󳙮	-14151
󳚛	-14152
󳚥	-14153
󳚨	-14154
󳚬	-14155
󳚳	-14156
󳚽	-14157
󳛊	-14158
󳛑	-14159
󳛗	-14160
󳛩	-14161
󳛬	-14162
󳛮	-14163
󳛳	-14164
󳛼	-14165
󳜕	-14166
󳜠	-14167
󳜥	-14168
è	-14169
ū	-14170
兑	-14171
匪	-14172
哀	-14173
噎	-14174
嚷	-14175
央	-14176
宅	-14177
峭	-14178
幕	-14179
惨	-14180
挼	-14181
搓	-14182
旱	-14183
椆	-14184
櫱	-14185
湾	-14186
滗	-14187
煨	-14188
燎	-14189
瘫	-14190
眯	-14191
筐	-14192
筛	-14193
筹	-14194
纷	-14195
虱	-14196
诅	-14197
豌	-14198
锯	-14199
󲜚	-14200
󲜞	-14201
󲝀	-14202
󲝋	-14203
󲝌	-14204
󲝏	-14205
󲝑	-14206
󲝜	-14207
󲝣	-14208
󲝳	-14209
󲞃	-14210
󲞓	-14211
󲞦	-14212
󲞲	-14213
󲞳	-14214
󲞹	-14215
󲞺	-14216
󲟅	-14217
󲟚	-14218
󲟶	-14219
󲟾	-14220
󲠆	-14221
󲠗	-14222
󲠪	-14223
󲡊	-14224
󲡣	-14225
󲢄	-14226
󲢎	-14227
󲣨	-14228
󲣪	-14229
󲣼	-14230
󲤃	-14231
󲤪	-14232
󲤬	-14233
󲥂	-14234
󲥈	-14235
󲥚	-14236
󲥢	-14237
󲥤	-14238
󲦧	-14239
󲧇	-14240
󲨂	-14241
󲨃	-14242
󲨅	-14243
󲨎	-14244
󲨐	-14245
󲨥	-14246
󲨮	-14247
󲨺	-14248
󲩍	-14249
󲪍	-14250
󲪛	-14251
󲪩	-14252
󲪮	-14253
󲪶	-14254
󲫃	-14255
󲫘	-14256
󲫯	-14257
󲬌	-14258
󲬸	-14259
󲭒	-14260
󲭧	-14261
󲭵	-14262
󲮋	-14263
󲮏	-14264
󲮪	-14265
󲮶	-14266
󲯈	-14267
󲯌	-14268
󲯐	-14269
󲯓	-14270
󲯪	-14271
󲯰	-14272
󲯾	-14273
󲰀	-14274
󲰂	-14275
󲰨	-14276
󲰰	-14277
󲰴	-14278
󲱄	-14279
󲱉	-14280
󲱎	-14281
󲱚	-14282
󲱝	-14283
󲱟	-14284
󲱮	-14285
󲲗	-14286
󲲢	-14287
󲲮	-14288
󲳀	-14289
󲳜	-14290
󲳞	-14291
󲳟	-14292
󲳬	-14293
󲳷	-14294
󲴌	-14295
󲴣	-14296
󲴭	-14297
󲴱	-14298
󲴶	-14299
󲴿	-14300
󲵇	-14301
󲵎	-14302
󲵐	-14303
󲵰	-14304
󲵹	-14305
󲵿	-14306
󲶁	-14307
󲶂	-14308
󲶓	-14309
󲶨	-14310
󲶪	-14311
󲶿	-14312
󲷓	-14313
󲷩	-14314
󲸈	-14315
󲸔	-14316
󲸛	-14317
󲸸	-14318
󲸾	-14319
󲹈	-14320
󲹉	-14321
󲹯	-14322
󲺒	-14323
󲺘	-14324
󲺣	-14325
󲺪	-14326
󲻇	-14327
󲻦	-14328
󲻸	-14329
󲻻	-14330
󲼐	-14331
󲼫	-14332
󲽆	-14333
󲽊	-14334
󲽘	-14335
󲽤	-14336
󲽧	-14337
󲽭	-14338
󲾧	-14339
󲿁	-14340
󲿌	-14341
󲿥	-14342
󲿩	-14343
󲿹	-14344
󲿺	-14345
󳀂	-14346
󳀋	-14347
󳀞	-14348
󳀥	-14349
󳁃	-14350
󳁑	-14351
󳁣	-14352
󳁪	-14353
󳁹	-14354
󳂍	-14355
󳂜	-14356
󳂝	-14357
󳂯	-14358
󳂳	-14359
󳂽	-14360
󳃄	-14361
󳃈	-14362
󳃛	-14363
󳃡	-14364
󳃤	-14365
󳃲	-14366
󳃺	-14367
󳃿	-14368
󳄊	-14369
󳄩	-14370
󳄽	-14371
󳅜	-14372
󳆟	-14373
󳆴	-14374
󳇥	-14375
󳇧	-14376
󳇱	-14377
󳇲	-14378
󳇳	-14379
󳈎	-14380
󳈐	-14381
󳈑	-14382
󳈭	-14383
󳉎	-14384
󳉜	-14385
󳉨	-14386
󳉯	-14387
󳉷	-14388
󳉿	-14389
󳊙	-14390
󳊞	-14391
󳊯	-14392
󳊱	-14393
󳊲	-14394
󳋆	-14395
󳋓	-14396
󳋙	-14397
󳋟	-14398
󳋢	-14399
󳋴	-14400
󳌔	-14401
󳌣	-14402
󳌺	-14403
󳍍	-14404
󳍫	-14405
󳍲	-14406
󳍻	-14407
󳎉	-14408
󳎛	-14409
󳎟	-14410
󳎤	-14411
󳎰	-14412
󳎵	-14413
󳏇	-14414
󳏈	-14415
󳏘	-14416
󳏠	-14417
󳏮	-14418
󳐊	-14419
󳐒	-14420
󳐖	-14421
󳐜	-14422
󳐢	-14423
󳐣	-14424
󳐲	-14425
󳐶	-14426
󳑌	-14427
󳑍	-14428
󳑨	-14429
󳑽	-14430
󳑾	-14431
󳒗	-14432
󳒜	-14433
󳒣	-14434
󳒪	-14435
󳒱	-14436
󳒲	-14437
󳓂	-14438
󳓍	-14439
󳓚	-14440
󳓧	-14441
󳓨	-14442
󳓪	-14443
󳓫	-14444
󳓮	-14445
󳓿	-14446
󳔃	-14447
󳔇	-14448
󳕀	-14449
󳕇	-14450
󳕋	-14451
󳕔	-14452
󳕖	-14453
󳕚	-14454
󳕩	-14455
󳖃	-14456
󳖄	-14457
󳖔	-14458
󳖜	-14459
󳖧	-14460
󳖩	-14461
󳖫	-14462
󳗄	-14463
󳗓	-14464
󳗣	-14465
󳗫	-14466
󳗭	-14467
󳘂	-14468
󳘈	-14469
󳘘	-14470
󳘞	-14471
󳘵	-14472
󳘶	-14473
󳘷	-14474
󳙀	-14475
󳙄	-14476
󳙆	-14477
󳙎	-14478
󳙔	-14479
󳙩	-14480
󳙲	-14481
󳚁	-14482
󳚃	-14483
󳚞	-14484
󳚦	-14485
󳚴	-14486
󳚼	-14487
󳚾	-14488
󳛏	-14489
󳛕	-14490
󳛵	-14491
󳛽	-14492
󳜆	-14493
󳜈	-14494
󳜉	-14495
󳜊	-14496
󳜖	-14497
󳜘	-14498
󳜞	-14499
󳜟	-14500
󳜣	-14501
⋯	-14502
亦	-14503
亨	-14504
仙	-14505
伍	-14506
伺	-14507
佈	-14508
偉	-14509
冊	-14510
凍	-14511
剜	-14512
創	-14513
卓	-14514
卯	-14515
厕	-14516
厲	-14517
噗	-14518
圾	-14519
坦	-14520
垃	-14521
堅	-14522
壓	-14523
夾	-14524
奥	-14525
妙	-14526
婦	-14527
巫	-14528
恢	-14529
挥	-14530
捶	-14531
掛	-14532
摞	-14533
撂	-14534
擾	-14535
朱	-14536
杰	-14537
栘	-14538
检	-14539
榮	-14540
櫃	-14541
欄	-14542
權	-14543
歸	-14544
润	-14545
渠	-14546
濕	-14547
烏	-14548
營	-14549
獄	-14550
獎	-14551
甄	-14552
瘋	-14553
癣	-14554
瞀	-14555
碟	-14556
磅	-14557
秤	-14558
稣	-14559
筱	-14560
繩	-14561
繫	-14562
绾	-14563
罅	-14564
罔	-14565
翼	-14566
腊	-14567
臨	-14568
芤	-14569
莊	-14570
蔫	-14571
薪	-14572
蛤	-14573
褓	-14574
褙	-14575
褪	-14576
襪	-14577
评	-14578
诓	-14579
賭	-14580
贤	-14581
辔	-14582
遭	-14583
遺	-14584
酬	-14585
鑰	-14586
锻	-14587
镐	-14588
霧	-14589
頁	-14590
颅	-14591
飽	-14592
髒	-14593
ꀋ	-14594
󲜧	-14595
󲜮	-14596
󲜶	-14597
󲝁	-14598
󲝆	-14599
󲝠	-14600
󲝡	-14601
󲝰	-14602
󲝲	-14603
󲝾	-14604
󲞇	-14605
󲞪	-14606
󲞽	-14607
󲟎	-14608
󲟏	-14609
󲟔	-14610
󲟝	-14611
󲟠	-14612
󲟢	-14613
󲟰	-14614
󲟸	-14615
󲠀	-14616
󲠎	-14617
󲠔	-14618
󲠽	-14619
󲡄	-14620
󲡟	-14621
󲡧	-14622
󲡪	-14623
󲡱	-14624
󲢊	-14625
󲢝	-14626
󲢞	-14627
󲢫	-14628
󲣄	-14629
󲣈	-14630
󲣘	-14631
󲣢	-14632
󲣲	-14633
󲣳	-14634
󲣹	-14635
󲤊	-14636
󲤠	-14637
󲥰	-14638
󲥺	-14639
󲥿	-14640
󲦅	-14641
󲦊	-14642
󲦐	-14643
󲦥	-14644
󲧑	-14645
󲧒	-14646
󲧓	-14647
󲧥	-14648
󲧦	-14649
󲧲	-14650
󲧹	-14651
󲨓	-14652
󲨡	-14653
󲨦	-14654
󲩋	-14655
󲩘	-14656
󲩩	-14657
󲩮	-14658
󲩴	-14659
󲩸	-14660
󲩹	-14661
󲪦	-14662
󲪳	-14663
󲫁	-14664
󲫆	-14665
󲫚	-14666
󲫝	-14667
󲫬	-14668
󲫻	-14669
󲬕	-14670
󲬢	-14671
󲬫	-14672
󲭌	-14673
󲭘	-14674
󲮁	-14675
󲮌	-14676
󲮒	-14677
󲮾	-14678
󲯙	-14679
󲯡	-14680
󲯥	-14681
󲯱	-14682
󲰲	-14683
󲱂	-14684
󲱏	-14685
󲱞	-14686
󲱫	-14687
󲲎	-14688
󲲔	-14689
󲳧	-14690
󲳴	-14691
󲳵	-14692
󲵄	-14693
󲵈	-14694
󲵉	-14695
󲵗	-14696
󲵧	-14697
󲵨	-14698
󲵭	-14699
󲵳	-14700
󲵽	-14701
󲶊	-14702
󲶖	-14703
󲶜	-14704
󲶟	-14705
󲶥	-14706
󲶦	-14707
󲷇	-14708
󲷏	-14709
󲷙	-14710
󲷥	-14711
󲷧	-14712
󲸅	-14713
󲸩	-14714
󲸶	-14715
󲹜	-14716
󲹥	-14717
󲹵	-14718
󲺁	-14719
󲺓	-14720
󲺞	-14721
󲺢	-14722
󲺨	-14723
󲺲	-14724
󲻓	-14725
󲻮	-14726
󲼆	-14727
󲼥	-14728
󲼦	-14729
󲼲	-14730
󲽅	-14731
󲽋	-14732
󲽦	-14733
󲽵	-14734
󲾆	-14735
󲾇	-14736
󲾉	-14737
󲾎	-14738
󲿋	-14739
󲿒	-14740
󲿛	-14741
󲿯	-14742
󲿽	-14743
󳀁	-14744
󳀊	-14745
󳀌	-14746
󳀐	-14747
󳀛	-14748
󳀧	-14749
󳀬	-14750
󳀺	-14751
󳁏	-14752
󳁞	-14753
󳁦	-14754
󳂀	-14755
󳂅	-14756
󳂒	-14757
󳂓	-14758
󳂟	-14759
󳂦	-14760
󳂰	-14761
󳂱	-14762
󳂹	-14763
󳂺	-14764
󳃀	-14765
󳃂	-14766
󳃉	-14767
󳃍	-14768
󳃪	-14769
󳄝	-14770
󳄞	-14771
󳄪	-14772
󳄺	-14773
󳅀	-14774
󳅤	-14775
󳅬	-14776
󳅮	-14777
󳅯	-14778
󳅷	-14779
󳆃	-14780
󳆌	-14781
󳆣	-14782
󳆫	-14783
󳆾	-14784
󳇏	-14785
󳇒	-14786
󳇕	-14787
󳇦	-14788
󳇸	-14789
󳈁	-14790
󳈗	-14791
󳈽	-14792
󳉉	-14793
󳉢	-14794
󳉫	-14795
󳉶	-14796
󳉽	-14797
󳊇	-14798
󳊢	-14799
󳊭	-14800
󳊾	-14801
󳋥	-14802
󳋵	-14803
󳌌	-14804
󳌠	-14805
󳌤	-14806
󳌰	-14807
󳍊	-14808
󳍎	-14809
󳍩	-14810
󳍮	-14811
󳎎	-14812
󳎧	-14813
󳎪	-14814
󳎯	-14815
󳎱	-14816
󳏜	-14817
󳏝	-14818
󳏟	-14819
󳏡	-14820
󳏤	-14821
󳏦	-14822
󳏯	-14823
󳏰	-14824
󳐵	-14825
󳐽	-14826
󳑅	-14827
󳑠	-14828
󳑬	-14829
󳒕	-14830
󳒠	-14831
󳒥	-14832
󳒬	-14833
󳒶	-14834
󳒺	-14835
󳓀	-14836
󳓋	-14837
󳓐	-14838
󳓑	-14839
󳓓	-14840
󳓩	-14841
󳓶	-14842
󳓺	-14843
󳔈	-14844
󳔙	-14845
󳔲	-14846
󳔽	-14847
󳕁	-14848
󳕅	-14849
󳕈	-14850
󳕛	-14851
󳕝	-14852
󳕢	-14853
󳕱	-14854
󳕲	-14855
󳕳	-14856
󳕵	-14857
󳕽	-14858
󳖗	-14859
󳖭	-14860
󳖽	-14861
󳗁	-14862
󳗕	-14863
󳗝	-14864
󳗰	-14865
󳘇	-14866
󳘉	-14867
󳘖	-14868
󳘚	-14869
󳘝	-14870
󳘫	-14871
󳘯	-14872
󳘳	-14873
󳘽	-14874
󳙍	-14875
󳙕	-14876
󳙞	-14877
󳙪	-14878
󳙷	-14879
󳙻	-14880
󳙾	-14881
󳚂	-14882
󳚙	-14883
󳚤	-14884
󳚷	-14885
󳛄	-14886
󳛅	-14887
󳛒	-14888
󳛘	-14889
󳛷	-14890
󳜀	-14891
󳜤	-14892
僰	-14893
嘣	-14894
峨	-14895
幺	-14896
弘	-14897
慰	-14898
抗	-14899
抟	-14900
搾	-14901
昧	-14902
柚	-14903
柞	-14904
框	-14905
汇	-14906
泽	-14907
溯	-14908
潲	-14909
焉	-14910
煞	-14911
甘	-14912
疔	-14913
痘	-14914
盲	-14915
腥	-14916
苕	-14917
苣	-14918
荑	-14919
谅	-14920
豹	-14921
辰	-14922
隶	-14923
饺	-14924
鸯	-14925
鹞	-14926
󲜭	-14927
󲜼	-14928
󲝖	-14929
󲝿	-14930
󲞅	-14931
󲞵	-14932
󲞿	-14933
󲟂	-14934
󲟃	-14935
󲟑	-14936
󲟓	-14937
󲠘	-14938
󲠠	-14939
󲠦	-14940
󲠰	-14941
󲢌	-14942
󲢍	-14943
󲢏	-14944
󲢒	-14945
󲢨	-14946
󲢳	-14947
󲢽	-14948
󲣅	-14949
󲣇	-14950
󲣗	-14951
󲣫	-14952
󲣾	-14953
󲥲	-14954
󲦃	-14955
󲦇	-14956
󲦳	-14957
󲧋	-14958
󲧫	-14959
󲧬	-14960
󲧷	-14961
󲧻	-14962
󲨑	-14963
󲨴	-14964
󲩟	-14965
󲩦	-14966
󲩨	-14967
󲪅	-14968
󲪝	-14969
󲪟	-14970
󲫓	-14971
󲫔	-14972
󲫠	-14973
󲫰	-14974
󲬮	-14975
󲭇	-14976
󲭗	-14977
󲭪	-14978
󲭭	-14979
󲭸	-14980
󲭾	-14981
󲮝	-14982
󲮵	-14983
󲯋	-14984
󲯒	-14985
󲯗	-14986
󲯞	-14987
󲯟	-14988
󲯣	-14989
󲯿	-14990
󲰐	-14991
󲰔	-14992
󲱅	-14993
󲱆	-14994
󲲁	-14995
󲲆	-14996
󲲑	-14997
󲲓	-14998
󲲙	-14999
󲲡	-15000
󲲿	-15001
󲳇	-15002
󲳍	-15003
󲳑	-15004
󲳖	-15005
󲳤	-15006
󲴐	-15007
󲴑	-15008
󲴕	-15009
󲵀	-15010
󲵍	-15011
󲵔	-15012
󲵝	-15013
󲵦	-15014
󲵷	-15015
󲵺	-15016
󲶒	-15017
󲶘	-15018
󲶹	-15019
󲷄	-15020
󲷋	-15021
󲷷	-15022
󲸊	-15023
󲹶	-15024
󲹽	-15025
󲺄	-15026
󲺑	-15027
󲺥	-15028
󲻄	-15029
󲻜	-15030
󲻽	-15031
󲼝	-15032
󲼧	-15033
󲼳	-15034
󲼵	-15035
󲽚	-15036
󲽛	-15037
󲽣	-15038
󲾅	-15039
󲾐	-15040
󲾪	-15041
󲾼	-15042
󲿟	-15043
󲿦	-15044
󳀖	-15045
󳁈	-15046
󳁧	-15047
󳁨	-15048
󳁮	-15049
󳁸	-15050
󳂸	-15051
󳃖	-15052
󳃙	-15053
󳃜	-15054
󳃭	-15055
󳄈	-15056
󳄛	-15057
󳅡	-15058
󳅳	-15059
󳅸	-15060
󳆋	-15061
󳆞	-15062
󳇘	-15063
󳇛	-15064
󳇹	-15065
󳈂	-15066
󳈈	-15067
󳈠	-15068
󳈯	-15069
󳈶	-15070
󳉅	-15071
󳉖	-15072
󳉗	-15073
󳉚	-15074
󳉦	-15075
󳉪	-15076
󳊄	-15077
󳊮	-15078
󳋉	-15079
󳋖	-15080
󳋗	-15081
󳋤	-15082
󳋰	-15083
󳌟	-15084
󳌡	-15085
󳍳	-15086
󳎘	-15087
󳎠	-15088
󳎣	-15089
󳎴	-15090
󳏁	-15091
󳏊	-15092
󳏥	-15093
󳏷	-15094
󳐃	-15095
󳑀	-15096
󳑄	-15097
󳑡	-15098
󳑱	-15099
󳑷	-15100
󳒁	-15101
󳒂	-15102
󳒃	-15103
󳒄	-15104
󳒍	-15105
󳒔	-15106
󳒞	-15107
󳒭	-15108
󳒸	-15109
󳒾	-15110
󳓌	-15111
󳓎	-15112
󳓞	-15113
󳓹	-15114
󳔔	-15115
󳔡	-15116
󳔨	-15117
󳔳	-15118
󳔶	-15119
󳕑	-15120
󳕤	-15121
󳕧	-15122
󳕫	-15123
󳕶	-15124
󳖖	-15125
󳖛	-15126
󳗖	-15127
󳗱	-15128
󳘒	-15129
󳘓	-15130
󳘕	-15131
󳘜	-15132
󳘠	-15133
󳘢	-15134
󳘾	-15135
󳙐	-15136
󳙖	-15137
󳙗	-15138
󳙢	-15139
󳙫	-15140
󳙶	-15141
󳚝	-15142
󳚣	-15143
󳚮	-15144
󳚯	-15145
󳚹	-15146
󳛜	-15147
󳛞	-15148
󳛰	-15149
󳜂	-15150
󳜐	-15151
ō	-15152
丹	-15153
佔	-15154
儘	-15155
劣	-15156
励	-15157
勢	-15158
嗨	-15159
嚇	-15160
嚨	-15161
塵	-15162
壯	-15163
寶	-15164
尤	-15165
尬	-15166
屉	-15167
廠	-15168
恒	-15169
恥	-15170
憔	-15171
拧	-15172
振	-15173
搶	-15174
擋	-15175
擠	-15176
攝	-15177
梢	-15178
榜	-15179
橡	-15180
檩	-15181
歹	-15182
涼	-15183
淚	-15184
測	-15185
澆	-15186
濃	-15187
狀	-15188
猶	-15189
痪	-15190
療	-15191
盤	-15192
瞭	-15193
碱	-15194
磁	-15195
禍	-15196
簿	-15197
績	-15198
署	-15199
胛	-15200
臥	-15201
艰	-15202
菸	-15203
蔺	-15204
薩	-15205
蘿	-15206
蜀	-15207
蠅	-15208
褲	-15209
訓	-15210
詢	-15211
詳	-15212
謀	-15213
谬	-15214
迅	-15215
迫	-15216
逼	-15217
销	-15218
镯	-15219
閉	-15220
闆	-15221
闺	-15222
隧	-15223
額	-15224
骈	-15225
髻	-15226
鮮	-15227
󲜖	-15228
󲜝	-15229
󲜾	-15230
󲝪	-15231
󲞜	-15232
󲞞	-15233
󲞢	-15234
󲞨	-15235
󲟊	-15236
󲟴	-15237
󲟺	-15238
󲠅	-15239
󲡒	-15240
󲣡	-15241
󲣰	-15242
󲤏	-15243
󲥖	-15244
󲥜	-15245
󲥝	-15246
󲦂	-15247
󲦩	-15248
󲦬	-15249
󲦲	-15250
󲦹	-15251
󲦼	-15252
󲧁	-15253
󲧐	-15254
󲧔	-15255
󲧜	-15256
󲧵	-15257
󲧶	-15258
󲨸	-15259
󲨹	-15260
󲩁	-15261
󲩠	-15262
󲩢	-15263
󲩥	-15264
󲩽	-15265
󲩾	-15266
󲪯	-15267
󲫀	-15268
󲫖	-15269
󲫥	-15270
󲬁	-15271
󲬗	-15272
󲬰	-15273
󲬷	-15274
󲬺	-15275
󲭥	-15276
󲭹	-15277
󲭼	-15278
󲮕	-15279
󲮖	-15280
󲮨	-15281
󲮩	-15282
󲯎	-15283
󲯼	-15284
󲰓	-15285
󲰞	-15286
󲰣	-15287
󲰧	-15288
󲰿	-15289
󲱔	-15290
󲱘	-15291
󲱴	-15292
󲲕	-15293
󲲪	-15294
󲳅	-15295
󲴢	-15296
󲴳	-15297
󲵡	-15298
󲵩	-15299
󲶇	-15300
󲶸	-15301
󲷁	-15302
󲷌	-15303
󲸖	-15304
󲸘	-15305
󲸥	-15306
󲸿	-15307
󲹄	-15308
󲹨	-15309
󲹮	-15310
󲹺	-15311
󲹻	-15312
󲻈	-15313
󲻚	-15314
󲻢	-15315
󲼟	-15316
󲼾	-15317
󲽳	-15318
󲾂	-15319
󲾕	-15320
󲾜	-15321
󲾟	-15322
󲾠	-15323
󲿭	-15324
󳁟	-15325
󳁶	-15326
󳁿	-15327
󳂿	-15328
󳃌	-15329
󳃏	-15330
󳃦	-15331
󳃽	-15332
󳃾	-15333
󳄓	-15334
󳄕	-15335
󳅐	-15336
󳅔	-15337
󳅭	-15338
󳅰	-15339
󳆓	-15340
󳆧	-15341
󳆺	-15342
󳈒	-15343
󳈟	-15344
󳈡	-15345
󳉂	-15346
󳉃	-15347
󳉛	-15348
󳉣	-15349
󳉭	-15350
󳉾	-15351
󳋎	-15352
󳌕	-15353
󳌛	-15354
󳌩	-15355
󳍡	-15356
󳍢	-15357
󳎁	-15358
󳎋	-15359
󳏑	-15360
󳏧	-15361
󳐄	-15362
󳐎	-15363
󳐳	-15364
󳑁	-15365
󳑃	-15366
󳑖	-15367
󳑢	-15368
󳒚	-15369
󳒷	-15370
󳓁	-15371
󳓉	-15372
󳓲	-15373
󳔝	-15374
󳔸	-15375
󳔾	-15376
󳕆	-15377
󳕐	-15378
󳖑	-15379
󳖪	-15380
󳖬	-15381
󳗍	-15382
󳗔	-15383
󳗤	-15384
󳗥	-15385
󳘆	-15386
󳘌	-15387
󳘑	-15388
󳘦	-15389
󳙊	-15390
󳙛	-15391
󳚐	-15392
󳚓	-15393
󳛍	-15394
󳛢	-15395
󳛣	-15396
󳛪	-15397
󳛴	-15398
󳜍	-15399
󳜓	-15400
󳜦	-15401
󳜧	-15402
冥	-15403
呵	-15404
嗉	-15405
庹	-15406
擤	-15407
晶	-15408
殆	-15409
氢	-15410
涅	-15411
澜	-15412
烁	-15413
疚	-15414
瘊	-15415
睦	-15416
禅	-15417
耻	-15418
耿	-15419
肢	-15420
苋	-15421
褴	-15422
賨	-15423
酉	-15424
馒	-15425
󲜜	-15426
󲜤	-15427
󲝢	-15428
󲝻	-15429
󲞍	-15430
󲞙	-15431
󲞧	-15432
󲟤	-15433
󲡀	-15434
󲣷	-15435
󲥯	-15436
󲥳	-15437
󲦏	-15438
󲦞	-15439
󲦵	-15440
󲦷	-15441
󲧰	-15442
󲧼	-15443
󲨋	-15444
󲨷	-15445
󲩛	-15446
󲪏	-15447
󲪢	-15448
󲪧	-15449
󲫌	-15450
󲬹	-15451
󲬿	-15452
󲭎	-15453
󲭕	-15454
󲮳	-15455
󲰝	-15456
󲰬	-15457
󲰽	-15458
󲱋	-15459
󲱱	-15460
󲳓	-15461
󲳩	-15462
󲴲	-15463
󲵌	-15464
󲵘	-15465
󲵙	-15466
󲶼	-15467
󲷹	-15468
󲸍	-15469
󲸼	-15470
󲻑	-15471
󲼚	-15472
󲼽	-15473
󲽇	-15474
󲽾	-15475
󲾋	-15476
󲾱	-15477
󲿐	-15478
󲿡	-15479
󲿷	-15480
󲿾	-15481
󳀑	-15482
󳀭	-15483
󳁰	-15484
󳂧	-15485
󳂴	-15486
󳃆	-15487
󳃗	-15488
󳃟	-15489
󳄇	-15490
󳄳	-15491
󳅌	-15492
󳅓	-15493
󳆯	-15494
󳇄	-15495
󳇋	-15496
󳊕	-15497
󳋨	-15498
󳋯	-15499
󳋶	-15500
󳍀	-15501
󳍖	-15502
󳍦	-15503
󳎚	-15504
󳏌	-15505
󳏎	-15506
󳐌	-15507
󳐗	-15508
󳐝	-15509
󳐩	-15510
󳑳	-15511
󳒡	-15512
󳒧	-15513
󳓔	-15514
󳓗	-15515
󳓜	-15516
󳓰	-15517
󳔁	-15518
󳔤	-15519
󳕞	-15520
󳕻	-15521
󳖚	-15522
󳖵	-15523
󳖺	-15524
󳗜	-15525
󳘥	-15526
󳘪	-15527
󳘴	-15528
󳘹	-15529
󳙸	-15530
󳙹	-15531
󳙺	-15532
󳚅	-15533
󳚋	-15534
󳚌	-15535
󳚲	-15536
󳚺	-15537
󳛃	-15538
󳛠	-15539
󳛤	-15540
󳛧	-15541
󳛫	-15542
󳜚	-15543
·	-15544
í	-15545
‘	-15546
亂	-15547
企	-15548
僅	-15549
兼	-15550
凯	-15551
函	-15552
厘	-15553
喻	-15554
埃	-15555
夕	-15556
奧	-15557
寂	-15558
尋	-15559
尴	-15560
崎	-15561
巳	-15562
廁	-15563
弈	-15564
怖	-15565
惹	-15566
損	-15567
撫	-15568
擎	-15569
析	-15570
柵	-15571
橄	-15572
沖	-15573
沮	-15574
涌	-15575
溺	-15576
滅	-15577
潔	-15578
烛	-15579
爲	-15580
犀	-15581
獅	-15582
監	-15583
稚	-15584
積	-15585
穩	-15586
窟	-15587
箏	-15588
籠	-15589
糾	-15590
納	-15591
織	-15592
绅	-15593
膨	-15594
臘	-15595
臺	-15596
芬	-15597
莴	-15598
華	-15599
董	-15600
蔔	-15601
薅	-15602
藉	-15603
蟲	-15604
衰	-15605
詹	-15606
謬	-15607
贺	-15608
輸	-15609
逆	-15610
鄰	-15611
酷	-15612
錄	-15613
陰	-15614
隱	-15615
隸	-15616
靖	-15617
韩	-15618
顏	-15619
颠	-15620
颱	-15621
飄	-15622
餅	-15623
饥	-15624
鸳	-15625
鹇	-15626
麽	-15627
黃	-15628
齊	-15629
ꋍ	-15630
󲜔	-15631
󲜱	-15632
󲟷	-15633
󲠓	-15634
󲡨	-15635
󲡷	-15636
󲣠	-15637
󲥍	-15638
󲥣	-15639
󲥱	-15640
󲥵	-15641
󲨕	-15642
󲨩	-15643
󲩀	-15644
󲬭	-15645
󲭳	-15646
󲮔	-15647
󲮹	-15648
󲮿	-15649
󲰕	-15650
󲱀	-15651
󲶩	-15652
󲶶	-15653
󲷤	-15654
󲸬	-15655
󲻗	-15656
󲼬	-15657
󲾃	-15658
󲿨	-15659
󲿶	-15660
󳀆	-15661
󳀝	-15662
󳁛	-15663
󳂠	-15664
󳄎	-15665
󳄵	-15666
󳅆	-15667
󳆰	-15668
󳉈	-15669
󳉠	-15670
󳊻	-15671
󳋏	-15672
󳎞	-15673
󳐠	-15674
󳑒	-15675
󳒛	-15676
󳒵	-15677
󳓄	-15678
󳔎	-15679
󳔞	-15680
󳖂	-15681
󳖟	-15682
󳗅	-15683
󳗽	-15684
󳘗	-15685
󳘰	-15686
󳙂	-15687
󳙅	-15688
󳙉	-15689
󳙭	-15690
󳚄	-15691
󳚵	-15692
󳛁	-15693
󳛝	-15694
󳜄	-15695
󳜋	-15696
佳	-15697
僻	-15698
姻	-15699
愧	-15700
戟	-15701
棱	-15702
沼	-15703
瘿	-15704
瞬	-15705
缅	-15706
缆	-15707
肛	-15708
茬	-15709
菩	-15710
虻	-15711
逻	-15712
频	-15713
魅	-15714
ꐥ	-15715
󲜛	-15716
󲜦	-15717
󲝅	-15718
󲞂	-15719
󲞝	-15720
󲡁	-15721
󲢬	-15722
󲤺	-15723
󲤼	-15724
󲦉	-15725
󲧳	-15726
󲩚	-15727
󲪥	-15728
󲪺	-15729
󲫐	-15730
󲬱	-15731
󲭟	-15732
󲭶	-15733
󲰍	-15734
󲱶	-15735
󲳡	-15736
󲳿	-15737
󲴨	-15738
󲸽	-15739
󲺽	-15740
󲾈	-15741
󳅿	-15742
󳇬	-15743
󳉼	-15744
󳎕	-15745
󳎖	-15746
󳏣	-15747
󳏻	-15748
󳐑	-15749
󳐔	-15750
󳓢	-15751
󳓵	-15752
󳙏	-15753
󳙱	-15754
󳛐	-15755
󳛦	-15756
󳛨	-15757
󳛹	-15758
󳜒	-15759
󳜙	-15760
󳜡	-15761
\	-15762
á	-15763
ï	-15764
€	-15765
乓	-15766
亥	-15767
儀	-15768
册	-15769
凌	-15770
删	-15771
劲	-15772
勞	-15773
勵	-15774
協	-15775
却	-15776
厩	-15777
哇	-15778
喪	-15779
圳	-15780
墜	-15781
壺	-15782
寢	-15783
寬	-15784
層	-15785
岡	-15786
崇	-15787
幌	-15788
廈	-15789
廟	-15790
彎	-15791
役	-15792
徑	-15793
悅	-15794
悦	-15795
惫	-15796
態	-15797
慶	-15798
憤	-15799
懦	-15800
懶	-15801
拋	-15802
揮	-15803
摧	-15804
擺	-15805
暫	-15806
曬	-15807
柠	-15808
榄	-15809
橫	-15810
沌	-15811
洽	-15812
淇	-15813
溝	-15814
滨	-15815
滩	-15816
潛	-15817
澄	-15818
瀑	-15819
灑	-15820
灣	-15821
煤	-15822
熬	-15823
爛	-15824
瓊	-15825
畏	-15826
癒	-15827
盹	-15828
矶	-15829
稅	-15830
穫	-15831
窩	-15832
競	-15833
範	-15834
紳	-15835
緒	-15836
耢	-15837
膠	-15838
膩	-15839
臟	-15840
艇	-15841
芹	-15842
范	-15843
蔥	-15844
薦	-15845
蚊	-15846
襲	-15847
讯	-15848
谨	-15849
豚	-15850
豫	-15851
貞	-15852
貼	-15853
賀	-15854
賢	-15855
賬	-15856
贸	-15857
赴	-15858
跡	-15859
輯	-15860
辯	-15861
逊	-15862
郊	-15863
醬	-15864
釜	-15865
鋪	-15866
鐳	-15867
鑽	-15868
闖	-15869
靴	-15870
韓	-15871
顫	-15872
飢	-15873
騰	-15874
驱	-15875
鬍	-15876
鬧	-15877
鯨	-15878
鵡	-15879
鸚	-15880
ꑌ	-15881
ꒉ	-15882
󲜢	-15883
󲟗	-15884
󲦓	-15885
󲦚	-15886
󲨭	-15887
󲩿	-15888
󲪸	-15889
󲭐	-15890
󲵜	-15891
󲶣	-15892
󲶤	-15893
󲷖	-15894
󲷝	-15895
󲸵	-15896
󲻋	-15897
󳁍	-15898
󳁵	-15899
󳄭	-15900
󳋘	-15901
󳌝	-15902
󳎌	-15903
󳎹	-15904
󳏱	-15905
󳕘	-15906
󳖨	-15907
󳗺	-15908
󳘔	-15909
󳚸	-15910
󳚿	-15911
󳛆	-15912
󳛾	-15913
丙	-15914
侣	-15915
壅	-15916
携	-15917
敞	-15918
楣	-15919
沄	-15920
焚	-15921
癸	-15922
督	-15923
芯	-15924
芸	-15925
蒿	-15926
诊	-15927
诡	-15928
钮	-15929
ꁦ	-15930
ꂷ	-15931
󲝛	-15932
󲞡	-15933
󲩃	-15934
󲪞	-15935
󲰸	-15936
󲵏	-15937
󳆁	-15938
󳆒	-15939
󳈀	-15940
󳎀	-15941
󳕜	-15942
󳘬	-15943
󳙵	-15944
󳚑	-15945
󳚧	-15946
󳜛	-15947
&	-15948
@	-15949
ǎ	-15950
→	-15951
丐	-15952
伏	-15953
侈	-15954
侵	-15955
俩	-15956
倆	-15957
倔	-15958
倡	-15959
傢	-15960
債	-15961
傾	-15962
僵	-15963
償	-15964
円	-15965
冤	-15966
凭	-15967
刑	-15968
券	-15969
刹	-15970
剎	-15971
劍	-15972
勉	-15973
协	-15974
卑	-15975
吾	-15976
咀	-15977
咄	-15978
咆	-15979
咋	-15980
咎	-15981
咕	-15982
咙	-15983
哟	-15984
唉	-15985
啞	-15986
啟	-15987
啪	-15988
啼	-15989
喋	-15990
喔	-15991
嗓	-15992
噩	-15993
噬	-15994
囑	-15995
