<pad>	0
<unk>	0
<s>	0
</s>	0
彝文	-0
意思	-1
什么	-2
是什么	-3
字符	-4
彝文字符	-5
?▁	-6
是什么意思	-7
用彝文	-8
。▁	-9
)▁	-10
e▁	-11
in	-12
怎么	-13
是什么意思▁	-14
i▁	-15
t▁	-16
s▁	-17
的彝文	-18
ri	-19
表示	-20
怎么写	-21
的意思	-22
的意思是	-23
sc	-24
rip	-25
Yi▁	-26
scrip	-27
o▁	-28
.▁	-29
含义	-30
an	-31
含义是	-32
英文	-33
,▁	-34
用彝文怎么写	-35
用彝文怎么写▁	-36
to▁	-37
彝文字符▁	-38
这是	-39
通用彝文	-40
in▁	-41
is▁	-42
的彝文是	-43
script▁	-44
编号	-45
at	-46
的通用彝文	-47
的通用彝文是	-48
xf	-49
中文	-50
y▁	-51
ran	-52
sl	-53
ate▁	-54
ransl	-55
)。▁	-56
的英文	-57
ranslate▁	-58
这是彝文字符▁	-59
」▁	-60
的彝文字符▁	-61
Translate▁	-62
翻译	-63
ow	-64
的含义是	-65
es	-66
).▁	-67
1、	-68
he▁	-69
;2	-70
;2、	-71
ay▁	-72
hin	-73
ow▁	-74
say▁	-75
hines	-76
:▁	-77
;▁	-78
How▁	-79
script	-80
hinese	-81
'▁	-82
个彝文字符	-83
」。▁	-84
组合	-85
的组合	-86
这是两	-87
个彝文字符的组合	-88
这是两个彝文字符的组合	-89
r▁	-90
|▁	-91
Chinese	-92
中文是	-93
描述	-94
的英文是	-95
的英文是什么	-96
的中文	-97
英文含义是	-98
描述彝文字符	-99
的中文含义是	-100
)」	-101
编号是	-102
co	-103
me	-104
de	-105
),	-106
法是	-107
写法是	-108
的彝文写法是	-109
un	-110
((	-111
这是两个彝文字符的组合▁	-112
ar	-113
d▁	-114
fo	-115
量词	-116
er	-117
写作	-118
mean	-119
for▁	-120
means▁	-121
The▁	-122
表示是	-123
on	-124
请问	-125
用通用彝文	-126
It▁	-127
用彝文怎么	-128
的彝文怎么写	-129
用彝文怎么表示	-130
用通用彝文写作	-131
'.▁	-132
多少	-133
the▁	-134
英文是	-135
对应	-136
)).▁	-137
uni	-138
彝族	-139
code	-140
th	-141
unicode	-142
1.▁	-143
);	-144
的意思是是	-145
)'▁	-146
ea	-147
g▁	-148
;2、(	-149
「(	-150
2.▁	-151
en	-152
英文是▁	-153
ou	-154
的词	-155
的词汇	-156
的编号是	-157
的编号是多少	-158
的词汇编号是	-159
分别	-160
分别是	-161
和编号	-162
分别是编号	-163
彝文字	-164
li	-165
))。▁	-166
st	-167
ing▁	-168
「1、	-169
'(	-170
动词	-171
a▁	-172
」,	-173
m▁	-174
:(	-175
or	-176
al	-177
等于	-178
er▁	-179
ti	-180
pl	-181
)(	-182
ver	-183
ch	-184
的含义是是	-185
re	-186
ac	-187
集▁	-188
you	-189
30	-190
通用	-191
通用彝文字符	-192
:0	-193
通用彝文字符集▁	-194
);▁	-195
什么彝文	-196
对应什么彝文	-197
对应彝文字符	-198
31	-199
29	-200
chinese	-201
are▁	-202
f▁	-203
28	-204
文化	-205
very▁	-206
35	-207
36	-208
at▁	-209
这是彝文字符	-210
34	-211
文字	-212
翻译成	-213
you▁	-214
词缀	-215
形容	-216
ra	-217
translate▁	-218
);2、(	-219
)((	-220
le	-221
32	-222
l▁	-223
1、(	-224
这个	-225
qu	-226
oo	-227
..	-228
se	-229
3、	-230
an▁	-231
27	-232
子▁	-233
lik	-234
喜欢	-235
中文▁	-236
on▁	-237
ro	-238
sh	-239
翻译成中文▁	-240
使动	-241
si	-242
tu	-243
请把	-244
请把彝文	-245
k▁	-246
彝语	-247
名词	-248
es▁	-249
c▁	-250
);2、	-251
量子	-252
b▁	-253
'1、	-254
33	-255
)」,	-256
am▁	-257
0▁	-258
2▁	-259
per	-260
like▁	-261
5▁	-262
ha	-263
等于多少	-264
6▁	-265
4▁	-266
我们	-267
8▁	-268
no	-269
el	-270
1▁	-271
pe	-272
37	-273
su	-274
3▁	-275
this▁	-276
体系	-277
il	-278
9▁	-279
形容词缀	-280
to	-281
di	-282
中的	-283
7▁	-284
;」,	-285
0。▁	-286
5。▁	-287
and▁	-288
);」	-289
彝文中	-290
);'▁	-291
ge	-292
ve▁	-293
4。▁	-294
1。▁	-295
在彝族	-296
的▁	-297
语气	-298
8。▁	-299
se▁	-300
go▁	-301
she▁	-302
古语	-303
fi	-304
:1、	-305
bi	-306
2。▁	-307
ace	-308
gh	-309
声词	-310
象声词	-311
49	-312
人名	-313
3、(	-314
wh	-315
en▁	-316
can▁	-317
6。▁	-318
rea	-319
mo	-320
3。▁	-321
!▁	-322
自然	-323
ing	-324
用词	-325
not▁	-326
ati	-327
mp	-328
表意	-329
we▁	-330
39	-331
po	-332
7。▁	-333
;(	-334
ci	-335
lo	-336
一种	-337
重要	-338
ed▁	-339
一个	-340
la	-341
助词	-342
字详	-343
字详解	-344
彝族先	-345
",	-346
这个字	-347
文字体系	-348
子用彝文怎么写▁	-349
语言	-350
读作	-351
"。▁	-352
;.▁	-353
这个字读作	-354
这个彝文字	-355
这个彝文字是什么意思	-356
59	-357
ang	-358
al▁	-359
p▁	-360
之一	-361
表达	-362
ve	-363
wor	-364
wan	-365
我喜欢	-366
古老	-367
me▁	-368
ex	-369
考虑	-370
字▁	-371
;」	-372
ed	-373
of▁	-374
民族	-375
res	-376
古老的	-377
ta	-378
的彝文翻译	-379
地位	-380
我很	-381
do▁	-382
antu	-383
千年	-384
antum▁	-385
ec	-386
数千年	-387
peo	-388
48	-389
gra	-390
68	-391
it▁	-392
....	-393
ay	-394
peopl	-395
智慧	-396
yi▁	-397
在彝族文化	-398
38	-399
社会	-400
;。▁	-401
he	-402
n▁	-403
数千年的	-404
41	-405
do	-406
的文化	-407
不仅	-408
40	-409
cu	-410
sk	-411
47	-412
50	-413
58	-414
用的	-415
记录	-416
含义为	-417
)、	-418
ss	-419
数词	-420
hea	-421
we	-422
ce▁	-423
46	-424
pp	-425
饭▁	-426
quantum▁	-427
56	-428
ate	-429
要考虑	-430
be	-431
con	-432
;'▁	-433
语气词	-434
东西	-435
57	-436
ol	-437
9。▁	-438
mb	-439
sp	-440
可以	-441
天气	-442
fu	-443
美丽	-444
end	-445
tion	-446
,(	-447
量词▁	-448
want▁	-449
子的彝文是	-450
eat▁	-451
day▁	-452
51	-453
太阳	-454
纠缠	-455
表示量词	-456
衣服	-457
ath	-458
ch▁	-459
彝文是	-460
属于	-461
需要	-462
ter	-463
ir	-464
头▁	-465
the	-466
世界	-467
);3、(	-468
42	-469
ts▁	-470
天天气	-471
wi	-472
传说	-473
;3、	-474
「1、(	-475
传统	-476
ge▁	-477
low	-478
;(1.▁	-479
61	-480
ven	-481
个字符	-482
ather▁	-483
了▁	-484
注意	-485
高兴	-486
one	-487
ur	-488
ꐯ▁	-489
woo	-490
dri	-491
彝文▁	-492
et▁	-493
67	-494
发展	-495
it	-496
折磨	-497
th▁	-498
60	-499
重叠	-500
face	-501
重叠词缀	-502
nt▁	-503
))▁	-504
人名用词	-505
中国	-506
son	-507
52	-508
bl	-509
故事	-510
hor	-511
ye	-512
不会	-513
历史	-514
squ	-515
ent▁	-516
彝族先民	-517
可能	-518
吗▁	-519
彝文的	-520
all▁	-521
属于表意	-522
ning▁	-523
彝文属于表意	-524
ne	-525
灵活	-526
comp	-527
weather▁	-528
孩子	-529
植物	-530
tion▁	-531
pi	-532
独立	-533
pro	-534
ting▁	-535
people	-536
地名	-537
mor	-538
stu	-539
ght▁	-540
每个字符	-541
ho	-542
传承	-543
独立的	-544
他们	-545
字形	-546
mar	-547
'1、(	-548
person	-549
彝文属于表意文字体系	-550
动▁	-551
什么是	-552
I▁	-553
ob	-554
意义	-555
经过	-556
ent	-557
they▁	-558
介绍	-559
水▁	-560
ter▁	-561
ni	-562
价格	-563
精神	-564
都有	-565
重字	-566
han	-567
thin	-568
ease▁	-569
哪里	-570
色的▁	-571
字详解▁	-572
ation	-573
独立的含义	-574
每个字符都有	-575
每个字符都有独立的含义	-576
好▁	-577
牲畜	-578
can	-579
唠叨	-580
多个	-581
oun	-582
tea	-583
是中国	-584
的传统	-585
dow	-586
king▁	-587
cannot▁	-588
人▁	-589
明▁	-590
st▁	-591
世界上	-592
62	-593
ma	-594
缀词	-595
󲊂▁	-596
ine	-597
最古老的	-598
是最	-599
螳螂	-600
all	-601
are	-602
de▁	-603
ful▁	-604
how▁	-605
oper	-606
关系	-607
可惜	-608
源▁	-609
花▁	-610
风箱	-611
ood▁	-612
文字之一	-613
ua	-614
庄稼	-615
砂锅	-616
计算	-617
art	-618
对应的	-619
angua	-620
叫▁	-621
工具	-622
loc	-623
ere▁	-624
ind▁	-625
scend	-626
45	-627
实践	-628
特性	-629
sur	-630
langua	-631
QS	-632
伤口	-633
准确	-634
在彝	-635
字是	-636
川黔	-637
接和	-638
QSM	-639
在彝汉	-640
实践中	-641
川黔贵	-642
形容词	-643
是最直	-644
接和准确	-645
滇川黔贵	-646
表意特性	-647
需要注意	-648
在彝汉翻译	-649
对应的字是	-650
彝族是中国	-651
的彝文表达	-652
的彝文翻译▁	-653
的彝文翻译是	-654
翻译成彝文▁	-655
彝文的表意特性	-656
是最直接和准确	-657
在彝汉翻译实践中	-658
最古老的文字之一	-659
需要注意彝文的表意特性	-660
是最直接和准确的彝文表达	-661
过▁	-662
ry▁	-663
one▁	-664
square	-665
滇川黔贵通用彝文	-666
拥有	-667
盖了	-668
观察	-669
rec	-670
sky	-671
;3、(	-672
语气助词	-673
的第	-674
使用的	-675
语言的	-676
民族之一	-677
place	-678
ation▁	-679
please▁	-680
nu	-681
内涵	-682
谢谢	-683
这朵	-684
bea	-685
地位▁	-686
get▁	-687
descend	-688
一下	-689
仍在	-690
创造	-691
叠加	-692
jec	-693
彝语指	-694
世界上仍在	-695
世界上仍在使用的	-696
世界上仍在使用的最古老的文字之一	-697
10	-698
ab	-699
中占	-700
完整	-701
层面	-702
渐渐	-703
col	-704
tra	-705
中占有	-706
涵盖了	-707
等多个	-708
重要地位	-709
direc	-710
中的地位▁	-711
体系中占有	-712
涵盖了自然	-713
等多个层面	-714
......	-715
彝族文字体系	-716
子的彝文字符▁	-717
精神等多个层面	-718
彝族文字体系完整	-719
体系中占有重要地位	-720
在彝族文化中的地位▁	-721
在彝族文化体系中占有重要地位	-722
也许	-723
人民	-724
瞄准	-725
3,▁	-726
ad▁	-727
cla	-728
意义▁	-729
grass	-730
更是	-731
色的	-732
芋头	-733
der▁	-734
rise	-735
彝族人民	-736
heaven	-737
作为	-738
地支	-739
lar	-740
创造的	-741
意为	-742
承载	-743
灿烂	-744
说话	-745
遗产	-746
承载着	-747
智慧和	-748
自然和	-749
彝文是由	-750
彝族文字	-751
都承载着	-752
了彝族人民	-753
灿烂的文化	-754
的传统文化	-755
的文化内涵	-756
likes▁	-757
44	-758
ce	-759
仅是	-760
字源	-761
每一	-762
深厚	-763
演变	-764
的来	-765
的载	-766
uti	-767
字源于	-768
的观察	-769
的载体	-770
flow	-771
不仅仅是	-772
中的一个	-773
介绍彝文	-774
发展演变	-775
对自然和	-776
彝文作为	-777
彝族先贤	-778
的来源▁	-779
智慧和历史	-780
社会的观察	-781
传说彝文是由	-782
经过数千年的	-783
都承载着深厚	-784
古老的民族之一	-785
字源于彝族先民	-786
彝族先贤创造的	-787
拥有灿烂的文化	-788
每一个彝文字符	-789
记录了彝族人民	-790
对自然和社会的观察	-791
拥有灿烂的文化遗产	-792
数千年的智慧和历史	-793
经过数千年的发展演变	-794
都承载着深厚的文化内涵	-795
彝族是中国古老的民族之一	-796
传说彝文是由彝族先贤创造的	-797
字源于彝族先民对自然和社会的观察	-798
记录了彝族人民数千年的智慧和历史	-799
"(	-800
66	-801
毕摩	-802
祭祀	-803
篱笆	-804
wri	-805
传承民族	-806
其含义为	-807
的意义▁	-808
重要字符	-809
智慧的载体	-810
记录语言的	-811
beauti	-812
文字不仅仅是	-813
更是传承民族	-814
的传统文化中	-815
记录语言的工具	-816
中的一个重要字符	-817
在彝族的传统文化中	-818
是滇川黔贵通用彝文	-819
更是传承民族智慧的载体	-820
文字不仅仅是记录语言的工具	-821
ck	-822
mu	-823
cle	-824
eye	-825
ste	-826
vi	-827
coo	-828
在彝文中	-829
drive	-830
have▁	-831
beautiful▁	-832
12	-833
ca	-834
勇敢	-835
坟墓	-836
字面	-837
背景	-838
舒服	-839
wat	-840
时不仅	-841
happ	-842
字面意思	-843
怎么表达	-844
文化背景	-845
还要考虑	-846
翻译时不仅	-847
在彝文中写作	-848
彝文中怎么表达	-849
要考虑字面意思	-850
还要考虑文化背景	-851
翻译时不仅要考虑字面意思	-852
bu	-853
液体	-854
通知	-855
ong▁	-856
cient▁	-857
(▁	-858
朋友	-859
ell	-860
read	-861
teach	-862
fa	-863
天干	-864
饱满	-865
par	-866
hemp	-867
thing	-868
what▁	-869
ox	-870
口袋	-871
顺利	-872
食物	-873
str	-874
前缀词	-875
量词用彝文怎么写▁	-876
上▁	-877
学习	-878
过分	-879
(1、	-880
ind	-881
horse	-882
叠加态	-883
ject	-884
今天天气	-885
;,	-886
可爱	-887
咽喉	-888
月琴	-889
模型	-890
漂亮	-891
相对	-892
老师	-893
big	-894
numb	-895
ancient▁	-896
teacher▁	-897
果子	-898
蜥蜴	-899
陶瓷	-900
面▁	-901
pen	-902
sun	-903
ver▁	-904
heart	-905
happy▁	-906
hinese▁	-907
11	-908
ba	-909
专指	-910
想吃	-911
灰尘	-912
生很	-913
词头	-914
豆腐	-915
est▁	-916
fire	-917
location	-918
of	-919
决定	-920
我在	-921
早上	-922
比特	-923
cto	-924
ear	-925
down	-926
ee	-927
nt	-928
tw	-929
会儿	-930
同时	-931
家支	-932
我要	-933
用手	-934
hun	-935
ke▁	-936
re▁	-937
我们很	-938
彝族家支	-939
hu	-940
我不	-941
祭献	-942
le▁	-943
唠叨叨	-944
唠唠叨叨	-945
that▁	-946
的意思是量词▁	-947
4、	-948
sy	-949
云南	-950
你很	-951
佩服	-952
古代	-953
移动	-954
绞痛	-955
饲养	-956
ctor▁	-957
doctor▁	-958
的含义是量词▁	-959
的用彝文怎么写▁	-960
表示量词的彝文是	-961
表示量词的彝文字符▁	-962
侍从	-963
地▁	-964
夭折	-965
奉养	-966
模样	-967
粮食	-968
节省	-969
野生	-970
cow	-971
不灵活	-972
ess▁	-973
moun	-974
red▁	-975
object	-976
today▁	-977
chinese▁	-978
language▁	-979
af	-980
ao	-981
au	-982
dr	-983
up	-984
他很	-985
但是	-986
准备	-987
她很	-988
威胁	-989
康复	-990
浪费	-991
肮脏	-992
虐待	-993
他们很	-994
chil	-995
hat▁	-996
super	-997
ap	-998
副词	-999
声音	-1000
想念	-1001
昆明	-1002
现在	-1003
骄傲	-1004
ack	-1005
)。	-1006
te	-1007
名称	-1008
te▁	-1009
cl	-1010
ph	-1011
山羊	-1012
车▁	-1013
预备	-1014
people▁	-1015
1.	-1016
吉利	-1017
天▁	-1018
工作	-1019
悲恸	-1020
惩治	-1021
时态	-1022
母畜	-1023
螃蟹	-1024
间的	-1025
com	-1026
sho	-1027
us▁	-1028
天干第	-1029
我要去	-1030
美丽▁	-1031
has▁	-1032
large	-1033
noon▁	-1034
))	-1035
供养	-1036
小孩	-1037
支系	-1038
稍微	-1039
里的	-1040
ss▁	-1041
高兴▁	-1042
als▁	-1043
char	-1044
tube	-1045
stude	-1046
55	-1047
gu	-1048
凝结	-1049
回答	-1050
将要	-1051
泡▁	-1052
突然	-1053
dro	-1054
rou	-1055
sh▁	-1056
动词▁	-1057
计算机	-1058
:1、(	-1059
hair	-1060
mind	-1061
smar	-1062
child▁	-1063
student▁	-1064
周围	-1065
壮▁	-1066
摇摆	-1067
皇帝	-1068
盖▁	-1069
窝棚	-1070
自己	-1071
ous	-1072
一会儿	-1073
spea	-1074
表示动词	-1075
smart▁	-1076
你们	-1077
状态	-1078
粗糙	-1079
软弱	-1080
顽皮	-1081
)",	-1082
ort	-1083
pla	-1084
摇摆摆	-1085
聪明▁	-1086
)"。▁	-1087
pack	-1088
摇摇摆摆	-1089
direction	-1090
tr	-1091
心▁	-1092
挑拨	-1093
洞房	-1094
玉米	-1095
礼节	-1096
问题	-1097
lun	-1098
ly▁	-1099
wra	-1100
syste	-1101
傣族	-1102
儿语	-1103
味道	-1104
壁虎	-1105
娇气	-1106
小腿	-1107
引述	-1108
收缩	-1109
清楚	-1110
疲倦	-1111
神位	-1112
祷告	-1113
累▁	-1114
臭味	-1115
蚂蝗	-1116
融化	-1117
诚实	-1118
隐瞒	-1119
ant	-1120
say	-1121
ty▁	-1122
小腿肚	-1123
youn	-1124
saying	-1125
speak▁	-1126
water▁	-1127
乌鸦	-1128
他在	-1129
去上	-1130
我会	-1131
模仿	-1132
生气	-1133
祖宗	-1134
系统	-1135
赡养	-1136
ck▁	-1137
的一种	-1138
);」,	-1139
ment▁	-1140
量子叠加态	-1141
mi	-1142
云雀	-1143
依靠	-1144
制造	-1145
宇宙	-1146
家▁	-1147
布谷	-1148
彩虹	-1149
污染	-1150
点▁	-1151
牵挂	-1152
砚台	-1153
稠密	-1154
贵州	-1155
起▁	-1156
der	-1157
my▁	-1158
布谷鸟	-1159
fall	-1160
hand	-1161
play	-1162
地名用词	-1163
than▁	-1164
ad	-1165
俏皮	-1166
凉爽	-1167
叶子	-1168
明白	-1169
禁忌	-1170
算了	-1171
臀部	-1172
臭虫	-1173
距离	-1174
for	-1175
有什么	-1176
重字▁	-1177
posi	-1178
compu	-1179
hing▁	-1180
charac	-1181
书▁	-1182
六祖	-1183
快▁	-1184
感觉	-1185
木板	-1186
测量	-1187
立即	-1188
繁衍	-1189
by▁	-1190
午饭▁	-1191
表示水	-1192
ous▁	-1193
class	-1194
lunch▁	-1195
ei	-1196
休息	-1197
崽的	-1198
打仗	-1199
抽打	-1200
沉沉	-1201
清晰	-1202
生血	-1203
矮小	-1204
祭牲	-1205
解释	-1206
连接	-1207
锋利	-1208
bra	-1209
strong▁	-1210
54	-1211
na	-1212
关节	-1213
发炎	-1214
应该	-1215
慎重	-1216
散▁	-1217
身体	-1218
边▁	-1219
hoo	-1220
mat	-1221
ten	-1222
为彝文	-1223
怎么说	-1224
What▁	-1225
彝族家支名	-1226
翻译为彝文	-1227
mounta	-1228
morning▁	-1229
上级	-1230
丑陋	-1231
喧哗	-1232
堵塞	-1233
断定	-1234
毛发	-1235
罢了	-1236
良▁	-1237
议论	-1238
辛苦	-1239
勇敢▁	-1240
old▁	-1241
out▁	-1242
Good▁	-1243
kind▁	-1244
子的彝文写法是	-1245
偿还	-1246
先前	-1247
勾引	-1248
喷水	-1249
小声	-1250
强调	-1251
当然	-1252
怀孕	-1253
掺和	-1254
榫头	-1255
耽搁	-1256
认错	-1257
踪迹	-1258
遗传	-1259
香油	-1260
鱼▁	-1261
善良▁	-1262
喷水枪	-1263
毕摩的	-1264
supp	-1265
rest▁	-1266
operate	-1267
pa	-1268
wa	-1269
填塞	-1270
妈妈	-1271
山▁	-1272
忠厚	-1273
我的	-1274
斗笠	-1275
树木	-1276
监狱	-1277
祈求	-1278
老实	-1279
耳环	-1280
蟋蟀	-1281
静▁	-1282
run	-1283
用中文	-1284
);3、	-1285
work▁	-1286
thread	-1287
20	-1288
入赘	-1289
八角	-1290
叙述	-1291
土坎	-1292
城市	-1293
招赘	-1294
来▁	-1295
枯萎	-1296
柴刀	-1297
泥鳅	-1298
潮湿	-1299
疾病	-1300
睡觉	-1301
稀烂	-1302
诽谤	-1303
马▁	-1304
4、(	-1305
equ	-1306
fol	-1307
int	-1308
sta	-1309
砍柴刀	-1310
ers▁	-1311
brave▁	-1312
night▁	-1313
equals▁	-1314
db	-1315
今天	-1316
作物	-1317
刺竹	-1318
半夏	-1319
囤箩	-1320
惦念	-1321
拐杖	-1322
挑箩	-1323
明亮	-1324
未曾	-1325
杜鹃	-1326
死板	-1327
物品	-1328
石榴	-1329
群众	-1330
菜▁	-1331
葫芦	-1332
鸡蛋	-1333
har	-1334
ble▁	-1335
ree▁	-1336
ses▁	-1337
position▁	-1338
丰富	-1339
你在	-1340
大▁	-1341
排行	-1342
板栗	-1343
犁板	-1344
用具	-1345
脾气	-1346
草▁	-1347
菠萝	-1348
薄荷	-1349
跳舞	-1350
门▁	-1351
阴茎	-1352
ld▁	-1353
你喜欢	-1354
彝族的	-1355
排行第	-1356
;).▁	-1357
sing	-1358
wool	-1359
surface	-1360
埋怨	-1361
平安	-1362
摔跤	-1363
操作	-1364
爽快	-1365
物体	-1366
色▁	-1367
饿▁	-1368
vel	-1369
ine▁	-1370
star	-1371
ters▁	-1372
25	-1373
乐器	-1374
出▁	-1375
吃▁	-1376
生▁	-1377
细微	-1378
老虎	-1379
行动	-1380
ono	-1381
强壮▁	-1382
昏沉沉	-1383
用中文说	-1384
fall▁	-1385
请用中文说	-1386
19	-1387
ji	-1388
不好	-1389
乐▁	-1390
兄弟	-1391
出的	-1392
在一	-1393
地球	-1394
幽默	-1395
悄悄	-1396
拼搏	-1397
斑鸠	-1398
架子	-1399
沉淀	-1400
浑浊	-1401
盛▁	-1402
眼▁	-1403
继续	-1404
聊天	-1405
自动	-1406
芝麻	-1407
被子	-1408
诙谐	-1409
钱▁	-1410
boo	-1411
ght	-1412
ile▁	-1413
wrap	-1414
一会儿▁	-1415
我不喜欢	-1416
with▁	-1417
的的彝文是	-1418
SV	-1419
唢呐	-1420
处理	-1421
姐妹	-1422
巴▁	-1423
德行	-1424
样▁	-1425
渡槽	-1426
白生	-1427
知识	-1428
祖灵	-1429
结合	-1430
肥料	-1431
芦苇	-1432
调拌	-1433
赔偿	-1434
里▁	-1435
量▁	-1436
镰刀	-1437
长度	-1438
309	-1439
SVO	-1440
bro	-1441
gli	-1442
hou	-1443
row	-1444
ple▁	-1445
writing▁	-1446
64	-1447
主动	-1448
之间	-1449
习惯	-1450
位词	-1451
健壮	-1452
健康	-1453
向神	-1454
吓跳	-1455
和谐	-1456
巴豆	-1457
恩情	-1458
感谢	-1459
放置	-1460
月▁	-1461
经常	-1462
耳语	-1463
虚词	-1464
clu	-1465
gre	-1466
他喜欢	-1467
她喜欢	-1468
ank▁	-1469
ins▁	-1470
pipe	-1471
wood	-1472
野生植物	-1473
expla	-1474
ther▁	-1475
compan	-1476
24	-1477
da	-1478
du	-1479
全部	-1480
发现	-1481
告诉	-1482
场▁	-1483
姐姐	-1484
子是	-1485
山茶	-1486
开▁	-1487
怪味	-1488
昆虫	-1489
暴露	-1490
来由	-1491
石头	-1492
胡须	-1493
葡萄	-1494
虽然	-1495
赘婿	-1496
1,▁	-1497
300	-1498
319	-1499
dan	-1500
fac	-1501
gro	-1502
哪里▁	-1503
ell▁	-1504
schoo	-1505
sing▁	-1506
horse▁	-1507
一种野生植物	-1508
explain▁	-1509
so	-1510
w▁	-1511
一位	-1512
下午	-1513
传送	-1514
卧倒	-1515
完了	-1516
家谱	-1517
容易	-1518
山楂	-1519
幽幽	-1520
斑纹	-1521
显然	-1522
消瘦	-1523
疤痕	-1524
百姓	-1525
睾丸	-1526
稻子	-1527
芒果	-1528
赶紧	-1529
))」	-1530
297	-1531
wil	-1532
青幽幽	-1533
appl	-1534
edge	-1535
ger▁	-1536
line	-1537
ream	-1538
传说中的	-1539
形容词缀▁	-1540
follow	-1541
表示形容词缀	-1542
support	-1543
水用彝文怎么写▁	-1544
OV	-1545
sw	-1546
ān	-1547
丈夫	-1548
下▁	-1549
交付	-1550
傍晚	-1551
别人	-1552
力▁	-1553
叫声	-1554
她在	-1555
抽泣	-1556
有▁	-1557
正在	-1558
水井	-1559
生在	-1560
申报	-1561
祝告	-1562
称呼	-1563
膀胱	-1564
苍蝇	-1565
茨菇	-1566
荣华	-1567
角落	-1568
认真	-1569
责任	-1570
赌咒	-1571
锦鸡	-1572
ꐯꆸ	-1573
332	-1574
SOV	-1575
古语▁	-1576
名词▁	-1577
形容嚼	-1578
表示人	-1579
))'▁	-1580
drop	-1581
over	-1582
thir	-1583
表示名词	-1584
量子比特	-1585
apply	-1586
meet▁	-1587
your▁	-1588
school▁	-1589
14	-1590
sm	-1591
你好	-1592
你的	-1593
出殡	-1594
姑父	-1595
恐惧	-1596
斗殴	-1597
智能	-1598
机器	-1599
松明	-1600
果吉	-1601
树▁	-1602
节日	-1603
荸荠	-1604
蓑衣	-1605
藤子	-1606
轻▁	-1607
遗留	-1608
部族	-1609
闪亮	-1610
顽强	-1611
289	-1612
298	-1613
358	-1614
be▁	-1615
mon	-1616
使动▁	-1617
白生生	-1618
;)。▁	-1619
heal	-1620
shou	-1621
where▁	-1622
地用彝文怎么写▁	-1623
superposition▁	-1624
23	-1625
串串	-1626
北斗	-1627
另外	-1628
台垫	-1629
吝啬	-1630
否定	-1631
因为	-1632
客店	-1633
忙▁	-1634
灵敏	-1635
烦躁	-1636
糊糊	-1637
老鼠	-1638
肚子	-1639
足够	-1640
野鸡	-1641
餐具	-1642
黄果	-1643
man	-1644
ong	-1645
opo	-1646
pow	-1647
tur	-1648
ue▁	-1649
ye▁	-1650
健康▁	-1651
孩子很	-1652
我们在	-1653
黏糊糊	-1654
ars▁	-1655
side	-1656
color	-1657
does▁	-1658
good▁	-1659
opoei	-1660
throu	-1661
about▁	-1662
onomat	-1663
while▁	-1664
system▁	-1665
working▁	-1666
onomatopoei	-1667
作客	-1668
便宜	-1669
俗称	-1670
儴解	-1671
分离	-1672
叹词	-1673
呲牙	-1674
和蔼	-1675
喜鹊	-1676
喷嚏	-1677
复活	-1678
嫩芽	-1679
容量	-1680
庇护	-1681
成▁	-1682
撮箕	-1683
旁边	-1684
枷锁	-1685
止沸	-1686
燕麦	-1687
狮子	-1688
猫头	-1689
甩打	-1690
病▁	-1691
睫毛	-1692
筲箕	-1693
繁殖	-1694
羡慕	-1695
词素	-1696
贿赂	-1697
防备	-1698
鼻涕	-1699
296	-1700
366	-1701
dic	-1702
dry	-1703
ked	-1704
up▁	-1705
ment	-1706
mer▁	-1707
time	-1708
ven▁	-1709
cooked	-1710
transl	-1711
accompan	-1712
mountain▁	-1713
onomatopoeia	-1714
00	-1715
15	-1716
一▁	-1717
刀子	-1718
包谷	-1719
味▁	-1720
婚配	-1721
屋檐	-1722
强健	-1723
拳头	-1724
收拢	-1725
晚安	-1726
母羊	-1727
漂浮	-1728
爸爸	-1729
猖獗	-1730
猪▁	-1731
用品	-1732
笨拙	-1733
纽襻	-1734
绵羊	-1735
装饰	-1736
训练	-1737
请你	-1738
轻轻	-1739
辨别	-1740
迎接	-1741
远古	-1742
逝世	-1743
酸痛	-1744
隐痛	-1745
零碎	-1746
鼻子	-1747
301	-1748
349	-1749
bur	-1750
医生很	-1751
可爱▁	-1752
学生很	-1753
方位词	-1754
未曾生	-1755
老师很	-1756
表示花	-1757
表示马	-1758
ꀋꐯ▁	-1759
ket▁	-1760
seri	-1761
是什么▁	-1762
表示古语	-1763
象声词▁	-1764
量子纠缠	-1765
every▁	-1766
there▁	-1767
young▁	-1768
market▁	-1769
17	-1770
26	-1771
亲家	-1772
加盐	-1773
危及	-1774
吸吮	-1775
和平	-1776
导线	-1777
弹跳	-1778
房▁	-1779
抖▁	-1780
拘禁	-1781
撒娇	-1782
新年	-1783
晚上	-1784
替▁	-1785
服务	-1786
泥土	-1787
泥泞	-1788
活结	-1789
的气	-1790
睡▁	-1791
砧板	-1792
禀报	-1793
茯苓	-1794
行▁	-1795
转▁	-1796
青年	-1797
鲸鱼	-1798
350	-1799
ash	-1800
as▁	-1801
bir	-1802
cal	-1803
ds▁	-1804
hel	-1805
ms▁	-1806
nec	-1807
谢谢▁	-1808
sad▁	-1809
shed	-1810
thy▁	-1811
时态助词	-1812
表示象声词	-1813
ating▁	-1814
connec	-1815
healthy▁	-1816
18	-1817
22	-1818
43	-1819
pr	-1820
事情	-1821
价值	-1822
你会	-1823
偷懒	-1824
前▁	-1825
后天	-1826
囫囵	-1827
寄生	-1828
尊敬	-1829
山谷	-1830
张开	-1831
彻底	-1832
我有	-1833
撒遍	-1834
星期	-1835
晃荡	-1836
普及	-1837
每天	-1838
清洁	-1839
用嘴	-1840
祖先	-1841
胎子	-1842
胡椒	-1843
舌头	-1844
规矩	-1845
锄头	-1846
镶牙	-1847
307	-1848
clo	-1849
fro	-1850
gh▁	-1851
在一起	-1852
寄生茶	-1853
brea	-1854
lear	-1855
now▁	-1856
sic▁	-1857
ster	-1858
ten▁	-1859
很美丽▁	-1860
表示使动	-1861
after	-1862
ding▁	-1863
make▁	-1864
character▁	-1865
87	-1866
fe	-1867
go	-1868
位▁	-1869
债务	-1870
再见	-1871
凝固	-1872
刺猬	-1873
卦名	-1874
呕吐	-1875
地方	-1876
声的	-1877
嫉妒	-1878
敬称	-1879
无力	-1880
月亮	-1881
杨梅	-1882
气▁	-1883
没有	-1884
法帽	-1885
浓稠	-1886
禁闭	-1887
类▁	-1888
绵绵	-1889
腮帮	-1890
蛆虫	-1891
避免	-1892
随时	-1893
鸽子	-1894
317	-1895
327	-1896
339	-1897
ani	-1898
ble	-1899
hol	-1900
now	-1901
qui	-1902
top	-1903
彝文有	-1904
ack▁	-1905
arm▁	-1906
atur	-1907
even	-1908
ext▁	-1909
hung	-1910
let▁	-1911
sist	-1912
book▁	-1913
fish▁	-1914
from▁	-1915
point	-1916
will▁	-1917
毕摩的法帽	-1918
river▁	-1919
cluster	-1920
afternoon▁	-1921
21	-1922
你是	-1923
保卫	-1924
口水	-1925
后脑	-1926
哄闹	-1927
园▁	-1928
天花	-1929
守卫	-1930
宫殿	-1931
建造	-1932
恶龙	-1933
意▁	-1934
懂得	-1935
戏弄	-1936
或者	-1937
折叠	-1938
昌盛	-1939
水蒸	-1940
法术	-1941
清明	-1942
火把	-1943
班▁	-1944
男子	-1945
知晓	-1946
礼仪	-1947
精细	-1948
约定	-1949
纽扣	-1950
舒畅	-1951
解说	-1952
触动	-1953
连累	-1954
通达	-1955
锤子	-1956
霍麻	-1957
饮食	-1958
黄松	-1959
286	-1960
288	-1961
346	-1962
359	-1963
bus	-1964
chu	-1965
foo	-1966
后脑勺	-1967
生血菜	-1968
难过▁	-1969
30。▁	-1970
55。▁	-1971
alco	-1972
sty▁	-1973
two▁	-1974
wine	-1975
);4、(	-1976
fast▁	-1977
time▁	-1978
hungry▁	-1979
动词用彝文怎么写▁	-1980
不同	-1981
不耐	-1982
仇怨	-1983
优惠	-1984
修剪	-1985
偷盗	-1986
冻菌	-1987
分数	-1988
动作	-1989
勾连	-1990
发觉	-1991
叔叔	-1992
哼哈	-1993
墨水	-1994
子弹	-1995
孝帕	-1996
学▁	-1997
小时	-1998
干净	-1999
手▁	-2000
技术	-2001
抚养	-2002
挎包	-2003
捣衣	-2004
搬移	-2005
摔倒	-2006
昨晚	-2007
松脂	-2008
果断	-2009
楼枕	-2010
沽湖	-2011
洞口	-2012
渴▁	-2013
游逛	-2014
溶化	-2015
灶孔	-2016
炫示	-2017
煎炸	-2018
物▁	-2019
狐狸	-2020
破烂	-2021
磨损	-2022
空▁	-2023
答应	-2024
篾丝	-2025
糟蹋	-2026
结实	-2027
缴纳	-2028
聘请	-2029
肋骨	-2030
背扇	-2031
胡琴	-2032
苗族	-2033
裙子	-2034
觉察	-2035
诱惑	-2036
走串	-2037
超度	-2038
越过	-2039
跑▁	-2040
辣疼	-2041
辣痛	-2042
钱财	-2043
雄伟	-2044
饭盆	-2045
首长	-2046
291	-2047
320	-2048
328	-2049
336	-2050
337	-2051
351	-2052
370	-2053
day	-2054
mid	-2055
一串串	-2056
不耐烦	-2057
当然了	-2058
捣衣棍	-2059
泸沽湖	-2060
31。▁	-2061
ning	-2062
oodb	-2063
ort▁	-2064
tired▁	-2065
evening▁	-2066
中午	-2067
乍鸟	-2068
争吵	-2069
倒霉	-2070
兴趣	-2071
刮风	-2072
制作	-2073
功能	-2074
医治	-2075
吆喝	-2076
吩咐	-2077
含化	-2078
天地	-2079
容器	-2080
小饼	-2081
往嘴	-2082
快速	-2083
投掷	-2084
拥挤	-2085
控告	-2086
晚餐	-2087
曾祖	-2088
有益	-2089
本事	-2090
板结	-2091
柏松	-2092
槟榔	-2093
沸腾	-2094
灵柩	-2095
热▁	-2096
片▁	-2097
病魔	-2098
神灵	-2099
离开	-2100
稀疏	-2101
第二	-2102
缩口	-2103
考试	-2104
腿跨	-2105
舍得	-2106
荡漾	-2107
菜刀	-2108
蜷缩	-2109
衣裳	-2110
语▁	-2111
调换	-2112
贪婪	-2113
贫瘠	-2114
蹒跚	-2115
身材	-2116
长工	-2117
集中	-2118
雨▁	-2119
震动	-2120
韭菜	-2121
额头	-2122
飞翔	-2123
饭谷	-2124
香椿	-2125
香肠	-2126
鸡胗	-2127
鸣叫	-2128
麒麟	-2129
黄瓜	-2130
280	-2131
290	-2132
308	-2133
357	-2134
cli	-2135
etr	-2136
gar	-2137
ist	-2138
que	-2139
山乍鸟	-2140
年轻▁	-2141
猫头鹰	-2142
用风箱	-2143
男子汉	-2144
衣服▁	-2145
表示眼	-2146
被液体	-2147
29。▁	-2148
50。▁	-2149
59。▁	-2150
erce	-2151
obli	-2152
busy▁	-2153
cold▁	-2154
come▁	-2155
ence▁	-2156
indic	-2157
inter	-2158
slant	-2159
彝族先民中	-2160
penetr	-2161
pierce	-2162
alcohol	-2163
oblique	-2164
operate▁	-2165
running▁	-2166
thirsty▁	-2167
人用彝文怎么写▁	-2168
13	-2169
69	-2170
df	-2171
gi	-2172
ll	-2173
出现	-2174
半夜	-2175
县城	-2176
可怜	-2177
同志	-2178
吹嘘	-2179
回忆	-2180
夸口	-2181
小母	-2182
布▁	-2183
开辟	-2184
时作	-2185
步▁	-2186
比方	-2187
火▁	-2188
火药	-2189
灾难	-2190
烟杆	-2191
爱惜	-2192
牛马	-2193
理▁	-2194
用▁	-2195
福禄	-2196
舅娘	-2197
芫荽	-2198
道▁	-2199
部落	-2200
铃铛	-2201
香料	-2202
284	-2203
299	-2204
331	-2205
368	-2206
369	-2207
mil	-2208
ton	-2209
地支第	-2210
早饭▁	-2211
cal▁	-2212
gray	-2213
off▁	-2214
Goodb	-2215
thous	-2216
今天天气很	-2217
翻译成英文	-2218
量子计算机	-2219
light▁	-2220
world▁	-2221
indicate	-2222
midnight▁	-2223
65	-2224
x▁	-2225
争抢	-2226
他做	-2227
储备	-2228
吃亏	-2229
各自	-2230
向前	-2231
喧闹	-2232
嘱咐	-2233
嘶叫	-2234
图案	-2235
壮实	-2236
大蒜	-2237
好看	-2238
妨碍	-2239
婆家	-2240
嫩崽	-2241
安放	-2242
归属	-2243
懒惰	-2244
我想	-2245
拜寄	-2246
撕裂	-2247
敬爱	-2248
方法	-2249
村寨	-2250
染料	-2251
毡子	-2252
水瓢	-2253
泛指	-2254
漏斗	-2255
生育	-2256
由来	-2257
畜牲	-2258
禁止	-2259
种▁	-2260
章节	-2261
等▁	-2262
绘画	-2263
聪明	-2264
脚后	-2265
芦笙	-2266
草果	-2267
蚱蜢	-2268
装▁	-2269
讽刺	-2270
赠送	-2271
锅铲	-2272
陀螺	-2273
馈赠	-2274
285	-2275
295	-2276
325	-2277
32▁	-2278
347	-2279
367	-2280
Ent	-2281
ful	-2282
tiv	-2283
ure	-2284
你们很	-2285
地里的	-2286
工作▁	-2287
火把节	-2288
用英文	-2289
(1.▁	-2290
20。▁	-2291
21。▁	-2292
24。▁	-2293
35。▁	-2294
eep▁	-2295
gran	-2296
ted▁	-2297
名词用词	-2298
的前缀词	-2299
break	-2300
lder▁	-2301
name▁	-2302
turn▁	-2303
用英文怎么说	-2304
的的彝文字符▁	-2305
shoulder▁	-2306
dy	-2307
ef	-2308
下的	-2309
不但	-2310
两者	-2311
中药	-2312
先生	-2313
养育	-2314
冲▁	-2315
切▁	-2316
匆匆	-2317
台阶	-2318
唱歌	-2319
嘎寺	-2320
坍塌	-2321
堆▁	-2322
宝剑	-2323
寻找	-2324
师傅	-2325
归附	-2326
微弯	-2327
打搅	-2328
摆谈	-2329
攻打	-2330
旧时	-2331
早饭	-2332
明锐	-2333
曾孙	-2334
模糊	-2335
汉文	-2336
泡沫	-2337
温驯	-2338
滴▁	-2339
爷爷	-2340
狡猾	-2341
理睬	-2342
痴呆	-2343
相遇	-2344
睁睁	-2345
研究	-2346
穷困	-2347
第十	-2348
索▁	-2349
缴获	-2350
缺损	-2351
而且	-2352
脾脏	-2353
蜻蜓	-2354
跟随	-2355
闯入	-2356
骨头	-2357
鳝鱼	-2358
310	-2359
341	-2360
371	-2361
;)▁	-2362
liu	-2363
mul	-2364
wal	-2365
中药名	-2366
什么▁	-2367
嘎寺福	-2368
往嘴里	-2369
架子猪	-2370
香椿树	-2371
ꐯꐯ▁	-2372
ear▁	-2373
两者之间	-2374
否定副词	-2375
angle	-2376
blue▁	-2377
face▁	-2378
parti	-2379
dition	-2380
stream	-2381
的意思是动词▁	-2382
gr	-2383
xi	-2384
上下	-2385
事故	-2386
们▁	-2387
传递	-2388
估计	-2389
估量	-2390
伶俐	-2391
俯卧	-2392
刀霍	-2393
发音	-2394
叹息	-2395
块▁	-2396
声▁	-2397
好过	-2398
如果	-2399
媳妇	-2400
安装	-2401
害怕	-2402
必要	-2403
必须	-2404
总是	-2405
成功	-2406
成见	-2407
房前	-2408
打柴	-2409
抛弃	-2410
抢劫	-2411
拾柴	-2412
挡▁	-2413
摆艺	-2414
斟酌	-2415
无响	-2416
无能	-2417
木盔	-2418
枝花	-2419
栖息	-2420
梭子	-2421
烧烤	-2422
玩耍	-2423
用餐	-2424
祖母	-2425
群体	-2426
群鸦	-2427
菜油	-2428
被盖	-2429
酸角	-2430
飞逝	-2431
魔芋	-2432
麻木	-2433
20▁	-2434
306	-2435
321	-2436
329	-2437
348	-2438
361	-2439
cut	-2440
emb	-2441
if▁	-2442
ill	-2443
lea	-2444
spr	-2445
刀霍霍	-2446
声的屁	-2447
用餐毕	-2448
诚实▁	-2449
集中精	-2450
饮食过	-2451
44。▁	-2452
EntL	-2453
itch	-2454
qent	-2455
tran	-2456
去上学▁	-2457
去上班▁	-2458
可以聊天	-2459
吃午饭▁	-2460
吃早饭▁	-2461
在哪里▁	-2462
形容嚼食	-2463
很可爱▁	-2464
很强壮▁	-2465
很聪明▁	-2466
磨刀霍霍	-2467
QEntL	-2468
cute▁	-2469
无响声的屁	-2470
ching▁	-2471
wants▁	-2472
write▁	-2473
休息一会儿▁	-2474
的意思是子▁	-2475
的含义是动词▁	-2476
surface▁	-2477
表示动词的彝文是	-2478
breakfast▁	-2479
表示动词的彝文字符▁	-2480
sa	-2481
丧祭	-2482
你▁	-2483
侄儿	-2484
侄子	-2485
依据	-2486
停止	-2487
农具	-2488
几乎	-2489
勺子	-2490
印章	-2491
去▁	-2492
发▁	-2493
发酵	-2494
变成	-2495
合适	-2496
哨棚	-2497
嘶哑	-2498
堆砌	-2499
妖魔	-2500
威望	-2501
家具	-2502
小而	-2503
尖的	-2504
差点	-2505
差遣	-2506
并排	-2507
应允	-2508
底下	-2509
很有	-2510
怜悯	-2511
我▁	-2512
手机	-2513
摆夷	-2514
收藏	-2515
放荡	-2516
政权	-2517
敬仰	-2518
日期	-2519
星▁	-2520
核心	-2521
根据	-2522
梧桐	-2523
欢喜	-2524
泛称	-2525
派遣	-2526
烧▁	-2527
理由	-2528
癫痫	-2529
监牢	-2530
盟誓	-2531
祖父	-2532
秸秆	-2533
细小	-2534
耳朵	-2535
背部	-2536
腹部	-2537
苔▁	-2538
蘑菇	-2539
蚯蚓	-2540
语音	-2541
走▁	-2542
转嘎	-2543
迁徙	-2544
通过	-2545
金银	-2546
闲▁	-2547
间隔	-2548
霹雳	-2549
风趣	-2550
鬼怪	-2551
278	-2552
287	-2553
305	-2554
330	-2555
499	-2556
cur	-2557
tum	-2558
丧祭歌	-2559
差点儿	-2560
表示手	-2561
语言▁	-2562
金银铜	-2563
39。▁	-2564
45。▁	-2565
68。▁	-2566
ary▁	-2567
ice▁	-2568
mode	-2569
oom▁	-2570
sun▁	-2571
ther	-2572
妖魔鬼怪	-2573
小而尖的	-2574
alone	-2575
ates▁	-2576
autum	-2577
conca	-2578
down▁	-2579
plus▁	-2580
地的彝文是	-2581
powder	-2582
proble	-2583
table▁	-2584
thank▁	-2585
的含义是子▁	-2586
表示子的彝文是	-2587
flowers▁	-2588
particle	-2589
表示子的彝文字符▁	-2590
2、	-2591
En	-2592
上方	-2593
主宾	-2594
人的	-2595
传染	-2596
伤▁	-2597
凤凰	-2598
刺绣	-2599
劳累	-2600
原野	-2601
天麻	-2602
头绪	-2603
姐夫	-2604
威宁	-2605
嫂子	-2606
实际	-2607
富裕	-2608
庆祝	-2609
建盖	-2610
张▁	-2611
木姜	-2612
核桃	-2613
泼▁	-2614
父亲	-2615
牛▁	-2616
状况	-2617
畜生	-2618
皮聂	-2619
着▁	-2620
祖禄	-2621
种子	-2622
篾席	-2623
篾箩	-2624
粒的	-2625
脊椎	-2626
花序	-2627
花生	-2628
花费	-2629
语序	-2630
谁▁	-2631
运动	-2632
进展	-2633
铺盖	-2634
陷处	-2635
雪▁	-2636
26▁	-2637
311	-2638
356	-2639
AI▁	-2640
cul	-2641
dra	-2642
ea▁	-2643
ee▁	-2644
fra	-2645
gue	-2646
sti	-2647
「((	-2648
是量子	-2649
松明子	-2650
现在是	-2651
脚后跟	-2652
脱粒的	-2653
33。▁	-2654
40。▁	-2655
hot▁	-2656
ink▁	-2657
proc	-2658
一个部族	-2659
集中精力	-2660
饮食过量	-2661
star▁	-2662
when▁	-2663
重叠词缀▁	-2664
doing▁	-2665
inter▁	-2666
qentl▁	-2667
accompany	-2668
computers▁	-2669
(1	-2670
cy	-2671
。(	-2672
个旧	-2673
仗恃	-2674
件▁	-2675
别作	-2676
口弦	-2677
号角	-2678
呈现	-2679
唆使	-2680
四川	-2681
因▁	-2682
坏▁	-2683
垢腻	-2684
培育	-2685
头晕	-2686
居住	-2687
巡回	-2688
平均	-2689
庄石	-2690
怂恿	-2691
情歌	-2692
我来	-2693
打采	-2694
护育	-2695
拉▁	-2696
拌▁	-2697
捆▁	-2698
摇晃	-2699
敏捷	-2700
无精	-2701
有气	-2702
欠▁	-2703
正直	-2704
洗漱	-2705
清澈	-2706
球▁	-2707
生意	-2708
皮肤	-2709
盖房	-2710
种植	-2711
竹笙	-2712
等的	-2713
篾笆	-2714
腰身	-2715
英勇	-2716
草席	-2717
蓬松	-2718
融▁	-2719
觉▁	-2720
计划	-2721
说▁	-2722
质量	-2723
贪污	-2724
贫困	-2725
贫穷	-2726
走路	-2727
部分	-2728
酒▁	-2729
281	-2730
318	-2731
338	-2732
365	-2733
fe▁	-2734
fou	-2735
spe	-2736
乐器的	-2737
学习▁	-2738
彝语称	-2739
无实际	-2740
男祖先	-2741
的第二	-2742
腮帮子	-2743
表示火	-2744
说话伤	-2745
锅庄石	-2746
"1.▁	-2747
12。▁	-2748
38。▁	-2749
dres	-2750
hard	-2751
ripe	-2752
und▁	-2753
wipe	-2754
work	-2755
无精打采	-2756
祭祀用的	-2757
金银铜等	-2758
Engli	-2759
ello▁	-2760
four▁	-2761
help▁	-2762
music▁	-2763
three▁	-2764
autumn▁	-2765
花用彝文怎么写▁	-2766
Qu	-2767
sǒ	-2768
u▁	-2769
上的	-2770
主要	-2771
乌龟	-2772
书包	-2773
五行	-2774
人工	-2775
伯父	-2776
你叫	-2777
倒塌	-2778
免疫	-2779
凡是	-2780
别称	-2781
动员	-2782
古彝	-2783
号召	-2784
吆猪	-2785
告状	-2786
和尚	-2787
啊呀	-2788
嚎叫	-2789
土坯	-2790
土壤	-2791
在▁	-2792
坝子	-2793
基业	-2794
塘水	-2795
好久	-2796
妹妹	-2797
婴儿	-2798
家族	-2799
尔瓦	-2800
山垭	-2801
巴烂	-2802
带▁	-2803
平静	-2804
年▁	-2805
强权	-2806
惟恐	-2807
惬意	-2808
愁闷	-2809
懒▁	-2810
承诺	-2811
折损	-2812
折耗	-2813
抚摸	-2814
抢救	-2815
接▁	-2816
搜查	-2817
散开	-2818
方便	-2819
案件	-2820
欺负	-2821
欺辱	-2822
水肿	-2823
泥巴	-2824
泸西	-2825
活计	-2826
浮肿	-2827
混合	-2828
港湾	-2829
滋润	-2830
牢固	-2831
生长	-2832
用刀	-2833
田埂	-2834
真理	-2835
知道	-2836
空旷	-2837
米▁	-2838
经络	-2839
绸缎	-2840
罩▁	-2841
背物	-2842
胎盘	-2843
脚趾	-2844
腰围	-2845
臁疮	-2846
节约	-2847
药水	-2848
蓬蓬	-2849
虎杖	-2850
蜂蜜	-2851
蝴蝶	-2852
蝼蚁	-2853
计谋	-2854
许诺	-2855
词尾	-2856
走遍	-2857
超市	-2858
连续	-2859
遮挡	-2860
铺设	-2861
门槛	-2862
随便	-2863
鸟▁	-2864
鹌鹑	-2865
󳤣▁	-2866
21▁	-2867
271	-2868
274	-2869
277	-2870
28▁	-2871
315	-2872
324	-2873
340	-2874
360	-2875
bc▁	-2876
est	-2877
red	-2878
主宾动	-2879
可惜▁	-2880
居住治	-2881
应允声	-2882
引述式	-2883
擦尔瓦	-2884
攀枝花	-2885
时态词	-2886
梧桐树	-2887
稀巴烂	-2888
纠缠▁	-2889
脚趾被	-2890
膝关节	-2891
自己的	-2892
芝麻花	-2893
跳舞▁	-2894
过崽的	-2895
25。▁	-2896
37。▁	-2897
answ	-2898
cuān	-2899
ite▁	-2900
stea	-2901
人工智能	-2902
介绍一下	-2903
可以同时	-2904
怎么说▁	-2905
泸西县城	-2906
香芝麻花	-2907
less▁	-2908
read▁	-2909
year▁	-2910
black▁	-2911
quiet▁	-2912
形容嚼食动词	-2913
表示重叠词缀	-2914
flower▁	-2915
spring▁	-2916
Quantum▁	-2917
translate	-2918
supermarket▁	-2919
br	-2920
dc	-2921
op	-2922
万物	-2923
不断	-2924
丢弃	-2925
乒乒	-2926
住宿	-2927
佩戴	-2928
侦察	-2929
傻子	-2930
元旦	-2931
公婆	-2932
农历	-2933
刺杀	-2934
化脓	-2935
厅堂	-2936
口粮	-2937
合作	-2938
后面	-2939
呻吟	-2940
咧嘴	-2941
嘻嘻	-2942
回应	-2943
天井	-2944
妻弟	-2945
娃娃	-2946
娶妻	-2947
寨神	-2948
山梁	-2949
帘子	-2950
应声	-2951
往孔	-2952
扒▁	-2953
披袍	-2954
招待	-2955
撤除	-2956
斧头	-2957
杉树	-2958
构皮	-2959
枋板	-2960
树叶	-2961
梨子	-2962
殷殷	-2963
汆烫	-2964
河蚌	-2965
油▁	-2966
泄气	-2967
洁净	-2968
洋芋	-2969
洱海	-2970
混杂	-2971
火种	-2972
灯盏	-2973
烟▁	-2974
燃料	-2975
父母	-2976
猫▁	-2977
瓜子	-2978
石膏	-2979
砰砰	-2980
确定	-2981
碰▁	-2982
秧鸡	-2983
空碗	-2984
窥探	-2985
糊臭	-2986
紧挨	-2987
紫黑	-2988
红茨	-2989
绝▁	-2990
续断	-2991
缠绕	-2992
背篓	-2993
腰杆	-2994
腼腆	-2995
茶▁	-2996
草鞋	-2997
菜墩	-2998
落▁	-2999
葱籽	-3000
虎▁	-3001
虾子	-3002
蚕豆	-3003
蟑螂	-3004
衣襟	-3005
补语	-3006
裙脚	-3007
词典	-3008
走样	-3009
逗笑	-3010
野鸭	-3011
铜帽	-3012
阳光	-3013
难为	-3014
饭豆	-3015
骗▁	-3016
高粱	-3017
龙胆	-3018
23▁	-3019
24▁	-3020
279	-3021
316	-3022
334	-3023
354	-3024
Yes	-3025
net	-3026
wel	-3027
后缀词	-3028
她不会	-3029
娃娃鸡	-3030
安静▁	-3031
快乐▁	-3032
护寨神	-3033
数词▁	-3034
没关系	-3035
牙咧嘴	-3036
的词尾	-3037
笑嘻嘻	-3038
红茨莓	-3039
腰围大	-3040
表示心	-3041
请解释	-3042
远距离	-3043
61。▁	-3044
bit▁	-3045
cat▁	-3046
chat	-3047
come	-3048
hund	-3049
man▁	-3050
ques	-3051
tail	-3052
乒乒砰砰	-3053
有气无力	-3054
clean	-3055
garde	-3056
home▁	-3057
light	-3058
moon▁	-3059
skill	-3060
wood▁	-3061
庄稼地里的	-3062
earth▁	-3063
grass▁	-3064
English	-3065
entangle	-3066
眼用彝文怎么写▁	-3067
ditional▁	-3068
ào	-3069
乱叫	-3070
乾坤	-3071
供奉	-3072
利益	-3073
制度	-3074
只有	-3075
吸▁	-3076
土块	-3077
学的	-3078
宗祠	-3079
小步	-3080
工匠	-3081
幻术	-3082
很累	-3083
思考	-3084
慕阿	-3085
我是	-3086
投降	-3087
旺盛	-3088
晌午	-3089
木瓜	-3090
杏子	-3091
村庄	-3092
枝叶	-3093
泳▁	-3094
温暖	-3095
燃▁	-3096
牺牲	-3097
珠子	-3098
站▁	-3099
笛子	-3100
紫红	-3101
老▁	-3102
肉等	-3103
背▁	-3104
舅舅	-3105
菌子	-3106
补▁	-3107
认输	-3108
轿子	-3109
迟缓	-3110
长▁	-3111
闪▁	-3112
麻疹	-3113
"1、	-3114
)、(	-3115
22▁	-3116
275	-3117
314	-3118
31▁	-3119
335	-3120
344	-3121
345	-3122
34▁	-3123
36▁	-3124
37▁	-3125
419	-3126
cs▁	-3127
dat	-3128
da▁	-3129
db▁	-3130
lin	-3131
sum	-3132
ves	-3133
什么名	-3134
他们在	-3135
你好▁	-3136
做饭▁	-3137
凹陷处	-3138
别作声	-3139
无兴趣	-3140
是彝族	-3141
表示大	-3142
表示牛	-3143
见面▁	-3144
静悄悄	-3145
15。▁	-3146
34。▁	-3147
36。▁	-3148
49。▁	-3149
ant▁	-3150
ces▁	-3151
sive	-3152
yell	-3153
做午饭▁	-3154
怎么样▁	-3155
斗笠胎子	-3156
祖宗祝告	-3157
离开群体	-3158
表示数词	-3159
连续不断	-3160
bird▁	-3161
depen	-3162
estiv	-3163
ming▁	-3164
need▁	-3165
side▁	-3166
take▁	-3167
ving▁	-3168
你叫什么名	-3169
脊椎凹陷处	-3170
times▁	-3171
小而尖的鼻子	-3172
yellow▁	-3173
skillful	-3174
下用彝文怎么写▁	-3175
1)	-3176
lu	-3177
一只	-3178
一定	-3179
不客	-3180
亚麻	-3181
作对	-3182
保护	-3183
修理	-3184
刁难	-3185
削▁	-3186
华▁	-3187
即刻	-3188
发怒	-3189
取钱	-3190
古时	-3191
同为	-3192
向上	-3193
听到	-3194
哮喘	-3195
嗜好	-3196
圈▁	-3197
坑道	-3198
垂直	-3199
孵出	-3200
察觉	-3201
屋顶	-3202
扳机	-3203
掩盖	-3204
搭▁	-3205
操纵	-3206
整▁	-3207
文史	-3208
旋转	-3209
果实	-3210
栓猪	-3211
根源	-3212
死亡	-3213
水沟	-3214
汉松	-3215
沟渠	-3216
治▁	-3217
浊气	-3218
温汽	-3219
田水	-3220
瘌蛤	-3221
白面	-3222
皮▁	-3223
瞌睡	-3224
瞧得	-3225
竹蛇	-3226
管辖	-3227
糟糕	-3228
纵阅	-3229
绎不	-3230
老表	-3231
肉▁	-3232
舞蹈	-3233
茅草	-3234
补药	-3235
被高	-3236
训斥	-3237
记载	-3238
身肌	-3239
转筋	-3240
过敏	-3241
选择	-3242
通头	-3243
部位	-3244
金属	-3245
间▁	-3246
阴门	-3247
领▁	-3248
飞舞	-3249
364	-3250
eag	-3251
eng	-3252
ff▁	-3253
imp	-3254
mod	-3255
off	-3256
sew	-3257
sǒu	-3258
吃完了	-3259
吆猪声	-3260
太阳▁	-3261
对上级	-3262
平静▁	-3263
生长在	-3264
瘌蛤蟆	-3265
的气味	-3266
的状态	-3267
的长度	-3268
眼睁睁	-3269
矮小▁	-3270
移动▁	-3271
经络病	-3272
络绎不	-3273
罗汉松	-3274
青竹蛇	-3275
󲊂󲊂▁	-3276
));▁	-3277
10。▁	-3278
23。▁	-3279
58。▁	-3280
66。▁	-3281
but▁	-3282
dist	-3283
earn	-3284
gent	-3285
thor	-3286
trip	-3287
不好意思	-3288
古彝人的	-3289
地支的第	-3290
彝族支系	-3291
我们不会	-3292
盖房用的	-3293
被高温汽	-3294
量子测量	-3295
cars▁	-3296
many▁	-3297
next▁	-3298
stumb	-3299
其含义为是	-3300
无实际意义	-3301
shing▁	-3302
tions▁	-3303
concave	-3304
slanted	-3305
summer▁	-3306
winter▁	-3307
古语用彝文怎么写▁	-3308
名词用彝文怎么写▁	-3309
/▁	-3310
eb	-3311
ke	-3312
yi	-3313
严重	-3314
个子	-3315
串▁	-3316
乌撒	-3317
二十	-3318
候▁	-3319
八位	-3320
典章	-3321
刀▁	-3322
分布	-3323
厦子	-3324
叽叽	-3325
吓唬	-3326
啄木	-3327
喳喳	-3328
器物	-3329
四位	-3330
回▁	-3331
在场	-3332
很多	-3333
悬挂	-3334
拇指	-3335
效仿	-3336
曲▁	-3337
最早	-3338
木树	-3339
柔▁	-3340
校▁	-3341
梯▁	-3342
气馁	-3343
煮融	-3344
瓦片	-3345
磨▁	-3346
祈祷	-3347
神▁	-3348
笃慕	-3349
纯净	-3350
经典	-3351
编织	-3352
能吃	-3353
腻▁	-3354
芽▁	-3355
苦蒜	-3356
要紧	-3357
豆类	-3358
赤陀	-3359
较量	-3360
迷信	-3361
递给	-3362
食用	-3363
马桑	-3364
鹿▁	-3365
麻痛	-3366
ꅐꍔ	-3367
ꐯꏮ	-3368
'((	-3369
304	-3370
30▁	-3371
38▁	-3372
418	-3373
497	-3374
546	-3375
668	-3376
;(2	-3377
gs▁	-3378
ide	-3379
pre	-3380
pur	-3381
ree	-3382
sao	-3383
so▁	-3384
swi	-3385
tie	-3386
医生在	-3387
同志们	-3388
唱歌▁	-3389
学生在	-3390
孩子在	-3391
小屋檐	-3392
往孔里	-3393
很高兴	-3394
我不会	-3395
我会说	-3396
我想去	-3397
折磨▁	-3398
拇指和	-3399
朋友▁	-3400
构皮树	-3401
污染▁	-3402
白面狐	-3403
老师在	-3404
表示开	-3405
难为情	-3406
ꅐꍔ▁	-3407
ꐯꆸꄻ	-3408
47。▁	-3409
dog▁	-3410
eye▁	-3411
les▁	-3412
new▁	-3413
叽叽喳喳	-3414
彝文语序	-3415
形容个子	-3416
很善良▁	-3417
早上好▁	-3418
液体沸腾	-3419
递给东西	-3420
量子系统	-3421
ꑿꅐꍔ▁	-3422
city▁	-3423
gray▁	-3424
tall▁	-3425
warm▁	-3426
彝族支系名	-3427
green▁	-3428
single	-3429
white▁	-3430
的意思是水▁	-3431
使动用彝文怎么写▁	-3432
形容词缀用彝文怎么写▁	-3433
traditional▁	-3434
]▁	-3435
bc	-3436
ff	-3437
gū	-3438
jo	-3439
ló	-3440
ru	-3441
上漂	-3442
专用	-3443
丢丑	-3444
丢脸	-3445
中华	-3446
之声	-3447
了的	-3448
代孙	-3449
佐料	-3450
信息	-3451
俯冲	-3452
倒倒	-3453
做客	-3454
冷▁	-3455
出力	-3456
凿▁	-3457
刀刃	-3458
分散	-3459
切题	-3460
别▁	-3461
包括	-3462
发热	-3463
发表	-3464
口吃	-3465
口径	-3466
叫嚷	-3467
召集	-3468
吃油	-3469
名▁	-3470
吵闹	-3471
唾沫	-3472
嚼环	-3473
困倦	-3474
基本	-3475
大象	-3476
奉献	-3477
如何	-3478
实勺	-3479
弹琴	-3480
惨重	-3481
愈▁	-3482
技艺	-3483
抚育	-3484
拿着	-3485
摆设	-3486
撞撞	-3487
攀援	-3488
断▁	-3489
旅馆	-3490
枪▁	-3491
梳理	-3492
概念	-3493
欺骗	-3494
歪歪	-3495
残废	-3496
气灵	-3497
水怪	-3498
水泡	-3499
汤杆	-3500
渺小	-3501
熊胆	-3502
牵连	-3503
犁▁	-3504
狠▁	-3505
猪胆	-3506
理顺	-3507
用于	-3508
用以	-3509
画▁	-3510
瘫痪	-3511
相好	-3512
祖▁	-3513
秋千	-3514
端▁	-3515
等待	-3516
线▁	-3517
组织	-3518
耳坠	-3519
耽误	-3520
芭蕉	-3521
菲篥	-3522
蛋的	-3523
蝼蛄	-3524
讥笑	-3525
讲述	-3526
词▁	-3527
语系	-3528
货币	-3529
跌跌	-3530
车轴	-3531
转轴	-3532
轴承	-3533
那▁	-3534
野果	-3535
银子	-3536
门闩	-3537
阔叶	-3538
陈列	-3539
面孔	-3540
颤▁	-3541
风▁	-3542
香蕉	-3543
鲁岱	-3544
鲁莽	-3545
鹳鹤	-3546
ꈭꐯ	-3547
ꐯꃅ	-3548
276	-3549
27▁	-3550
294	-3551
355	-3552
641	-3553
hon	-3554
mb▁	-3555
他不会	-3556
俗称酸	-3557
写字▁	-3558
剥板栗	-3559
发出的	-3560
口径小	-3561
小母鸡	-3562
怎么样	-3563
晚安▁	-3564
树叶水	-3565
毛发乱	-3566
水渡槽	-3567
用手掌	-3568
癫痫病	-3569
种语言	-3570
突然▁	-3571
粮食的	-3572
精气灵	-3573
读书▁	-3574
赔偿▁	-3575
锋利▁	-3576
门转轴	-3577
42。▁	-3578
67。▁	-3579
ats▁	-3580
car▁	-3581
cow▁	-3582
deci	-3583
ded▁	-3584
dry▁	-3585
lóu▁	-3586
way▁	-3587
主要分布	-3588
加盐佐料	-3589
歪歪倒倒	-3590
清晰明亮	-3591
祭祀用品	-3592
说话切题	-3593
跌跌撞撞	-3594
artle	-3595
bits▁	-3596
cool▁	-3597
engli	-3598
gold▁	-3599
grove	-3600
mind▁	-3601
natur	-3602
ture▁	-3603
vely▁	-3604
俗称酸汤杆	-3605
发出的声音	-3606
未曾生蛋的	-3607
树叶水上漂	-3608
Hello▁	-3609
modal▁	-3610
sheep▁	-3611
的含义是水▁	-3612
answer▁	-3613
honest▁	-3614
startle	-3615
的意思是名词▁	-3616
表示水的彝文是	-3617
reading▁	-3618
动用彝文怎么写▁	-3619
未曾生蛋的小母鸡	-3620
penetrate	-3621
的含义是形容词缀▁	-3622
的意思是形容词缀▁	-3623
表示水的彝文字符▁	-3624
表示形容词缀的彝文是	-3625
象声词用彝文怎么写▁	-3626
hardworking▁	-3627
表示形容词缀的彝文字符▁	-3628
fb	-3629
yu	-3630
—▁	-3631
三菱	-3632
世上	-3633
两个	-3634
两边	-3635
严实	-3636
严肃	-3637
乘以	-3638
乱说	-3639
争论	-3640
二▁	-3641
人命	-3642
人多	-3643
他会	-3644
任意	-3645
住所	-3646
侧▁	-3647
修改	-3648
倾家	-3649
光秃	-3650
冲撞	-3651
剩▁	-3652
办法	-3653
厌恶	-3654
厌烦	-3655
变掉	-3656
吧▁	-3657
吹捧	-3658
咒猫	-3659
嘎耄	-3660
圆▁	-3661
地椒	-3662
大口	-3663
奉承	-3664
奖赏	-3665
她会	-3666
室▁	-3667
害▁	-3668
小跑	-3669
山岭	-3670
山药	-3671
干瞪	-3672
平面	-3673
征讨	-3674
得了	-3675
急▁	-3676
性的	-3677
慢▁	-3678
挑▁	-3679
撮▁	-3680
政令	-3681
斗架	-3682
最好	-3683
根▁	-3684
梭动	-3685
正常	-3686
毛▁	-3687
水冲	-3688
水桶	-3689
沙子	-3690
渗透	-3691
猎▁	-3692
猎鸟	-3693
玷污	-3694
留念	-3695
窝▁	-3696
糊涂	-3697
纪念	-3698
组装	-3699
缓和	-3700
缘故	-3701
翻脸	-3702
蚂蚱	-3703
讨伐	-3704
设陷	-3705
谜语	-3706
责备	-3707
责难	-3708
费用	-3709
赏赐	-3710
身份	-3711
输入	-3712
辩论	-3713
过去	-3714
道法	-3715
鄂莫	-3716
里啦	-3717
闭▁	-3718
骨▁	-3719
ꁧꈭ	-3720
ꂴꈌ	-3721
ꐥꂘ	-3722
ꐯꃀ	-3723
ꐯꉘ	-3724
ꐯꑠ	-3725
25▁	-3726
29▁	-3727
35▁	-3728
378	-3729
39▁	-3730
456	-3731
518	-3732
550	-3733
680	-3734
:((	-3735
;2(	-3736
ar▁	-3737
bec	-3738
far	-3739
loo	-3740
mer	-3741
our	-3742
ssi	-3743
wea	-3744
不客气	-3745
严肃▁	-3746
主动宾	-3747
休息▁	-3748
你不会	-3749
俗称讨	-3750
努力▁	-3751
在跑▁	-3752
堵塞▁	-3753
大霍麻	-3754
威胁▁	-3755
导线架	-3756
我们会	-3757
戳嘎耄	-3758
杜鹃鸟	-3759
水蒸汽	-3760
活泼▁	-3761
温柔▁	-3762
灵敏▁	-3763
爬山▁	-3764
猎鸟兽	-3765
的第五	-3766
的量词	-3767
舒服▁	-3768
表示头	-3769
被水冲	-3770
设陷阱	-3771
量子门	-3772
钓鱼▁	-3773
非正常	-3774
鸣叫▁	-3775
ꐯꂴꈌ	-3776
ꐯꐥꂘ	-3777
ꐯꑠꋪ	-3778
27。▁	-3779
41。▁	-3780
65。▁	-3781
;(2)	-3782
chea	-3783
chin	-3784
crow	-3785
end▁	-3786
lean	-3787
oor▁	-3788
phy▁	-3789
「1.▁	-3790
一种野果	-3791
咒猫儿语	-3792
大拇指和	-3793
彝族六祖	-3794
很勇敢▁	-3795
最早出现	-3796
沸水蒸汽	-3797
笃慕第十	-3798
这是一只	-3799
道法自然	-3800
ꈌꀋꐯ▁	-3801
ꐯꉘꁧꈭ	-3802
cloth	-3803
here▁	-3804
lives	-3805
mean▁	-3806
over▁	-3807
park▁	-3808
provi	-3809
today	-3810
主要分布在	-3811
我很高兴▁	-3812
被高温汽水	-3813
非正常死亡	-3814
ꐯꃀꀋꐯ▁	-3815
festiv	-3816
house▁	-3817
range▁	-3818
stitch	-3819
tongue	-3820
中文是主动宾	-3821
彝文是主宾动	-3822
形容个子矮小	-3823
笃慕第十代孙	-3824
设陷阱猎鸟兽	-3825
depend▁	-3826
directi	-3827
gentle▁	-3828
ground▁	-3829
lively▁	-3830
livesto	-3831
serious	-3832
的含义是名词▁	-3833
serious▁	-3834
表示名词的彝文是	-3835
表示名词的彝文字符▁	-3836
16	-3837
dd	-3838
et	-3839
fc	-3840
ip	-3841
不▁	-3842
事做	-3843
交合	-3844
交易	-3845
他▁	-3846
俊俏	-3847
包茅	-3848
发情	-3849
发语	-3850
受格	-3851
叽哩	-3852
吊炕	-3853
听▁	-3854
哎哺	-3855
喝▁	-3856
嚼▁	-3857
坎上	-3858
多大	-3859
大腿	-3860
奋▁	-3861
奶▁	-3862
好梦	-3863
妥鲁	-3864
定▁	-3865
尽管	-3866
展望	-3867
岩石	-3868
年景	-3869
弥觉	-3870
彩页	-3871
愿意	-3872
戏▁	-3873
打扮	-3874
护腿	-3875
拱▁	-3876
掼谷	-3877
搭配	-3878
教你	-3879
数▁	-3880
木头	-3881
枷担	-3882
柜子	-3883
樱桃	-3884
死睡	-3885
沉▁	-3886
浪荡	-3887
渣滓	-3888
火镰	-3889
爽朗	-3890
犁辕	-3891
球状	-3892
瘦▁	-3893
知了	-3894
矩形	-3895
碑刻	-3896
窃衣	-3897
糊状	-3898
组成	-3899
给▁	-3900
绳子	-3901
编▁	-3902
耍赖	-3903
肥▁	-3904
胸膛	-3905
脚▁	-3906
节节	-3907
花样	-3908
茸茸	-3909
血缘	-3910
街道	-3911
衣▁	-3912
观瞻	-3913
讨厌	-3914
语意	-3915
贩卖	-3916
辫子	-3917
连枷	-3918
邀约	-3919
邀请	-3920
醋水	-3921
食品	-3922
驮魂	-3923
鲁朵	-3924
鸭子	-3925
12▁	-3926
380	-3927
459	-3928
589	-3929
ac▁	-3930
af▁	-3931
alw	-3932
bor	-3933
bri	-3934
chi	-3935
cun	-3936
ef▁	-3937
fri	-3938
lie	-3939
ode	-3940
olu	-3941
or▁	-3942
yar	-3943
不得了	-3944
之间的	-3945
傣族▁	-3946
再见▁	-3947
制造▁	-3948
北斗星	-3949
双里的	-3950
啄木鸟	-3951
大后天	-3952
妥鲁博	-3953
宇宙空	-3954
巡回转	-3955
康复▁	-3956
掺和▁	-3957
掼谷槽	-3958
收庄稼	-3959
歌中的	-3960
水井等	-3961
池塘水	-3962
浪费▁	-3963
渐渐▁	-3964
灵活▁	-3965
画画▁	-3966
相对论	-3967
眼药水	-3968
瞧得起	-3969
祖宗的	-3970
16。▁	-3971
18。▁	-3972
19。▁	-3973
22。▁	-3974
28。▁	-3975
48。▁	-3976
60。▁	-3977
73。▁	-3978
Than	-3979
ced▁	-3980
curl	-3981
embr	-3982
ener	-3983
exci	-3984
fast	-3985
led▁	-3986
pole	-3987
sed▁	-3988
ves▁	-3989
古代打仗	-3990
居住治理	-3991
很有精神	-3992
我来教你	-3993
护腿用品	-3994
果子名称	-3995
精气灵气	-3996
阔叶韭菜	-3997
alway	-3998
door▁	-3999
drop▁	-4000
expen	-4001
five▁	-4002
ital▁	-4003
lion▁	-4004
orry▁	-4005
rain▁	-4006
rice▁	-4007
room▁	-4008
宇宙空间的	-4009
Thank▁	-4010
class▁	-4011
clever	-4012
learn▁	-4013
shoes▁	-4014
stick▁	-4015
univer	-4016
今天天气很好	-4017
古代打仗时作	-4018
embrace	-4019
faster▁	-4020
的意思是使动▁	-4021
的意思是古语▁	-4022
clothes▁	-4023
english▁	-4024
excited▁	-4025
through▁	-4026
手用彝文怎么写▁	-4027
果子名称的前缀词	-4028
酒用彝文怎么写▁	-4029
thousand▁	-4030
watching▁	-4031
computing▁	-4032
古代打仗时作护腿用品	-4033
entanglement▁	-4034
cb	-4035
两辈	-4036
为你	-4037
书信	-4038
伙伴	-4039
伙等	-4040
俄索	-4041
保佑	-4042
做▁	-4043
做一	-4044
停放	-4045
公牛	-4046
养▁	-4047
农民	-4048
冰雹	-4049
劈▁	-4050
半▁	-4051
原理	-4052
合生	-4053
向▁	-4054
和你	-4055
场上	-4056
坍缩	-4057
声明	-4058
处于	-4059
妻子	-4060
姊妹	-4061
安宁	-4062
害羞	-4063
家畜	-4064
对不	-4065
对神	-4066
慢慢	-4067
手铐	-4068
找我	-4069
把▁	-4070
拴着	-4071
摊▁	-4072
数据	-4073
明媚	-4074
月经	-4075
材料	-4076
林▁	-4077
查认	-4078
柿子	-4079
歌曲	-4080
汉字	-4081
洗澡	-4082
涧槽	-4083
滇名	-4084
滚▁	-4085
漂▁	-4086
潜▁	-4087
火坑	-4088
爵禄	-4089
父系	-4090
用猪	-4091
疑问	-4092
皱处	-4093
盐巴	-4094
相邻	-4095
砣▁	-4096
破▁	-4097
种的	-4098
穴居	-4099
简单	-4100
脊背	-4101
蓝靛	-4102
讳称	-4103
针线	-4104
铃▁	-4105
露▁	-4106
鸡血	-4107
齐▁	-4108
390	-4109
619	-4110
Hel	-4111
ca▁	-4112
eep	-4113
fli	-4114
lec	-4115
men	-4116
sha	-4117
sme	-4118
tor	-4119
不会产	-4120
世界▁	-4121
兴奋▁	-4122
取火种	-4123
喧哗▁	-4124
垂直的	-4125
将要▁	-4126
小孩子	-4127
弹琴▁	-4128
怀孕▁	-4129
惩治▁	-4130
拌合生	-4131
指动作	-4132
指食品	-4133
早上好	-4134
枯萎▁	-4135
毛茸茸	-4136
游泳▁	-4137
用彝语	-4138
用手指	-4139
的语言	-4140
皮肤褶	-4141
禁忌▁	-4142
紫黑色	-4143
越过▁	-4144
过去式	-4145
通知▁	-4146
遗传▁	-4147
龙胆草	-4148
14。▁	-4149
32。▁	-4150
52。▁	-4151
54。▁	-4152
;4、(	-4153
brow	-4154
ges▁	-4155
huān	-4156
jiao	-4157
stru	-4158
wall	-4159
为你服务	-4160
事做完了	-4161
俗称讨菜	-4162
古代彝族	-4163
多大了▁	-4164
崽的母畜	-4165
当然可以	-4166
母畜发情	-4167
父系血缘	-4168
生血加盐	-4169
相邻两辈	-4170
货币量词	-4171
阳光明媚	-4172
鸡血等的	-4173
Hello	-4174
aroun	-4175
cheap	-4176
chong	-4177
frame	-4178
long▁	-4179
model	-4180
pink▁	-4181
shock	-4182
simil	-4183
study	-4184
人名用词▁	-4185
婴儿皮肤褶	-4186
彝文是美丽	-4187
我很兴奋▁	-4188
香料拌合生	-4189
brown▁	-4190
comfor	-4191
dance▁	-4192
事做完了没有	-4193
传说中的水怪	-4194
onerise	-4195
orange▁	-4196
purple▁	-4197
through	-4198
不会产崽的母畜	-4199
你叫什么名字▁	-4200
婴儿皮肤褶皱处	-4201
的含义是使动▁	-4202
的含义是古语▁	-4203
量子叠加态模型	-4204
brother▁	-4205
language	-4206
station▁	-4207
彝文是美丽的语言	-4208
父系血缘相邻两辈	-4209
的意思是象声词▁	-4210
表示使动的彝文是	-4211
表示古语的彝文是	-4212
马用彝文怎么写▁	-4213
鸡血等的生血加盐	-4214
learning▁	-4215
表示使动的彝文字符▁	-4216
表示古语的彝文字符▁	-4217
comfortable▁	-4218
53	-4219
74	-4220
;)	-4221
bd	-4222
pè	-4223
ul	-4224
丘▁	-4225
东方	-4226
中指	-4227
人熊	-4228
人类	-4229
今▁	-4230
任随	-4231
内容	-4232
出来	-4233
划▁	-4234
制的	-4235
前方	-4236
发烧	-4237
取▁	-4238
古称	-4239
同类	-4240
启用	-4241
哪些	-4242
嘴▁	-4243
器上	-4244
墙壁	-4245
布壳	-4246
建立	-4247
强▁	-4248
恶心	-4249
扇▁	-4250
承受	-4251
把是	-4252
搅▁	-4253
擦▁	-4254
敲▁	-4255
斜▁	-4256
杂草	-4257
果▁	-4258
根部	-4259
模拟	-4260
沉甸	-4261
洋▁	-4262
烂▁	-4263
爵环	-4264
牛犁	-4265
牧▁	-4266
物质	-4267
独特	-4268
猪拱	-4269
皱▁	-4270
神庙	-4271
祭▁	-4272
空间	-4273
粒▁	-4274
缩▁	-4275
肚脐	-4276
胀▁	-4277
背皮	-4278
脖子	-4279
茁壮	-4280
茂盛	-4281
荫▁	-4282
莓▁	-4283
菜苔	-4284
落的	-4285
角▁	-4286
豁▁	-4287
过得	-4288
远方	-4289
退▁	-4290
透明	-4291
野火	-4292
镊子	-4293
陷▁	-4294
雄性	-4295
雾▁	-4296
韧绵	-4297
项项	-4298
馆▁	-4299
鼓起	-4300
1.」	-4301
448	-4302
520	-4303
537	-4304
540	-4305
556	-4306
557	-4307
677	-4308
ab▁	-4309
bel	-4310
cre	-4311
cro	-4312
eb▁	-4313
ec▁	-4314
fir	-4315
fun	-4316
mea	-4317
ray	-4318
sci	-4319
wol	-4320
三菱草	-4321
丑陋▁	-4322
你会说	-4323
你想吃	-4324
做一回	-4325
公园▁	-4326
功能已	-4327
发炎▁	-4328
发语词	-4329
古彝族	-4330
填塞▁	-4331
岩石上	-4332
彝文和	-4333
彝族有	-4334
我想吃	-4335
摔跤▁	-4336
是星期	-4337
暴露▁	-4338
沉甸甸	-4339
牛枷担	-4340
的内容	-4341
磨豆腐	-4342
要翻译	-4343
请输入	-4344
隐瞒▁	-4345
飞翔▁	-4346
齐根部	-4347
46。▁	-4348
64。▁	-4349
crou	-4350
fine	-4351
hate	-4352
pres	-4353
set▁	-4354
sick	-4355
tea▁	-4356
well	-4357
wide	-4358
前缀词素	-4359
含义为是	-4360
和你聊天	-4361
回答问题	-4362
彝文中是	-4363
我在服务	-4364
络绎不绝	-4365
蓝色的▁	-4366
表示叹息	-4367
))).▁	-4368
ally▁	-4369
bank▁	-4370
chang	-4371
chick	-4372
chuan	-4373
data▁	-4374
fire▁	-4375
free▁	-4376
grand	-4377
simul	-4378
squat	-4379
tell▁	-4380
wing▁	-4381
下的彝文是	-4382
功能已启用	-4383
彝语指云南	-4384
我可以聊天	-4385
递给东西的	-4386
china▁	-4387
phone▁	-4388
thorou	-4389
我在服务器上	-4390
要翻译的内容	-4391
随时为你服务	-4392
problem	-4393
彝语指泸西县城	-4394
很高兴和你聊天	-4395
翻译功能已启用	-4396
Goodbye▁	-4397
playing▁	-4398
今天天气怎么样▁	-4399
的含义是象声词▁	-4400
livestock	-4401
彝族先民中最早出现	-4402
表示象声词的彝文是	-4403
请输入要翻译的内容	-4404
表示象声词的彝文字符▁	-4405
;4	-4406
bf	-4407
bo	-4408
cc	-4409
cf	-4410
ga	-4411
hi	-4412
qi	-4413
tt	-4414
ǎn	-4415
丈量	-4416
三个	-4417
下雨	-4418
不如	-4419
两块	-4420
中▁	-4421
中间	-4422
为使	-4423
事▁	-4424
仁▁	-4425
会▁	-4426
作茶	-4427
先▁	-4428
六位	-4429
其花	-4430
农村	-4431
冰▁	-4432
凉山	-4433
创▁	-4434
利用	-4435
卡▁	-4436
即乍	-4437
叫榫	-4438
合▁	-4439
合所	-4440
吹▁	-4441
和广	-4442
四▁	-4443
垫▁	-4444
多指	-4445
子果	-4446
寒冷	-4447
寡▁	-4448
屎▁	-4449
山区	-4450
差▁	-4451
帮▁	-4452
常常	-4453
干▁	-4454
干瘪	-4455
并行	-4456
强行	-4457
怎样	-4458
急火	-4459
房间	-4460
手枪	-4461
抄▁	-4462
捅▁	-4463
插▁	-4464
撒▁	-4465
改变	-4466
方面	-4467
日子	-4468
时▁	-4469
时间	-4470
晚熟	-4471
更加	-4472
服饰	-4473
梅葛	-4474
椒类	-4475
次▁	-4476
津梁	-4477
溅▁	-4478
漏▁	-4479
熏烫	-4480
特地	-4481
的统	-4482
盘江	-4483
磨面	-4484
私房	-4485
突出	-4486
竹等	-4487
笼罩	-4488
簧片	-4489
糖的	-4490
繁茂	-4491
结▁	-4492
给吃	-4493
脱▁	-4494
腰▁	-4495
蒙舍	-4496
虚荣	-4497
蜘蛛	-4498
蝙蝠	-4499
袜子	-4500
规律	-4501
视▁	-4502
贵▁	-4503
越▁	-4504
锐利	-4505
阿迷	-4506
集市	-4507
顺心	-4508
饭盒	-4509
骡子	-4510
高▁	-4511
高祖	-4512
);(	-4513
326	-4514
33▁	-4515
440	-4516
498	-4517
558	-4518
569	-4519
648	-4520
687	-4521
You	-4522
and	-4523
bet	-4524
bla	-4525
bun	-4526
dc▁	-4527
dd▁	-4528
gy▁	-4529
her	-4530
hoe	-4531
ir▁	-4532
laz	-4533
led	-4534
sel	-4535
sub	-4536
tri	-4537
und	-4538
作茶用	-4539
凸出的	-4540
制的凸	-4541
功能▁	-4542
古时曾	-4543
叫榫头	-4544
可能▁	-4545
吃饭▁	-4546
合所特	-4547
同时▁	-4548
味道▁	-4549
很丰富	-4550
悄悄的	-4551
慕阿切	-4552
支系始	-4553
是两个	-4554
有需要	-4555
材料接	-4556
灰彩页	-4557
畜生的	-4558
的统称	-4559
种地▁	-4560
精细的	-4561
织布▁	-4562
表示名	-4563
说话▁	-4564
轻轻的	-4565
这朵花	-4566
进展快	-4567
金属等	-4568
骑马▁	-4569
11。▁	-4570
26。▁	-4571
51。▁	-4572
74。▁	-4573
know	-4574
lapp	-4575
like	-4576
main	-4577
neur	-4578
ory▁	-4579
pray	-4580
roll	-4581
sky▁	-4582
一个比特	-4583
为使两块	-4584
今天过得	-4585
你是谁▁	-4586
兄弟中的	-4587
冬天天气	-4588
夏天天气	-4589
天干的第	-4590
对不起▁	-4591
形容树木	-4592
我很懒▁	-4593
春天天气	-4594
枝叶繁茂	-4595
滇名杉树	-4596
猫的词尾	-4597
用具量词	-4598
用彝语说	-4599
的气味▁	-4600
秋天天气	-4601
随时找我	-4602
Tell▁	-4603
cing▁	-4604
climb	-4605
code▁	-4606
fool▁	-4607
intel	-4608
jing▁	-4609
lazy▁	-4610
sick▁	-4611
stain	-4612
teen▁	-4613
tions	-4614
uses▁	-4615
wind▁	-4616
wool▁	-4617
即乍支系始	-4618
叶子古时曾	-4619
彝文的表达	-4620
我会说彝文	-4621
我很舒服▁	-4622
语气助词▁	-4623
运动的统称	-4624
连续不断地	-4625
lease▁	-4626
older▁	-4627
resolu	-4628
short▁	-4629
tiger▁	-4630
travel	-4631
凸出的叫榫头	-4632
可以同时处于	-4633
合所特制的凸	-4634
未曾生过崽的	-4635
表示语气助词	-4636
Goodbye	-4637
hundred	-4638
lapping	-4639
similar	-4640
sister▁	-4641
welcome	-4642
为使两块材料接	-4643
今天过得怎么样	-4644
地的彝文字符▁	-4645
彝族主要分布在	-4646
有需要随时找我	-4647
chicken▁	-4648
decisive	-4649
younger▁	-4650
叶子古时曾作茶用	-4651
头用彝文怎么写▁	-4652
彝文的表达很丰富	-4653
形容树木枝叶繁茂	-4654
festival▁	-4655
studying▁	-4656
connection	-4657
overlapping	-4658
为使两块材料接合所特制的凸	-4659
as	-4660
三十	-4661
两端	-4662
中生	-4663
之上	-4664
五▁	-4665
亮▁	-4666
仔鸡	-4667
全猪	-4668
全羊	-4669
出生	-4670
制木	-4671
刺▁	-4672
刻▁	-4673
剔▁	-4674
剖肚	-4675
勒俄	-4676
占卜	-4677
又▁	-4678
台▁	-4679
吃草	-4680
合拢	-4681
同意	-4682
后的	-4683
和略	-4684
哭▁	-4685
嘛▁	-4686
地点	-4687
场坝	-4688
城墙	-4689
处▁	-4690
多远	-4691
大方	-4692
天天	-4693
套儿	-4694
女子	-4695
妇女	-4696
完成	-4697
寻觅	-4698
小▁	-4699
尖▁	-4700
尖尖	-4701
帮助	-4702
弟兄	-4703
弯钩	-4704
很▁	-4705
成活	-4706
成熟	-4707
打▁	-4708
扣住	-4709
拼着	-4710
挺▁	-4711
接物	-4712
擂▁	-4713
放▁	-4714
放在	-4715
教我	-4716
昌▁	-4717
更替	-4718
木▁	-4719
本▁	-4720
杀死	-4721
染▁	-4722
桃子	-4723
槽▁	-4724
毛驴	-4725
浅蓝	-4726
满满	-4727
漂流	-4728
灰意	-4729
炎热	-4730
烦▁	-4731
焖▁	-4732
爆炸	-4733
猪羊	-4734
瓢▁	-4735
石板	-4736
砂子	-4737
碎步	-4738
碗▁	-4739
等量	-4740
羊毛	-4741
美▁	-4742
翁宅	-4743
而未	-4744
耗子	-4745
能装	-4746
脑盖	-4747
膀▁	-4748
舂▁	-4749
蜂▁	-4750
衣兜	-4751
记号	-4752
许愿	-4753
走动	-4754
路▁	-4755
跳纱	-4756
还原	-4757
还愿	-4758
进行	-4759
酒颗	-4760
钉▁	-4761
钩子	-4762
铜铃	-4763
锦江	-4764
陡峭	-4765
院▁	-4766
飞驰	-4767
首领	-4768
香▁	-4769
鹿子	-4770
麻▁	-4771
10▁	-4772
14▁	-4773
18▁	-4774
399	-4775
541	-4776
560	-4777
651	-4778
;4;	-4779
aa▁	-4780
air	-4781
ba▁	-4782
bb▁	-4783
gui	-4784
inc	-4785
lig	-4786
luo	-4787
pèi	-4788
sea	-4789
一下▁	-4790
什么时	-4791
他想吃	-4792
关系▁	-4793
凹下的	-4794
凹部分	-4795
出生羊	-4796
剖肚的	-4797
北斗七	-4798
叫榫眼	-4799
和平▁	-4800
和略液	-4801
器物时	-4802
坍缩为	-4803
太阳神	-4804
她想吃	-4805
安宁河	-4806
彩虹▁	-4807
惦念▁	-4808
房子▁	-4809
手机▁	-4810
打猎▁	-4811
抽打▁	-4812
拼搏▁	-4813
收落的	-4814
无中生	-4815
有很多	-4816
杀死退	-4817
母羊对	-4818
滑雪▁	-4819
烧烤▁	-4820
的动作	-4821
的名称	-4822
的套儿	-4823
相对▁	-4824
瞄准▁	-4825
祖宗时	-4826
第二位	-4827
紧挨着	-4828
节省▁	-4829
词头▁	-4830
词缀▁	-4831
软弱▁	-4832
过分▁	-4833
部落名	-4834
鞋子▁	-4835
顺利▁	-4836
马嚼环	-4837
驮魂马	-4838
13。▁	-4839
57。▁	-4840
62。▁	-4841
bury	-4842
des▁	-4843
expl	-4844
ken▁	-4845
list	-4846
pass	-4847
was▁	-4848
wolf	-4849
yang	-4850
yuan	-4851
一种香料	-4852
全猪全羊	-4853
制木竹等	-4854
我们想吃	-4855
满满尖尖	-4856
球状物体	-4857
生长在高	-4858
说话伤人	-4859
量子计算	-4860
阿和略液	-4861
ause▁	-4862
give▁	-4863
know▁	-4864
play▁	-4865
road▁	-4866
smear	-4867
tomor	-4868
under	-4869
weet▁	-4870
两端的长度	-4871
今天是星期	-4872
六祖第二位	-4873
出生羊崽的	-4874
剖肚的猪羊	-4875
天干第一位	-4876
彝文有多少	-4877
收落的庄稼	-4878
教我彝文▁	-4879
climb▁	-4880
dress▁	-4881
proces	-4882
resist	-4883
凹下的叫榫眼	-4884
有什么功能▁	-4885
Please▁	-4886
ations▁	-4887
confine	-4888
farmer▁	-4889
heaven▁	-4890
mother▁	-4891
things▁	-4892
制木竹等器物时	-4893
而未剖肚的猪羊	-4894
because▁	-4895
cooking▁	-4896
intellig	-4897
tention▁	-4898
母羊对出生羊崽的	-4899
父系血缘相邻两辈间的	-4900
characters▁	-4901
confinement	-4902
为使两块材料接合所特制的凸凹部分	-4903
([	-4904
01	-4905
5、	-4906
63	-4907
kō	-4908
lv	-4909
va	-4910
án	-4911
、°	-4912
一天	-4913
七▁	-4914
三▁	-4915
上得	-4916
上无	-4917
下巴	-4918
下弦	-4919
与克	-4920
与稀	-4921
与赤	-4922
世代	-4923
丧棍	-4924
中吊	-4925
举行	-4926
久▁	-4927
乍戈	-4928
乱▁	-4929
亲戚	-4930
从上	-4931
他人	-4932
代表	-4933
传为	-4934
位置	-4935
做嘎	-4936
像枪	-4937
关▁	-4938
兴▁	-4939
其魂	-4940
内弟	-4941
刨▁	-4942
割稻	-4943
北京	-4944
十▁	-4945
单眼	-4946
卖个	-4947
受贿	-4948
叠▁	-4949
口▁	-4950
叶菜	-4951
合伙	-4952
合心	-4953
合缝	-4954
后▁	-4955
后种	-4956
后边	-4957
君王	-4958
呛▁	-4959
和弟	-4960
在楼	-4961
圪塔	-4962
地区	-4963
埋葬	-4964
壶▁	-4965
外婆	-4966
套在	-4967
奢哲	-4968
孝敬	-4969
客▁	-4970
家庭	-4971
密▁	-4972
导火	-4973
导纱	-4974
巴第	-4975
广阔	-4976
弹▁	-4977
形态	-4978
忍▁	-4979
怕▁	-4980
总称	-4981
慌▁	-4982
戒指	-4983
手好	-4984
扫▁	-4985
扳▁	-4986
抽空	-4987
担任	-4988
担保	-4989
拐爪	-4990
挪动	-4991
捂▁	-4992
掌▁	-4993
掐▁	-4994
推动	-4995
搬迁	-4996
搭在	-4997
摆▁	-4998
摩史	-4999
散乱	-5000
敬酒	-5001
斯蜀	-5002
早▁	-5003
是细	-5004
服▁	-5005
朗读	-5006
朽▁	-5007
杆▁	-5008
枝▁	-5009
染衣	-5010
柔荑	-5011
柞桥	-5012
棕▁	-5013
楚雄	-5014
死者	-5015
水塘	-5016
水声	-5017
泥浆	-5018
浆▁	-5019
淹没	-5020
清汤	-5021
濮迂	-5022
灌木	-5023
炉头	-5024
炕架	-5025
煮水	-5026
犯人	-5027
珠▁	-5028
田▁	-5029
电缆	-5030
画眉	-5031
白色	-5032
的名	-5033
的某	-5034
硬把	-5035
祖考	-5036
祛除	-5037
种类	-5038
第六	-5039
粉末	-5040
结构	-5041
结果	-5042
统管	-5043
编制	-5044
罐▁	-5045
耕牧	-5046
耳▁	-5047
肯▁	-5048
腐烂	-5049
腰包	-5050
苗▁	-5051
草坪	-5052
药▁	-5053
赫吐	-5054
辨认	-5055
这本	-5056
送▁	-5057
送给	-5058
都▁	-5059
银杏	-5060
锣▁	-5061
闲人	-5062
雀▁	-5063
颈项	-5064
飘扬	-5065
鬼▁	-5066
鸟在	-5067
鸦▁	-5068
黏胶	-5069
黑▁	-5070
黑痣	-5071
));	-5072
17▁	-5073
273	-5074
379	-5075
389	-5076
4,▁	-5077
479	-5078
519	-5079
559	-5080
597	-5081
657	-5082
659	-5083
Do▁	-5084
add	-5085
bar	-5086
cc▁	-5087
cd▁	-5088
diā	-5089
eat	-5090
fa▁	-5091
fd▁	-5092
lan	-5093
lax	-5094
mal	-5095
mào	-5096
pri	-5097
rab	-5098
six	-5099
spo	-5100
tru	-5101
twi	-5102
two	-5103
vil	-5104
xun	-5105
一项项	-5106
上得皮	-5107
上无限	-5108
与克博	-5109
与汉字	-5110
与赤芤	-5111
专指狗	-5112
专指羊	-5113
中的震	-5114
为乌撒	-5115
今威宁	-5116
像枪弹	-5117
割稻谷	-5118
十一位	-5119
博乍戈	-5120
后传为	-5121
吻小孩	-5122
和弟的	-5123
咽喉▁	-5124
哭丧棍	-5125
土染料	-5126
垦后种	-5127
城市▁	-5128
女子对	-5129
姐姐▁	-5130
家庭中	-5131
寒山区	-5132
山羊▁	-5133
干瞪眼	-5134
彝族祭	-5135
彝语▁	-5136
很大▁	-5137
恩情▁	-5138
我们▁	-5139
挑拨▁	-5140
掉灰尘	-5141
斑鸠▁	-5142
有关系	-5143
果子狸	-5144
果子的	-5145
海边▁	-5146
游手好	-5147
生病▁	-5148
用水塘	-5149
用镰刀	-5150
的种子	-5151
看书▁	-5152
破烂▁	-5153
祭牲▁	-5154
祭献▁	-5155
福禄神	-5156
空闲▁	-5157
篱笆▁	-5158
自然成	-5159
花园▁	-5160
花序▁	-5161
荞圪塔	-5162
表示树	-5163
表示线	-5164
表示衣	-5165
表示饭	-5166
让别人	-5167
跑步▁	-5168
车站▁	-5169
里的黑	-5170
重要▁	-5171
量子态	-5172
零碎碎	-5173
韭菜▁	-5174
预备▁	-5175
风箱▁	-5176
骄傲▁	-5177
高大▁	-5178
53。▁	-5179
72。▁	-5180
QSM▁	-5181
Sure	-5182
ace▁	-5183
bag▁	-5184
colo	-5185
disc	-5186
fore	-5187
hosp	-5188
huan	-5189
ity▁	-5190
mech	-5191
rock	-5192
see▁	-5193
shao	-5194
snow	-5195
worm	-5196
writ	-5197
zong	-5198
「(1、	-5199
一个部落	-5200
一种灌木	-5201
上的炕架	-5202
东西送给	-5203
中吊在楼	-5204
做什么▁	-5205
农历的某	-5206
凑在一起	-5207
后的状况	-5208
地方政权	-5209
多个状态	-5210
学上无限	-5211
巴第赫吐	-5212
彝语专用	-5213
彝语属于	-5214
彝语贵州	-5215
形容朗读	-5216
我有一个	-5217
或者卖个	-5218
或者叙述	-5219
扣住纽扣	-5220
支系名称	-5221
收割稻谷	-5222
旧彝族祭	-5223
杀死退毛	-5224
汉文记载	-5225
用于染衣	-5226
表示牲畜	-5227
表示词缀	-5228
语气词▁	-5229
零零碎碎	-5230
食物腐烂	-5231
鲁岱同为	-5232
diāo▁	-5233
dream	-5234
drill	-5235
eagle	-5236
lanlv	-5237
memor	-5238
much▁	-5239
multi	-5240
port▁	-5241
relax	-5242
ripe▁	-5243
text▁	-5244
twist	-5245
一个部族名	-5246
一种脱粒的	-5247
像枪弹飞驰	-5248
口径小编制	-5249
古代彝族的	-5250
古代部落名	-5251
和弟的总称	-5252
彝语指昆明	-5253
形容嚼食物	-5254
支系的名称	-5255
时作脱粒的	-5256
是蓝色的▁	-5257
柔荑花序▁	-5258
的意思是牛	-5259
的第二君王	-5260
精细的篾箩	-5261
经典计算机	-5262
表示语气词	-5263
里的黑泥浆	-5264
));3、(	-5265
Sorry▁	-5266
calend	-5267
color▁	-5268
import	-5269
resent	-5270
thing▁	-5271
一个部族名称	-5272
农村中吊在楼	-5273
即乍支系始祖	-5274
大拇指和中指	-5275
女子对家庭中	-5276
学上无限花序	-5277
彝语指安宁河	-5278
彝语贵州威宁	-5279
旧彝族祭死者	-5280
炉头上的炕架	-5281
的意思是人▁	-5282
的意思是花▁	-5283
硬把东西送给	-5284
表示农历的某	-5285
连续不断地来	-5286
香料拌合生吃	-5287
garden▁	-5288
mechani	-5289
morning	-5290
neural▁	-5291
spoken▁	-5292
states▁	-5293
underst	-5294
一种脱粒的农具	-5295
地支的第十一位	-5296
扣住纽扣的套儿	-5297
时作脱粒的用具	-5298
汉文记载为乌撒	-5299
生长在高寒山区	-5300
量子纠缠是两个	-5301
network▁	-5302
后传为彝族支系名	-5303
吻小孩发出的声音	-5304
张开大拇指和中指	-5305
彝语专用名词用词	-5306
形容嚼食物的动作	-5307
形容朗读或者叙述	-5308
用水塘里的黑泥浆	-5309
等用彝文怎么写▁	-5310
食物腐烂后的状况	-5311
questions	-5312
古彝人的一个部族名	-5313
数词用彝文怎么写▁	-5314
母羊对出生羊崽的舔	-5315
important▁	-5316
mountains▁	-5317
口径小编制精细的篾箩	-5318
硬把东西送给或者卖个	-5319
playground▁	-5320
专指母羊对出生羊崽的舔	-5321
收割稻谷时作脱粒的用具	-5322
杀死退毛而未剖肚的猪羊	-5323
重叠词缀用彝文怎么写▁	-5324
张开大拇指和中指两端的长度	-5325
DN	-5326
aa	-5327
ju	-5328
下方	-5329
不知	-5330
亲近	-5331
传唤	-5332
倒下	-5333
像▁	-5334
光速	-5335
公马	-5336
关联	-5337
努力	-5338
压▁	-5339
古糯	-5340
吐▁	-5341
哨子	-5342
唇▁	-5343
嗷嗷	-5344
器▁	-5345
图书	-5346
在火	-5347
坐▁	-5348
坐下	-5349
堵▁	-5350
套▁	-5351
女▁	-5352
婢▁	-5353
嫁▁	-5354
对歌	-5355
小便	-5356
展▁	-5357
巢胃	-5358
师▁	-5359
心胸	-5360
感▁	-5361
批▁	-5362
挂▁	-5363
捏▁	-5364
措施	-5365
摇动	-5366
撩▁	-5367
擀▁	-5368
放出	-5369
无论	-5370
日▁	-5371
星星	-5372
是能	-5373
来了	-5374
沾湿	-5375
流利	-5376
消灭	-5377
满▁	-5378
烙▁	-5379
牙▁	-5380
物理	-5381
甩开	-5382
电▁	-5383
疮▁	-5384
瘿袋	-5385
白酒	-5386
的过	-5387
盯着	-5388
相同	-5389
眼前	-5390
眼屎	-5391
礼里	-5392
福▁	-5393
秋天	-5394
积水	-5395
笑声	-5396
筹莫	-5397
签▁	-5398
粉青	-5399
系▁	-5400
红的	-5401
草垫	-5402
草海	-5403
荡▁	-5404
营养	-5405
蕾▁	-5406
裂▁	-5407
认为	-5408
让开	-5409
话▁	-5410
语法	-5411
说法	-5412
赎▁	-5413
走开	-5414
超▁	-5415
足球	-5416
跨▁	-5417
转移	-5418
逗乐	-5419
遍▁	-5420
铃薯	-5421
链接	-5422
锈▁	-5423
阿美	-5424
面前	-5425
鞋子	-5426
音乐	-5427
领导	-5428
风骚	-5429
马鞍	-5430
骂▁	-5431
魔术	-5432
󲡡▁	-5433
󲧪▁	-5434
󳋁▁	-5435
󳔓▁	-5436
󳕡▁	-5437
(1▁	-5438
00▁	-5439
13▁	-5440
16▁	-5441
343	-5442
409	-5443
460	-5444
469	-5445
480	-5446
551	-5447
654	-5448
661	-5449
669	-5450
;4、	-5451
DNA	-5452
No▁	-5453
bat	-5454
bd▁	-5455
bei	-5456
bf▁	-5457
bit	-5458
car	-5459
cor	-5460
exp	-5461
fec	-5462
fru	-5463
ilo	-5464
kōu	-5465
mou	-5466
pie	-5467
unn	-5468
vir	-5469
whi	-5470
三兄弟	-5471
不好▁	-5472
东西▁	-5473
习惯▁	-5474
价格▁	-5475
佩服▁	-5476
加马桑	-5477
勾引▁	-5478
医院▁	-5479
发音是	-5480
吉利▁	-5481
呕吐▁	-5482
和广西	-5483
喳蓬蓬	-5484
嚎嗷嗷	-5485
埋怨▁	-5486
外祖母	-5487
大方城	-5488
孝帕▁	-5489
学校▁	-5490
山上▁	-5491
市场▁	-5492
开车▁	-5493
心灰意	-5494
惬意草	-5495
指植物	-5496
收缩▁	-5497
机场▁	-5498
村庄▁	-5499
楚雄唱	-5500
毡子▁	-5501
河边▁	-5502
泥土▁	-5503
渣蓬蓬	-5504
潮湿▁	-5505
熟了的	-5506
物体落	-5507
牲畜▁	-5508
的过程	-5509
盯着看	-5510
石头▁	-5511
祈求解	-5512
祷告▁	-5513
窃衣草	-5514
粉青色	-5515
紫红色	-5516
红红的	-5517
绞痛▁	-5518
继续▁	-5519
老师▁	-5520
节节草	-5521
花白色	-5522
蜂巢胃	-5523
表示天	-5524
表示气	-5525
超市▁	-5526
还原物	-5527
食用肉	-5528
马拴着	-5529
17。▁	-5530
70。▁	-5531
84。▁	-5532
Are▁	-5533
See▁	-5534
clou	-5535
cong	-5536
kes▁	-5537
libr	-5538
mone	-5539
pron	-5540
qian	-5541
rain	-5542
trap	-5543
不灵活▁	-5544
什么时候	-5545
价格便宜	-5546
北斗七星	-5547
图书馆▁	-5548
处理信息	-5549
天干第七	-5550
套在额头	-5551
搭在马鞍	-5552
文字系统	-5553
无中生有	-5554
旧时迷信	-5555
有什么区	-5556
白色的▁	-5557
的一种调	-5558
的发音是	-5559
盛粮食的	-5560
睛盯着看	-5561
表示沾湿	-5562
表示疑问	-5563
Nice▁	-5564
cook▁	-5565
farm▁	-5566
funda	-5567
live▁	-5568
measu	-5569
night	-5570
sive▁	-5571
villa	-5572
ween▁	-5573
went▁	-5574
word▁	-5575
一种土染料	-5576
什么语言▁	-5577
加马桑煮水	-5578
地名用词▁	-5579
天干第四位	-5580
彝语指贵州	-5581
指植物果实	-5582
接物发语词	-5583
物体落水声	-5584
用于染衣物	-5585
用以表示马	-5586
的前缀词素	-5587
的意思是马	-5588
贵州和广西	-5589
连接在一起	-5590
Sweet▁	-5591
cious▁	-5592
classi	-5593
dreams	-5594
elder▁	-5595
instru	-5596
listen	-5597
pping▁	-5598
shaoji	-5599
sickle	-5600
speed▁	-5601
state▁	-5602
system	-5603
transm	-5604
which▁	-5605
works▁	-5606
一种野果的名	-5607
兄和弟的总称	-5608
可以聊天吗▁	-5609
垦后种熟了的	-5610
旧时迷信说法	-5611
的含义是人▁	-5612
的含义是花▁	-5613
背物套在额头	-5614
brother	-5615
earnest	-5616
forehea	-5617
leaves▁	-5618
memory▁	-5619
mental▁	-5620
ounced▁	-5621
riding▁	-5622
stumble	-5623
彝族六祖的第五	-5624
楚雄唱的一种调	-5625
的意思是数词▁	-5626
的第二支系名称	-5627
第六支系的名称	-5628
表示人的彝文是	-5629
表示花的彝文是	-5630
鲁岱同为三兄弟	-5631
airport▁	-5632
beijing▁	-5633
endless▁	-5634
library▁	-5635
process▁	-5636
provide▁	-5637
walking▁	-5638
你会说什么语言▁	-5639
农村中吊在楼底下	-5640
在火炉头上的炕架	-5641
彝语指贵州大方城	-5642
彝语贵州威宁草海	-5643
植物学上无限花序	-5644
毛用彝文怎么写▁	-5645
起用彝文怎么写▁	-5646
面用彝文怎么写▁	-5647
食用肉的前缀词素	-5648
麻用彝文怎么写▁	-5649
hospital▁	-5650
古代彝族的一个部落	-5651
的含义是重叠词缀▁	-5652
的意思是重叠词缀▁	-5653
背物套在额头上得皮	-5654
表示人的彝文字符▁	-5655
表示花的彝文字符▁	-5656
accompany▁	-5657
classical▁	-5658
operating▁	-5659
形容朗读或者叙述流利	-5660
表示重叠词缀的彝文是	-5661
pronounced▁	-5662
植物学上无限花序的一种	-5663
fundamental▁	-5664
女子对家庭中兄和弟的总称	-5665
表示重叠词缀的彝文字符▁	-5666
intelligence▁	-5667
75	-5668
jǐ	-5669
ze	-5670
不是	-5671
不欲	-5672
专门	-5673
且舍	-5674
世道	-5675
世间	-5676
丝瓜	-5677
丰满	-5678
为▁	-5679
乌马	-5680
从▁	-5681
他去	-5682
代音	-5683
债▁	-5684
八卦	-5685
凶兆	-5686
击打	-5687
分▁	-5688
别纳	-5689
到▁	-5690
努罗	-5691
勿施	-5692
十字	-5693
卫生	-5694
双手	-5695
发髻	-5696
口齿	-5697
吉祥	-5698
团的	-5699
围席	-5700
外甥	-5701
夜▁	-5702
大仓	-5703
天空	-5704
失▁	-5705
头帕	-5706
奇数	-5707
媒人	-5708
完全	-5709
射▁	-5710
工▁	-5711
己所	-5712
希幕	-5713
干草	-5714
床▁	-5715
延申	-5716
恐▁	-5717
慢跑	-5718
戳▁	-5719
扣▁	-5720
扯▁	-5721
抠▁	-5722
护膝	-5723
拙脚	-5724
拾▁	-5725
挂念	-5726
按▁	-5727
掏▁	-5728
推测	-5729
措博	-5730
摇▁	-5731
撞▁	-5732
救▁	-5733
敲打	-5734
是工	-5735
有八	-5736
木叶	-5737
木炭	-5738
杀▁	-5739
柚栗	-5740
梳子	-5741
模子	-5742
母鸡	-5743
毛毛	-5744
民间	-5745
气愤	-5746
水在	-5747
水痘	-5748
沼泽	-5749
深潭	-5750
游▁	-5751
潭▁	-5752
灯芯	-5753
灾星	-5754
烟酒	-5755
爱▁	-5756
牢▁	-5757
犁坯	-5758
猜测	-5759
瘤子	-5760
瘪▁	-5761
白薯	-5762
看电	-5763
砸▁	-5764
磨石	-5765
神经	-5766
祭天	-5767
稀▁	-5768
稀泥	-5769
空壳	-5770
空洞	-5771
立▁	-5772
竹簾	-5773
箭▁	-5774
簇拥	-5775
细▁	-5776
结巴	-5777
绵韧	-5778
网络	-5779
罪过	-5780
而不	-5781
胳膊	-5782
腿▁	-5783
舒适	-5784
芽糖	-5785
若干	-5786
蒸▁	-5787
蓝▁	-5788
蚂蚁	-5789
蝌蚪	-5790
行在	-5791
规整	-5792
诅咒	-5793
请求	-5794
豌豆	-5795
赶上	-5796
轻率	-5797
过头	-5798
过的	-5799
道理	-5800
那么	-5801
部下	-5802
野苕	-5803
门和	-5804
闹▁	-5805
骨朵	-5806
髓▁	-5807
魂魄	-5808
鼓▁	-5809
󲟽▁	-5810
󲡘▁	-5811
󲡯▁	-5812
󲡿▁	-5813
󲢟▁	-5814
󲢡▁	-5815
󲣥▁	-5816
󲥓▁	-5817
󲧯▁	-5818
󲨯▁	-5819
󲨿▁	-5820
󲯨▁	-5821
󲷦▁	-5822
󲸴▁	-5823
󲻕▁	-5824
󲼯▁	-5825
󲼰▁	-5826
󳄫▁	-5827
󳆤▁	-5828
󳔉▁	-5829
󳕓▁	-5830
󳕕▁	-5831
,2、	-5832
11▁	-5833
2,▁	-5834
322	-5835
41▁	-5836
458	-5837
46▁	-5838
490	-5839
52▁	-5840
547	-5841
568	-5842
620	-5843
637	-5844
679	-5845
70▁	-5846
72▁	-5847
75▁	-5848
88▁	-5849
95▁	-5850
;",	-5851
ae▁	-5852
cb▁	-5853
cf▁	-5854
df▁	-5855
dy▁	-5856
ele	-5857
fb▁	-5858
fc▁	-5859
ffi	-5860
ft▁	-5861
ite	-5862
mac	-5863
out	-5864
wei	-5865
世代名	-5866
书包▁	-5867
侍从▁	-5868
债务▁	-5869
儿媳妇	-5870
凝固▁	-5871
刮风▁	-5872
刺绣▁	-5873
力学的	-5874
助词▁	-5875
勿施于	-5876
十字镐	-5877
印章▁	-5878
古人名	-5879
声明▁	-5880
声音▁	-5881
外甥女	-5882
夭折▁	-5883
威望▁	-5884
对神灵	-5885
希幕遮	-5886
帽子▁	-5887
帽子是	-5888
并排▁	-5889
很顽强	-5890
悲恸▁	-5891
意思是	-5892
感觉▁	-5893
慎重▁	-5894
成团的	-5895
房子是	-5896
拙脚笨	-5897
推动▁	-5898
收拢▁	-5899
放牧▁	-5900
故事▁	-5901
斑茅草	-5902
断定▁	-5903
无力气	-5904
是我们	-5905
来由▁	-5906
柜子▁	-5907
模样▁	-5908
比特门	-5909
水蒸气	-5910
注意▁	-5911
浑浊▁	-5912
消瘦▁	-5913
漂亮▁	-5914
火神庙	-5915
点措博	-5916
甄子▁	-5917
生气▁	-5918
用的▁	-5919
疾病▁	-5920
的地方	-5921
皇帝▁	-5922
盖头帕	-5923
祖灵▁	-5924
祖禄▁	-5925
称呼▁	-5926
立即▁	-5927
细努罗	-5928
考虑▁	-5929
肚子▁	-5930
背部▁	-5931
菜苔▁	-5932
表示动	-5933
表示嘴	-5934
表示土	-5935
表示酒	-5936
赶紧▁	-5937
超市的	-5938
踪迹▁	-5939
轻轻地	-5940
这本书	-5941
这朵车	-5942
这朵鞋	-5943
避免▁	-5944
酸木瓜	-5945
银行在	-5946
阳世间	-5947
阿别纳	-5948
阿美妮	-5949
雄锦鸡	-5950
霹雳▁	-5951
青木叶	-5952
骟过的	-5953
麦芽糖	-5954
鼻涕▁	-5955
));」	-5956
000▁	-5957
69。▁	-5958
71。▁	-5959
82。▁	-5960
88。▁	-5961
acti	-5962
bran	-5963
cold	-5964
four	-5965
hist	-5966
name	-5967
phon	-5968
prin	-5969
sit▁	-5970
son▁	-5971
sunn	-5972
与稀相对	-5973
义相对论	-5974
多指房间	-5975
天地之间	-5976
小母山羊	-5977
己所不欲	-5978
布的量词	-5979
彝族民间	-5980
形容编织	-5981
操作系统	-5982
是彝族最	-5983
清晰之声	-5984
游手好闲	-5985
色的花▁	-5986
色的车▁	-5987
表示重字	-5988
认为这是	-5989
这朵书包	-5990
这朵手机	-5991
这朵衣服	-5992
));'▁	-5993
also▁	-5994
ance▁	-5995
angsh	-5996
ated▁	-5997
bags▁	-5998
ball▁	-5999
belie	-6000
broad	-6001
burst	-6002
cheng	-6003
cial▁	-6004
devel	-6005
earth	-6006
hats▁	-6007
life▁	-6008
lity▁	-6009
male▁	-6010
more▁	-6011
ream▁	-6012
shake	-6013
snow▁	-6014
space	-6015
strip	-6016
trans	-6017
wrap▁	-6018
两者之间▁	-6019
等的彝文是	-6020
翻译彝文▁	-6021
色的书包▁	-6022
色的帽子▁	-6023
色的房子▁	-6024
色的手机▁	-6025
色的衣服▁	-6026
色的鞋子▁	-6027
让别人知道	-6028
这朵帽子是	-6029
这朵房子是	-6030
这朵鞋子是	-6031
assist	-6032
human▁	-6033
large▁	-6034
mming▁	-6035
money▁	-6036
seven▁	-6037
一个量子系统	-6038
像枪弹飞驰声	-6039
彝文怎么说▁	-6040
形容编织粗糙	-6041
认为这是凶兆	-6042
银行在超市的	-6043
called▁	-6044
dresss▁	-6045
graphy▁	-6046
houses▁	-6047
inexpen	-6048
liangsh	-6049
phones▁	-6050
shoess▁	-6051
地的彝文写法是	-6052
己所不欲勿施于	-6053
的含义是数词▁	-6054
resolute	-6055
village▁	-6056
心用彝文怎么写▁	-6057
树用彝文怎么写▁	-6058
表示数词的彝文是	-6059
饭用彝文怎么写▁	-6060
assistant	-6061
multiple▁	-6062
attention▁	-6063
liangshan▁	-6064
listening▁	-6065
可以同时处于多个状态	-6066
彝族民间认为这是凶兆	-6067
表示数词的彝文字符▁	-6068
3(	-6069
一样	-6070
丈▁	-6071
与熟	-6072
两▁	-6073
乌▁	-6074
九▁	-6075
争夺	-6076
云▁	-6077
亲▁	-6078
他有	-6079
付▁	-6080
任务	-6081
作主	-6082
依▁	-6083
修▁	-6084
催▁	-6085
入▁	-6086
六▁	-6087
再生	-6088
写▁	-6089
冠▁	-6090
凑在	-6091
力气	-6092
办▁	-6093
勒▁	-6094
卧下	-6095
原因	-6096
又名	-6097
吃饭	-6098
后仰	-6099
吹奏	-6100
响另	-6101
嘟▁	-6102
嚼不	-6103
够▁	-6104
天上	-6105
头目	-6106
她们	-6107
娶▁	-6108
小米	-6109
尸▁	-6110
尽▁	-6111
峨山	-6112
崴▁	-6113
平▁	-6114
底肥	-6115
弓▁	-6116
弱▁	-6117
怜▁	-6118
思索	-6119
您▁	-6120
打一	-6121
扔▁	-6122
承揽	-6123
挪▁	-6124
掼▁	-6125
整治	-6126
方形	-6127
春▁	-6128
晴朗	-6129
松弛	-6130
枣红	-6131
株▁	-6132
核▁	-6133
汉藏	-6134
泪▁	-6135
熄灭	-6136
熊▁	-6137
牛奶	-6138
牛的	-6139
生命	-6140
用字	-6141
甩▁	-6142
界▁	-6143
白杨	-6144
的河	-6145
盆▁	-6146
盛饭	-6147
相信	-6148
短▁	-6149
秃▁	-6150
租▁	-6151
积▁	-6152
稳当	-6153
等候	-6154
筷子	-6155
粒子	-6156
粪▁	-6157
索梯	-6158
绒▁	-6159
缝接	-6160
翘▁	-6161
耕索	-6162
肋▁	-6163
肥肉	-6164
胆▁	-6165
脐▁	-6166
舞▁	-6167
船▁	-6168
草莓	-6169
蜷▁	-6170
请▁	-6171
贪▁	-6172
踏▁	-6173
软▁	-6174
输▁	-6175
辣▁	-6176
迈▁	-6177
这里	-6178
逗▁	-6179
醒▁	-6180
采▁	-6181
野葱	-6182
锁▁	-6183
问▁	-6184
阿▁	-6185
驾▁	-6186
麻风	-6187
黑洞	-6188
󲟠▁	-6189
󲟣▁	-6190
󲟳▁	-6191
󲟵▁	-6192
󲠁▁	-6193
󲠌▁	-6194
󲠝▁	-6195
󲠮▁	-6196
󲠱▁	-6197
󲠵▁	-6198
󲡅▁	-6199
󲡙▁	-6200
󲡭▁	-6201
󲢗▁	-6202
󲢧▁	-6203
󲢼▁	-6204
󲣌▁	-6205
󲣣▁	-6206
󲤟▁	-6207
󲤽▁	-6208
󲥑▁	-6209
󲥫▁	-6210
󲪗▁	-6211
󲪵▁	-6212
󲫎▁	-6213
󲫢▁	-6214
󲫳▁	-6215
󲯩▁	-6216
󲰑▁	-6217
󲱷▁	-6218
󲲈▁	-6219
󲳣▁	-6220
󲳹▁	-6221
󲳻▁	-6222
󲴻▁	-6223
󲵣▁	-6224
󲶙▁	-6225
󲷅▁	-6226
󲹙▁	-6227
󲻂▁	-6228
󲽶▁	-6229
󲽿▁	-6230
󲾭▁	-6231
󳀣▁	-6232
󳁴▁	-6233
󳁻▁	-6234
󳁽▁	-6235
󳁾▁	-6236
󳂕▁	-6237
󳂞▁	-6238
󳂵▁	-6239
󳃋▁	-6240
󳄄▁	-6241
󳅜▁	-6242
󳆕▁	-6243
󳆗▁	-6244
󳆦▁	-6245
󳇈▁	-6246
󳈦▁	-6247
󳉁▁	-6248
󳉤▁	-6249
󳊿▁	-6250
󳋭▁	-6251
󳍋▁	-6252
󳍿▁	-6253
󳎓▁	-6254
󳏗▁	-6255
󳑙▁	-6256
󳑛▁	-6257
󳑮▁	-6258
󳒇▁	-6259
󳒫▁	-6260
󳓙▁	-6261
󳓣▁	-6262
󳔕▁	-6263
󳔩▁	-6264
󳔱▁	-6265
󳕦▁	-6266
󳖇▁	-6267
󳖯▁	-6268
󳖻▁	-6269
󳗐▁	-6270
󳗸▁	-6271
󳛎▁	-6272
󳛻▁	-6273
󳜁▁	-6274
󳜊▁	-6275
15▁	-6276
19▁	-6277
420	-6278
438	-6279
451	-6280
470	-6281
536	-6282
552	-6283
579	-6284
580	-6285
590	-6286
608	-6287
610	-6288
631	-6289
650	-6290
689	-6291
86▁	-6292
;)」	-6293
;5、	-6294
ai▁	-6295
ane	-6296
cce	-6297
ded	-6298
flo	-6299
leo	-6300
liz	-6301
oth	-6302
ox▁	-6303
ple	-6304
pm▁	-6305
saw	-6306
spi	-6307
thi	-6308
tuo	-6309
war	-6310
、2、	-6311
上下滑	-6312
世道乱	-6313
丢弃▁	-6314
为什么	-6315
为建立	-6316
之上▁	-6317
五行数	-6318
仇怨▁	-6319
传承▁	-6320
传染▁	-6321
伯父▁	-6322
住宿▁	-6323
使干净	-6324
倒塌▁	-6325
偷盗▁	-6326
免疫▁	-6327
八角▁	-6328
分数▁	-6329
制作▁	-6330
动物▁	-6331
医生▁	-6332
单眼皮	-6333
发烧▁	-6334
发音词	-6335
口袋▁	-6336
叹息声	-6337
合一▁	-6338
向后仰	-6339
吹奏的	-6340
回忆▁	-6341
地支数	-6342
处理多	-6343
夸口▁	-6344
学而不	-6345
容易▁	-6346
富裕▁	-6347
导火线	-6348
小时▁	-6349
山谷▁	-6350
工匠▁	-6351
影响另	-6352
愁闷▁	-6353
意为是	-6354
愿意▁	-6355
我有一	-6356
折叠▁	-6357
抚摸▁	-6358
抽空▁	-6359
摇晃▁	-6360
摔倒▁	-6361
政权而	-6362
敏捷▁	-6363
文字▁	-6364
旁边▁	-6365
明白▁	-6366
是连接	-6367
更替▁	-6368
有八万	-6369
杆乐器	-6370
柚栗子	-6371
植物的	-6372
榫头▁	-6373
樟木树	-6374
泡木树	-6375
港湾▁	-6376
灰叶菜	-6377
灰尘▁	-6378
爱惜▁	-6379
牢固▁	-6380
牺牲▁	-6381
的历史	-6382
的餐具	-6383
祭祀▁	-6384
积水▁	-6385
空旷▁	-6386
突出▁	-6387
等候▁	-6388
等量▁	-6389
答应▁	-6390
筹莫展	-6391
细微▁	-6392
缠绕▁	-6393
耽搁▁	-6394
胎子▁	-6395
能装▁	-6396
舅舅▁	-6397
英语▁	-6398
茁壮▁	-6399
藤子▁	-6400
虱子▁	-6401
蚂蝗▁	-6402
螳螂▁	-6403
裙子▁	-6404
计谋▁	-6405
超度▁	-6406
较量▁	-6407
辨别▁	-6408
逗乐▁	-6409
部位▁	-6410
钱财▁	-6411
铺设▁	-6412
镊子▁	-6413
雄伟▁	-6414
零碎▁	-6415
饲养▁	-6416
ꐯꃅꏬ	-6417
((1)	-6418
);.▁	-6419
63。▁	-6420
76。▁	-6421
Way▁	-6422
art▁	-6423
bore	-6424
crop	-6425
gen▁	-6426
ingu	-6427
its▁	-6428
jian	-6429
king	-6430
lar▁	-6431
nian	-6432
row▁	-6433
run▁	-6434
sion	-6435
slip	-6436
teng	-6437
ths▁	-6438
tifi	-6439
walk	-6440
with	-6441
yege	-6442
yunn	-6443
zhou	-6444
从上下滑	-6445
在一起▁	-6446
天干第二	-6447
彝族祭祀	-6448
心灰意冷	-6449
散开吃草	-6450
是老师▁	-6451
汉藏语系	-6452
泛指家畜	-6453
蟋蟀叫声	-6454
表意文字	-6455
表示可惜	-6456
表示螳螂	-6457
这朵花是	-6458
这朵车是	-6459
ꈭꐯꆸꄻ	-6460
ꐯꆸꐯ▁	-6461
ꐯꐯꃅꏬ	-6462
angha	-6463
armor	-6464
back▁	-6465
bunch	-6466
degre	-6467
deten	-6468
discu	-6469
draw▁	-6470
float	-6471
food▁	-6472
gener	-6473
hard▁	-6474
ings▁	-6475
ject▁	-6476
loose	-6477
most▁	-6478
open▁	-6479
orts▁	-6480
reap▁	-6481
ride▁	-6482
succe	-6483
swim▁	-6484
twent	-6485
wait▁	-6486
地支第八位	-6487
地支第六位	-6488
天干第七位	-6489
天干第八位	-6490
彝语称个旧	-6491
政权而祭天	-6492
的传统节日	-6493
盛饭的餐具	-6494
这朵书包是	-6495
这朵手机是	-6496
这朵衣服是	-6497
量子纠缠▁	-6498
首领为建立	-6499
crouch	-6500
drive▁	-6501
esday▁	-6502
fruit▁	-6503
grandf	-6504
ledge▁	-6505
leopar	-6506
model▁	-6507
month▁	-6508
mother	-6509
progra	-6510
tains▁	-6511
their▁	-6512
torch▁	-6513
weave▁	-6514
的意思是手▁	-6515
的意思是眼▁	-6516
ꈭꐯꑿꅐꍔ▁	-6517
crowded	-6518
eating▁	-6519
father▁	-6520
others▁	-6521
shangha	-6522
should▁	-6523
一种野果的名字	-6524
庄稼地里的杂草	-6525
开垦后种熟了的	-6526
ꐯꐯꃅꏬꐯꆸꄻ	-6527
between▁	-6528
dancing▁	-6529
fishing▁	-6530
resting▁	-6531
slanted▁	-6532
washing▁	-6533
without▁	-6534
written▁	-6535
天用彝文怎么写▁	-6536
开用彝文怎么写▁	-6537
彝文中怎么表达是	-6538
表示农历的某一天	-6539
chatting▁	-6540
cleaning▁	-6541
networks▁	-6542
shopping▁	-6543
古代彝族首领为建立	-6544
gardening▁	-6545
traveling▁	-6546
背物套在额头上得皮带	-6547
grandmother	-6548
硬把东西送给或者卖个别人	-6549
古代彝族首领为建立政权而祭天	-6550
一个量子系统可以同时处于多个状态	-6551
=▁	-6552
Su	-6553
ae	-6554
bb	-6555
cd	-6556
fd	-6557
fl	-6558
hy	-6559
「󲻤	-6560
「󳔐	-6561
七千	-6562
不足	-6563
世孙	-6564
丛很	-6565
佑▁	-6566
你去	-6567
例如	-6568
俗名	-6569
保持	-6570
假▁	-6571
傻眼	-6572
元▁	-6573
六月	-6574
军▁	-6575
办公	-6576
化▁	-6577
即是	-6578
变▁	-6579
司令	-6580
周▁	-6581
和▁	-6582
响▁	-6583
唤▁	-6584
啸▁	-6585
噢▁	-6586
器材	-6587
圆木	-6588
土▁	-6589
垂落	-6590
大针	-6591
奶奶	-6592
完▁	-6593
客人	-6594
导致	-6595
左方	-6596
建的	-6597
彝▁	-6598
影▁	-6599
心里	-6600
忆▁	-6601
怪▁	-6602
恶▁	-6603
悲观	-6604
我就	-6605
手镯	-6606
找▁	-6607
抬▁	-6608
挣脱	-6609
挤▁	-6610
损▁	-6611
掀▁	-6612
摸▁	-6613
播▁	-6614
数学	-6615
旧▁	-6616
明天	-6617
映▁	-6618
春天	-6619
是凹	-6620
是指	-6621
是捏	-6622
是搂	-6623
是概	-6624
是烙	-6625
曲涅	-6626
末▁	-6627
朵▁	-6628
杵▁	-6629
松球	-6630
某些	-6631
柴头	-6632
根本	-6633
棺▁	-6634
楼▁	-6635
欲▁	-6636
汤▁	-6637
洒▁	-6638
海拔	-6639
涨▁	-6640
深度	-6641
清脆	-6642
灵▁	-6643
烦闷	-6644
烧酒	-6645
熏▁	-6646
熟练	-6647
状的	-6648
狗▁	-6649
狭窄	-6650
玻▁	-6651
甄子	-6652
甜▁	-6653
生活	-6654
瘾▁	-6655
的种	-6656
瞎▁	-6657
矛▁	-6658
码▁	-6659
禽类	-6660
秕▁	-6661
稠▁	-6662
穿串	-6663
童▁	-6664
笔▁	-6665
第▁	-6666
简述	-6667
簸▁	-6668
纸张	-6669
绣▁	-6670
编程	-6671
耙▁	-6672
肺▁	-6673
胛骨	-6674
脓▁	-6675
脸▁	-6676
节▁	-6677
草率	-6678
蕨▁	-6679
蠕▁	-6680
西南	-6681
要▁	-6682
言▁	-6683
说明	-6684
谷▁	-6685
跪▁	-6686
轻快	-6687
辈▁	-6688
辖区	-6689
运行	-6690
追▁	-6691
逗玩	-6692
逮▁	-6693
那个	-6694
配种	-6695
野猫	-6696
锥▁	-6697
难▁	-6698
震▁	-6699
非常	-6700
顶好	-6701
项▁	-6702
马蜂	-6703
魄▁	-6704
ꀋꄆ	-6705
󲜩▁	-6706
󲝃▁	-6707
󲞊▁	-6708
󲞰▁	-6709
󲞻▁	-6710
󲟚▁	-6711
󲟛▁	-6712
󲟞▁	-6713
󲟟▁	-6714
󲟡▁	-6715
󲟦▁	-6716
󲟱▁	-6717
󲟸▁	-6718
󲟻▁	-6719
󲟿▁	-6720
󲠇▁	-6721
󲠔▁	-6722
󲠕▁	-6723
󲡇▁	-6724
󲡏▁	-6725
󲡟▁	-6726
󲡳▁	-6727
󲡽▁	-6728
󲡾▁	-6729
󲢅▁	-6730
󲢆▁	-6731
󲢈▁	-6732
󲢕▁	-6733
󲢩▁	-6734
󲢻▁	-6735
󲢿▁	-6736
󲣉▁	-6737
󲣋▁	-6738
󲣧▁	-6739
󲣬▁	-6740
󲣽▁	-6741
󲣿▁	-6742
󲤀▁	-6743
󲤛▁	-6744
󲤝▁	-6745
󲥐▁	-6746
󲥥▁	-6747
󲥧▁	-6748
󲥭▁	-6749
󲥷▁	-6750
󲦁▁	-6751
󲦑▁	-6752
󲦝▁	-6753
󲦳▁	-6754
󲧛▁	-6755
󲧩▁	-6756
󲨗▁	-6757
󲨶▁	-6758
󲩏▁	-6759
󲩞▁	-6760
󲩳▁	-6761
󲩼▁	-6762
󲩽▁	-6763
󲫴▁	-6764
󲬃▁	-6765
󲬫▁	-6766
󲭛▁	-6767
󲮑▁	-6768
󲮧▁	-6769
󲮱▁	-6770
󲮻▁	-6771
󲯑▁	-6772
󲯬▁	-6773
󲯵▁	-6774
󲰇▁	-6775
󲰉▁	-6776
󲱣▁	-6777
󲱧▁	-6778
󲲅▁	-6779
󲲝▁	-6780
󲲮▁	-6781
󲲸▁	-6782
󲲽▁	-6783
󲳀▁	-6784
󲳮▁	-6785
󲳯▁	-6786
󲳸▁	-6787
󲴎▁	-6788
󲴓▁	-6789
󲴩▁	-6790
󲴯▁	-6791
󲴹▁	-6792
󲵛▁	-6793
󲵟▁	-6794
󲷀▁	-6795
󲷻▁	-6796
󲷿▁	-6797
󲸗▁	-6798
󲸙▁	-6799
󲸜▁	-6800
󲸡▁	-6801
󲸷▁	-6802
󲹌▁	-6803
󲹍▁	-6804
󲺈▁	-6805
󲺕▁	-6806
󲺛▁	-6807
󲻭▁	-6808
󲻶▁	-6809
󲻼▁	-6810
󲼀▁	-6811
󲼃▁	-6812
󲼋▁	-6813
󲼡▁	-6814
󲽁▁	-6815
󲽗▁	-6816
󲽟▁	-6817
󲾓▁	-6818
󲾡▁	-6819
󲾫▁	-6820
󲾷▁	-6821
󲿓▁	-6822
󳀀▁	-6823
󳀓▁	-6824
󳀽▁	-6825
󳁋▁	-6826
󳁷▁	-6827
󳂟▁	-6828
󳂻▁	-6829
󳄧▁	-6830
󳄩▁	-6831
󳄲▁	-6832
󳄷▁	-6833
󳅟▁	-6834
󳆍▁	-6835
󳆩▁	-6836
󳆼▁	-6837
󳇐▁	-6838
󳇛▁	-6839
󳇡▁	-6840
󳈢▁	-6841
󳉘▁	-6842
󳋜▁	-6843
󳋡▁	-6844
󳌣▁	-6845
󳌯▁	-6846
󳌵▁	-6847
󳌶▁	-6848
󳌸▁	-6849
󳍇▁	-6850
󳍵▁	-6851
󳎙▁	-6852
󳎵▁	-6853
󳎿▁	-6854
󳏆▁	-6855
󳏲▁	-6856
󳏳▁	-6857
󳏿▁	-6858
󳐋▁	-6859
󳐱▁	-6860
󳐺▁	-6861
󳑈▁	-6862
󳑝▁	-6863
󳑤▁	-6864
󳑿▁	-6865
󳒻▁	-6866
󳓕▁	-6867
󳓯▁	-6868
󳓻▁	-6869
󳓿▁	-6870
󳔄▁	-6871
󳔠▁	-6872
󳔡▁	-6873
󳔹▁	-6874
󳕬▁	-6875
󳕯▁	-6876
󳕷▁	-6877
󳖀▁	-6878
󳖞▁	-6879
󳗗▁	-6880
󳗘▁	-6881
󳗟▁	-6882
󳗻▁	-6883
󳘅▁	-6884
󳙃▁	-6885
󳙿▁	-6886
󳚊▁	-6887
󳚭▁	-6888
󳜢▁	-6889
06▁	-6890
282	-6891
283	-6892
303	-6893
333	-6894
363	-6895
398	-6896
40▁	-6897
431	-6898
434	-6899
457	-6900
50▁	-6901
527	-6902
539	-6903
58▁	-6904
600	-6905
609	-6906
655	-6907
667	-6908
66▁	-6909
69▁	-6910
76▁	-6911
870	-6912
92▁	-6913
94▁	-6914
ame	-6915
cer	-6916
cy▁	-6917
dee	-6918
den	-6919
gau	-6920
hot	-6921
hug	-6922
ila	-6923
lào	-6924
mao	-6925
min	-6926
nut	-6927
oxy	-6928
pao	-6929
san	-6930
ser	-6931
sm▁	-6932
sou	-6933
tro	-6934
wǎn	-6935
xie	-6936
上级▁	-6937
丰富▁	-6938
争抢▁	-6939
仗恃▁	-6940
优惠▁	-6941
作对▁	-6942
佩戴▁	-6943
供养▁	-6944
修车▁	-6945
傍晚▁	-6946
兔子▁	-6947
农民▁	-6948
刺杀▁	-6949
医治▁	-6950
厨房▁	-6951
吆喝▁	-6952
同意▁	-6953
后天▁	-6954
吓跳▁	-6955
含化▁	-6956
听到▁	-6957
呻吟▁	-6958
哮喘▁	-6959
唾沫▁	-6960
嗜好▁	-6961
嘱咐▁	-6962
嚎叫▁	-6963
回应▁	-6964
囫囵▁	-6965
土壤▁	-6966
在场▁	-6967
奉献▁	-6968
嫩崽▁	-6969
害怕▁	-6970
容器▁	-6971
小步地	-6972
建的灵	-6973
彝族中	-6974
很美▁	-6975
很高▁	-6976
惨重▁	-6977
懂得▁	-6978
我不及	-6979
技艺▁	-6980
拥挤▁	-6981
挂子▁	-6982
控告▁	-6983
搬移▁	-6984
撕裂▁	-6985
撤除▁	-6986
操场▁	-6987
教室▁	-6988
敬爱▁	-6989
斧头▁	-6990
旅行▁	-6991
旺盛▁	-6992
是咽喉	-6993
是折磨	-6994
是概率	-6995
是纠缠	-6996
有益▁	-6997
板结▁	-6998
正直▁	-6999
水灯芯	-7000
沟渠▁	-7001
没兴趣	-7002
没力气	-7003
测量会	-7004
清明▁	-7005
渡槽▁	-7006
灵柩▁	-7007
炎热▁	-7008
炫示▁	-7009
牵连▁	-7010
特点▁	-7011
生育▁	-7012
用筷子	-7013
疲倦▁	-7014
瘫痪▁	-7015
盐巴▁	-7016
睡觉▁	-7017
砧板▁	-7018
碎步▁	-7019
磨损▁	-7020
祈求▁	-7021
种花▁	-7022
稠密▁	-7023
窝棚▁	-7024
章节▁	-7025
篾席▁	-7026
粗糙地	-7027
糟蹋▁	-7028
繁殖▁	-7029
繁衍▁	-7030
组装▁	-7031
结合▁	-7032
给吃▁	-7033
缴纳▁	-7034
耳语▁	-7035
耽误▁	-7036
聊天▁	-7037
聘请▁	-7038
胡须▁	-7039
能成功	-7040
脑盖▁	-7041
舍得▁	-7042
荡漾▁	-7043
荸荠▁	-7044
蜷缩▁	-7045
衣裳▁	-7046
表示像	-7047
表示刺	-7048
表示口	-7049
表示布	-7050
表示年	-7051
表示着	-7052
表示脚	-7053
表示菜	-7054
表示钱	-7055
表示鸟	-7056
裤子▁	-7057
认真▁	-7058
训斥▁	-7059
训练▁	-7060
调换▁	-7061
责任▁	-7062
贪婪▁	-7063
贫瘠▁	-7064
费用▁	-7065
足够▁	-7066
路上▁	-7067
蹒跚▁	-7068
过敏▁	-7069
运动▁	-7070
连累▁	-7071
通过▁	-7072
长工▁	-7073
陈列▁	-7074
音乐▁	-7075
飞舞▁	-7076
马爵环	-7077
马铜铃	-7078
ꀋꄆ▁	-7079
ꐯꃅꁧ	-7080
ꐯꏮꐯ	-7081
'(1、	-7082
(1,▁	-7083
43。▁	-7084
56。▁	-7085
77。▁	-7086
78。▁	-7087
:(1、	-7088
Mode	-7089
expo	-7090
fix▁	-7091
mana	-7092
moni	-7093
movi	-7094
offi	-7095
resi	-7096
scal	-7097
ski▁	-7098
soli	-7099
soun	-7100
sour	-7101
stem	-7102
sway	-7103
ters	-7104
丛很狭窄	-7105
中华文化	-7106
农历六月	-7107
利用量子	-7108
办公室▁	-7109
嚎嗷嗷大	-7110
多少钱▁	-7111
彝语语法	-7112
很重要▁	-7113
我很高兴	-7114
机器学习	-7115
毛发蓬松	-7116
测量结果	-7117
神经网络	-7118
紧挨着▁	-7119
红色的▁	-7120
绿色的▁	-7121
表示不如	-7122
表示故事	-7123
表示衣服	-7124
说明一下	-7125
进展快▁	-7126
里有很多	-7127
黑色的▁	-7128
ꐯꏮꐯ▁	-7129
ꐯꑠꋪ▁	-7130
Model	-7131
Super	-7132
abund	-7133
anise	-7134
care▁	-7135
chest	-7136
compe	-7137
crops	-7138
days▁	-7139
gauze	-7140
gest▁	-7141
hunt▁	-7142
inclu	-7143
into▁	-7144
kitch	-7145
plain	-7146
runs▁	-7147
sanit	-7148
self▁	-7149
seven	-7150
survi	-7151
ties▁	-7152
vity▁	-7153
之间的关联	-7154
坍缩为确定	-7155
是概率性的	-7156
有八万七千	-7157
未曾过崽的	-7158
空间垂直的	-7159
表示排行第	-7160
ꈭꐯꆸꄻ▁	-7161
ꐯꂴꈌꐯ▁	-7162
ꐯꆸꐯꐯ▁	-7163
ꐯꈌꀋꐯ▁	-7164
ꐯꉘꁧꈭ▁	-7165
ꐯꐥꂘꐯ▁	-7166
ꐯꑠꋪꐯ▁	-7167
ꐯꑿꅐꍔ▁	-7168
drink▁	-7169
fight▁	-7170
increa	-7171
machin	-7172
ments▁	-7173
order▁	-7174
princi	-7175
steady	-7176
彝族家支名▁	-7177
有什么区别▁	-7178
的含义是手▁	-7179
的含义是眼▁	-7180
的意思是头▁	-7181
的意思是开▁	-7182
的意思是心▁	-7183
祖宗时建的灵	-7184
量子叠加态▁	-7185
ꈭꐯꈌꀋꐯ▁	-7186
ꐯꂴꈌꐯꐯ▁	-7187
ꐯꈭꐯꆸꄻ▁	-7188
ꐯꉘꁧꈭꐯ▁	-7189
ꐯꏮꐯꀋꄆ▁	-7190
ꐯꐥꂘꐯꐯ▁	-7191
always▁	-7192
eeping▁	-7193
forest▁	-7194
leopard	-7195
mainly▁	-7196
matter▁	-7197
nature▁	-7198
office▁	-7199
twenty▁	-7200
丛很狭窄的地方	-7201
今天天气很好▁	-7202
等的彝文字符▁	-7203
表示手的彝文是	-7204
表示眼的彝文是	-7205
语气词表示疑问	-7206
abundant	-7207
chestnut	-7208
complain	-7209
drawing▁	-7210
driving▁	-7211
kitchen▁	-7212
natural▁	-7213
seaside▁	-7214
stumble▁	-7215
systems▁	-7216
名用彝文怎么写▁	-7217
布用彝文怎么写▁	-7218
火用彝文怎么写▁	-7219
种用彝文怎么写▁	-7220
脚用彝文怎么写▁	-7221
ꐯꃅꁧꐯꃀꀋꐯ▁	-7222
calendar▁	-7223
heavenly▁	-7224
thinking▁	-7225
tificial▁	-7226
tography▁	-7227
tomorrow▁	-7228
wormwood▁	-7229
表示手的彝文字符▁	-7230
表示眼的彝文字符▁	-7231
重字用彝文怎么写▁	-7232
ꐯꐯꃅꏬꐯꆸꄻꐯ▁	-7233
classroom▁	-7234
彝族祭祀祖宗时建的灵	-7235
translation▁	-7236
Superposition▁	-7237
'、	-7238
1」	-7239
71	-7240
73	-7241
ry	-7242
一绺	-7243
一般	-7244
丈子	-7245
不灵	-7246
乐作	-7247
事务	-7248
事场	-7249
二卦	-7250
五味	-7251
亚热	-7252
仅▁	-7253
休克	-7254
传▁	-7255
伯母	-7256
作阿	-7257
使人	-7258
便的	-7259
倍▁	-7260
倒▁	-7261
倒女	-7262
借▁	-7263
储金	-7264
允▁	-7265
再▁	-7266
冻而	-7267
净▁	-7268
列席	-7269
割▁	-7270
力学	-7271
动物	-7272
勿▁	-7273
包▁	-7274
北▁	-7275
匙▁	-7276
匾▁	-7277
卖▁	-7278
原则	-7279
参观	-7280
句▁	-7281
句型	-7282
句子	-7283
吊▁	-7284
含钢	-7285
吼▁	-7286
呼▁	-7287
哎▁	-7288
哼▁	-7289
唆▁	-7290
啃▁	-7291
啄▁	-7292
啄树	-7293
喂▁	-7294
善歌	-7295
善舞	-7296
嗑▁	-7297
因受	-7298
团▁	-7299
围▁	-7300
土地	-7301
在野	-7302
坎▁	-7303
埂▁	-7304
基础	-7305
塘▁	-7306
塞▁	-7307
头饰	-7308
姜▁	-7309
姨母	-7310
婶娘	-7311
孔▁	-7312
孔眼	-7313
孝棍	-7314
孤僻	-7315
官▁	-7316
宣诵	-7317
就是	-7318
尺▁	-7319
山峻	-7320
帮我	-7321
底▁	-7322
度▁	-7323
庶▁	-7324
弈人	-7325
弯▁	-7326
快消	-7327
性格	-7328
悲▁	-7329
情▁	-7330
想▁	-7331
憨▁	-7332
懒洋	-7333
截▁	-7334
扑▁	-7335
折▁	-7336
抢▁	-7337
抵消	-7338
押▁	-7339
押送	-7340
拟机	-7341
指祀	-7342
捉魂	-7343
捕鸟	-7344
捞▁	-7345
换▁	-7346
捶▁	-7347
掉▁	-7348
排水	-7349
揍▁	-7350
撂▁	-7351
攒▁	-7352
收▁	-7353
新娘	-7354
施人	-7355
旋顶	-7356
早熟	-7357
昏死	-7358
木棉	-7359
李▁	-7360
条▁	-7361
杨▁	-7362
枪炮	-7363
架构	-7364
柄▁	-7365
柜▁	-7366
查看	-7367
柴▁	-7368
格言	-7369
棉花	-7370
棒▁	-7371
棵▁	-7372
椽▁	-7373
模▁	-7374
正▁	-7375
泡利	-7376
洼▁	-7377
派▁	-7378
流▁	-7379
浏览	-7380
涩▁	-7381
溃烂	-7382
滤▁	-7383
漫▁	-7384
潮▁	-7385
火车	-7386
灶台	-7387
炒面	-7388
炖▁	-7389
炼▁	-7390
猪鬃	-7391
献▁	-7392
现▁	-7393
瓦▁	-7394
男家	-7395
疟▁	-7396
痒▁	-7397
瘤▁	-7398
白喜	-7399
的歌	-7400
相抵	-7401
相隔	-7402
真▁	-7403
石▁	-7404
石灰	-7405
砖▁	-7406
碎片	-7407
祖妣	-7408
祝▁	-7409
神落	-7410
祭奠	-7411
祭祖	-7412
科学	-7413
程序	-7414
稻▁	-7415
稻草	-7416
空亡	-7417
竖▁	-7418
竹制	-7419
竹索	-7420
等词	-7421
筒▁	-7422
算法	-7423
篇▁	-7424
米粥	-7425
绿▁	-7426
罚▁	-7427
羞▁	-7428
群▁	-7429
翁▁	-7430
翠绿	-7431
翻车	-7432
聚▁	-7433
肛门	-7434
肾▁	-7435
胜▁	-7436
胸▁	-7437
能力	-7438
脂▁	-7439
臼▁	-7440
英▁	-7441
荒▁	-7442
荚▁	-7443
药物	-7444
莲▁	-7445
葛▁	-7446
蒂▁	-7447
蓄▁	-7448
蚂▁	-7449
蝶▁	-7450
被▁	-7451
褂▁	-7452
褴褛	-7453
规范	-7454
视察	-7455
讨▁	-7456
诉▁	-7457
诉苦	-7458
读▁	-7459
贱▁	-7460
贴▁	-7461
贵阳	-7462
赊▁	-7463
赚▁	-7464
起源	-7465
轮▁	-7466
较低	-7467
速度	-7468
里边	-7469
钱币	-7470
铅▁	-7471
铲▁	-7472
错▁	-7473
锡▁	-7474
镀▁	-7475
闰▁	-7476
阵▁	-7477
阶▁	-7478
除▁	-7479
霭漫	-7480
颗▁	-7481
颗粒	-7482
饭吃	-7483
骑▁	-7484
魔▁	-7485
鳝▁	-7486
鳞▁	-7487
黑粉	-7488
鼻▁	-7489
龄▁	-7490
󲜕▁	-7491
󲝒▁	-7492
󲝙▁	-7493
󲝫▁	-7494
󲞟▁	-7495
󲞥▁	-7496
󲞭▁	-7497
󲟓▁	-7498
󲟘▁	-7499
󲟙▁	-7500
󲟝▁	-7501
󲟹▁	-7502
󲟾▁	-7503
󲠀▁	-7504
󲠃▁	-7505
󲠅▁	-7506
󲠉▁	-7507
󲠍▁	-7508
󲠙▁	-7509
󲠣▁	-7510
󲠨▁	-7511
󲠿▁	-7512
󲡊▁	-7513
󲡐▁	-7514
󲡚▁	-7515
󲡝▁	-7516
󲡞▁	-7517
󲡥▁	-7518
󲡫▁	-7519
󲡺▁	-7520
󲢁▁	-7521
󲢇▁	-7522
󲢊▁	-7523
󲢋▁	-7524
󲢓▁	-7525
󲢖▁	-7526
󲢘▁	-7527
󲢙▁	-7528
󲢚▁	-7529
󲢛▁	-7530
󲢠▁	-7531
󲢱▁	-7532
󲢲▁	-7533
󲣃▁	-7534
󲣅▁	-7535
󲣍▁	-7536
󲣏▁	-7537
󲣙▁	-7538
󲣝▁	-7539
󲣟▁	-7540
󲣯▁	-7541
󲣱▁	-7542
󲣲▁	-7543
󲣵▁	-7544
󲣺▁	-7545
󲤃▁	-7546
󲤄▁	-7547
󲤗▁	-7548
󲤷▁	-7549
󲤿▁	-7550
󲥉▁	-7551
󲥊▁	-7552
󲥋▁	-7553
󲥏▁	-7554
󲥪▁	-7555
󲥰▁	-7556
󲥾▁	-7557
󲦈▁	-7558
󲦕▁	-7559
󲦠▁	-7560
󲦣▁	-7561
󲦫▁	-7562
󲦯▁	-7563
󲦻▁	-7564
󲧁▁	-7565
󲧂▁	-7566
󲧍▁	-7567
󲧟▁	-7568
󲧢▁	-7569
󲧭▁	-7570
󲧽▁	-7571
󲧿▁	-7572
󲨍▁	-7573
󲩂▁	-7574
󲩄▁	-7575
󲩐▁	-7576
󲩑▁	-7577
󲩓▁	-7578
󲩣▁	-7579
󲩧▁	-7580
󲩷▁	-7581
󲩹▁	-7582
󲪀▁	-7583
󲪒▁	-7584
󲪔▁	-7585
󲪩▁	-7586
󲪫▁	-7587
󲫂▁	-7588
󲫉▁	-7589
󲫋▁	-7590
󲫗▁	-7591
󲫧▁	-7592
󲫫▁	-7593
󲫭▁	-7594
󲬟▁	-7595
󲬣▁	-7596
󲬧▁	-7597
󲬲▁	-7598
󲭆▁	-7599
󲭩▁	-7600
󲮉▁	-7601
󲮋▁	-7602
󲮎▁	-7603
󲮗▁	-7604
󲮫▁	-7605
󲮷▁	-7606
󲯄▁	-7607
󲯊▁	-7608
󲯛▁	-7609
󲯜▁	-7610
󲯴▁	-7611
󲰈▁	-7612
󲰊▁	-7613
󲰌▁	-7614
󲰟▁	-7615
󲰱▁	-7616
󲰳▁	-7617
󲱃▁	-7618
󲱈▁	-7619
󲱐▁	-7620
󲱗▁	-7621
󲱢▁	-7622
󲱦▁	-7623
󲱳▁	-7624
󲱻▁	-7625
󲲐▁	-7626
󲲘▁	-7627
󲲛▁	-7628
󲲜▁	-7629
󲲟▁	-7630
󲲧▁	-7631
󲲱▁	-7632
󲳄▁	-7633
󲳓▁	-7634
󲳦▁	-7635
󲳫▁	-7636
󲳲▁	-7637
󲴋▁	-7638
󲴌▁	-7639
󲴠▁	-7640
󲴡▁	-7641
󲴣▁	-7642
󲴮▁	-7643
󲵲▁	-7644
󲵴▁	-7645
󲵵▁	-7646
󲵽▁	-7647
󲶁▁	-7648
󲶆▁	-7649
󲶛▁	-7650
󲶵▁	-7651
󲷊▁	-7652
󲷍▁	-7653
󲷏▁	-7654
󲷣▁	-7655
󲷭▁	-7656
󲷰▁	-7657
󲷵▁	-7658
󲷸▁	-7659
󲸏▁	-7660
󲸚▁	-7661
󲸢▁	-7662
󲸤▁	-7663
󲸭▁	-7664
󲸲▁	-7665
󲹋▁	-7666
󲹦▁	-7667
󲹫▁	-7668
󲹴▁	-7669
󲹵▁	-7670
󲺅▁	-7671
󲺉▁	-7672
󲺖▁	-7673
󲺘▁	-7674
󲺝▁	-7675
󲺮▁	-7676
󲺯▁	-7677
󲺰▁	-7678
󲺱▁	-7679
󲻁▁	-7680
󲻊▁	-7681
󲻒▁	-7682
󲻞▁	-7683
󲻥▁	-7684
󲻯▁	-7685
󲻸▁	-7686
󲼉▁	-7687
󲼑▁	-7688
󲼖▁	-7689
󲼭▁	-7690
󲼷▁	-7691
󲼻▁	-7692
󲽒▁	-7693
󲽷▁	-7694
󲾅▁	-7695
󲾊▁	-7696
󲾏▁	-7697
󲾛▁	-7698
󲾝▁	-7699
󲾥▁	-7700
󲾧▁	-7701
󲾽▁	-7702
󲿂▁	-7703
󲿃▁	-7704
󲿍▁	-7705
󲿕▁	-7706
󲿗▁	-7707
󲿛▁	-7708
󲿝▁	-7709
󲿰▁	-7710
󳀈▁	-7711
󳀉▁	-7712
󳀎▁	-7713
󳀕▁	-7714
󳀸▁	-7715
󳁁▁	-7716
󳁇▁	-7717
󳁉▁	-7718
󳁌▁	-7719
󳁑▁	-7720
󳁚▁	-7721
󳁝▁	-7722
󳁯▁	-7723
󳂇▁	-7724
󳂊▁	-7725
󳂛▁	-7726
󳂫▁	-7727
󳂽▁	-7728
󳃎▁	-7729
󳃐▁	-7730
󳃔▁	-7731
󳃝▁	-7732
󳃞▁	-7733
󳃶▁	-7734
󳃸▁	-7735
󳃹▁	-7736
󳄁▁	-7737
󳄂▁	-7738
󳄈▁	-7739
󳄍▁	-7740
󳄟▁	-7741
󳄡▁	-7742
󳅁▁	-7743
󳅉▁	-7744
󳅍▁	-7745
󳅣▁	-7746
󳅨▁	-7747
󳅯▁	-7748
󳅱▁	-7749
󳅺▁	-7750
󳆀▁	-7751
󳆉▁	-7752
󳆵▁	-7753
󳆽▁	-7754
󳇆▁	-7755
󳇣▁	-7756
󳇫▁	-7757
󳈄▁	-7758
󳈆▁	-7759
󳈑▁	-7760
󳈜▁	-7761
󳈪▁	-7762
󳈫▁	-7763
󳈹▁	-7764
󳉄▁	-7765
󳉑▁	-7766
󳉒▁	-7767
󳉖▁	-7768
󳉝▁	-7769
󳉧▁	-7770
󳉳▁	-7771
󳊊▁	-7772
󳊦▁	-7773
󳊧▁	-7774
󳊬▁	-7775
󳊭▁	-7776
󳊹▁	-7777
󳋋▁	-7778
󳋐▁	-7779
󳋢▁	-7780
󳋧▁	-7781
󳋫▁	-7782
󳌅▁	-7783
󳌍▁	-7784
󳌚▁	-7785
󳌛▁	-7786
󳌭▁	-7787
󳌱▁	-7788
󳍏▁	-7789
󳍒▁	-7790
󳍝▁	-7791
󳍥▁	-7792
󳍧▁	-7793
󳍹▁	-7794
󳎄▁	-7795
󳎇▁	-7796
󳎉▁	-7797
󳎛▁	-7798
󳎣▁	-7799
󳎫▁	-7800
󳎭▁	-7801
󳎼▁	-7802
󳏀▁	-7803
󳏂▁	-7804
󳏒▁	-7805
󳏓▁	-7806
󳏙▁	-7807
󳏭▁	-7808
󳐂▁	-7809
󳐃▁	-7810
󳐓▁	-7811
󳐕▁	-7812
󳐚▁	-7813
󳐨▁	-7814
󳐫▁	-7815
󳐭▁	-7816
󳐴▁	-7817
󳐵▁	-7818
󳐻▁	-7819
󳐼▁	-7820
󳑋▁	-7821
󳑓▁	-7822
󳑗▁	-7823
󳑸▁	-7824
󳒋▁	-7825
󳒓▁	-7826
󳒮▁	-7827
󳒹▁	-7828
󳓅▁	-7829
󳓇▁	-7830
󳓘▁	-7831
󳓛▁	-7832
󳔋▁	-7833
󳔌▁	-7834
󳔟▁	-7835
󳔤▁	-7836
󳔨▁	-7837
󳔬▁	-7838
󳔭▁	-7839
󳔴▁	-7840
󳔵▁	-7841
󳕉▁	-7842
󳕣▁	-7843
󳕥▁	-7844
󳕫▁	-7845
󳕼▁	-7846
󳖅▁	-7847
󳖆▁	-7848
󳖉▁	-7849
󳖎▁	-7850
󳖣▁	-7851
󳖩▁	-7852
󳖫▁	-7853
󳖭▁	-7854
󳖸▁	-7855
󳖹▁	-7856
󳗆▁	-7857
󳗈▁	-7858
󳗝▁	-7859
󳘊▁	-7860
󳘋▁	-7861
󳘏▁	-7862
󳘝▁	-7863
󳘣▁	-7864
󳘩▁	-7865
󳙇▁	-7866
󳙴▁	-7867
󳙼▁	-7868
󳙽▁	-7869
󳚖▁	-7870
󳚩▁	-7871
󳚰▁	-7872
󳚻▁	-7873
󳛂▁	-7874
󳛉▁	-7875
󳛏▁	-7876
󳛥▁	-7877
󳛯▁	-7878
󳛲▁	-7879
󳜏▁	-7880
'、'	-7881
)),	-7882
293	-7883
323	-7884
353	-7885
410	-7886
442	-7887
488	-7888
528	-7889
544	-7890
549	-7891
627	-7892
634	-7893
64▁	-7894
658	-7895
690	-7896
93▁	-7897
bim	-7898
bre	-7899
cou	-7900
ct▁	-7901
eru	-7902
exi	-7903
gla	-7904
ic▁	-7905
jog	-7906
ks▁	-7907
mpl	-7908
rel	-7909
tem	-7910
一样的	-7911
丈夫的	-7912
不足而	-7913
中怎么	-7914
中的捉	-7915
了吗▁	-7916
事务总	-7917
从上而	-7918
代音字	-7919
伤口▁	-7920
作客▁	-7921
你们▁	-7922
便宜▁	-7923
便的样	-7924
修改▁	-7925
俯冲▁	-7926
俯卧▁	-7927
倒女家	-7928
偿还▁	-7929
储备▁	-7930
储金会	-7931
儴解▁	-7932
入赘▁	-7933
关节▁	-7934
冻而裂	-7935
分离▁	-7936
升起▁	-7937
厌恶▁	-7938
原因▁	-7939
发热▁	-7940
可以▁	-7941
吃亏▁	-7942
各自▁	-7943
名用词	-7944
吝啬▁	-7945
吸吮▁	-7946
呲牙▁	-7947
喝水▁	-7948
喧闹▁	-7949
喷嚏▁	-7950
图案▁	-7951
在动词	-7952
在句子	-7953
在野外	-7954
坝地区	-7955
坟墓▁	-7956
复活▁	-7957
女祖先	-7958
好打扮	-7959
妨碍▁	-7960
婆家▁	-7961
嫩芽▁	-7962
安放▁	-7963
宝剑▁	-7964
对姨母	-7965
导纱子	-7966
小米▁	-7967
山峻岭	-7968
庇护▁	-7969
开了▁	-7970
引述语	-7971
归属▁	-7972
彝族红	-7973
彝语支	-7974
形容飞	-7975
必要▁	-7976
忠厚▁	-7977
快消逝	-7978
思索▁	-7979
恶龙▁	-7980
成见▁	-7981
抚养▁	-7982
抢劫▁	-7983
拜寄▁	-7984
摇动▁	-7985
效仿▁	-7986
整治▁	-7987
斟酌▁	-7988
日期▁	-7989
旧时民	-7990
昆明▁	-7991
晃荡▁	-7992
晌午▁	-7993
月亮很	-7994
有哪些	-7995
本事▁	-7996
村寨▁	-7997
果断▁	-7998
枪炮声	-7999
枷锁▁	-8000
某些突	-8001
止沸▁	-8002
正在▁	-8003
毛毛雨	-8004
水果▁	-8005
泛指草	-8006
派遣▁	-8007
漏斗▁	-8008
烦躁▁	-8009
物体扭	-8010
独特的	-8011
理由▁	-8012
理顺▁	-8013
甩打▁	-8014
疤痕▁	-8015
的基本	-8016
的核心	-8017
砂锅▁	-8018
禀报▁	-8019
禁止▁	-8020
科学的	-8021
竹索桥	-8022
等的间	-8023
粗糙▁	-8024
组成如	-8025
结巴▁	-8026
绘画▁	-8027
羡慕▁	-8028
考试▁	-8029
芋头▁	-8030
花衣服	-8031
虚拟机	-8032
蜥蜴▁	-8033
螃蟹▁	-8034
表示猪	-8035
讨伐▁	-8036
讲文史	-8037
贿赂▁	-8038
赏赐▁	-8039
走样▁	-8040
走路▁	-8041
距离▁	-8042
辩论▁	-8043
遗留▁	-8044
部族名	-8045
酸痛▁	-8046
锄头▁	-8047
锅铲▁	-8048
锦鸡▁	-8049
镰刀▁	-8050
防备▁	-8051
雾沉沉	-8052
青年▁	-8053
飞逝▁	-8054
饱满▁	-8055
马铃薯	-8056
黄松▁	-8057
󳤣󲊂▁	-8058
))((	-8059
))」,	-8060
);4、	-8061
);。▁	-8062
;2;(	-8063
bian	-8064
bind	-8065
chno	-8066
ely▁	-8067
erci	-8068
foll	-8069
free	-8070
geta	-8071
hug▁	-8072
ons▁	-8073
ousl	-8074
qsm▁	-8075
same	-8076
sea▁	-8077
six▁	-8078
tane	-8079
tern	-8080
too▁	-8081
top▁	-8082
trot	-8083
tton	-8084
use▁	-8085
vel▁	-8086
who▁	-8087
、2、(	-8088
事场种的	-8089
五味子果	-8090
代表一个	-8091
传说种的	-8092
俗名丈子	-8093
出的位置	-8094
刀刃含钢	-8095
善歌善舞	-8096
形容性格	-8097
指祀神落	-8098
无论相隔	-8099
洗衣服▁	-8100
海拔较低	-8101
深度学习	-8102
用餐毕▁	-8103
的历史▁	-8104
竹制用具	-8105
笨拙不灵	-8106
等词语▁	-8107
菜的词尾	-8108
说中文▁	-8109
谢谢你的	-8110
迎接新娘	-8111
部某些突	-8112
食物韧绵	-8113
高山峻岭	-8114
));3、	-8115
;2、((	-8116
bimo▁	-8117
calm▁	-8118
cylin	-8119
deep▁	-8120
east▁	-8121
freez	-8122
gate▁	-8123
glad▁	-8124
great	-8125
iloso	-8126
logy▁	-8127
love▁	-8128
mount	-8129
nieru	-8130
olve▁	-8131
only▁	-8132
plar▁	-8133
rebel	-8134
ries▁	-8135
scale	-8136
steam	-8137
丈夫的姐妹	-8138
中怎么用▁	-8139
什么时候出	-8140
什么是量子	-8141
伯母等的间	-8142
古彝族不知	-8143
可以组成如	-8144
啄木鸟啄树	-8145
因受冻而裂	-8146
在农历六月	-8147
天干的第三	-8148
天干第二位	-8149
平面物体扭	-8150
彝族中宣诵	-8151
彝族有什么	-8152
彝族红白喜	-8153
形容词词缀	-8154
成团的物质	-8155
旧时民间的	-8156
男家倒女家	-8157
的河坝地区	-8158
立即影响另	-8159
迷信中的捉	-8160
量子测量▁	-8161
量子测量是	-8162
骟过的绵羊	-8163
麻的彝文是	-8164
always	-8165
ature▁	-8166
bloom▁	-8167
chuan▁	-8168
close▁	-8169
distri	-8170
ences▁	-8171
exerci	-8172
exist▁	-8173
first▁	-8174
mouse▁	-8175
place▁	-8176
repres	-8177
residu	-8178
stone▁	-8179
train▁	-8180
tting▁	-8181
using▁	-8182
vegeta	-8183
传说种的捉魂	-8184
善歌善舞的歌	-8185
处理多种语言	-8186
形容性格孤僻	-8187
形容飞快消逝	-8188
无论相隔多远	-8189
旧时指祀神落	-8190
是量子力学的	-8191
牲畜散开吃草	-8192
的含义是头▁	-8193
的含义是开▁	-8194
的含义是心▁	-8195
的意思是火▁	-8196
走路笨拙不灵	-8197
部分竹制用具	-8198
believe	-8199
cation▁	-8200
compete	-8201
consist	-8202
develop	-8203
explode	-8204
follow▁	-8205
philoso	-8206
poplar▁	-8207
rabbit▁	-8208
source▁	-8209
stream▁	-8210
yunnan▁	-8211
事场种的事务总	-8212
刀刃含钢不足而	-8213
同为彝族先民中	-8214
表示头的彝文是	-8215
表示开的彝文是	-8216
表示心的彝文是	-8217
量子叠加态是指	-8218
crowded▁	-8219
degrees▁	-8220
forehead	-8221
singing▁	-8222
stained▁	-8223
taneousl	-8224
叠加态坍缩为确定	-8225
在句子中怎么用▁	-8226
断用彝文怎么写▁	-8227
旧时民间的储金会	-8228
牛用彝文怎么写▁	-8229
猪用彝文怎么写▁	-8230
部某些突出的位置	-8231
precious▁	-8232
problems▁	-8233
shanghai▁	-8234
universe▁	-8235
同为彝族先民中出现	-8236
海拔较低的河坝地区	-8237
牲畜用彝文怎么写▁	-8238
男家倒女家迎接新娘	-8239
表示头的彝文字符▁	-8240
表示开的彝文字符▁	-8241
表示心的彝文字符▁	-8242
走路笨拙不灵便的样	-8243
mechanics▁	-8244
量子纠缠是两个量子比特	-8245
彝族红白喜事场种的事务总	-8246
simultaneousl	-8247
!(	-8248
,2	-8249
77	-8250
gs	-8251
my	-8252
pu	-8253
ty	-8254
vo	-8255
wr	-8256
yō	-8257
í▁	-8258
「󲝈	-8259
「󲝉	-8260
「󲝒	-8261
「󲝝	-8262
「󲞀	-8263
「󲟘	-8264
「󲟦	-8265
「󲟨	-8266
「󲟩	-8267
「󲟯	-8268
「󲟱	-8269
「󲟹	-8270
「󲟽	-8271
「󲟾	-8272
「󲟿	-8273
「󲠄	-8274
「󲠇	-8275
「󲠉	-8276
「󲠊	-8277
「󲠍	-8278
「󲠏	-8279
「󲠕	-8280
「󲠘	-8281
「󲠙	-8282
「󲠟	-8283
「󲠤	-8284
「󲠫	-8285
「󲠴	-8286
「󲠶	-8287
「󲠽	-8288
「󲠾	-8289
「󲠿	-8290
「󲡇	-8291
「󲡏	-8292
「󲡞	-8293
「󲡢	-8294
「󲡣	-8295
「󲡫	-8296
「󲡮	-8297
「󲡲	-8298
「󲡸	-8299
「󲡼	-8300
「󲡾	-8301
「󲢓	-8302
「󲢚	-8303
「󲢠	-8304
「󲢨	-8305
「󲢭	-8306
「󲢮	-8307
「󲢱	-8308
「󲢲	-8309
「󲢵	-8310
「󲢺	-8311
「󲣋	-8312
「󲣍	-8313
「󲣏	-8314
「󲣐	-8315
「󲣖	-8316
「󲣙	-8317
「󲣞	-8318
「󲣥	-8319
「󲣯	-8320
「󲣴	-8321
「󲣵	-8322
「󲣶	-8323
「󲤕	-8324
「󲤗	-8325
「󲤛	-8326
「󲤜	-8327
「󲤟	-8328
「󲤤	-8329
「󲤨	-8330
「󲤻	-8331
「󲤾	-8332
「󲥀	-8333
「󲥃	-8334
「󲥊	-8335
「󲥌	-8336
「󲥏	-8337
「󲥟	-8338
「󲥡	-8339
「󲥦	-8340
「󲥭	-8341
「󲥶	-8342
「󲥼	-8343
「󲦁	-8344
「󲦄	-8345
「󲦋	-8346
「󲦌	-8347
「󲦔	-8348
「󲦞	-8349
「󲦟	-8350
「󲦡	-8351
「󲦮	-8352
「󲦯	-8353
「󲦰	-8354
「󲦲	-8355
「󲦴	-8356
「󲦸	-8357
「󲧀	-8358
「󲧂	-8359
「󲧌	-8360
「󲧍	-8361
「󲧖	-8362
「󲧚	-8363
「󲧣	-8364
「󲧥	-8365
「󲧪	-8366
「󲧭	-8367
「󲧯	-8368
「󲨊	-8369
「󲨌	-8370
「󲨔	-8371
「󲨙	-8372
「󲨛	-8373
「󲨜	-8374
「󲨠	-8375
「󲨫	-8376
「󲨯	-8377
「󲨰	-8378
「󲨱	-8379
「󲨳	-8380
「󲨺	-8381
「󲨻	-8382
「󲨼	-8383
「󲩂	-8384
「󲩅	-8385
「󲩆	-8386
「󲩉	-8387
「󲩊	-8388
「󲩘	-8389
「󲩠	-8390
「󲩣	-8391
「󲩫	-8392
「󲩭	-8393
「󲩼	-8394
「󲪀	-8395
「󲪅	-8396
「󲪉	-8397
「󲪌	-8398
「󲪐	-8399
「󲪕	-8400
「󲪖	-8401
「󲪜	-8402
「󲪠	-8403
「󲪣	-8404
「󲪤	-8405
「󲪧	-8406
「󲪭	-8407
「󲪴	-8408
「󲪾	-8409
「󲪿	-8410
「󲫅	-8411
「󲫈	-8412
「󲫏	-8413
「󲫒	-8414
「󲫛	-8415
「󲫞	-8416
「󲫣	-8417
「󲫪	-8418
「󲫬	-8419
「󲫶	-8420
「󲫼	-8421
「󲬃	-8422
「󲬄	-8423
「󲬅	-8424
「󲬍	-8425
「󲬗	-8426
「󲬝	-8427
「󲬠	-8428
「󲬤	-8429
「󲬲	-8430
「󲭀	-8431
「󲭄	-8432
「󲭈	-8433
「󲭉	-8434
「󲭊	-8435
「󲭍	-8436
「󲭑	-8437
「󲭖	-8438
「󲭘	-8439
「󲭛	-8440
「󲭣	-8441
「󲭮	-8442
「󲭴	-8443
「󲭵	-8444
「󲭷	-8445
「󲭿	-8446
「󲮂	-8447
「󲮄	-8448
「󲮅	-8449
「󲮆	-8450
「󲮍	-8451
「󲮘	-8452
「󲮚	-8453
「󲮜	-8454
「󲮞	-8455
「󲮡	-8456
「󲮣	-8457
「󲮤	-8458
「󲮦	-8459
「󲮧	-8460
「󲮬	-8461
「󲮯	-8462
「󲮰	-8463
「󲮲	-8464
「󲮼	-8465
「󲯈	-8466
「󲯐	-8467
「󲯚	-8468
「󲯧	-8469
「󲯨	-8470
「󲯲	-8471
「󲯴	-8472
「󲰁	-8473
「󲰆	-8474
「󲰋	-8475
「󲰌	-8476
「󲰙	-8477
「󲰛	-8478
「󲰠	-8479
「󲰤	-8480
「󲰥	-8481
「󲰪	-8482
「󲰳	-8483
「󲰼	-8484
「󲰾	-8485
「󲱇	-8486
「󲱍	-8487
「󲱑	-8488
「󲱕	-8489
「󲱙	-8490
「󲱠	-8491
「󲱡	-8492
「󲱢	-8493
「󲱣	-8494
「󲱥	-8495
「󲱦	-8496
「󲱬	-8497
「󲱯	-8498
「󲱷	-8499
「󲱺	-8500
「󲲂	-8501
「󲲃	-8502
「󲲍	-8503
「󲲑	-8504
「󲲖	-8505
「󲲛	-8506
「󲲜	-8507
「󲲝	-8508
「󲲟	-8509
「󲲠	-8510
「󲲡	-8511
「󲲣	-8512
「󲲨	-8513
「󲲪	-8514
「󲲫	-8515
「󲲰	-8516
「󲲱	-8517
「󲲲	-8518
「󲲳	-8519
「󲲵	-8520
「󲲷	-8521
「󲲸	-8522
「󲲺	-8523
「󲳁	-8524
「󲳒	-8525
「󲳔	-8526
「󲳗	-8527
「󲳝	-8528
「󲳥	-8529
「󲳯	-8530
「󲳱	-8531
「󲳻	-8532
「󲴂	-8533
「󲴅	-8534
「󲴉	-8535
「󲴏	-8536
「󲴖	-8537
「󲴗	-8538
「󲴠	-8539
「󲴡	-8540
「󲴪	-8541
「󲴰	-8542
「󲴼	-8543
「󲵃	-8544
「󲵉	-8545
「󲵐	-8546
「󲵑	-8547
「󲵖	-8548
「󲵢	-8549
「󲵩	-8550
「󲵴	-8551
「󲵷	-8552
「󲵻	-8553
「󲵼	-8554
「󲵾	-8555
「󲶋	-8556
「󲶌	-8557
「󲶎	-8558
「󲶓	-8559
「󲶔	-8560
「󲶕	-8561
「󲶚	-8562
「󲶞	-8563
「󲶭	-8564
「󲶮	-8565
「󲶰	-8566
「󲶲	-8567
「󲶳	-8568
「󲶵	-8569
「󲶷	-8570
「󲷅	-8571
「󲷈	-8572
「󲷉	-8573
「󲷐	-8574
「󲷘	-8575
「󲷙	-8576
「󲷨	-8577
「󲷴	-8578
「󲷶	-8579
「󲷽	-8580
「󲷿	-8581
「󲸋	-8582
「󲸎	-8583
「󲸓	-8584
「󲸕	-8585
「󲸗	-8586
「󲸜	-8587
「󲸡	-8588
「󲸤	-8589
「󲸭	-8590
「󲸰	-8591
「󲸱	-8592
「󲸲	-8593
「󲸵	-8594
「󲸸	-8595
「󲹅	-8596
「󲹊	-8597
「󲹋	-8598
「󲹓	-8599
「󲹚	-8600
「󲹟	-8601
「󲹡	-8602
「󲹢	-8603
「󲹩	-8604
「󲹫	-8605
「󲹭	-8606
「󲹳	-8607
「󲹹	-8608
「󲹼	-8609
「󲺄	-8610
「󲺇	-8611
「󲺊	-8612
「󲺋	-8613
「󲺖	-8614
「󲺪	-8615
「󲺫	-8616
「󲺵	-8617
「󲺸	-8618
「󲺺	-8619
「󲺻	-8620
「󲺾	-8621
「󲻇	-8622
「󲻔	-8623
「󲻧	-8624
「󲻪	-8625
「󲻯	-8626
「󲻻	-8627
「󲼃	-8628
「󲼇	-8629
「󲼈	-8630
「󲼉	-8631
「󲼗	-8632
「󲼛	-8633
「󲼞	-8634
「󲼠	-8635
「󲼡	-8636
「󲼥	-8637
「󲼩	-8638
「󲼮	-8639
「󲼯	-8640
「󲼷	-8641
「󲽀	-8642
「󲽂	-8643
「󲽃	-8644
「󲽄	-8645
「󲽍	-8646
「󲽐	-8647
「󲽑	-8648
「󲽒	-8649
「󲽓	-8650
「󲽔	-8651
「󲽗	-8652
「󲽘	-8653
「󲽜	-8654
「󲽴	-8655
「󲽶	-8656
「󲽸	-8657
「󲽹	-8658
「󲽺	-8659
「󲽼	-8660
「󲽽	-8661
「󲾀	-8662
「󲾁	-8663
「󲾑	-8664
「󲾒	-8665
「󲾓	-8666
「󲾔	-8667
「󲾗	-8668
「󲾘	-8669
「󲾚	-8670
「󲾞	-8671
「󲾢	-8672
「󲾧	-8673
「󲾱	-8674
「󲾲	-8675
「󲾷	-8676
「󲾹	-8677
「󲾽	-8678
「󲿈	-8679
「󲿉	-8680
「󲿋	-8681
「󲿎	-8682
「󲿞	-8683
「󲿧	-8684
「󲿩	-8685
「󲿰	-8686
「󲿱	-8687
「󲿳	-8688
「󲿼	-8689
「󲿿	-8690
「󳀉	-8691
「󳀏	-8692
「󳀙	-8693
「󳀢	-8694
「󳀦	-8695
「󳀨	-8696
「󳀭	-8697
「󳀶	-8698
「󳀹	-8699
「󳀼	-8700
「󳁁	-8701
「󳁂	-8702
「󳁆	-8703
「󳁇	-8704
「󳁋	-8705
「󳁒	-8706
「󳁕	-8707
「󳁘	-8708
「󳁚	-8709
「󳁜	-8710
「󳁥	-8711
「󳁩	-8712
「󳁫	-8713
「󳁭	-8714
「󳁸	-8715
「󳁼	-8716
「󳂄	-8717
「󳂐	-8718
「󳂖	-8719
「󳂝	-8720
「󳂤	-8721
「󳂩	-8722
「󳂫	-8723
「󳂬	-8724
「󳂳	-8725
「󳃋	-8726
「󳃎	-8727
「󳃐	-8728
「󳃘	-8729
「󳃝	-8730
「󳃞	-8731
「󳃢	-8732
「󳃩	-8733
「󳃯	-8734
「󳃵	-8735
「󳃶	-8736
「󳃷	-8737
「󳃸	-8738
「󳃺	-8739
「󳃼	-8740
「󳃿	-8741
「󳄁	-8742
「󳄆	-8743
「󳄈	-8744
「󳄋	-8745
「󳄌	-8746
「󳄚	-8747
「󳄫	-8748
「󳄮	-8749
「󳄯	-8750
「󳄰	-8751
「󳄸	-8752
「󳄹	-8753
「󳅀	-8754
「󳅋	-8755
「󳅏	-8756
「󳅑	-8757
「󳅖	-8758
「󳅙	-8759
「󳅣	-8760
「󳅩	-8761
「󳅪	-8762
「󳅱	-8763
「󳅺	-8764
「󳆀	-8765
「󳆊	-8766
「󳆎	-8767
「󳆕	-8768
「󳆠	-8769
「󳆡	-8770
「󳆢	-8771
「󳆦	-8772
「󳆩	-8773
「󳆱	-8774
「󳆲	-8775
「󳆵	-8776
「󳆷	-8777
「󳆸	-8778
「󳆽	-8779
「󳇀	-8780
「󳇄	-8781
「󳇈	-8782
「󳇍	-8783
「󳇓	-8784
「󳇖	-8785
「󳇙	-8786
「󳇚	-8787
「󳇞	-8788
「󳇣	-8789
「󳇦	-8790
「󳇨	-8791
「󳇩	-8792
「󳇮	-8793
「󳇰	-8794
「󳇱	-8795
「󳈅	-8796
「󳈉	-8797
「󳈊	-8798
「󳈋	-8799
「󳈔	-8800
「󳈚	-8801
「󳈦	-8802
「󳈧	-8803
「󳈫	-8804
「󳈭	-8805
「󳈮	-8806
「󳈲	-8807
「󳈸	-8808
「󳉀	-8809
「󳉆	-8810
「󳉓	-8811
「󳉕	-8812
「󳉚	-8813
「󳉞	-8814
「󳉤	-8815
「󳉲	-8816
「󳉽	-8817
「󳊂	-8818
「󳊉	-8819
「󳊊	-8820
「󳊋	-8821
「󳊌	-8822
「󳊍	-8823
「󳊎	-8824
「󳊖	-8825
「󳊗	-8826
「󳊙	-8827
「󳊝	-8828
「󳊠	-8829
「󳊡	-8830
「󳊪	-8831
「󳊬	-8832
「󳊲	-8833
「󳋅	-8834
「󳋐	-8835
「󳋖	-8836
「󳋟	-8837
「󳋦	-8838
「󳋧	-8839
「󳋺	-8840
「󳋽	-8841
「󳋿	-8842
「󳌂	-8843
「󳌍	-8844
「󳌏	-8845
「󳌐	-8846
「󳌪	-8847
「󳌵	-8848
「󳌶	-8849
「󳌷	-8850
「󳌾	-8851
「󳍁	-8852
「󳍃	-8853
「󳍄	-8854
「󳍆	-8855
「󳍐	-8856
「󳍑	-8857
「󳍓	-8858
「󳍝	-8859
「󳍟	-8860
「󳍠	-8861
「󳍱	-8862
「󳍴	-8863
「󳍸	-8864
「󳍼	-8865
「󳎃	-8866
「󳎄	-8867
「󳎈	-8868
「󳎏	-8869
「󳎒	-8870
「󳎓	-8871
「󳎝	-8872
「󳎮	-8873
「󳏂	-8874
「󳏃	-8875
「󳏊	-8876
「󳏌	-8877
「󳏚	-8878
「󳏟	-8879
「󳏤	-8880
「󳏪	-8881
「󳏭	-8882
「󳏮	-8883
「󳏹	-8884
「󳐃	-8885
「󳐅	-8886
「󳐆	-8887
「󳐇	-8888
「󳐌	-8889
「󳐗	-8890
「󳐛	-8891
「󳐡	-8892
「󳐢	-8893
「󳐥	-8894
「󳐧	-8895
「󳐨	-8896
「󳐬	-8897
「󳐯	-8898
「󳐻	-8899
「󳐼	-8900
「󳐾	-8901
「󳑀	-8902
「󳑈	-8903
「󳑚	-8904
「󳑝	-8905
「󳑤	-8906
「󳑩	-8907
「󳑪	-8908
「󳑬	-8909
「󳑱	-8910
「󳑴	-8911
「󳑹	-8912
「󳑺	-8913
「󳑼	-8914
「󳒀	-8915
「󳒃	-8916
「󳒆	-8917
「󳒈	-8918
「󳒉	-8919
「󳒒	-8920
「󳒖	-8921
「󳒘	-8922
「󳒜	-8923
「󳒣	-8924
「󳒦	-8925
「󳒩	-8926
「󳒮	-8927
「󳒿	-8928
「󳓀	-8929
▁	-8930
文	-8931
是	-8932
彝	-8933
的	-8934
i	-8935
(	-8936
)	-8937
s	-8938
t	-8939
e	-8940
么	-8941
意	-8942
「	-8943
」	-8944
思	-8945
a	-8946
n	-8947
r	-8948
o	-8949
字	-8950
什	-8951
符	-8952
用	-8953
,	-8954
?	-8955
c	-8956
。	-8957
、	-8958
写	-8959
p	-8960
h	-8961
怎	-8962
l	-8963
2	-8964
;	-8965
表	-8966
f	-8967
示	-8968
.	-8969
Y	-8970
'	-8971
义	-8972
含	-8973
1	-8974
这	-8975
英	-8976
0	-8977
通	-8978
d	-8979
y	-8980
3	-8981
:	-8982
u	-8983
词	-8984
中	-8985
编	-8986
w	-8987
号	-8988
x	-8989
T	-8990
m	-8991
4	-8992
个	-8993
5	-8994
g	-8995
子	-8996
翻	-8997
译	-8998
6	-8999
合	-9000
H	-9001
两	-9002
b	-9003
组	-9004
8	-9005
9	-9006
7	-9007
|	-9008
量	-9009
C	-9010
述	-9011
作	-9012
描	-9013
法	-9014
请	-9015
动	-9016
v	-9017
和	-9018
多	-9019
k	-9020
对	-9021
族	-9022
问	-9023
在	-9024
我	-9025
应	-9026
I	-9027
语	-9028
少	-9029
一	-9030
名	-9031
水	-9032
分	-9033
很	-9034
等	-9035
别	-9036
头	-9037
于	-9038
人	-9039
汇	-9040
天	-9041
气	-9042
地	-9043
不	-9044
有	-9045
生	-9046
上	-9047
"	-9048
要	-9049
成	-9050
你	-9051
古	-9052
形	-9053
化	-9054
把	-9055
声	-9056
了	-9057
集	-9058
为	-9059
花	-9060
会	-9061
说	-9062
使	-9063
容	-9064
过	-9065
体	-9066
缀	-9067
发	-9068
重	-9069
们	-9070
小	-9071
传	-9072
系	-9073
他	-9074
种	-9075
口	-9076
下	-9077
山	-9078
明	-9079
物	-9080
数	-9081
好	-9082
位	-9083
时	-9084
老	-9085
q	-9086
加	-9087
可	-9088
喜	-9089
面	-9090
饭	-9091
年	-9092
吃	-9093
民	-9094
家	-9095
叫	-9096
欢	-9097
衣	-9098
然	-9099
大	-9100
打	-9101
祖	-9102
神	-9103
果	-9104
开	-9105
树	-9106
里	-9107
马	-9108
先	-9109
节	-9110
自	-9111
指	-9112
木	-9113
菜	-9114
火	-9115
服	-9116
养	-9117
ꐯ	-9118
前	-9119
盖	-9120
行	-9121
解	-9122
出	-9123
草	-9124
色	-9125
第	-9126
能	-9127
皮	-9128
事	-9129
实	-9130
来	-9131
祭	-9132
方	-9133
鸟	-9134
手	-9135
之	-9136
刀	-9137
后	-9138
灵	-9139
称	-9140
鸡	-9141
眼	-9142
部	-9143
板	-9144
心	-9145
定	-9146
工	-9147
门	-9148
间	-9149
理	-9150
食	-9151
结	-9152
叠	-9153
风	-9154
学	-9155
!	-9156
猪	-9157
承	-9158
最	-9159
世	-9160
折	-9161
接	-9162
同	-9163
牛	-9164
磨	-9165
野	-9166
土	-9167
着	-9168
活	-9169
麻	-9170
谷	-9171
背	-9172
她	-9173
松	-9174
模	-9175
空	-9176
高	-9177
儿	-9178
味	-9179
象	-9180
烂	-9181
去	-9182
布	-9183
立	-9184
特	-9185
利	-9186
毛	-9187
放	-9188
准	-9189
起	-9190
仅	-9191
考	-9192
支	-9193
相	-9194
觉	-9195
豆	-9196
达	-9197
羊	-9198
回	-9199
知	-9200
助	-9201
态	-9202
读	-9203
脚	-9204
伤	-9205
石	-9206
强	-9207
摆	-9208
具	-9209
点	-9210
断	-9211
清	-9212
盛	-9213
缩	-9214
S	-9215
快	-9216
经	-9217
关	-9218
房	-9219
亮	-9220
以	-9221
刺	-9222
源	-9223
睡	-9224
道	-9225
干	-9226
样	-9227
每	-9228
白	-9229
谢	-9230
畜	-9231
落	-9232
鱼	-9233
记	-9234
平	-9235
由	-9236
兴	-9237
母	-9238
言	-9239
倒	-9240
都	-9241
想	-9242
做	-9243
千	-9244
孩	-9245
摇	-9246
西	-9247
香	-9248
痛	-9249
被	-9250
月	-9251
嘴	-9252
载	-9253
统	-9254
钱	-9255
包	-9256
泡	-9257
无	-9258
美	-9259
备	-9260
走	-9261
长	-9262
完	-9263
精	-9264
虎	-9265
收	-9266
j	-9267
智	-9268
牲	-9269
力	-9270
沉	-9271
猫	-9272
安	-9273
巴	-9274
东	-9275
类	-9276
贵	-9277
烧	-9278
器	-9279
念	-9280
挑	-9281
早	-9282
阳	-9283
唠	-9284
爱	-9285
细	-9286
察	-9287
肚	-9288
详	-9289
轻	-9290
病	-9291
变	-9292
汉	-9293
乘	-9294
故	-9295
朵	-9296
角	-9297
造	-9298
今	-9299
枪	-9300
直	-9301
酒	-9302
属	-9303
还	-9304
从	-9305
耳	-9306
虑	-9307
车	-9308
晚	-9309
计	-9310
跳	-9311
调	-9312
机	-9313
连	-9314
书	-9315
展	-9316
告	-9317
累	-9318
叶	-9319
正	-9320
度	-9321
拌	-9322
油	-9323
身	-9324
史	-9325
料	-9326
漂	-9327
边	-9328
叨	-9329
历	-9330
糊	-9331
虫	-9332
制	-9333
得	-9334
斗	-9335
星	-9336
转	-9337
竹	-9338
减	-9339
渐	-9340
米	-9341
台	-9342
散	-9343
比	-9344
黑	-9345
送	-9346
遗	-9347
整	-9348
现	-9349
窝	-9350
认	-9351
亲	-9352
灰	-9353
界	-9354
线	-9355
越	-9356
片	-9357
抽	-9358
涵	-9359
状	-9360
录	-9361
冲	-9362
十	-9363
慧	-9364
泥	-9365
锅	-9366
乌	-9367
客	-9368
染	-9369
处	-9370
架	-9371
治	-9372
算	-9373
社	-9374
缠	-9375
烟	-9376
药	-9377
姐	-9378
歌	-9379
满	-9380
臭	-9381
话	-9382
音	-9383
齐	-9384
稀	-9385
哪	-9386
情	-9387
芋	-9388
许	-9389
向	-9390
敬	-9391
根	-9392
肉	-9393
骨	-9394
护	-9395
格	-9396
腿	-9397
太	-9398
腰	-9399
茶	-9400
+	-9401
围	-9402
块	-9403
底	-9404
父	-9405
串	-9406
嫩	-9407
难	-9408
丽	-9409
因	-9410
二	-9411
代	-9412
破	-9413
论	-9414
威	-9415
性	-9416
洞	-9417
蜂	-9418
厚	-9419
禁	-9420
而	-9421
远	-9422
青	-9423
层	-9424
感	-9425
移	-9426
Q	-9427
吗	-9428
壮	-9429
日	-9430
植	-9431
离	-9432
脏	-9433
午	-9434
挂	-9435
弹	-9436
懒	-9437
更	-9438
杆	-9439
纠	-9440
乐	-9441
息	-9442
融	-9443
雨	-9444
也	-9445
价	-9446
注	-9447
犁	-9448
给	-9449
产	-9450
国	-9451
弟	-9452
微	-9453
群	-9454
赘	-9455
黄	-9456
云	-9457
独	-9458
三	-9459
乱	-9460
搅	-9461
公	-9462
球	-9463
路	-9464
死	-9465
芽	-9466
观	-9467
需	-9468
其	-9469
创	-9470
柴	-9471
那	-9472
依	-9473
引	-9474
瓜	-9475
󲊂	-9476
主	-9477
内	-9478
奉	-9479
如	-9480
庄	-9481
拥	-9482
深	-9483
装	-9484
六	-9485
育	-9486
女	-9487
孔	-9488
川	-9489
张	-9490
嚼	-9491
摩	-9492
撒	-9493
粒	-9494
绵	-9495
顺	-9496
飞	-9497
吸	-9498
琴	-9499
管	-9500
腐	-9501
荡	-9502
肥	-9503
塞	-9504
幽	-9505
约	-9506
舒	-9507
鸦	-9508
半	-9509
富	-9510
液	-9511
热	-9512
陷	-9513
修	-9514
消	-9515
惜	-9516
牙	-9517
红	-9518
见	-9519
碎	-9520
软	-9521
健	-9522
帮	-9523
补	-9524
静	-9525
与	-9526
建	-9527
占	-9528
尖	-9529
慢	-9530
箩	-9531
膀	-9532
保	-9533
全	-9534
品	-9535
妻	-9536
掉	-9537
本	-9538
烦	-9539
田	-9540
随	-9541
曾	-9542
螂	-9543
任	-9544
城	-9545
师	-9546
槽	-9547
爽	-9548
费	-9549
即	-9550
牵	-9551
瘦	-9552
血	-9553
扣	-9554
抢	-9555
滇	-9556
芦	-9557
阿	-9558
z	-9559
习	-9560
常	-9561
戏	-9562
核	-9563
舞	-9564
酸	-9565
便	-9566
入	-9567
医	-9568
昆	-9569
闲	-9570
专	-9571
吉	-9572
砂	-9573
复	-9574
待	-9575
棚	-9576
没	-9577
献	-9578
环	-9579
胡	-9580
但	-9581
及	-9582
喝	-9583
排	-9584
摔	-9585
胸	-9586
勇	-9587
撮	-9588
毕	-9589
确	-9590
魔	-9591
八	-9592
洗	-9593
稠	-9594
供	-9595
场	-9596
康	-9597
伙	-9598
光	-9599
受	-9600
妈	-9601
恶	-9602
损	-9603
撞	-9604
止	-9605
繁	-9606
五	-9607
咽	-9608
悲	-9609
瓢	-9610
笑	-9611
箭	-9612
M	-9613
市	-9614
弱	-9615
斑	-9616
脱	-9617
妹	-9618
者	-9619
住	-9620
礼	-9621
笆	-9622
跑	-9623
鬼	-9624
华	-9625
外	-9626
枝	-9627
真	-9628
章	-9629
箱	-9630
紧	-9631
餐	-9632
帽	-9633
术	-9634
步	-9635
温	-9636
盐	-9637
堵	-9638
导	-9639
怪	-9640
楼	-9641
流	-9642
介	-9643
到	-9644
北	-9645
夜	-9646
污	-9647
熟	-9648
篾	-9649
鼻	-9650
原	-9651
取	-9652
四	-9653
突	-9654
答	-9655
雀	-9656
件	-9657
堆	-9658
宗	-9659
敢	-9660
吐	-9661
听	-9662
奶	-9663
崽	-9664
次	-9665
演	-9666
索	-9667
蚂	-9668
螳	-9669
闹	-9670
顽	-9671
喷	-9672
尘	-9673
看	-9674
绍	-9675
偿	-9676
南	-9677
夏	-9678
沟	-9679
苦	-9680
责	-9681
抖	-9682
粗	-9683
粮	-9684
输	-9685
切	-9686
坎	-9687
害	-9688
席	-9689
慕	-9690
搭	-9691
烙	-9692
肿	-9693
苗	-9694
骗	-9695
黔	-9696
凸	-9697
卦	-9698
捆	-9699
旧	-9700
景	-9701
砍	-9702
聪	-9703
讨	-9704
闪	-9705
隐	-9706
项	-9707
饿	-9708
卧	-9709
擦	-9710
浪	-9711
游	-9712
债	-9713
带	-9714
往	-9715
昌	-9716
福	-9717
鹿	-9718
鼓	-9719
兄	-9720
凝	-9721
娇	-9722
拾	-9723
河	-9724
续	-9725
须	-9726
些	-9727
圆	-9728
屎	-9729
祝	-9730
密	-9731
悄	-9732
疮	-9733
稼	-9734
设	-9735
足	-9736
辣	-9737
垫	-9738
归	-9739
材	-9740
沸	-9741
甩	-9742
电	-9743
袋	-9744
争	-9745
净	-9746
周	-9747
拢	-9748
祀	-9749
莓	-9750
铃	-9751
己	-9752
画	-9753
贤	-9754
金	-9755
题	-9756
丢	-9757
佩	-9758
坟	-9759
曲	-9760
替	-9761
瞄	-9762
稻	-9763
规	-9764
谐	-9765
嘎	-9766
扇	-9767
挡	-9768
春	-9769
未	-9770
碗	-9771
级	-9772
罩	-9773
践	-9774
阴	-9775
霍	-9776
鞋	-9777
务	-9778
勺	-9779
型	-9780
怜	-9781
急	-9782
报	-9783
棍	-9784
蓝	-9785
铜	-9786
G	-9787
井	-9788
交	-9789
友	-9790
吵	-9791
测	-9792
玉	-9793
疾	-9794
篱	-9795
丑	-9796
又	-9797
歪	-9798
虚	-9799
视	-9800
闭	-9801
仿	-9802
卫	-9803
担	-9804
海	-9805
狗	-9806
芒	-9807
蒸	-9808
蛋	-9809
锁	-9810
错	-9811
像	-9812
勾	-9813
吹	-9814
期	-9815
梦	-9816
穿	-9817
跟	-9818
遮	-9819
O	-9820
仍	-9821
喧	-9822
炸	-9823
碰	-9824
积	-9825
贫	-9826
进	-9827
魂	-9828
仗	-9829
刻	-9830
夫	-9831
差	-9832
德	-9833
怨	-9834
推	-9835
操	-9836
炎	-9837
省	-9838
织	-9839
蚁	-9840
赶	-9841
零	-9842
丈	-9843
倦	-9844
只	-9845
善	-9846
尾	-9847
当	-9848
挣	-9849
敏	-9850
椒	-9851
银	-9852
额	-9853
鸣	-9854
决	-9855
哄	-9856
响	-9857
墓	-9858
壁	-9859
始	-9860
姓	-9861
恐	-9862
矮	-9863
舅	-9864
超	-9865
遍	-9866
露	-9867
农	-9868
凉	-9869
招	-9870
杀	-9871
洋	-9872
烫	-9873
祷	-9874
脸	-9875
递	-9876
饱	-9877
再	-9878
命	-9879
昏	-9880
朋	-9881
汤	-9882
泣	-9883
灿	-9884
牢	-9885
留	-9886
箕	-9887
胆	-9888
V	-9889
W	-9890
信	-9891
填	-9892
婆	-9893
屋	-9894
抚	-9895
浓	-9896
灾	-9897
祈	-9898
禄	-9899
秋	-9900
笙	-9901
裙	-9902
运	-9903
顶	-9904
喉	-9905
拉	-9906
浊	-9907
燕	-9908
监	-9909
稍	-9910
逗	-9911
首	-9912
鲁	-9913
凹	-9914
哼	-9915
困	-9916
塘	-9917
燃	-9918
绞	-9919
蓬	-9920
蜴	-9921
配	-9922
雾	-9923
领	-9924
乍	-9925
冰	-9926
叹	-9927
易	-9928
楚	-9929
榫	-9930
藏	-9931
蜥	-9932
锋	-9933
陶	-9934
麦	-9935
俏	-9936
傻	-9937
咒	-9938
彩	-9939
或	-9940
扳	-9941
新	-9942
爸	-9943
瓷	-9944
素	-9945
坑	-9946
弯	-9947
怀	-9948
怕	-9949
换	-9950
斜	-9951
杖	-9952
渡	-9953
滴	-9954
灶	-9955
狸	-9956
肮	-9957
胎	-9958
剩	-9959
孙	-9960
将	-9961
扯	-9962
桃	-9963
皇	-9964
耽	-9965
丰	-9966
找	-9967
捏	-9968
掺	-9969
搁	-9970
撕	-9971
殡	-9972
滚	-9973
狐	-9974
纽	-9975
趣	-9976
轴	-9977
逝	-9978
针	-9979
镶	-9980
丝	-9981
休	-9982
壶	-9983
夭	-9984
欺	-9985
男	-9986
缺	-9987
脾	-9988
闷	-9989
震	-9990
靠	-9991
骄	-9992
七	-9993
令	-9994
傲	-9995
劈	-9996
区	-9997
居	-9998
扒	-9999
救	-10000
村	-10001
珠	-10002
笨	-10003
粉	-10004
脊	-10005
苔	-10006
踩	-10007
侍	-10008
典	-10009
凿	-10010
墨	-10011
拐	-10012
教	-10013
枷	-10014
求	-10015
盆	-10016
站	-10017
肠	-10018
菇	-10019
菌	-10020
薄	-10021
蟹	-10022
裂	-10023
赌	-10024
距	-10025
跨	-10026
副	-10027
埋	-10028
州	-10029
序	-10030
弩	-10031
愈	-10032
据	-10033
栓	-10034
班	-10035
腾	-10036
臀	-10037
裤	-10038
贪	-10039
镰	-10040
雄	-10041
侄	-10042
偷	-10043
嚎	-10044
坏	-10045
姑	-10046
惧	-10047
拱	-10048
杨	-10049
瓦	-10050
百	-10051
砚	-10052
茎	-10053
迎	-10054
预	-10055
万	-10056
停	-10057
削	-10058
叔	-10059
嘶	-10060
惩	-10061
拼	-10062
搏	-10063
查	-10064
炒	-10065
狠	-10066
虐	-10067
触	-10068
隔	-10069
功	-10070
吆	-10071
啊	-10072
帝	-10073
掩	-10074
潮	-10075
玩	-10076
锦	-10077
饲	-10078
龙	-10079
付	-10080
双	-10081
够	-10082
寻	-10083
必	-10084
恸	-10085
所	-10086
拨	-10087
掌	-10088
混	-10089
熊	-10090
签	-10091
胁	-10092
螃	-10093
让	-10094
议	-10095
速	-10096
鸭	-10097
冷	-10098
单	-10099
哭	-10100
孕	-10101
寄	-10102
投	-10103
欠	-10104
浮	-10105
胀	-10106
藤	-10107
辛	-10108
退	-10109
饰	-10110
刨	-10111
剪	-10112
博	-10113
压	-10114
固	-10115
嫁	-10116
就	-10117
式	-10118
栗	-10119
瘪	-10120
紫	-10121
纳	-10122
练	-10123
腻	-10124
诚	-10125
质	-10126
追	-10127
颤	-10128
慎	-10129
插	-10130
矩	-10131
码	-10132
糙	-10133
缴	-10134
钩	-10135
除	-10136
鹰	-10137
唱	-10138
戳	-10139
抠	-10140
梭	-10141
泛	-10142
添	-10143
湿	-10144
煮	-10145
爷	-10146
甸	-10147
疲	-10148
良	-10149
蒙	-10150
败	-10151
齿	-10152
克	-10153
免	-10154
划	-10155
哎	-10156
屁	-10157
忙	-10158
晃	-10159
短	-10160
穷	-10161
纸	-10162
荣	-10163
识	-10164
赠	-10165
黏	-10166
乳	-10167
卡	-10168
咐	-10169
啄	-10170
壳	-10171
捂	-10172
望	-10173
端	-10174
绝	-10175
置	-10176
脓	-10177
蓑	-10178
衍	-10179
诉	-10180
迟	-10181
遣	-10182
伴	-10183
卖	-10184
叽	-10185
吓	-10186
呼	-10187
失	-10188
寿	-10189
岩	-10190
总	-10191
愿	-10192
摘	-10193
柜	-10194
渣	-10195
皱	-10196
益	-10197
茅	-10198
茨	-10199
训	-10200
赡	-10201
迁	-10202
严	-10203
厌	-10204
另	-10205
坝	-10206
基	-10207
拿	-10208
播	-10209
旁	-10210
权	-10211
栽	-10212
炉	-10213
疏	-10214
耍	-10215
脑	-10216
茧	-10217
虹	-10218
讲	-10219
释	-10220
雪	-10221
默	-10222
-	-10223
傣	-10224
喳	-10225
弃	-10226
林	-10227
案	-10228
洁	-10229
漏	-10230
绿	-10231
铺	-10232
A	-10233
“	-10234
估	-10235
哈	-10236
圈	-10237
忌	-10238
抬	-10239
挤	-10240
晰	-10241
汆	-10242
江	-10243
泸	-10244
猛	-10245
睁	-10246
罢	-10247
舍	-10248
莫	-10249
谁	-10250
避	-10251
铲	-10252
鳝	-10253
”	-10254
俯	-10255
候	-10256
剔	-10257
呕	-10258
堂	-10259
娘	-10260
孝	-10261
宇	-10262
宙	-10263
寨	-10264
暑	-10265
梯	-10266
浆	-10267
猎	-10268
申	-10269
瞒	-10270
络	-10271
缓	-10272
脂	-10273
谤	-10274
锣	-10275
陀	-10276
饼	-10277
E	-10278
乒	-10279
倾	-10280
凑	-10281
召	-10282
塌	-10283
巢	-10284
左	-10285
弓	-10286
志	-10287
梅	-10288
煎	-10289
舌	-10290
艺	-10291
蛇	-10292
蝗	-10293
蝶	-10294
催	-10295
冬	-10296
匆	-10297
呛	-10298
哨	-10299
坐	-10300
悯	-10301
朗	-10302
毡	-10303
灭	-10304
秃	-10305
笠	-10306
肋	-10307
萝	-10308
蟀	-10309
诽	-10310
鳅	-10311
剥	-10312
埂	-10313
妇	-10314
姜	-10315
狱	-10316
肯	-10317
蜷	-10318
跤	-10319
辈	-10320
闩	-10321
韭	-10322
仇	-10323
忆	-10324
捅	-10325
摸	-10326
政	-10327
枯	-10328
榴	-10329
狮	-10330
缝	-10331
腌	-10332
萎	-10333
蒜	-10334
该	-10335
且	-10336
久	-10337
刮	-10338
呲	-10339
抛	-10340
拙	-10341
攀	-10342
暴	-10343
杂	-10344
杜	-10345
构	-10346
瓶	-10347
睫	-10348
聊	-10349
舂	-10350
诙	-10351
贿	-10352
阶	-10353
陋	-10354
ꀋ	-10355
ā	-10356
丧	-10357
侧	-10358
俗	-10359
允	-10360
兜	-10361
哑	-10362
哗	-10363
嘻	-10364
宁	-10365
尽	-10366
惦	-10367
改	-10368
敲	-10369
淀	-10370
砖	-10371
砰	-10372
糟	-10373
荷	-10374
辨	-10375
众	-10376
叙	-10377
囤	-10378
射	-10379
征	-10380
技	-10381
殖	-10382
汽	-10383
沙	-10384
沫	-10385
葫	-10386
蕾	-10387
迹	-10388
采	-10389
霭	-10390
髓	-10391
则	-10392
劳	-10393
呆	-10394
图	-10395
墙	-10396
壤	-10397
婚	-10398
寡	-10399
戴	-10400
末	-10401
枕	-10402
焖	-10403
盘	-10404
砸	-10405
绘	-10406
菠	-10407
虽	-10408
虾	-10409
踪	-10410
蹬	-10411
醋	-10412
醒	-10413
钢	-10414
降	-10415
驮	-10416
仓	-10417
借	-10418
勒	-10419
吼	-10420
唇	-10421
套	-10422
孤	-10423
尿	-10424
岁	-10425
忠	-10426
擂	-10427
窄	-10428
纹	-10429
肺	-10430
蔬	-10431
蚌	-10432
诺	-10433
阔	-10434
颗	-10435
鼠	-10436
龟	-10437
丸	-10438
几	-10439
办	-10440
印	-10441
吊	-10442
恩	-10443
惯	-10444
拜	-10445
条	-10446
横	-10447
殷	-10448
痣	-10449
芝	-10450
苍	-10451
蝼	-10452
襻	-10453
谱	-10454
透	-10455
鲸	-10456
元	-10457
坍	-10458
寒	-10459
废	-10460
按	-10461
挎	-10462
掼	-10463
搬	-10464
摊	-10465
朽	-10466
柏	-10467
桥	-10468
浑	-10469
溢	-10470
租	-10471
筒	-10472
耗	-10473
苇	-10474
蚱	-10475
蟋	-10476
襟	-10477
赤	-10478
锄	-10479
鹃	-10480
互	-10481
仰	-10482
低	-10483
呐	-10484
婿	-10485
媳	-10486
帕	-10487
并	-10488
拍	-10489
掷	-10490
杏	-10491
棕	-10492
派	-10493
浸	-10494
王	-10495
疤	-10496
碓	-10497
笔	-10498
绣	-10499
耐	-10500
萄	-10501
葡	-10502
锈	-10503
阅	-10504
鸠	-10505
鸽	-10506
优	-10507
值	-10508
反	-10509
句	-10510
吝	-10511
唆	-10512
园	-10513
户	-10514
抱	-10515
擀	-10516
旋	-10517
棒	-10518
泪	-10519
潜	-10520
濮	-10521
癞	-10522
纵	-10523
胱	-10524
荒	-10525
荫	-10526
豁	-10527
较	-10528
钉	-10529
锐	-10530
锤	-10531
骂	-10532
亡	-10533
冻	-10534
列	-10535
努	-10536
团	-10537
垭	-10538
娃	-10539
宝	-10540
宾	-10541
挪	-10542
挺	-10543
晕	-10544
槛	-10545
渴	-10546
疹	-10547
缘	-10548
茂	-10549
蛆	-10550
轿	-10551
飘	-10552
丛	-10553
兽	-10554
吧	-10555
嚏	-10556
囫	-10557
垂	-10558
尊	-10559
惑	-10560
捕	-10561
掏	-10562
攻	-10563
显	-10564
普	-10565
楂	-10566
泳	-10567
甜	-10568
穗	-10569
筲	-10570
简	-10571
粥	-10572
继	-10573
网	-10574
茯	-10575
赢	-10576
适	-10577
陈	-10578
鹤	-10579
ꈭ	-10580
吻	-10581
孵	-10582
幼	-10583
捉	-10584
捋	-10585
斧	-10586
旗	-10587
柔	-10588
睾	-10589
砣	-10590
笼	-10591
籽	-10592
绊	-10593
绕	-10594
羡	-10595
蔼	-10596
赏	-10597
邀	-10598
雹	-10599
驰	-10600
骑	-10601
󲠇	-10602
份	-10603
剖	-10604
割	-10605
县	-10606
唢	-10607
嫂	-10608
宜	-10609
忍	-10610
您	-10611
扫	-10612
掐	-10613
揩	-10614
梁	-10615
梳	-10616
欲	-10617
湖	-10618
溅	-10619
灯	-10620
炮	-10621
牧	-10622
痕	-10623
痴	-10624
腮	-10625
荸	-10626
蘸	-10627
跌	-10628
躁	-10629
逛	-10630
󲧯	-10631
󳖀	-10632
仪	-10633
俄	-10634
傍	-10635
危	-10636
卷	-10637
厅	-10638
启	-10639
封	-10640
弦	-10641
拳	-10642
掰	-10643
施	-10644
校	-10645
盾	-10646
砧	-10647
程	-10648
童	-10649
粪	-10650
糖	-10651
耕	-10652
蒂	-10653
蝇	-10654
蝌	-10655
袍	-10656
赔	-10657
防	-10658
饮	-10659
󲵾	-10660
伯	-10661
勤	-10662
勿	-10663
啬	-10664
囵	-10665
坛	-10666
娶	-10667
婪	-10668
广	-10669
庇	-10670
店	-10671
惠	-10672
戚	-10673
披	-10674
挖	-10675
昨	-10676
朝	-10677
某	-10678
檐	-10679
泼	-10680
畅	-10681
簇	-10682
纪	-10683
罗	-10684
翁	-10685
胃	-10686
苓	-10687
蕉	-10688
蕨	-10689
试	-10690
酌	-10691
锥	-10692
霉	-10693
鳞	-10694
麒	-10695
󲼡	-10696
󳤣	-10697
丘	-10698
亚	-10699
儴	-10700
剃	-10701
否	-10702
咂	-10703
影	-10704
桌	-10705
棉	-10706
椿	-10707
殴	-10708
汗	-10709
浅	-10710
淋	-10711
滑	-10712
照	-10713
瓣	-10714
盏	-10715
羞	-10716
膝	-10717
葛	-10718
蠕	-10719
财	-10720
󲢟	-10721
󲩂	-10722
󲺛	-10723
佑	-10724
俐	-10725
守	-10726
扬	-10727
抹	-10728
押	-10729
捧	-10730
柄	-10731
淤	-10732
漫	-10733
灌	-10734
炕	-10735
绪	-10736
绳	-10737
肩	-10738
薹	-10739
诱	-10740
附	-10741
颈	-10742
驯	-10743
󲱷	-10744
󲹋	-10745
󳉁	-10746
󳉝	-10747
󳊊	-10748
󳎄	-10749
󳙼	-10750
N	-10751
储	-10752
卜	-10753
嘘	-10754
宫	-10755
控	-10756
旺	-10757
梨	-10758
沾	-10759
涕	-10760
焦	-10761
熏	-10762
猖	-10763
疼	-10764
绒	-10765
翘	-10766
胜	-10767
荠	-10768
营	-10769
葱	-10770
赂	-10771
辫	-10772
馆	-10773
鹊	-10774
麝	-10775
󲣌	-10776
󲬃	-10777
󲳫	-10778
󲷅	-10779
󳄫	-10780
󳈪	-10781
剑	-10782
叛	-10783
咬	-10784
唤	-10785
均	-10786
坯	-10787
境	-10788
床	-10789
彻	-10790
掀	-10791
搂	-10792
枣	-10793
柩	-10794
榔	-10795
獗	-10796
璃	-10797
瘠	-10798
瘤	-10799
盔	-10800
瞪	-10801
研	-10802
禀	-10803
禾	-10804
糠	-10805
腹	-10806
近	-10807
非	-10808
页	-10809
ꆸ	-10810
󲣥	-10811
󲸤	-10812
󲹙	-10813
󳁘	-10814
󳅉	-10815
󳅶	-10816
󳆦	-10817
󳋐	-10818
󳑐	-10819
󳔐	-10820
亿	-10821
匹	-10822
吮	-10823
夸	-10824
夹	-10825
拘	-10826
捣	-10827
揭	-10828
晓	-10829
晴	-10830
椎	-10831
泞	-10832
盗	-10833
竖	-10834
茸	-10835
荨	-10836
蝴	-10837
账	-10838
蹋	-10839
钟	-10840
馈	-10841
󲠊	-10842
󲠟	-10843
󲣍	-10844
󲣏	-10845
󲨌	-10846
󲨰	-10847
󲯷	-10848
󲶉	-10849
󲸷	-10850
󲹢	-10851
󲼞	-10852
󲼷	-10853
󲾞	-10854
󲾥	-10855
󳆽	-10856
󳇚	-10857
󳇰	-10858
󳇴	-10859
󳌶	-10860
乖	-10861
伞	-10862
伶	-10863
初	-10864
升	-10865
吞	-10866
哮	-10867
嘱	-10868
弄	-10869
捡	-10870
搜	-10871
桐	-10872
溜	-10873
溶	-10874
炫	-10875
猬	-10876
竭	-10877
聋	-10878
获	-10879
蟒	-10880
跚	-10881
辟	-10882
迷	-10883
铅	-10884
魄	-10885
麟	-10886
󲝒	-10887
󲠷	-10888
󲡘	-10889
󲢪	-10890
󲣯	-10891
󲣵	-10892
󲦁	-10893
󲧣	-10894
󲧪	-10895
󲰌	-10896
󲲜	-10897
󲸱	-10898
󲹌	-10899
󲺇	-10900
󲼃	-10901
󲿧	-10902
󳁁	-10903
󳁩	-10904
󳇶	-10905
󳐼	-10906
󳑤	-10907
󳔠	-10908
󳘿	-10909
󳚘	-10910
伐	-10911
兵	-10912
匙	-10913
厦	-10914
呃	-10915
啃	-10916
嗜	-10917
夺	-10918
妨	-10919
嫉	-10920
寺	-10921
岱	-10922
帘	-10923
懂	-10924
截	-10925
晒	-10926
沽	-10927
率	-10928
玻	-10929
目	-10930
眉	-10931
瞎	-10932
碍	-10933
秧	-10934
秸	-10935
聂	-10936
聘	-10937
腋	-10938
臼	-10939
蚕	-10940
蜓	-10941
钻	-10942
镊	-10943
雳	-10944
韧	-10945
󲝈	-10946
󲡢	-10947
󲢭	-10948
󲢲	-10949
󲣙	-10950
󲦴	-10951
󲪌	-10952
󲪤	-10953
󲮂	-10954
󲮦	-10955
󲱢	-10956
󲲅	-10957
󲵴	-10958
󲸡	-10959
󲻔	-10960
󲻛	-10961
󳈹	-10962
󳉓	-10963
󳊂	-10964
󳊠	-10965
󳍆	-10966
󳎫	-10967
󳏶	-10968
󳑈	-10969
󳑴	-10970
󳔄	-10971
󳕡	-10972
󳙬	-10973
业	-10974
唾	-10975
妒	-10976
徙	-10977
恃	-10978
悬	-10979
惊	-10980
抄	-10981
掘	-10982
揉	-10983
殿	-10984
洒	-10985
涂	-10986
狡	-10987
珍	-10988
疫	-10989
盟	-10990
睬	-10991
禽	-10992
究	-10993
笛	-10994
筋	-10995
缎	-10996
胗	-10997
脐	-10998
芜	-10999
芫	-11000
茁	-11001
菱	-11002
蜢	-11003
览	-11004
讽	-11005
谈	-11006
铐	-11007
链	-11008
馊	-11009
ꈌ	-11010
󲞰	-11011
󲟘	-11012
󲟦	-11013
󲟿	-11014
󲠉	-11015
󲠤	-11016
󲡾	-11017
󲢈	-11018
󲢜	-11019
󲢠	-11020
󲢼	-11021
󲣋	-11022
󲤉	-11023
󲤗	-11024
󲤢	-11025
󲥑	-11026
󲥓	-11027
󲨊	-11028
󲨯	-11029
󲩖	-11030
󲩭	-11031
󲪴	-11032
󲫧	-11033
󲭃	-11034
󲮰	-11035
󲯨	-11036
󲰺	-11037
󲳗	-11038
󲴘	-11039
󲷽	-11040
󲹅	-11041
󲹼	-11042
󲻤	-11043
󲼀	-11044
󲼑	-11045
󲽶	-11046
󳀨	-11047
󳈫	-11048
󳈲	-11049
󳉆	-11050
󳉰	-11051
󳊗	-11052
󳌨	-11053
󳍤	-11054
󳎝	-11055
󳏆	-11056
󳐡	-11057
󳐬	-11058
󳑥	-11059
󳓻	-11060
󳔆	-11061
󳔴	-11062
󳘡	-11063
󳘭	-11064
󳙈	-11065
󳙠	-11066
󳙥	-11067
乾	-11068
况	-11069
凤	-11070
各	-11071
吩	-11072
员	-11073
哲	-11074
培	-11075
妖	-11076
扎	-11077
拇	-11078
援	-11079
斟	-11080
暖	-11081
栖	-11082
漱	-11083
爵	-11084
瘌	-11085
矿	-11086
秆	-11087
秕	-11088
肌	-11089
螺	-11090
裳	-11091
鄂	-11092
󲞥	-11093
󲟡	-11094
󲠾	-11095
󲡛	-11096
󲡫	-11097
󲡯	-11098
󲡿	-11099
󲣜	-11100
󲣺	-11101
󲣽	-11102
󲤿	-11103
󲥼	-11104
󲪆	-11105
󲫺	-11106
󲬄	-11107
󲯴	-11108
󲰙	-11109
󲱦	-11110
󲲠	-11111
󲲱	-11112
󲲷	-11113
󲳁	-11114
󲳯	-11115
󲴠	-11116
󲴡	-11117
󲶻	-11118
󲷶	-11119
󲷿	-11120
󲸋	-11121
󲸚	-11122
󲸴	-11123
󲻕	-11124
󲻟	-11125
󲻯	-11126
󲽂	-11127
󲾓	-11128
󲾫	-11129
󲾵	-11130
󲾷	-11131
󲿗	-11132
󳀣	-11133
󳁾	-11134
󳂤	-11135
󳃳	-11136
󳃼	-11137
󳄁	-11138
󳄂	-11139
󳄆	-11140
󳆘	-11141
󳆢	-11142
󳇈	-11143
󳇊	-11144
󳇩	-11145
󳉒	-11146
󳉤	-11147
󳋬	-11148
󳌏	-11149
󳎬	-11150
󳏃	-11151
󳏹	-11152
󳕥	-11153
󳕰	-11154
󳖻	-11155
󳗟	-11156
󳗸	-11157
󳘋	-11158
󳚒	-11159
󳛎	-11160
󳛥	-11161
󳜗	-11162
举	-11163
亏	-11164
仁	-11165
假	-11166
劝	-11167
呻	-11168
墩	-11169
婢	-11170
官	-11171
尔	-11172
怒	-11173
拈	-11174
斥	-11175
旷	-11176
桩	-11177
澈	-11178
烤	-11179
犬	-11180
犯	-11181
瘾	-11182
私	-11183
稳	-11184
纱	-11185
肤	-11186
脉	-11187
船	-11188
葬	-11189
蚯	-11190
谜	-11191
负	-11192
酵	-11193
顿	-11194
󲝉	-11195
󲝷	-11196
󲟯	-11197
󲠁	-11198
󲡂	-11199
󲡅	-11200
󲡆	-11201
󲡇	-11202
󲢖	-11203
󲢚	-11204
󲢻	-11205
󲤜	-11206
󲤞	-11207
󲥏	-11208
󲦸	-11209
󲧭	-11210
󲧽	-11211
󲨫	-11212
󲨳	-11213
󲨶	-11214
󲩐	-11215
󲩣	-11216
󲪖	-11217
󲫂	-11218
󲭛	-11219
󲭫	-11220
󲯛	-11221
󲯵	-11222
󲲘	-11223
󲴇	-11224
󲴗	-11225
󲵵	-11226
󲷵	-11227
󲸏	-11228
󲸙	-11229
󲸲	-11230
󲹍	-11231
󲹩	-11232
󲺈	-11233
󲺖	-11234
󲽈	-11235
󲾹	-11236
󳀇	-11237
󳁅	-11238
󳁋	-11239
󳁷	-11240
󳂕	-11241
󳂫	-11242
󳃐	-11243
󳃝	-11244
󳃶	-11245
󳄸	-11246
󳆀	-11247
󳆕	-11248
󳆵	-11249
󳈦	-11250
󳊍	-11251
󳋋	-11252
󳋧	-11253
󳌍	-11254
󳌾	-11255
󳍚	-11256
󳍝	-11257
󳏒	-11258
󳏗	-11259
󳏚	-11260
󳏪	-11261
󳏲	-11262
󳐂	-11263
󳐴	-11264
󳒈	-11265
󳒖	-11266
󳓇	-11267
󳔌	-11268
󳔭	-11269
󳗂	-11270
󳗑	-11271
󳗛	-11272
󳗻	-11273
󳘃	-11274
󳚎	-11275
󳚜	-11276
󳛂	-11277
󳛲	-11278
󳛸	-11279
L	-11280
[	-11281
伟	-11282
冠	-11283
凰	-11284
呀	-11285
婴	-11286
彗	-11287
撤	-11288
映	-11289
杉	-11290
槟	-11291
漾	-11292
炖	-11293
犟	-11294
獾	-11295
痒	-11296
砌	-11297
罐	-11298
臁	-11299
薯	-11300
蘑	-11301
蜻	-11302
蟑	-11303
诗	-11304
赊	-11305
轮	-11306
辖	-11307
钓	-11308
钹	-11309
镀	-11310
阻	-11311
鬃	-11312
󲞟	-11313
󲟽	-11314
󲠍	-11315
󲠕	-11316
󲠣	-11317
󲠱	-11318
󲠶	-11319
󲠺	-11320
󲡞	-11321
󲡡	-11322
󲢓	-11323
󲣝	-11324
󲤛	-11325
󲥃	-11326
󲥊	-11327
󲦌	-11328
󲦫	-11329
󲦰	-11330
󲦻	-11331
󲧃	-11332
󲧎	-11333
󲧧	-11334
󲨨	-11335
󲩼	-11336
󲪂	-11337
󲪕	-11338
󲪹	-11339
󲫛	-11340
󲫜	-11341
󲬦	-11342
󲬲	-11343
󲬾	-11344
󲭻	-11345
󲮍	-11346
󲯊	-11347
󲯶	-11348
󲰁	-11349
󲰇	-11350
󲰠	-11351
󲱣	-11352
󲲹	-11353
󲳛	-11354
󲴊	-11355
󲴯	-11356
󲴹	-11357
󲵠	-11358
󲷀	-11359
󲷈	-11360
󲷐	-11361
󲷔	-11362
󲷰	-11363
󲷼	-11364
󲷾	-11365
󲸗	-11366
󲸺	-11367
󲺆	-11368
󲻆	-11369
󲼎	-11370
󲼛	-11371
󲼣	-11372
󲼯	-11373
󲼰	-11374
󲽏	-11375
󲽹	-11376
󲾭	-11377
󲾽	-11378
󲿅	-11379
󳀙	-11380
󳀹	-11381
󳀼	-11382
󳁎	-11383
󳁥	-11384
󳁫	-11385
󳁴	-11386
󳁽	-11387
󳂻	-11388
󳄉	-11389
󳄲	-11390
󳅑	-11391
󳆩	-11392
󳇨	-11393
󳊳	-11394
󳋽	-11395
󳌂	-11396
󳌇	-11397
󳍥	-11398
󳍸	-11399
󳍿	-11400
󳎓	-11401
󳎨	-11402
󳎼	-11403
󳐞	-11404
󳑸	-11405
󳓆	-11406
󳓘	-11407
󳓣	-11408
󳔋	-11409
󳔕	-11410
󳔗	-11411
󳔼	-11412
󳖅	-11413
󳖇	-11414
󳗈	-11415
󳗙	-11416
󳙙	-11417
󳙽	-11418
乎	-11419
买	-11420
偏	-11421
傅	-11422
劫	-11423
君	-11424
吟	-11425
咳	-11426
嗷	-11427
庆	-11428
库	-11429
惰	-11430
扔	-11431
握	-11432
撵	-11433
旅	-11434
晨	-11435
极	-11436
棺	-11437
沤	-11438
炼	-11439
爹	-11440
猾	-11441
矛	-11442
翔	-11443
荽	-11444
蚓	-11445
裹	-11446
跛	-11447
蹒	-11448
迈	-11449
遇	-11450
铛	-11451
鹌	-11452
󲝎	-11453
󲟲	-11454
󲟻	-11455
󲠌	-11456
󲠮	-11457
󲠲	-11458
󲡋	-11459
󲡴	-11460
󲣱	-11461
󲤽	-11462
󲥌	-11463
󲥬	-11464
󲦕	-11465
󲦮	-11466
󲧖	-11467
󲧚	-11468
󲧛	-11469
󲧨	-11470
󲨻	-11471
󲨼	-11472
󲩗	-11473
󲪣	-11474
󲫒	-11475
󲫤	-11476
󲫪	-11477
󲬍	-11478
󲭺	-11479
󲮞	-11480
󲮡	-11481
󲮣	-11482
󲮱	-11483
󲯜	-11484
󲯧	-11485
󲯬	-11486
󲯸	-11487
󲰑	-11488
󲰥	-11489
󲰻	-11490
󲱯	-11491
󲱵	-11492
󲲟	-11493
󲲰	-11494
󲲸	-11495
󲳰	-11496
󲳸	-11497
󲳻	-11498
󲴓	-11499
󲴖	-11500
󲶎	-11501
󲶔	-11502
󲶠	-11503
󲶯	-11504
󲷻	-11505
󲸓	-11506
󲸜	-11507
󲹝	-11508
󲹫	-11509
󲹳	-11510
󲹹	-11511
󲺋	-11512
󲺜	-11513
󲺫	-11514
󲺺	-11515
󲼈	-11516
󲽐	-11517
󲽲	-11518
󲾔	-11519
󲾢	-11520
󲿃	-11521
󲿓	-11522
󳀉	-11523
󳀫	-11524
󳁂	-11525
󳁚	-11526
󳁠	-11527
󳂞	-11528
󳂾	-11529
󳃋	-11530
󳃵	-11531
󳃸	-11532
󳄗	-11533
󳅈	-11534
󳅋	-11535
󳅖	-11536
󳅙	-11537
󳅩	-11538
󳆍	-11539
󳆖	-11540
󳆛	-11541
󳆶	-11542
󳇻	-11543
󳈔	-11544
󳈜	-11545
󳊃	-11546
󳊹	-11547
󳋞	-11548
󳋡	-11549
󳌄	-11550
󳎇	-11551
󳎏	-11552
󳏴	-11553
󳐇	-11554
󳐦	-11555
󳐫	-11556
󳐺	-11557
󳑝	-11558
󳑯	-11559
󳑼	-11560
󳒇	-11561
󳒦	-11562
󳒩	-11563
󳒫	-11564
󳒮	-11565
󳒼	-11566
󳔉	-11567
󳔰	-11568
󳕦	-11569
󳕬	-11570
󳖎	-11571
󳖶	-11572
󳖼	-11573
󳗏	-11574
󳗧	-11575
󳘣	-11576
󳙦	-11577
󳙯	-11578
󳚀	-11579
󳚈	-11580
󳚉	-11581
󳛉	-11582
󳛛	-11583
󳛯	-11584
󳛶	-11585
󳜏	-11586
冒	-11587
凡	-11588
司	-11589
呈	-11590
嘛	-11591
圣	-11592
夷	-11593
婶	-11594
宿	-11595
岭	-11596
巡	-11597
捞	-11598
提	-11599
斯	-11600
晌	-11601
晾	-11602
棵	-11603
此	-11604
毁	-11605
泄	-11606
泻	-11607
渗	-11608
潭	-11609
炷	-11610
焙	-11611
爬	-11612
犹	-11613
痫	-11614
癫	-11615
篇	-11616
糕	-11617
聚	-11618
腼	-11619
臣	-11620
荞	-11621
蚪	-11622
街	-11623
袜	-11624
誓	-11625
踏	-11626
蹈	-11627
醉	-11628
闯	-11629
驾	-11630
鹑	-11631
龄	-11632
󲜸	-11633
󲝂	-11634
󲝃	-11635
󲞀	-11636
󲟟	-11637
󲟵	-11638
󲟹	-11639
󲟾	-11640
󲠃	-11641
󲠨	-11642
󲡏	-11643
󲡦	-11644
󲡳	-11645
󲢋	-11646
󲢮	-11647
󲢺	-11648
󲣐	-11649
󲣛	-11650
󲣴	-11651
󲣿	-11652
󲤌	-11653
󲤚	-11654
󲤟	-11655
󲤭	-11656
󲤶	-11657
󲤾	-11658
󲥀	-11659
󲥅	-11660
󲥆	-11661
󲥐	-11662
󲥘	-11663
󲥭	-11664
󲦯	-11665
󲦱	-11666
󲧄	-11667
󲧆	-11668
󲧍	-11669
󲧱	-11670
󲨍	-11671
󲨙	-11672
󲩄	-11673
󲩅	-11674
󲩊	-11675
󲩏	-11676
󲩷	-11677
󲪀	-11678
󲪑	-11679
󲪜	-11680
󲬚	-11681
󲬟	-11682
󲬵	-11683
󲭄	-11684
󲮆	-11685
󲮎	-11686
󲮘	-11687
󲮬	-11688
󲰊	-11689
󲰡	-11690
󲰱	-11691
󲱬	-11692
󲲃	-11693
󲲨	-11694
󲲲	-11695
󲳏	-11696
󲳔	-11697
󲳦	-11698
󲳱	-11699
󲴃	-11700
󲵟	-11701
󲶀	-11702
󲶕	-11703
󲶙	-11704
󲶰	-11705
󲶲	-11706
󲷸	-11707
󲸕	-11708
󲸭	-11709
󲸳	-11710
󲹂	-11711
󲹊	-11712
󲹓	-11713
󲺂	-11714
󲺻	-11715
󲻂	-11716
󲻩	-11717
󲼺	-11718
󲽞	-11719
󲾌	-11720
󲾏	-11721
󲿊	-11722
󲿣	-11723
󲿰	-11724
󳀕	-11725
󳁇	-11726
󳁼	-11727
󳂏	-11728
󳂲	-11729
󳃩	-11730
󳃰	-11731
󳃺	-11732
󳄌	-11733
󳄔	-11734
󳄟	-11735
󳄡	-11736
󳄯	-11737
󳄴	-11738
󳅺	-11739
󳆬	-11740
󳇀	-11741
󳇍	-11742
󳇓	-11743
󳇭	-11744
󳈕	-11745
󳉔	-11746
󳊋	-11747
󳋁	-11748
󳋫	-11749
󳌸	-11750
󳍐	-11751
󳍟	-11752
󳎒	-11753
󳏀	-11754
󳏂	-11755
󳏍	-11756
󳏭	-11757
󳐓	-11758
󳑓	-11759
󳑿	-11760
󳒘	-11761
󳒤	-11762
󳒯	-11763
󳔩	-11764
󳕕	-11765
󳕠	-11766
󳕭	-11767
󳕴	-11768
󳕷	-11769
󳕾	-11770
󳖯	-11771
󳖲	-11772
󳖸	-11773
󳗇	-11774
󳗎	-11775
󳗵	-11776
󳘲	-11777
󳚔	-11778
󳚕	-11779
󳚡	-11780
󳛺	-11781
󳜢	-11782
九	-11783
余	-11784
倍	-11785
兔	-11786
吠	-11787
咧	-11788
哩	-11789
喂	-11790
奴	-11791
妥	-11792
尚	-11793
尸	-11794
币	-11795
幅	-11796
怂	-11797
惟	-11798
慌	-11799
拆	-11800
挨	-11801
捶	-11802
捷	-11803
旦	-11804
柱	-11805
柿	-11806
池	-11807
洱	-11808
涨	-11809
祠	-11810
笃	-11811
脖	-11812
膏	-11813
蓄	-11814
裕	-11815
赚	-11816
邻	-11817
骡	-11818
󲟐	-11819
󲟕	-11820
󲟣	-11821
󲟩	-11822
󲠙	-11823
󲠯	-11824
󲡥	-11825
󲢑	-11826
󲢗	-11827
󲢱	-11828
󲣔	-11829
󲣟	-11830
󲤁	-11831
󲤔	-11832
󲤙	-11833
󲤤	-11834
󲤳	-11835
󲤷	-11836
󲥉	-11837
󲥶	-11838
󲦈	-11839
󲦑	-11840
󲦔	-11841
󲦨	-11842
󲧮	-11843
󲧺	-11844
󲧿	-11845
󲨄	-11846
󲨔	-11847
󲨗	-11848
󲨛	-11849
󲨧	-11850
󲩆	-11851
󲩤	-11852
󲩫	-11853
󲪾	-11854
󲫏	-11855
󲫢	-11856
󲫦	-11857
󲫭	-11858
󲫵	-11859
󲫸	-11860
󲫽	-11861
󲬝	-11862
󲭣	-11863
󲭯	-11864
󲮉	-11865
󲯖	-11866
󲯘	-11867
󲯚	-11868
󲯦	-11869
󲰋	-11870
󲰤	-11871
󲰯	-11872
󲰷	-11873
󲱩	-11874
󲲀	-11875
󲲝	-11876
󲳾	-11877
󲵑	-11878
󲵚	-11879
󲵛	-11880
󲵢	-11881
󲶞	-11882
󲷨	-11883
󲷪	-11884
󲸀	-11885
󲹾	-11886
󲺉	-11887
󲺩	-11888
󲻊	-11889
󲻣	-11890
󲻥	-11891
󲼇	-11892
󲼨	-11893
󲽔	-11894
󲽗	-11895
󲽜	-11896
󲽢	-11897
󲽨	-11898
󲽿	-11899
󲾗	-11900
󲾶	-11901
󲿂	-11902
󲿕	-11903
󲿖	-11904
󲿜	-11905
󳀓	-11906
󳀔	-11907
󳀦	-11908
󳀷	-11909
󳂈	-11910
󳂶	-11911
󳃔	-11912
󳄚	-11913
󳄤	-11914
󳅁	-11915
󳅍	-11916
󳅟	-11917
󳆲	-11918
󳆼	-11919
󳆿	-11920
󳇣	-11921
󳇯	-11922
󳈬	-11923
󳊌	-11924
󳊡	-11925
󳋂	-11926
󳌭	-11927
󳍑	-11928
󳍼	-11929
󳎮	-11930
󳎽	-11931
󳏋	-11932
󳏛	-11933
󳏾	-11934
󳐁	-11935
󳐚	-11936
󳐨	-11937
󳐮	-11938
󳐯	-11939
󳐱	-11940
󳐹	-11941
󳑜	-11942
󳑧	-11943
󳑮	-11944
󳑺	-11945
󳒻	-11946
󳓕	-11947
󳓦	-11948
󳓯	-11949
󳓷	-11950
󳔓	-11951
󳔥	-11952
󳔬	-11953
󳔮	-11954
󳔷	-11955
󳕺	-11956
󳖋	-11957
󳖞	-11958
󳖢	-11959
󳖹	-11960
󳗨	-11961
󳗪	-11962
󳘄	-11963
󳘅	-11964
󳘍	-11965
󳘺	-11966
󳙃	-11967
󳙇	-11968
󳙌	-11969
󳙑	-11970
󳙝	-11971
󳙟	-11972
󳚖	-11973
󳚩	-11974
󳚭	-11975
󳚶	-11976
󳛋	-11977
󳛖	-11978
󳜅	-11979
兆	-11980
啦	-11981
垢	-11982
宴	-11983
庙	-11984
愁	-11985
探	-11986
洛	-11987
涩	-11988
滋	-11989
滓	-11990
漆	-11991
绸	-11992
罚	-11993
股	-11994
肾	-11995
若	-11996
蜕	-11997
谋	-11998
踢	-11999
锛	-12000
际	-12001
霹	-12002
馍	-12003
󲝗	-12004
󲟬	-12005
󲟮	-12006
󲟱	-12007
󲟼	-12008
󲠝	-12009
󲠽	-12010
󲡎	-12011
󲡚	-12012
󲡝	-12013
󲡺	-12014
󲢁	-12015
󲢇	-12016
󲢙	-12017
󲢵	-12018
󲣀	-12019
󲣂	-12020
󲣊	-12021
󲣎	-12022
󲣖	-12023
󲣣	-12024
󲤄	-12025
󲤇	-12026
󲤡	-12027
󲤮	-12028
󲥥	-12029
󲦖	-12030
󲦜	-12031
󲦝	-12032
󲦪	-12033
󲧂	-12034
󲧟	-12035
󲨜	-12036
󲨲	-12037
󲨵	-12038
󲩞	-12039
󲩵	-12040
󲪈	-12041
󲪋	-12042
󲪔	-12043
󲪻	-12044
󲫄	-12045
󲫇	-12046
󲫋	-12047
󲫎	-12048
󲫴	-12049
󲫶	-12050
󲬯	-12051
󲭉	-12052
󲭖	-12053
󲭿	-12054
󲮓	-12055
󲮧	-12056
󲯂	-12057
󲯃	-12058
󲯄	-12059
󲰃	-12060
󲰈	-12061
󲰎	-12062
󲰛	-12063
󲱈	-12064
󲱜	-12065
󲱡	-12066
󲱨	-12067
󲱰	-12068
󲱸	-12069
󲱺	-12070
󲱾	-12071
󲲍	-12072
󲲖	-12073
󲲴	-12074
󲲵	-12075
󲳠	-12076
󲴏	-12077
󲴒	-12078
󲴰	-12079
󲴴	-12080
󲵲	-12081
󲵶	-12082
󲵻	-12083
󲶑	-12084
󲶗	-12085
󲶷	-12086
󲷣	-12087
󲷦	-12088
󲷭	-12089
󲷴	-12090
󲸎	-12091
󲹀	-12092
󲹁	-12093
󲹪	-12094
󲹭	-12095
󲺎	-12096
󲺏	-12097
󲺕	-12098
󲺵	-12099
󲻌	-12100
󲻞	-12101
󲻠	-12102
󲻭	-12103
󲻼	-12104
󲻿	-12105
󲼉	-12106
󲼘	-12107
󲼠	-12108
󲽀	-12109
󲽄	-12110
󲽌	-12111
󲽒	-12112
󲾀	-12113
󲾚	-12114
󲾧	-12115
󲿍	-12116
󲿲	-12117
󲿳	-12118
󳀈	-12119
󳀜	-12120
󳀽	-12121
󳂇	-12122
󳂊	-12123
󳂌	-12124
󳂗	-12125
󳂵	-12126
󳃓	-12127
󳄃	-12128
󳄰	-12129
󳄷	-12130
󳅎	-12131
󳅏	-12132
󳅣	-12133
󳅨	-12134
󳅱	-12135
󳅲	-12136
󳅴	-12137
󳆉	-12138
󳆊	-12139
󳇐	-12140
󳇜	-12141
󳇞	-12142
󳇿	-12143
󳈆	-12144
󳈉	-12145
󳈘	-12146
󳈚	-12147
󳈛	-12148
󳈢	-12149
󳈾	-12150
󳉌	-12151
󳊝	-12152
󳊦	-12153
󳊬	-12154
󳋒	-12155
󳋔	-12156
󳋦	-12157
󳋪	-12158
󳋭	-12159
󳋷	-12160
󳋿	-12161
󳌦	-12162
󳌯	-12163
󳌱	-12164
󳌹	-12165
󳍠	-12166
󳍣	-12167
󳍪	-12168
󳍷	-12169
󳍺	-12170
󳎂	-12171
󳎑	-12172
󳎙	-12173
󳏉	-12174
󳏿	-12175
󳐀	-12176
󳐾	-12177
󳑔	-12178
󳑞	-12179
󳑩	-12180
󳑪	-12181
󳑭	-12182
󳒀	-12183
󳒅	-12184
󳒉	-12185
󳒏	-12186
󳓥	-12187
󳔂	-12188
󳔑	-12189
󳔹	-12190
󳔺	-12191
󳕼	-12192
󳖉	-12193
󳖤	-12194
󳖰	-12195
󳗒	-12196
󳘊	-12197
󳘩	-12198
󳘮	-12199
󳙁	-12200
󳙋	-12201
󳙣	-12202
󳚰	-12203
󳜊	-12204
󳜌	-12205
󳜔	-12206
何	-12207
侦	-12208
呢	-12209
啸	-12210
坠	-12211
坤	-12212
奏	-12213
帐	-12214
弥	-12215
恿	-12216
揽	-12217
杯	-12218
枋	-12219
株	-12220
桑	-12221
桶	-12222
梧	-12223
淘	-12224
港	-12225
狭	-12226
狼	-12227
甥	-12228
疟	-12229
碧	-12230
窥	-12231
簸	-12232
粱	-12233
纯	-12234
舔	-12235
蝉	-12236
蟆	-12237
贱	-12238
辱	-12239
选	-12240
锡	-12241
陡	-12242
院	-12243
雷	-12244
革	-12245
鹳	-12246
󲞶	-12247
󲟛	-12248
󲠂	-12249
󲠫	-12250
󲠬	-12251
󲠵	-12252
󲠿	-12253
󲡉	-12254
󲡐	-12255
󲡭	-12256
󲡸	-12257
󲢆	-12258
󲢕	-12259
󲢡	-12260
󲢧	-12261
󲢩	-12262
󲢾	-12263
󲣉	-12264
󲣧	-12265
󲣻	-12266
󲤀	-12267
󲤓	-12268
󲤕	-12269
󲥧	-12270
󲥫	-12271
󲥷	-12272
󲦄	-12273
󲦎	-12274
󲦗	-12275
󲦘	-12276
󲦠	-12277
󲦡	-12278
󲦣	-12279
󲧀	-12280
󲧊	-12281
󲧘	-12282
󲧢	-12283
󲧩	-12284
󲨈	-12285
󲨚	-12286
󲨣	-12287
󲨱	-12288
󲩜	-12289
󲩻	-12290
󲪉	-12291
󲪭	-12292
󲪰	-12293
󲪲	-12294
󲫉	-12295
󲫨	-12296
󲫱	-12297
󲫷	-12298
󲫼	-12299
󲬅	-12300
󲬇	-12301
󲬤	-12302
󲬧	-12303
󲬨	-12304
󲬻	-12305
󲭁	-12306
󲭈	-12307
󲭊	-12308
󲮚	-12309
󲮫	-12310
󲮯	-12311
󲯈	-12312
󲯐	-12313
󲯮	-12314
󲰒	-12315
󲰹	-12316
󲰼	-12317
󲰾	-12318
󲱕	-12319
󲱧	-12320
󲱳	-12321
󲲣	-12322
󲲧	-12323
󲲺	-12324
󲳮	-12325
󲳲	-12326
󲳽	-12327
󲴎	-12328
󲴧	-12329
󲴩	-12330
󲴻	-12331
󲵕	-12332
󲵖	-12333
󲵫	-12334
󲶋	-12335
󲶌	-12336
󲶏	-12337
󲶚	-12338
󲶢	-12339
󲶨	-12340
󲶵	-12341
󲶾	-12342
󲷆	-12343
󲷎	-12344
󲷘	-12345
󲸃	-12346
󲸢	-12347
󲹲	-12348
󲺅	-12349
󲺡	-12350
󲺤	-12351
󲺧	-12352
󲺸	-12353
󲻇	-12354
󲻡	-12355
󲻪	-12356
󲻶	-12357
󲻺	-12358
󲼁	-12359
󲼄	-12360
󲼜	-12361
󲼩	-12362
󲼪	-12363
󲼭	-12364
󲽟	-12365
󲽸	-12366
󲽻	-12367
󲽼	-12368
󲾁	-12369
󲾊	-12370
󲾑	-12371
󲾒	-12372
󲿈	-12373
󲿎	-12374
󲿬	-12375
󲿮	-12376
󲿼	-12377
󳀠	-12378
󳀤	-12379
󳀪	-12380
󳁀	-12381
󳁖	-12382
󳁝	-12383
󳁯	-12384
󳂡	-12385
󳂬	-12386
󳂼	-12387
󳃚	-12388
󳄄	-12389
󳄋	-12390
󳄶	-12391
󳄾	-12392
󳅄	-12393
󳅚	-12394
󳅦	-12395
󳅪	-12396
󳅾	-12397
󳆂	-12398
󳆙	-12399
󳆟	-12400
󳆪	-12401
󳆷	-12402
󳇗	-12403
󳈤	-12404
󳈼	-12405
󳉀	-12406
󳉴	-12407
󳊁	-12408
󳊒	-12409
󳊔	-12410
󳋜	-12411
󳋢	-12412
󳋣	-12413
󳋺	-12414
󳌐	-12415
󳌖	-12416
󳌵	-12417
󳍌	-12418
󳍰	-12419
󳍾	-12420
󳎊	-12421
󳎢	-12422
󳎦	-12423
󳎭	-12424
󳎷	-12425
󳎺	-12426
󳏄	-12427
󳏞	-12428
󳏳	-12429
󳐧	-12430
󳐪	-12431
󳐻	-12432
󳑊	-12433
󳑙	-12434
󳑛	-12435
󳒆	-12436
󳓙	-12437
󳓧	-12438
󳓬	-12439
󳓾	-12440
󳔀	-12441
󳔜	-12442
󳔯	-12443
󳕓	-12444
󳖌	-12445
󳗐	-12446
󳗠	-12447
󳘧	-12448
󳙚	-12449
󳙰	-12450
󳙲	-12451
󳚚	-12452
󳜃	-12453
󳜜	-12454
à	-12455
è	-12456
乃	-12457
佐	-12458
势	-12459
匪	-12460
坪	-12461
寸	-12462
巧	-12463
径	-12464
惬	-12465
扛	-12466
批	-12467
择	-12468
效	-12469
概	-12470
武	-12471
残	-12472
爆	-12473
甄	-12474
略	-12475
税	-12476
粑	-12477
粘	-12478
糯	-12479
绎	-12480
腆	-12481
襁	-12482
󲜕	-12483
󲝱	-12484
󲝺	-12485
󲞐	-12486
󲞻	-12487
󲟙	-12488
󲟝	-12489
󲟳	-12490
󲠐	-12491
󲠼	-12492
󲡶	-12493
󲡽	-12494
󲢢	-12495
󲢸	-12496
󲣃	-12497
󲣆	-12498
󲤃	-12499
󲤖	-12500
󲤯	-12501
󲤻	-12502
󲥋	-12503
󲥎	-12504
󲥔	-12505
󲥸	-12506
󲥾	-12507
󲦋	-12508
󲦢	-12509
󲦭	-12510
󲧌	-12511
󲧏	-12512
󲧗	-12513
󲧠	-12514
󲨃	-12515
󲨝	-12516
󲨠	-12517
󲨿	-12518
󲩈	-12519
󲩉	-12520
󲩲	-12521
󲩳	-12522
󲪐	-12523
󲪒	-12524
󲪓	-12525
󲪨	-12526
󲪵	-12527
󲫈	-12528
󲫊	-12529
󲫞	-12530
󲫳	-12531
󲫾	-12532
󲬉	-12533
󲬑	-12534
󲬔	-12535
󲭍	-12536
󲭏	-12537
󲭑	-12538
󲭢	-12539
󲭰	-12540
󲭷	-12541
󲭸	-12542
󲮅	-12543
󲮗	-12544
󲮻	-12545
󲯀	-12546
󲯅	-12547
󲯍	-12548
󲯕	-12549
󲰳	-12550
󲱐	-12551
󲱗	-12552
󲲉	-12553
󲲊	-12554
󲲐	-12555
󲲭	-12556
󲲳	-12557
󲳈	-12558
󲳘	-12559
󲳣	-12560
󲳭	-12561
󲴤	-12562
󲴫	-12563
󲴮	-12564
󲵉	-12565
󲵞	-12566
󲵣	-12567
󲵬	-12568
󲵽	-12569
󲶮	-12570
󲷂	-12571
󲷙	-12572
󲷚	-12573
󲷢	-12574
󲷳	-12575
󲸔	-12576
󲸮	-12577
󲹃	-12578
󲹟	-12579
󲹠	-12580
󲹡	-12581
󲹦	-12582
󲹱	-12583
󲹸	-12584
󲺚	-12585
󲺦	-12586
󲺯	-12587
󲺰	-12588
󲺱	-12589
󲻃	-12590
󲻉	-12591
󲻖	-12592
󲻰	-12593
󲻻	-12594
󲼿	-12595
󲽬	-12596
󲽴	-12597
󲽷	-12598
󲾍	-12599
󲾛	-12600
󲾡	-12601
󲾤	-12602
󲾰	-12603
󲾴	-12604
󲾿	-12605
󲿏	-12606
󲿞	-12607
󲿫	-12608
󲿱	-12609
󲿸	-12610
󲿿	-12611
󳀘	-12612
󳁉	-12613
󳂄	-12614
󳂆	-12615
󳂥	-12616
󳃎	-12617
󳃥	-12618
󳃹	-12619
󳃻	-12620
󳄅	-12621
󳄈	-12622
󳄒	-12623
󳄹	-12624
󳄻	-12625
󳇖	-12626
󳇝	-12627
󳇱	-12628
󳇽	-12629
󳈊	-12630
󳈋	-12631
󳈍	-12632
󳈝	-12633
󳈨	-12634
󳈮	-12635
󳉇	-12636
󳉡	-12637
󳉥	-12638
󳉧	-12639
󳊉	-12640
󳊘	-12641
󳊙	-12642
󳋖	-12643
󳋱	-12644
󳌆	-12645
󳌚	-12646
󳌪	-12647
󳌮	-12648
󳌿	-12649
󳍇	-12650
󳍬	-12651
󳍱	-12652
󳍵	-12653
󳎐	-12654
󳎗	-12655
󳎿	-12656
󳏐	-12657
󳏨	-12658
󳏽	-12659
󳐆	-12660
󳐋	-12661
󳐕	-12662
󳐛	-12663
󳑋	-12664
󳑗	-12665
󳑘	-12666
󳑣	-12667
󳑹	-12668
󳒌	-12669
󳒜	-12670
󳒳	-12671
󳓅	-12672
󳓪	-12673
󳔅	-12674
󳔧	-12675
󳔿	-12676
󳕗	-12677
󳕯	-12678
󳕿	-12679
󳗘	-12680
󳙓	-12681
󳙢	-12682
󳙤	-12683
󳚙	-12684
󳛀	-12685
󳛔	-12686
󳛬	-12687
󳛼	-12688
D	-12689
军	-12690
刃	-12691
剁	-12692
匠	-12693
唬	-12694
嗑	-12695
嚅	-12696
季	-12697
已	-12698
憨	-12699
拖	-12700
柳	-12701
涧	-12702
湾	-12703
燎	-12704
睛	-12705
碑	-12706
簧	-12707
耄	-12708
膛	-12709
虱	-12710
褂	-12711
趾	-12712
跪	-12713
馋	-12714
驴	-12715
骟	-12716
黍	-12717
ꁧ	-12718
󲈮	-12719
󲜐	-12720
󲜩	-12721
󲜳	-12722
󲝝	-12723
󲝫	-12724
󲞁	-12725
󲞭	-12726
󲟀	-12727
󲟚	-12728
󲠖	-12729
󲠛	-12730
󲠪	-12731
󲠳	-12732
󲡊	-12733
󲡠	-12734
󲡩	-12735
󲡲	-12736
󲢅	-12737
󲢛	-12738
󲢰	-12739
󲣑	-12740
󲣼	-12741
󲤐	-12742
󲤒	-12743
󲤫	-12744
󲤲	-12745
󲤸	-12746
󲥒	-12747
󲥙	-12748
󲥡	-12749
󲧝	-12750
󲧸	-12751
󲨘	-12752
󲩔	-12753
󲩰	-12754
󲩶	-12755
󲪇	-12756
󲪎	-12757
󲪗	-12758
󲪫	-12759
󲫫	-12760
󲫲	-12761
󲬆	-12762
󲬓	-12763
󲬛	-12764
󲬜	-12765
󲬡	-12766
󲬥	-12767
󲬩	-12768
󲬼	-12769
󲬽	-12770
󲭂	-12771
󲭚	-12772
󲭦	-12773
󲭨	-12774
󲭮	-12775
󲮋	-12776
󲮜	-12777
󲮷	-12778
󲯑	-12779
󲯩	-12780
󲯭	-12781
󲯺	-12782
󲰆	-12783
󲰉	-12784
󲰟	-12785
󲰰	-12786
󲱍	-12787
󲱠	-12788
󲱥	-12789
󲱫	-12790
󲲇	-12791
󲲋	-12792
󲲬	-12793
󲲻	-12794
󲳋	-12795
󲳥	-12796
󲳹	-12797
󲴂	-12798
󲴆	-12799
󲴉	-12800
󲴍	-12801
󲴙	-12802
󲴬	-12803
󲴷	-12804
󲵅	-12805
󲶆	-12806
󲶍	-12807
󲶳	-12808
󲷊	-12809
󲷱	-12810
󲸁	-12811
󲸑	-12812
󲸞	-12813
󲹚	-12814
󲹣	-12815
󲺄	-12816
󲺔	-12817
󲺙	-12818
󲺮	-12819
󲺷	-12820
󲻒	-12821
󲼂	-12822
󲼥	-12823
󲽆	-12824
󲽍	-12825
󲽑	-12826
󲽖	-12827
󲽱	-12828
󲾙	-12829
󲾮	-12830
󲾸	-12831
󲾺	-12832
󲿋	-12833
󲿻	-12834
󳀀	-12835
󳀎	-12836
󳀟	-12837
󳀳	-12838
󳀿	-12839
󳁌	-12840
󳁜	-12841
󳁻	-12842
󳂁	-12843
󳂃	-12844
󳂍	-12845
󳂐	-12846
󳂖	-12847
󳂜	-12848
󳃞	-12849
󳃧	-12850
󳃱	-12851
󳄏	-12852
󳄞	-12853
󳄢	-12854
󳆗	-12855
󳆤	-12856
󳆭	-12857
󳆱	-12858
󳇁	-12859
󳇃	-12860
󳇧	-12861
󳇫	-12862
󳈄	-12863
󳈏	-12864
󳈴	-12865
󳊈	-12866
󳊛	-12867
󳊟	-12868
󳊤	-12869
󳊨	-12870
󳊽	-12871
󳋈	-12872
󳋌	-12873
󳋼	-12874
󳌒	-12875
󳌡	-12876
󳌥	-12877
󳌲	-12878
󳍏	-12879
󳍘	-12880
󳍧	-12881
󳍹	-12882
󳍻	-12883
󳍽	-12884
󳎔	-12885
󳎰	-12886
󳎸	-12887
󳏓	-12888
󳏼	-12889
󳐟	-12890
󳑂	-12891
󳑉	-12892
󳑚	-12893
󳑟	-12894
󳑬	-12895
󳑵	-12896
󳑻	-12897
󳒒	-12898
󳒙	-12899
󳒝	-12900
󳒣	-12901
󳒨	-12902
󳓂	-12903
󳓃	-12904
󳓚	-12905
󳓨	-12906
󳓭	-12907
󳔟	-12908
󳔫	-12909
󳔱	-12910
󳔲	-12911
󳕂	-12912
󳕉	-12913
󳕊	-12914
󳕌	-12915
󳖏	-12916
󳖣	-12917
󳗉	-12918
󳗼	-12919
󳗾	-12920
󳗿	-12921
󳘏	-12922
󳘐	-12923
󳘫	-12924
󳙄	-12925
󳙡	-12926
󳚊	-12927
󳚗	-12928
󳚦	-12929
󳚬	-12930
󳚱	-12931
󳚻	-12932
󳛡	-12933
󳛱	-12934
󳛽	-12935
󳜖	-12936
P	-12937
刁	-12938
匾	-12939
喊	-12940
姊	-12941
它	-12942
屑	-12943
持	-12944
措	-12945
撩	-12946
椽	-12947
樱	-12948
滤	-12949
燥	-12950
瞌	-12951
瞧	-12952
笋	-12953
篓	-12954
芭	-12955
菲	-12956
蛄	-12957
蜘	-12958
贴	-12959
酿	-12960
鞍	-12961
馁	-12962
驼	-12963
󲜣	-12964
󲜵	-12965
󲜻	-12966
󲝐	-12967
󲝙	-12968
󲝧	-12969
󲝭	-12970
󲞃	-12971
󲞎	-12972
󲞒	-12973
󲞗	-12974
󲟠	-12975
󲟢	-12976
󲟭	-12977
󲟸	-12978
󲠴	-12979
󲠹	-12980
󲡈	-12981
󲡙	-12982
󲡟	-12983
󲡣	-12984
󲡮	-12985
󲡱	-12986
󲢀	-12987
󲢂	-12988
󲢊	-12989
󲢣	-12990
󲢥	-12991
󲢷	-12992
󲢿	-12993
󲣕	-12994
󲣘	-12995
󲣬	-12996
󲣲	-12997
󲤩	-12998
󲤪	-12999
󲤰	-13000
󲥇	-13001
󲥦	-13002
󲥪	-13003
󲦙	-13004
󲦟	-13005
󲦳	-13006
󲦽	-13007
󲦾	-13008
󲧡	-13009
󲨞	-13010
󲨤	-13011
󲨥	-13012
󲩒	-13013
󲩧	-13014
󲩨	-13015
󲩪	-13016
󲩱	-13017
󲩸	-13018
󲩹	-13019
󲪅	-13020
󲪚	-13021
󲪠	-13022
󲪿	-13023
󲫙	-13024
󲫣	-13025
󲫯	-13026
󲫿	-13027
󲬗	-13028
󲬞	-13029
󲬠	-13030
󲬣	-13031
󲬪	-13032
󲬬	-13033
󲬴	-13034
󲭋	-13035
󲭔	-13036
󲭠	-13037
󲭴	-13038
󲮲	-13039
󲮸	-13040
󲮽	-13041
󲯆	-13042
󲯉	-13043
󲰂	-13044
󲰄	-13045
󲰮	-13046
󲱃	-13047
󲱄	-13048
󲱇	-13049
󲱲	-13050
󲲈	-13051
󲲗	-13052
󲳀	-13053
󲳄	-13054
󲴁	-13055
󲴋	-13056
󲴕	-13057
󲴝	-13058
󲴶	-13059
󲴼	-13060
󲴿	-13061
󲵈	-13062
󲵓	-13063
󲶁	-13064
󲶡	-13065
󲷍	-13066
󲷲	-13067
󲸇	-13068
󲸠	-13069
󲸨	-13070
󲸾	-13071
󲹒	-13072
󲹷	-13073
󲺀	-13074
󲺍	-13075
󲺝	-13076
󲺬	-13077
󲺾	-13078
󲻝	-13079
󲻧	-13080
󲻨	-13081
󲻷	-13082
󲼦	-13083
󲼴	-13084
󲽃	-13085
󲽎	-13086
󲽓	-13087
󲽪	-13088
󲽺	-13089
󲾝	-13090
󲾦	-13091
󲿉	-13092
󲿑	-13093
󲿔	-13094
󲿘	-13095
󲿛	-13096
󳀐	-13097
󳀢	-13098
󳀴	-13099
󳁕	-13100
󳁺	-13101
󳂟	-13102
󳂳	-13103
󳃇	-13104
󳃢	-13105
󳃴	-13106
󳄘	-13107
󳄧	-13108
󳄱	-13109
󳆏	-13110
󳆠	-13111
󳆡	-13112
󳆥	-13113
󳇂	-13114
󳇡	-13115
󳈅	-13116
󳈖	-13117
󳈰	-13118
󳈱	-13119
󳉕	-13120
󳉚	-13121
󳉩	-13122
󳉶	-13123
󳉸	-13124
󳋀	-13125
󳋕	-13126
󳋝	-13127
󳋳	-13128
󳌁	-13129
󳌃	-13130
󳌅	-13131
󳌋	-13132
󳌫	-13133
󳌴	-13134
󳌷	-13135
󳌺	-13136
󳍃	-13137
󳍄	-13138
󳍋	-13139
󳍒	-13140
󳍔	-13141
󳎃	-13142
󳎅	-13143
󳎥	-13144
󳏊	-13145
󳏕	-13146
󳏬	-13147
󳏵	-13148
󳏺	-13149
󳐅	-13150
󳐥	-13151
󳐭	-13152
󳐸	-13153
󳑎	-13154
󳑏	-13155
󳑦	-13156
󳒓	-13157
󳒲	-13158
󳒹	-13159
󳓊	-13160
󳓛	-13161
󳓟	-13162
󳓴	-13163
󳔃	-13164
󳔊	-13165
󳔡	-13166
󳔨	-13167
󳔵	-13168
󳕈	-13169
󳕏	-13170
󳕮	-13171
󳕸	-13172
󳖈	-13173
󳖜	-13174
󳖠	-13175
󳖾	-13176
󳖿	-13177
󳗃	-13178
󳗆	-13179
󳗊	-13180
󳗬	-13181
󳗳	-13182
󳗶	-13183
󳘸	-13184
󳙒	-13185
󳙜	-13186
󳙪	-13187
󳙴	-13188
󳚏	-13189
󳚛	-13190
󳚟	-13191
󳚣	-13192
󳚴	-13193
󳛈	-13194
󳛊	-13195
󳛑	-13196
󳛒	-13197
󳛓	-13198
󳛘	-13199
󳛮	-13200
󳜎	-13201
°	-13202
判	-13203
卵	-13204
商	-13205
喘	-13206
坡	-13207
垮	-13208
奔	-13209
奢	-13210
拟	-13211
揍	-13212
暗	-13213
杵	-13214
樟	-13215
浇	-13216
焰	-13217
爪	-13218
牺	-13219
疑	-13220
硝	-13221
硬	-13222
穴	-13223
筑	-13224
篥	-13225
绺	-13226
耙	-13227
莽	-13228
藿	-13229
蛙	-13230
蜜	-13231
蝙	-13232
豺	-13233
货	-13234
赎	-13235
赖	-13236
辩	-13237
返	-13238
逃	-13239
酱	-13240
铠	-13241
阵	-13242
鞘	-13243
鲜	-13244
󲜥	-13245
󲜪	-13246
󲜫	-13247
󲜯	-13248
󲜰	-13249
󲜴	-13250
󲝇	-13251
󲝍	-13252
󲝟	-13253
󲝥	-13254
󲝸	-13255
󲞣	-13256
󲞫	-13257
󲟅	-13258
󲟓	-13259
󲟜	-13260
󲟞	-13261
󲟨	-13262
󲠄	-13263
󲠏	-13264
󲠒	-13265
󲠚	-13266
󲠞	-13267
󲠢	-13268
󲠥	-13269
󲠩	-13270
󲡌	-13271
󲡤	-13272
󲡬	-13273
󲡼	-13274
󲢦	-13275
󲢯	-13276
󲣞	-13277
󲣩	-13278
󲣭	-13279
󲣾	-13280
󲤅	-13281
󲤋	-13282
󲤝	-13283
󲤦	-13284
󲤵	-13285
󲥨	-13286
󲥰	-13287
󲥴	-13288
󲧁	-13289
󲧑	-13290
󲧤	-13291
󲨀	-13292
󲨆	-13293
󲨒	-13294
󲨓	-13295
󲨾	-13296
󲩎	-13297
󲩩	-13298
󲪁	-13299
󲪃	-13300
󲪙	-13301
󲪧	-13302
󲪪	-13303
󲪷	-13304
󲫗	-13305
󲫝	-13306
󲫡	-13307
󲬎	-13308
󲬖	-13309
󲬫	-13310
󲭆	-13311
󲭤	-13312
󲭩	-13313
󲭬	-13314
󲭲	-13315
󲮇	-13316
󲮈	-13317
󲮌	-13318
󲮑	-13319
󲮙	-13320
󲮛	-13321
󲮺	-13322
󲮼	-13323
󲯁	-13324
󲯳	-13325
󲯽	-13326
󲰏	-13327
󲱁	-13328
󲱂	-13329
󲱑	-13330
󲱛	-13331
󲱤	-13332
󲱪	-13333
󲱻	-13334
󲲂	-13335
󲲄	-13336
󲲏	-13337
󲲛	-13338
󲲪	-13339
󲲯	-13340
󲲾	-13341
󲳆	-13342
󲳉	-13343
󲴜	-13344
󲴥	-13345
󲴵	-13346
󲵁	-13347
󲵆	-13348
󲵥	-13349
󲷕	-13350
󲷜	-13351
󲷯	-13352
󲸉	-13353
󲸟	-13354
󲸦	-13355
󲸻	-13356
󲹘	-13357
󲹞	-13358
󲹤	-13359
󲹮	-13360
󲹰	-13361
󲹴	-13362
󲹵	-13363
󲺌	-13364
󲺐	-13365
󲺪	-13366
󲺹	-13367
󲺿	-13368
󲻁	-13369
󲻙	-13370
󲻲	-13371
󲻴	-13372
󲼗	-13373
󲼙	-13374
󲼶	-13375
󲽛	-13376
󲽦	-13377
󲾖	-13378
󲾘	-13379
󲾩	-13380
󲾲	-13381
󲿙	-13382
󳀏	-13383
󳀚	-13384
󳀻	-13385
󳁆	-13386
󳁞	-13387
󳁪	-13388
󳂘	-13389
󳂛	-13390
󳂨	-13391
󳂽	-13392
󳃘	-13393
󳃠	-13394
󳃮	-13395
󳄍	-13396
󳄜	-13397
󳄣	-13398
󳄥	-13399
󳄦	-13400
󳄩	-13401
󳄮	-13402
󳅅	-13403
󳅹	-13404
󳅼	-13405
󳅽	-13406
󳆎	-13407
󳆔	-13408
󳆮	-13409
󳇌	-13410
󳇑	-13411
󳇠	-13412
󳇢	-13413
󳇳	-13414
󳈇	-13415
󳈞	-13416
󳈧	-13417
󳈻	-13418
󳈿	-13419
󳉄	-13420
󳉑	-13421
󳉟	-13422
󳉿	-13423
󳊖	-13424
󳊜	-13425
󳊧	-13426
󳊩	-13427
󳊸	-13428
󳊿	-13429
󳋅	-13430
󳋙	-13431
󳋮	-13432
󳋲	-13433
󳋹	-13434
󳋾	-13435
󳌙	-13436
󳌞	-13437
󳌳	-13438
󳍈	-13439
󳍓	-13440
󳍮	-13441
󳍴	-13442
󳎛	-13443
󳎩	-13444
󳎾	-13445
󳏙	-13446
󳏠	-13447
󳐉	-13448
󳐲	-13449
󳑑	-13450
󳒱	-13451
󳓈	-13452
󳓼	-13453
󳔢	-13454
󳕎	-13455
󳕚	-13456
󳕟	-13457
󳕣	-13458
󳖁	-13459
󳖆	-13460
󳖊	-13461
󳖍	-13462
󳖒	-13463
󳖔	-13464
󳖕	-13465
󳖘	-13466
󳖙	-13467
󳖡	-13468
󳗋	-13469
󳗚	-13470
󳗫	-13471
󳘟	-13472
󳘵	-13473
󳙮	-13474
󳙳	-13475
󳙿	-13476
󳚃	-13477
󳚆	-13478
󳚇	-13479
󳚥	-13480
󳛏	-13481
󳛵	-13482
󳛻	-13483
󳛿	-13484
󳜞	-13485
仔	-13486
俊	-13487
凶	-13488
击	-13489
参	-13490
哺	-13491
嘟	-13492
彤	-13493
恨	-13494
撬	-13495
敌	-13496
李	-13497
段	-13498
汁	-13499
润	-13500
淌	-13501
猜	-13502
玷	-13503
甲	-13504
痰	-13505
箍	-13506
肝	-13507
莲	-13508
蛛	-13509
误	-13510
辕	-13511
逐	-13512
逮	-13513
闰	-13514
靛	-13515
ꐥ	-13516
󲜓	-13517
󲜗	-13518
󲜙	-13519
󲜞	-13520
󲜺	-13521
󲜿	-13522
󲝄	-13523
󲝊	-13524
󲞈	-13525
󲞉	-13526
󲞊	-13527
󲞋	-13528
󲞦	-13529
󲞯	-13530
󲠀	-13531
󲠅	-13532
󲠔	-13533
󲠧	-13534
󲡕	-13535
󲡖	-13536
󲢘	-13537
󲣒	-13538
󲣶	-13539
󲤎	-13540
󲤨	-13541
󲥕	-13542
󲥩	-13543
󲥻	-13544
󲧞	-13545
󲨎	-13546
󲨐	-13547
󲨪	-13548
󲨮	-13549
󲩑	-13550
󲩡	-13551
󲩦	-13552
󲪛	-13553
󲪬	-13554
󲫮	-13555
󲫰	-13556
󲬀	-13557
󲬒	-13558
󲬙	-13559
󲭇	-13560
󲭕	-13561
󲭞	-13562
󲭱	-13563
󲮀	-13564
󲮢	-13565
󲮤	-13566
󲮴	-13567
󲮾	-13568
󲯠	-13569
󲯹	-13570
󲯾	-13571
󲰀	-13572
󲰗	-13573
󲰵	-13574
󲱝	-13575
󲱿	-13576
󲲮	-13577
󲳐	-13578
󲳒	-13579
󲳕	-13580
󲳝	-13581
󲳤	-13582
󲳬	-13583
󲳵	-13584
󲴄	-13585
󲴅	-13586
󲴌	-13587
󲴟	-13588
󲵃	-13589
󲵐	-13590
󲶄	-13591
󲶅	-13592
󲶒	-13593
󲶓	-13594
󲶧	-13595
󲶭	-13596
󲶿	-13597
󲷗	-13598
󲷧	-13599
󲷫	-13600
󲷮	-13601
󲹄	-13602
󲹏	-13603
󲹖	-13604
󲹨	-13605
󲺒	-13606
󲺘	-13607
󲺨	-13608
󲻎	-13609
󲼊	-13610
󲼋	-13611
󲼒	-13612
󲼕	-13613
󲼢	-13614
󲼮	-13615
󲼸	-13616
󲽁	-13617
󲽫	-13618
󲽯	-13619
󲽰	-13620
󲾎	-13621
󲿀	-13622
󲿝	-13623
󲿥	-13624
󲿩	-13625
󲿴	-13626
󳀅	-13627
󳀶	-13628
󳀸	-13629
󳀺	-13630
󳁄	-13631
󳁒	-13632
󳁡	-13633
󳂀	-13634
󳂔	-13635
󳂢	-13636
󳂣	-13637
󳂪	-13638
󳃃	-13639
󳃉	-13640
󳃒	-13641
󳃕	-13642
󳄑	-13643
󳄨	-13644
󳄼	-13645
󳅒	-13646
󳅛	-13647
󳅜	-13648
󳅥	-13649
󳅵	-13650
󳆃	-13651
󳆄	-13652
󳆜	-13653
󳆨	-13654
󳆳	-13655
󳆸	-13656
󳇄	-13657
󳇆	-13658
󳇉	-13659
󳇙	-13660
󳇷	-13661
󳇾	-13662
󳈭	-13663
󳉍	-13664
󳉎	-13665
󳉘	-13666
󳉜	-13667
󳉞	-13668
󳉲	-13669
󳉳	-13670
󳊎	-13671
󳊓	-13672
󳊚	-13673
󳊪	-13674
󳊺	-13675
󳋄	-13676
󳋚	-13677
󳌰	-13678
󳎜	-13679
󳎲	-13680
󳎵	-13681
󳏏	-13682
󳏡	-13683
󳐃	-13684
󳐍	-13685
󳐐	-13686
󳐣	-13687
󳐰	-13688
󳐶	-13689
󳐷	-13690
󳐿	-13691
󳑆	-13692
󳑌	-13693
󳑍	-13694
󳒕	-13695
󳒬	-13696
󳒴	-13697
󳓁	-13698
󳓖	-13699
󳓱	-13700
󳓳	-13701
󳔈	-13702
󳔒	-13703
󳔣	-13704
󳔦	-13705
󳕀	-13706
󳕁	-13707
󳕃	-13708
󳕖	-13709
󳕙	-13710
󳕞	-13711
󳕵	-13712
󳕹	-13713
󳖧	-13714
󳖩	-13715
󳖫	-13716
󳖮	-13717
󳖱	-13718
󳗁	-13719
󳗝	-13720
󳗦	-13721
󳗷	-13722
󳗹	-13723
󳘁	-13724
󳘇	-13725
󳘈	-13726
󳘙	-13727
󳘝	-13728
󳘨	-13729
󳘾	-13730
󳙊	-13731
󳙔	-13732
󳙗	-13733
󳙧	-13734
󳙺	-13735
󳙻	-13736
󳚌	-13737
󳚤	-13738
󳚼	-13739
󳛕	-13740
󳛙	-13741
󳜉	-13742
󳜍	-13743
󳜘	-13744
󳜝	-13745
=	-13746
ǒ	-13747
伸	-13748
噢	-13749
增	-13750
妮	-13751
庶	-13752
延	-13753
戒	-13754
扭	-13755
扮	-13756
抵	-13757
拔	-13758
拴	-13759
歧	-13760
毒	-13761
洼	-13762
渠	-13763
渺	-13764
疗	-13765
疡	-13766
瞻	-13767
胖	-13768
荚	-13769
蓖	-13770
蛤	-13771
蝠	-13772
讥	-13773
颊	-13774
󲜲	-13775
󲜹	-13776
󲝑	-13777
󲝔	-13778
󲝘	-13779
󲝩	-13780
󲝴	-13781
󲞆	-13782
󲞕	-13783
󲞚	-13784
󲞠	-13785
󲞮	-13786
󲟖	-13787
󲟥	-13788
󲟪	-13789
󲠗	-13790
󲡃	-13791
󲡜	-13792
󲢶	-13793
󲣅	-13794
󲣓	-13795
󲣦	-13796
󲣪	-13797
󲤂	-13798
󲤑	-13799
󲤠	-13800
󲤥	-13801
󲤧	-13802
󲤹	-13803
󲥄	-13804
󲥈	-13805
󲥛	-13806
󲥝	-13807
󲥮	-13808
󲦀	-13809
󲦆	-13810
󲨖	-13811
󲨟	-13812
󲨸	-13813
󲩇	-13814
󲩘	-13815
󲩯	-13816
󲪄	-13817
󲫅	-13818
󲫍	-13819
󲫕	-13820
󲫩	-13821
󲫹	-13822
󲬳	-13823
󲬿	-13824
󲭙	-13825
󲭡	-13826
󲮄	-13827
󲮭	-13828
󲯯	-13829
󲯱	-13830
󲯲	-13831
󲰅	-13832
󲰖	-13833
󲰫	-13834
󲱎	-13835
󲱒	-13836
󲱙	-13837
󲲩	-13838
󲲽	-13839
󲳚	-13840
󲳨	-13841
󲳷	-13842
󲴔	-13843
󲴢	-13844
󲴣	-13845
󲴦	-13846
󲴺	-13847
󲵄	-13848
󲵋	-13849
󲵭	-13850
󲵱	-13851
󲶈	-13852
󲶖	-13853
󲶪	-13854
󲶼	-13855
󲷏	-13856
󲷡	-13857
󲷬	-13858
󲸂	-13859
󲸌	-13860
󲸥	-13861
󲸧	-13862
󲸿	-13863
󲹑	-13864
󲹿	-13865
󲺃	-13866
󲺗	-13867
󲺣	-13868
󲺴	-13869
󲺶	-13870
󲻍	-13871
󲻓	-13872
󲻬	-13873
󲻮	-13874
󲻸	-13875
󲻽	-13876
󲼻	-13877
󲽉	-13878
󲽊	-13879
󲽙	-13880
󲽭	-13881
󲽮	-13882
󲾨	-13883
󲾳	-13884
󲿢	-13885
󲿦	-13886
󳀁	-13887
󳀍	-13888
󳀛	-13889
󳁈	-13890
󳁑	-13891
󳁔	-13892
󳁢	-13893
󳁤	-13894
󳁮	-13895
󳂒	-13896
󳂭	-13897
󳃍	-13898
󳄀	-13899
󳄐	-13900
󳄙	-13901
󳅂	-13902
󳅊	-13903
󳅌	-13904
󳅝	-13905
󳅞	-13906
󳅡	-13907
󳆈	-13908
󳇏	-13909
󳈁	-13910
󳈑	-13911
󳈙	-13912
󳈠	-13913
󳈷	-13914
󳈽	-13915
󳉬	-13916
󳉮	-13917
󳉽	-13918
󳊀	-13919
󳊏	-13920
󳊞	-13921
󳊷	-13922
󳋍	-13923
󳋓	-13924
󳋛	-13925
󳋰	-13926
󳌣	-13927
󳌬	-13928
󳌽	-13929
󳍞	-13930
󳎈	-13931
󳎉	-13932
󳎍	-13933
󳎳	-13934
󳎻	-13935
󳏈	-13936
󳏎	-13937
󳏟	-13938
󳏷	-13939
󳐖	-13940
󳑲	-13941
󳑶	-13942
󳒄	-13943
󳒎	-13944
󳒐	-13945
󳒸	-13946
󳓀	-13947
󳓍	-13948
󳓐	-13949
󳓿	-13950
󳔍	-13951
󳔔	-13952
󳔛	-13953
󳔶	-13954
󳕒	-13955
󳕢	-13956
󳕧	-13957
󳕲	-13958
󳖐	-13959
󳖓	-13960
󳖝	-13961
󳖦	-13962
󳖭	-13963
󳖴	-13964
󳗕	-13965
󳘓	-13966
󳘞	-13967
󳘪	-13968
󳘯	-13969
󳙨	-13970
󳚢	-13971
󳚨	-13972
󳚮	-13973
󳚷	-13974
󳚺	-13975
󳛄	-13976
󳛅	-13977
󳛇	-13978
󳛌	-13979
󳛜	-13980
󳛞	-13981
󳛣	-13982
󳛤	-13983
󳛩	-13984
󳛳	-13985
󳜐	-13986
󳜕	-13987
《	-13988
》	-13989
嚷	-13990
圃	-13991
媒	-13992
巫	-13993
希	-13994
幻	-13995
律	-13996
撂	-13997
栏	-13998
澡	-13999
炭	-14000
瘫	-14001
胶	-14002
葵	-14003
蔫	-14004
藕	-14005
褶	-14006
豹	-14007
贩	-14008
资	-14009
赐	-14010
蹲	-14011
鄙	-14012
陪	-14013
验	-14014
󲜨	-14015
󲜷	-14016
󲝌	-14017
󲝕	-14018
󲝚	-14019
󲝬	-14020
󲝮	-14021
󲝶	-14022
󲞔	-14023
󲞛	-14024
󲞳	-14025
󲞷	-14026
󲞸	-14027
󲞼	-14028
󲟁	-14029
󲟃	-14030
󲟄	-14031
󲟇	-14032
󲟋	-14033
󲟒	-14034
󲠈	-14035
󲡪	-14036
󲣁	-14037
󲣠	-14038
󲣨	-14039
󲣮	-14040
󲤱	-14041
󲥁	-14042
󲥚	-14043
󲦍	-14044
󲦛	-14045
󲦵	-14046
󲦶	-14047
󲦷	-14048
󲦿	-14049
󲧈	-14050
󲧫	-14051
󲧻	-14052
󲨡	-14053
󲨬	-14054
󲩍	-14055
󲩠	-14056
󲩺	-14057
󲪘	-14058
󲬈	-14059
󲬋	-14060
󲬐	-14061
󲬕	-14062
󲬘	-14063
󲬢	-14064
󲭀	-14065
󲭝	-14066
󲮩	-14067
󲯟	-14068
󲯤	-14069
󲯪	-14070
󲯻	-14071
󲯿	-14072
󲰘	-14073
󲰞	-14074
󲰢	-14075
󲰪	-14076
󲲑	-14077
󲲙	-14078
󲲚	-14079
󲳂	-14080
󲳎	-14081
󲳜	-14082
󲴈	-14083
󲴐	-14084
󲴞	-14085
󲴪	-14086
󲵊	-14087
󲵎	-14088
󲵪	-14089
󲵺	-14090
󲶂	-14091
󲷉	-14092
󲷩	-14093
󲸆	-14094
󲸈	-14095
󲸐	-14096
󲸘	-14097
󲸛	-14098
󲸫	-14099
󲹈	-14100
󲹕	-14101
󲹛	-14102
󲹯	-14103
󲺊	-14104
󲺠	-14105
󲺳	-14106
󲻅	-14107
󲻘	-14108
󲻳	-14109
󲼌	-14110
󲽕	-14111
󲽝	-14112
󲽡	-14113
󲽥	-14114
󲽩	-14115
󲽽	-14116
󲽾	-14117
󲾻	-14118
󲿇	-14119
󲿚	-14120
󲿟	-14121
󲿹	-14122
󳀄	-14123
󳀯	-14124
󳀱	-14125
󳁐	-14126
󳁓	-14127
󳁙	-14128
󳂓	-14129
󳂝	-14130
󳂩	-14131
󳂰	-14132
󳂷	-14133
󳃌	-14134
󳃫	-14135
󳃿	-14136
󳅧	-14137
󳅫	-14138
󳅰	-14139
󳆇	-14140
󳆚	-14141
󳇎	-14142
󳇮	-14143
󳇸	-14144
󳇺	-14145
󳇼	-14146
󳈣	-14147
󳈥	-14148
󳈸	-14149
󳉙	-14150
󳉭	-14151
󳉺	-14152
󳊲	-14153
󳊼	-14154
󳋊	-14155
󳋟	-14156
󳋠	-14157
󳋥	-14158
󳋩	-14159
󳌀	-14160
󳌓	-14161
󳌤	-14162
󳍁	-14163
󳍙	-14164
󳎣	-14165
󳏇	-14166
󳏔	-14167
󳏫	-14168
󳐄	-14169
󳐈	-14170
󳐒	-14171
󳐘	-14172
󳐤	-14173
󳑢	-14174
󳑰	-14175
󳒊	-14176
󳒋	-14177
󳒑	-14178
󳒟	-14179
󳒽	-14180
󳓝	-14181
󳓽	-14182
󳔖	-14183
󳔝	-14184
󳕋	-14185
󳕫	-14186
󳖥	-14187
󳖪	-14188
󳖳	-14189
󳗄	-14190
󳗌	-14191
󳗗	-14192
󳗞	-14193
󳘚	-14194
󳘢	-14195
󳘱	-14196
󳘶	-14197
󳘼	-14198
󳙎	-14199
󳙐	-14200
󳙹	-14201
󳚄	-14202
󳚫	-14203
󳛰	-14204
󳜁	-14205
󳜚	-14206
󳜠	-14207
󳜤	-14208
咸	-14209
圪	-14210
塔	-14211
屏	-14212
崴	-14213
巽	-14214
波	-14215
洪	-14216
瞅	-14217
祛	-14218
窃	-14219
翅	-14220
翠	-14221
联	-14222
胳	-14223
觅	-14224
讳	-14225
阱	-14226
雇	-14227
鼾	-14228
󲉖	-14229
󲝜	-14230
󲝣	-14231
󲝤	-14232
󲝵	-14233
󲞤	-14234
󲞩	-14235
󲞬	-14236
󲞱	-14237
󲞽	-14238
󲟧	-14239
󲟫	-14240
󲠡	-14241
󲠭	-14242
󲠻	-14243
󲡍	-14244
󲢴	-14245
󲣫	-14246
󲤍	-14247
󲤣	-14248
󲥟	-14249
󲥽	-14250
󲦒	-14251
󲧕	-14252
󲧦	-14253
󲨏	-14254
󲨦	-14255
󲨴	-14256
󲨺	-14257
󲩁	-14258
󲩕	-14259
󲩥	-14260
󲩽	-14261
󲪡	-14262
󲪽	-14263
󲫌	-14264
󲫑	-14265
󲬁	-14266
󲭪	-14267
󲮊	-14268
󲮒	-14269
󲮖	-14270
󲮠	-14271
󲮥	-14272
󲯏	-14273
󲰜	-14274
󲰩	-14275
󲱮	-14276
󲲞	-14277
󲲤	-14278
󲲥	-14279
󲲦	-14280
󲲫	-14281
󲲶	-14282
󲳃	-14283
󲳙	-14284
󲳢	-14285
󲳴	-14286
󲴑	-14287
󲴛	-14288
󲴸	-14289
󲴾	-14290
󲵒	-14291
󲵰	-14292
󲶐	-14293
󲶥	-14294
󲶺	-14295
󲷒	-14296
󲷠	-14297
󲷥	-14298
󲸄	-14299
󲸊	-14300
󲸝	-14301
󲸩	-14302
󲸪	-14303
󲸯	-14304
󲸹	-14305
󲹜	-14306
󲹥	-14307
󲻐	-14308
󲼓	-14309
󲼔	-14310
󲼟	-14311
󲼫	-14312
󲼹	-14313
󲼼	-14314
󲽇	-14315
󲽣	-14316
󲽤	-14317
󲾅	-14318
󲿄	-14319
󲿌	-14320
󲿭	-14321
󲿵	-14322
󳁭	-14323
󳁹	-14324
󳃊	-14325
󳃑	-14326
󳃡	-14327
󳃨	-14328
󳃯	-14329
󳄊	-14330
󳄠	-14331
󳅀	-14332
󳅕	-14333
󳅘	-14334
󳅠	-14335
󳅳	-14336
󳆹	-14337
󳇋	-14338
󳈂	-14339
󳈃	-14340
󳈵	-14341
󳉐	-14342
󳉖	-14343
󳉛	-14344
󳊥	-14345
󳊰	-14346
󳊶	-14347
󳋯	-14348
󳋴	-14349
󳋸	-14350
󳌈	-14351
󳌉	-14352
󳌎	-14353
󳌗	-14354
󳌘	-14355
󳌢	-14356
󳌧	-14357
󳍛	-14358
󳍢	-14359
󳎚	-14360
󳎡	-14361
󳎧	-14362
󳏝	-14363
󳏢	-14364
󳏤	-14365
󳏰	-14366
󳐊	-14367
󳐎	-14368
󳑕	-14369
󳑠	-14370
󳑽	-14371
󳒁	-14372
󳒗	-14373
󳒧	-14374
󳒺	-14375
󳒿	-14376
󳓫	-14377
󳓸	-14378
󳔁	-14379
󳔤	-14380
󳕇	-14381
󳕔	-14382
󳕝	-14383
󳕩	-14384
󳕱	-14385
󳖃	-14386
󳖖	-14387
󳗓	-14388
󳗩	-14389
󳗭	-14390
󳘕	-14391
󳘘	-14392
󳘠	-14393
󳘷	-14394
󳙀	-14395
󳙆	-14396
󳙍	-14397
󳙷	-14398
󳚍	-14399
󳚐	-14400
󳚓	-14401
󳚞	-14402
󳚳	-14403
󳛭	-14404
󳛴	-14405
󳜆	-14406
󳜇	-14407
󳜈	-14408
]	-14409
ó	-14410
共	-14411
勃	-14412
匀	-14413
呓	-14414
奇	-14415
奖	-14416
嫌	-14417
宅	-14418
惨	-14419
扁	-14420
扑	-14421
攒	-14422
梗	-14423
津	-14424
獭	-14425
盯	-14426
碾	-14427
罪	-14428
胛	-14429
脆	-14430
艳	-14431
蓟	-14432
豌	-14433
趟	-14434
顾	-14435
ꍔ	-14436
󲜑	-14437
󲜒	-14438
󲜟	-14439
󲜬	-14440
󲜼	-14441
󲝆	-14442
󲝦	-14443
󲝰	-14444
󲞑	-14445
󲞴	-14446
󲞹	-14447
󲟎	-14448
󲡑	-14449
󲡔	-14450
󲡵	-14451
󲡹	-14452
󲡻	-14453
󲢤	-14454
󲢫	-14455
󲢬	-14456
󲣈	-14457
󲣢	-14458
󲣤	-14459
󲤈	-14460
󲤴	-14461
󲥹	-14462
󲦞	-14463
󲦥	-14464
󲦺	-14465
󲧅	-14466
󲧇	-14467
󲧓	-14468
󲨁	-14469
󲨉	-14470
󲨽	-14471
󲩓	-14472
󲪏	-14473
󲫃	-14474
󲬂	-14475
󲬸	-14476
󲭒	-14477
󲭓	-14478
󲭟	-14479
󲭧	-14480
󲭵	-14481
󲮏	-14482
󲮮	-14483
󲮳	-14484
󲯇	-14485
󲯋	-14486
󲯓	-14487
󲯔	-14488
󲯝	-14489
󲰦	-14490
󲰧	-14491
󲰬	-14492
󲰶	-14493
󲱅	-14494
󲱖	-14495
󲱟	-14496
󲱭	-14497
󲱹	-14498
󲱼	-14499
󲲁	-14500
󲲓	-14501
󲳩	-14502
󲳶	-14503
󲳺	-14504
󲴀	-14505
󲴱	-14506
󲵝	-14507
󲵩	-14508
󲵯	-14509
󲵹	-14510
󲵼	-14511
󲵿	-14512
󲶃	-14513
󲶦	-14514
󲶹	-14515
󲷌	-14516
󲷓	-14517
󲷟	-14518
󲷺	-14519
󲸖	-14520
󲸰	-14521
󲸸	-14522
󲹇	-14523
󲹬	-14524
󲺁	-14525
󲺑	-14526
󲺟	-14527
󲺥	-14528
󲺼	-14529
󲻄	-14530
󲻑	-14531
󲻹	-14532
󲼅	-14533
󲼆	-14534
󲼤	-14535
󲽋	-14536
󲽘	-14537
󲽧	-14538
󲾯	-14539
󲿷	-14540
󳀃	-14541
󳀧	-14542
󳁊	-14543
󳁣	-14544
󳁬	-14545
󳁱	-14546
󳁲	-14547
󳂠	-14548
󳂹	-14549
󳃀	-14550
󳃟	-14551
󳃣	-14552
󳄎	-14553
󳄕	-14554
󳄬	-14555
󳄽	-14556
󳅃	-14557
󳅇	-14558
󳅔	-14559
󳅗	-14560
󳅢	-14561
󳅯	-14562
󳆐	-14563
󳆑	-14564
󳆣	-14565
󳆫	-14566
󳇅	-14567
󳇟	-14568
󳇪	-14569
󳇲	-14570
󳇵	-14571
󳈟	-14572
󳈺	-14573
󳉋	-14574
󳉨	-14575
󳉵	-14576
󳉹	-14577
󳊯	-14578
󳊴	-14579
󳍅	-14580
󳍕	-14581
󳍨	-14582
󳎴	-14583
󳏜	-14584
󳏩	-14585
󳏮	-14586
󳏯	-14587
󳐢	-14588
󳐵	-14589
󳑅	-14590
󳑨	-14591
󳒥	-14592
󳓉	-14593
󳓋	-14594
󳓶	-14595
󳔙	-14596
󳔻	-14597
󳔽	-14598
󳕅	-14599
󳕐	-14600
󳕛	-14601
󳕳	-14602
󳕽	-14603
󳖛	-14604
󳖬	-14605
󳖷	-14606
󳖽	-14607
󳗣	-14608
󳗤	-14609
󳗯	-14610
󳗴	-14611
󳘛	-14612
󳘤	-14613
󳘳	-14614
󳚝	-14615
󳚪	-14616
󳛷	-14617
󳜀	-14618
󳜂	-14619
/	-14620
ō	-14621
—	-14622
刷	-14623
嘭	-14624
垦	-14625
塑	-14626
尺	-14627
弛	-14628
扶	-14629
沿	-14630
淹	-14631
痪	-14632
策	-14633
篦	-14634
终	-14635
绩	-14636
缨	-14637
舀	-14638
苤	-14639
蛰	-14640
蜡	-14641
衡	-14642
褊	-14643
诏	-14644
赫	-14645
蹄	-14646
镐	-14647
镯	-14648
限	-14649
ꃅ	-14650
ꄻ	-14651
ꅐ	-14652
ꏮ	-14653
ꑿ	-14654
󲜠	-14655
󲜽	-14656
󲝨	-14657
󲝪	-14658
󲞇	-14659
󲞏	-14660
󲟏	-14661
󲟔	-14662
󲟴	-14663
󲟶	-14664
󲠆	-14665
󲠘	-14666
󲠜	-14667
󲠦	-14668
󲠸	-14669
󲡀	-14670
󲢌	-14671
󲢎	-14672
󲢐	-14673
󲢨	-14674
󲣇	-14675
󲣸	-14676
󲤊	-14677
󲥞	-14678
󲥤	-14679
󲦩	-14680
󲦼	-14681
󲧉	-14682
󲧐	-14683
󲧒	-14684
󲧙	-14685
󲧥	-14686
󲧴	-14687
󲨢	-14688
󲨹	-14689
󲩬	-14690
󲪝	-14691
󲪶	-14692
󲪼	-14693
󲫘	-14694
󲫬	-14695
󲬌	-14696
󲭜	-14697
󲮪	-14698
󲯎	-14699
󲯙	-14700
󲰔	-14701
󲰣	-14702
󲱊	-14703
󲱌	-14704
󲱽	-14705
󲲌	-14706
󲲒	-14707
󲲕	-14708
󲲡	-14709
󲲼	-14710
󲳌	-14711
󲳓	-14712
󲳟	-14713
󲵗	-14714
󲵤	-14715
󲵮	-14716
󲵷	-14717
󲶝	-14718
󲶟	-14719
󲶱	-14720
󲷑	-14721
󲸣	-14722
󲹐	-14723
󲺭	-14724
󲺲	-14725
󲻦	-14726
󲻵	-14727
󲻾	-14728
󲾄	-14729
󲾟	-14730
󲾪	-14731
󲾾	-14732
󲿠	-14733
󳀗	-14734
󳀥	-14735
󳀮	-14736
󳀲	-14737
󳀵	-14738
󳀾	-14739
󳁦	-14740
󳁨	-14741
󳂎	-14742
󳂙	-14743
󳂧	-14744
󳂯	-14745
󳃄	-14746
󳃅	-14747
󳃆	-14748
󳃖	-14749
󳃛	-14750
󳃤	-14751
󳃬	-14752
󳃷	-14753
󳄖	-14754
󳅤	-14755
󳆆	-14756
󳆴	-14757
󳇇	-14758
󳇒	-14759
󳇘	-14760
󳈓	-14761
󳈯	-14762
󳈳	-14763
󳈶	-14764
󳉅	-14765
󳉦	-14766
󳉪	-14767
󳉯	-14768
󳉱	-14769
󳉷	-14770
󳉾	-14771
󳊅	-14772
󳊵	-14773
󳋵	-14774
󳌼	-14775
󳍍	-14776
󳍎	-14777
󳍜	-14778
󳍫	-14779
󳍶	-14780
󳎘	-14781
󳎠	-14782
󳎶	-14783
󳏘	-14784
󳐏	-14785
󳐙	-14786
󳑄	-14787
󳑇	-14788
󳑫	-14789
󳑷	-14790
󳓎	-14791
󳓏	-14792
󳓑	-14793
󳓩	-14794
󳓰	-14795
󳔘	-14796
󳔳	-14797
󳔸	-14798
󳔾	-14799
󳕑	-14800
󳕨	-14801
󳕪	-14802
󳕶	-14803
󳖗	-14804
󳗖	-14805
󳗮	-14806
󳗱	-14807
󳗲	-14808
󳘒	-14809
󳘖	-14810
󳘥	-14811
󳙏	-14812
󳚹	-14813
󳛃	-14814
󳛍	-14815
󳛗	-14816
󳛚	-14817
󳜟	-14818
ū	-14819
丁	-14820
室	-14821
岔	-14822
弈	-14823
括	-14824
撑	-14825
柞	-14826
櫱	-14827
獐	-14828
科	-14829
簾	-14830
脯	-14831
茄	-14832
迂	-14833
铁	-14834
ꃀ	-14835
󲜘	-14836
󲜭	-14837
󲝋	-14838
󲝯	-14839
󲝲	-14840
󲞌	-14841
󲞙	-14842
󲞾	-14843
󲟆	-14844
󲟑	-14845
󲟤	-14846
󲟷	-14847
󲠋	-14848
󲡓	-14849
󲡷	-14850
󲢹	-14851
󲣳	-14852
󲤆	-14853
󲥲	-14854
󲥺	-14855
󲦤	-14856
󲧰	-14857
󲧷	-14858
󲧼	-14859
󲨇	-14860
󲩴	-14861
󲪍	-14862
󲪢	-14863
󲪱	-14864
󲫔	-14865
󲫟	-14866
󲬶	-14867
󲭌	-14868
󲭾	-14869
󲮃	-14870
󲮟	-14871
󲮶	-14872
󲯞	-14873
󲯢	-14874
󲯫	-14875
󲲆	-14876
󲲎	-14877
󲳞	-14878
󲳪	-14879
󲴚	-14880
󲴭	-14881
󲵂	-14882
󲵇	-14883
󲶜	-14884
󲶫	-14885
󲶬	-14886
󲶴	-14887
󲷇	-14888
󲷞	-14889
󲷷	-14890
󲹔	-14891
󲹧	-14892
󲻀	-14893
󲻏	-14894
󲼐	-14895
󲼱	-14896
󲽠	-14897
󲽵	-14898
󲾋	-14899
󲾐	-14900
󲾣	-14901
󲾼	-14902
󲿁	-14903
󲿽	-14904
󳀡	-14905
󳀩	-14906
󳀰	-14907
󳁗	-14908
󳂂	-14909
󳂅	-14910
󳂑	-14911
󳂚	-14912
󳂮	-14913
󳂿	-14914
󳃾	-14915
󳄛	-14916
󳄺	-14917
󳅐	-14918
󳅭	-14919
󳅮	-14920
󳅷	-14921
󳆅	-14922
󳆌	-14923
󳆺	-14924
󳆻	-14925
󳆾	-14926
󳇕	-14927
󳇤	-14928
󳈌	-14929
󳉂	-14930
󳉏	-14931
󳊇	-14932
󳊑	-14933
󳊭	-14934
󳊾	-14935
󳌌	-14936
󳌑	-14937
󳌛	-14938
󳌻	-14939
󳍂	-14940
󳍉	-14941
󳍗	-14942
󳎁	-14943
󳎎	-14944
󳎟	-14945
󳎤	-14946
󳎯	-14947
󳏅	-14948
󳏑	-14949
󳐳	-14950
󳑀	-14951
󳑖	-14952
󳑱	-14953
󳑾	-14954
󳒃	-14955
󳒢	-14956
󳓞	-14957
󳓠	-14958
󳓲	-14959
󳔚	-14960
󳔪	-14961
󳕄	-14962
󳖑	-14963
󳘆	-14964
󳘌	-14965
󳘹	-14966
󳘻	-14967
󳚋	-14968
󳚠	-14969
󳚵	-14970
󳚽	-14971
佛	-14972
凳	-14973
剐	-14974
嗽	-14975
妣	-14976
峭	-14977
患	-14978
悴	-14979
戈	-14980
搛	-14981
擞	-14982
敷	-14983
晋	-14984
束	-14985
栘	-14986
浏	-14987
溃	-14988
眨	-14989
硌	-14990
纬	-14991
绑	-14992
肃	-14993
荑	-14994
蜀	-14995
诵	-14996
购	-14997
镫	-14998
ꂘ	-14999
ꂴ	-15000
ꉘ	-15001
ꋪ	-15002
ꑠ	-15003
󲜡	-15004
󲜱	-15005
󲜶	-15006
󲝀	-15007
󲝞	-15008
󲝹	-15009
󲝼	-15010
󲝽	-15011
󲞄	-15012
󲞖	-15013
󲞲	-15014
󲞵	-15015
󲟉	-15016
󲟌	-15017
󲟍	-15018
󲠎	-15019
󲡗	-15020
󲡰	-15021
󲢃	-15022
󲢄	-15023
󲢔	-15024
󲣗	-15025
󲣚	-15026
󲤏	-15027
󲥂	-15028
󲥠	-15029
󲦦	-15030
󲧋	-15031
󲧜	-15032
󲨋	-15033
󲩋	-15034
󲩝	-15035
󲩢	-15036
󲪊	-15037
󲪳	-15038
󲫓	-15039
󲬊	-15040
󲬮	-15041
󲭘	-15042
󲭥	-15043
󲭹	-15044
󲮐	-15045
󲮝	-15046
󲯥	-15047
󲰭	-15048
󲱓	-15049
󲳖	-15050
󲳳	-15051
󲴽	-15052
󲵔	-15053
󲵘	-15054
󲵨	-15055
󲵸	-15056
󲶛	-15057
󲶽	-15058
󲷁	-15059
󲷃	-15060
󲸅	-15061
󲸒	-15062
󲹉	-15063
󲹎	-15064
󲹽	-15065
󲻫	-15066
󲻱	-15067
󲼖	-15068
󲼧	-15069
󲼽	-15070
󲽅	-15071
󲾬	-15072
󲿆	-15073
󳀒	-15074
󳀖	-15075
󳁳	-15076
󳂺	-15077
󳃲	-15078
󳃽	-15079
󳄓	-15080
󳄿	-15081
󳆝	-15082
󳇔	-15083
󳇦	-15084
󳉫	-15085
󳊢	-15086
󳊣	-15087
󳊫	-15088
󳋇	-15089
󳌊	-15090
󳌜	-15091
󳌟	-15092
󳍊	-15093
󳍦	-15094
󳍩	-15095
󳐔	-15096
󳐜	-15097
󳐝	-15098
󳒞	-15099
󳒭	-15100
󳒵	-15101
󳓓	-15102
󳓡	-15103
󳓤	-15104
󳓮	-15105
󳓵	-15106
󳔇	-15107
󳔏	-15108
󳕍	-15109
󳖟	-15110
󳘉	-15111
󳘴	-15112
󳙩	-15113
󳙾	-15114
󳚁	-15115
󳚅	-15116
󳚾	-15117
󳛠	-15118
󳛧	-15119
󳛫	-15120
󳜣	-15121
󳜧	-15122
B	-15123
ǎ	-15124
刊	-15125
咚	-15126
嗅	-15127
奋	-15128
奠	-15129
届	-15130
幕	-15131
忧	-15132
拦	-15133
揖	-15134
毯	-15135
痘	-15136
盒	-15137
祟	-15138
祥	-15139
筹	-15140
肛	-15141
芤	-15142
苕	-15143
裁	-15144
褛	-15145
褥	-15146
诓	-15147
骚	-15148
麸	-15149
󐁥	-15150
󲜛	-15151
󲝅	-15152
󲝏	-15153
󲝓	-15154
󲝳	-15155
󲝻	-15156
󲝿	-15157
󲞂	-15158
󲞅	-15159
󲞓	-15160
󲟈	-15161
󲟺	-15162
󲠠	-15163
󲡧	-15164
󲣰	-15165
󲤘	-15166
󲥢	-15167
󲦇	-15168
󲧔	-15169
󲧹	-15170
󲨑	-15171
󲩌	-15172
󲩛	-15173
󲩾	-15174
󲪩	-15175
󲪮	-15176
󲫁	-15177
󲫆	-15178
󲫐	-15179
󲫚	-15180
󲬏	-15181
󲭅	-15182
󲭼	-15183
󲭽	-15184
󲯌	-15185
󲯒	-15186
󲰨	-15187
󲰴	-15188
󲰽	-15189
󲱉	-15190
󲱏	-15191
󲱘	-15192
󲱞	-15193
󲳊	-15194
󲳍	-15195
󲳧	-15196
󲳼	-15197
󲴳	-15198
󲵌	-15199
󲵙	-15200
󲵡	-15201
󲷄	-15202
󲷋	-15203
󲷛	-15204
󲷹	-15205
󲸍	-15206
󲸼	-15207
󲹆	-15208
󲹗	-15209
󲹺	-15210
󲻈	-15211
󲻗	-15212
󲻜	-15213
󲼍	-15214
󲼏	-15215
󲽚	-15216
󲾂	-15217
󲾃	-15218
󲾱	-15219
󲿤	-15220
󲿶	-15221
󳀭	-15222
󳁏	-15223
󳁟	-15224
󳁸	-15225
󳂋	-15226
󳃁	-15227
󳃈	-15228
󳃗	-15229
󳃦	-15230
󳄭	-15231
󳄳	-15232
󳅻	-15233
󳈐	-15234
󳈩	-15235
󳉃	-15236
󳉢	-15237
󳉻	-15238
󳊆	-15239
󳊐	-15240
󳊱	-15241
󳋃	-15242
󳋑	-15243
󳋻	-15244
󳌔	-15245
󳌕	-15246
󳌩	-15247
󳍭	-15248
󳎞	-15249
󳎱	-15250
󳎹	-15251
󳏌	-15252
󳏖	-15253
󳏸	-15254
󳐌	-15255
󳐗	-15256
󳐽	-15257
󳒂	-15258
󳒚	-15259
󳒠	-15260
󳒶	-15261
󳓄	-15262
󳓗	-15263
󳔎	-15264
󳔞	-15265
󳖄	-15266
󳖚	-15267
󳗅	-15268
󳗰	-15269
󳗺	-15270
󳗽	-15271
󳘀	-15272
󳘂	-15273
󳘗	-15274
󳘜	-15275
󳘦	-15276
󳙅	-15277
󳙕	-15278
󳙞	-15279
󳚂	-15280
󳛁	-15281
󳜄	-15282
󳜋	-15283
哀	-15284
嗫	-15285
媚	-15286
宣	-15287
尼	-15288
峻	-15289
庚	-15290
忽	-15291
戌	-15292
挽	-15293
搓	-15294
橙	-15295
氧	-15296
瘿	-15297
稗	-15298
纺	-15299
般	-15300
萌	-15301
蔗	-15302
誊	-15303
诅	-15304
谚	-15305
钳	-15306
󲜚	-15307
󲜦	-15308
󲜧	-15309
󲜮	-15310
󲝁	-15311
󲝠	-15312
󲝾	-15313
󲞘	-15314
󲞪	-15315
󲟂	-15316
󲟰	-15317
󲠑	-15318
󲠰	-15319
󲢉	-15320
󲢝	-15321
󲢞	-15322
󲣹	-15323
󲥿	-15324
󲦧	-15325
󲦲	-15326
󲧲	-15327
󲧵	-15328
󲧾	-15329
󲨭	-15330
󲩀	-15331
󲩮	-15332
󲪦	-15333
󲫀	-15334
󲭎	-15335
󲭗	-15336
󲮁	-15337
󲮔	-15338
󲯡	-15339
󲯣	-15340
󲰲	-15341
󲱚	-15342
󲲔	-15343
󲳇	-15344
󲵳	-15345
󲶊	-15346
󲶘	-15347
󲶣	-15348
󲶩	-15349
󲷖	-15350
󲸵	-15351
󲹶	-15352
󲺓	-15353
󲺽	-15354
󲼵	-15355
󲾆	-15356
󲾇	-15357
󲾉	-15358
󲿒	-15359
󲿺	-15360
󳀂	-15361
󳀊	-15362
󳀋	-15363
󳀝	-15364
󳀞	-15365
󳁃	-15366
󳂦	-15367
󳂸	-15368
󳆯	-15369
󳇥	-15370
󳉼	-15371
󳊕	-15372
󳋆	-15373
󳍀	-15374
󳍲	-15375
󳎀	-15376
󳎆	-15377
󳎕	-15378
󳎖	-15379
󳏣	-15380
󳏥	-15381
󳏻	-15382
󳑃	-15383
󳑳	-15384
󳒍	-15385
󳒔	-15386
󳒪	-15387
󳒰	-15388
󳓹	-15389
󳖵	-15390
󳗔	-15391
󳗡	-15392
󳙫	-15393
󳙶	-15394
󳚲	-15395
󳛪	-15396
󳜒	-15397
󳜡	-15398
󳜥	-15399
乙	-15400
京	-15401
姆	-15402
宽	-15403
峰	-15404
忘	-15405
愤	-15406
抡	-15407
挜	-15408
搔	-15409
斤	-15410
沧	-15411
泽	-15412
济	-15413
渥	-15414
熄	-15415
登	-15416
皴	-15417
缆	-15418
膊	-15419
至	-15420
舟	-15421
蛾	-15422
袖	-15423
躲	-15424
酥	-15425
雅	-15426
颅	-15427
鹅	-15428
󲜤	-15429
󲝖	-15430
󲞝	-15431
󲞿	-15432
󲡁	-15433
󲢏	-15434
󲤼	-15435
󲥖	-15436
󲦃	-15437
󲦅	-15438
󲦊	-15439
󲧬	-15440
󲧶	-15441
󲨂	-15442
󲨅	-15443
󲨷	-15444
󲪟	-15445
󲫠	-15446
󲮵	-15447
󲯗	-15448
󲯼	-15449
󲰚	-15450
󲱆	-15451
󲱴	-15452
󲲢	-15453
󲲿	-15454
󲳑	-15455
󲳿	-15456
󲵍	-15457
󲵧	-15458
󲶸	-15459
󲷤	-15460
󲸬	-15461
󲸶	-15462
󲺞	-15463
󲺢	-15464
󲼲	-15465
󲿯	-15466
󳀌	-15467
󳁍	-15468
󳁧	-15469
󳁿	-15470
󳂉	-15471
󳂱	-15472
󳃪	-15473
󳃭	-15474
󳄝	-15475
󳅸	-15476
󳆓	-15477
󳈒	-15478
󳈗	-15479
󳉈	-15480
󳉉	-15481
󳋗	-15482
󳋨	-15483
󳌠	-15484
󳍡	-15485
󳎪	-15486
󳏧	-15487
󳑁	-15488
󳑒	-15489
󳒷	-15490
󳓺	-15491
󳕆	-15492
󳕘	-15493
󳕤	-15494
󳖺	-15495
󳗥	-15496
󳘑	-15497
󳘽	-15498
󳙉	-15499
󳙛	-15500
󳙸	-15501
󳚸	-15502
󳚿	-15503
󳛢	-15504
󳜓	-15505
󳜦	-15506
á	-15507
厨	-15508
哥	-15509
壬	-15510
峨	-15511
庭	-15512
执	-15513
抓	-15514
旱	-15515
檬	-15516
沃	-15517
淬	-15518
渍	-15519
猴	-15520
筛	-15521
膻	-15522
裱	-15523
课	-15524
阉	-15525
黝	-15526
󲜖	-15527
󲜝	-15528
󲜾	-15529
󲝡	-15530
󲞨	-15531
󲟊	-15532
󲠓	-15533
󲢍	-15534
󲢒	-15535
󲢳	-15536
󲤬	-15537
󲥗	-15538
󲥵	-15539
󲩙	-15540
󲩟	-15541
󲪥	-15542
󲪯	-15543
󲫥	-15544
󲫻	-15545
󲬷	-15546
󲬺	-15547
󲭭	-15548
󲭶	-15549
󲰐	-15550
󲰓	-15551
󲰸	-15552
󲱀	-15553
󲱔	-15554
󲱱	-15555
󲳅	-15556
󲵀	-15557
󲵦	-15558
󲶤	-15559
󲷝	-15560
󲸽	-15561
󲹻	-15562
󲻚	-15563
󲼝	-15564
󲼳	-15565
󲽳	-15566
󲿪	-15567
󲿾	-15568
󳀑	-15569
󳁰	-15570
󳂴	-15571
󳃙	-15572
󳃜	-15573
󳆋	-15574
󳇛	-15575
󳈈	-15576
󳉗	-15577
󳊄	-15578
󳋉	-15579
󳋤	-15580
󳍖	-15581
󳍳	-15582
󳎋	-15583
󳒡	-15584
󳓔	-15585
󳕻	-15586
󳗀	-15587
󳗜	-15588
󳙭	-15589
󳛆	-15590
乞	-15591
兰	-15592
姨	-15593
宰	-15594
柚	-15595
桨	-15596
椆	-15597
沼	-15598
涅	-15599
煞	-15600
猿	-15601
疥	-15602
眯	-15603
筷	-15604
肘	-15605
膘	-15606
芯	-15607
蔺	-15608
褓	-15609
锯	-15610
髻	-15611
󲝢	-15612
󲞡	-15613
󲞧	-15614
󲡄	-15615
󲣡	-15616
󲥜	-15617
󲥱	-15618
󲥳	-15619
󲦏	-15620
󲦹	-15621
󲨩	-15622
󲫖	-15623
󲬱	-15624
󲬹	-15625
󲭳	-15626
󲮕	-15627
󲯰	-15628
󲰿	-15629
󲴲	-15630
󲻢	-15631
󲼾	-15632
󲾕	-15633
󲾜	-15634
󳀆	-15635
󳁶	-15636
󳆧	-15637
󳈡	-15638
󳉣	-15639
󳋎	-15640
󳋏	-15641
󳌝	-15642
󳍯	-15643
󳏦	-15644
󳐠	-15645
󳒛	-15646
󳒾	-15647
󳓒	-15648
󳖂	-15649
󳖨	-15650
󳗢	-15651
󳘎	-15652
󳘰	-15653
󳙘	-15654
󳙱	-15655
󳛟	-15656
󳛨	-15657
󳛾	-15658
󳜑	-15659
󳜙	-15660
í	-15661
右	-15662
嗉	-15663
噗	-15664
央	-15665
尝	-15666
幺	-15667
愚	-15668
搾	-15669
楔	-15670
氏	-15671
涉	-15672
滗	-15673
眩	-15674
筐	-15675
耿	-15676
致	-15677
褙	-15678
隆	-15679
󲜔	-15680
󲜜	-15681
󲜢	-15682
󲞍	-15683
󲞢	-15684
󲞺	-15685
󲣄	-15686
󲣷	-15687
󲦉	-15688
󲦐	-15689
󲦬	-15690
󲭐	-15691
󲰍	-15692
󲰝	-15693
󲱋	-15694
󲵏	-15695
󲵜	-15696
󲶇	-15697
󲼚	-15698
󲿐	-15699
󲿡	-15700
󳄇	-15701
󳅓	-15702
󳇬	-15703
󳈀	-15704
󳈎	-15705
󳉠	-15706
󳋶	-15707
󳐑	-15708
󳗍	-15709
󳚑	-15710
󳛐	-15711
󳛝	-15712
󳛦	-15713
󳛹	-15714
󳜛	-15715
乔	-15716
伺	-15717
卓	-15718
卯	-15719
嗝	-15720
噎	-15721
士	-15722
宠	-15723
崩	-15724
幢	-15725
憔	-15726
才	-15727
挼	-15728
泉	-15729
淡	-15730
煨	-15731
狂	-15732
肢	-15733
褪	-15734
队	-15735
馒	-15736
󲢽	-15737
󲤺	-15738
󲥍	-15739
󲦚	-15740
󲩃	-15741
󲩚	-15742
󲬭	-15743
󲬰	-15744
󲰕	-15745
󲶶	-15746
󲼬	-15747
󲾠	-15748
󲿨	-15749
󳀬	-15750
󳁛	-15751
󳃂	-15752
󳄪	-15753
󳄵	-15754
󳅆	-15755
󳅬	-15756
󳉊	-15757
󳊻	-15758
󳎌	-15759
󳏱	-15760
󳐩	-15761
󳘔	-15762
󳘬	-15763
ǐ	-15764
‘	-15765
乏	-15766
促	-15767
僻	-15768
兑	-15769
剜	-15770
叉	-15771
嘣	-15772
弘	-15773
拧	-15774
挥	-15775
摞	-15776
森	-15777
滥	-15778
潲	-15779
疔	-15780
瘊	-15781
癣	-15782
眠	-15783
瞀	-15784
绾	-15785
罅	-15786
谎	-15787
辔	-15788
酉	-15789
镜	-15790
颜	-15791
鸯	-15792
鹞	-15793
ꏬ	-15794
󲞜	-15795
󲡒	-15796
󲦂	-15797
󲧳	-15798
󲮨	-15799
󲱶	-15800
󲻋	-15801
󲾈	-15802
󳅿	-15803
󳆞	-15804
󳇹	-15805
󳊮	-15806
󳏁	-15807
󳑡	-15808
󳓌	-15809
󳓢	-15810
󳙂	-15811
󳙖	-15812
󳙵	-15813
󳚧	-15814
󳚯	-15815
F	-15816
例	-15817
偶	-15818
僰	-15819
呵	-15820
唐	-15821
址	-15822
巳	-15823
抟	-15824
昧	-15825
梢	-15826
歹	-15827
睦	-15828
碱	-15829
秤	-15830
纷	-15831
缸	-15832
耀	-15833
腥	-15834
苣	-15835
褴	-15836
覆	-15837
賨	-15838
镇	-15839
闺	-15840
󲝛	-15841
󲞞	-15842
󲥯	-15843
󲦓	-15844
󳃏	-15845
󳋘	-15846
似	-15847
侣	-15848
幸	-15849
战	-15850
摄	-15851
标	-15852
框	-15853
檩	-15854
澜	-15855
犀	-15856
祸	-15857
篮	-15858
臂	-15859
萨	-15860
贷	-15861
辰	-15862
颠	-15863
骈	-15864
ꄆ	-15865
󲥣	-15866
󲩿	-15867
󲮹	-15868
󲮿	-15869
󳓜	-15870
仙	-15871
劣	-15872
座	-15873
庹	-15874
慰	-15875
擤	-15876
棱	-15877
牌	-15878
础	-15879
禅	-15880
秒	-15881
腊	-15882
苋	-15883
范	-15884
茬	-15885
薅	-15886
衰	-15887
辆	-15888
霜	-15889
靖	-15890
鸳	-15891
鹇	-15892
󲡨	-15893
󲨕	-15894
󲪺	-15895
󲳡	-15896
󳆰	-15897
Z	-15898
亦	-15899
坚	-15900
沌	-15901
瞬	-15902
竟	-15903
罔	-15904
膨	-15905
芹	-15906
莴	-15907
菩	-15908
著	-15909
虻	-15910
键	-15911
隶	-15912
ꋍ	-15913
󲪸	-15914
󲴨	-15915
丙	-15916
亥	-15917
厩	-15918
姻	-15919
庸	-15920
循	-15921
戟	-15922
晶	-15923
溯	-15924
疯	-15925
缅	-15926
蒿	-15927
讶	-15928
󲟗	-15929
󳁵	-15930
󳆒	-15931
X	-15932
乓	-15933
域	-15934
存	-15935
振	-15936
棋	-15937
楣	-15938
激	-15939
焚	-15940
癸	-15941
督	-15942
碳	-15943
耢	-15944
芸	-15945
苏	-15946
ꌺ	-15947
ꑌ	-15948
ꒉ	-15949
󲊭	-15950
󲪞	-15951
󳆁	-15952
󳕜	-15953
乡	-15954
冤	-15955
壅	-15956
托	-15957
杠	-15958
氢	-15959
沄	-15960
涌	-15961
瀑	-15962
烁	-15963
焉	-15964
竿	-15965
籍	-15966
贝	-15967
趁	-15968
遵	-15969
饺	-15970
ꁦ	-15971
ꂷ	-15972
󲊱	-15973
󲊴	-15974
󲐀	-15975
→	-15976
伦	-15977
充	-15978
函	-15979
卸	-15980
坦	-15981
坨	-15982
恒	-15983
既	-15984
栋	-15985
皆	-15986
秘	-15987
维	-15988
诡	-15989
谓	-15990
迭	-15991
ꑋ	-15992
ꑴ	-15993
󲊮	-15994
K	-15995
